<pad>	0
<s>	0
</s>	0
<unk>	0
்	-3.60117
ில்	-3.97232
ை	-4.37725
ும்	-4.46139
ு	-4.59332
ம்	-4.68404
ுக்கு	-4.89374
க்கு	-4.95872
ின்	-4.96503
யில்	-5.01728
ல்	-5.12807
து	-5.35908
ே	-5.37615
ா	-5.43257
▁	-5.44299
க்	-5.60248
கள்	-5.65363
ப்	-5.65928
ால்	-5.67311
ுடன்	-5.71717
யை	-5.74149
ாக	-5.77437
▁அரசு	-5.80067
ிய	-5.97921
▁மீது	-5.98682
▁இன்று	-6.01847
▁பேர்	-6.03281
ய	-6.04811
▁கைது	-6.04984
ன்	-6.0739
யின்	-6.10092
த்	-6.10149
▁தமிழக	-6.1085
க	-6.13522
ார்	-6.13542
த்தில்	-6.13574
▁இந்திய	-6.13978
த்த	-6.20407
ி	-6.20934
▁மோடி	-6.22801
ர்	-6.24556
▁2	-6.24697
▁ரூ	-6.24718
ான	-6.25873
▁மத்திய	-6.26091
▁வழக்கு	-6.27368
▁ஒரு	-6.32907
▁புதிய	-6.33987
▁பிரதமர்	-6.37637
▁அமைச்சர்	-6.392
▁புகார்	-6.40142
▁தடை	-6.41959
▁அணி	-6.49488
ஸ்	-6.49932
▁ப	-6.50131
▁கோடி	-6.50137
ிடம்	-6.51846
▁க	-6.53131
▁பாலிய	-6.5333
க்க	-6.53879
▁நடிகர்	-6.53906
▁பெண்	-6.54771
▁வேண்டும்	-6.55213
▁என்ன	-6.56266
▁முதல்	-6.57505
▁நாளை	-6.58238
தான்	-6.59023
▁உத்தரவு	-6.60267
▁ஸ்டாலின்	-6.60526
▁இல்லை	-6.61171
▁3	-6.61286
▁விவகாரம்	-6.6155
வது	-6.62734
▁தகவல்	-6.63668
▁மக்கள்	-6.63908
▁போராட்டம்	-6.6504
▁விஜய்	-6.66084
▁விளக்கம்	-6.66319
▁வெற்றி	-6.67182
▁வீடியோ	-6.6763
▁உயிரிழப்பு	-6.68097
▁முதலமைச்சர்	-6.68218
▁இந்தியா	-6.68986
▁பாஜக	-6.71347
ச்	-6.71441
▁அறிவிப்பு	-6.71621
▁தேர்தல்	-6.72872
களை	-6.73685
▁சென்னை	-6.73741
▁பலி	-6.76162
▁நடிகை	-6.7659
▁செய்த	-6.78609
ேன்	-6.78685
ன	-6.78889
▁விசாரணை	-6.79322
யா	-6.80109
▁5	-6.80477
▁கேள்வி	-6.83464
▁கோலி	-6.8399
ள்	-6.84403
▁செய்ய	-6.85117
▁லட்சம்	-6.85339
▁ரஜினி	-6.85696
களுக்கு	-6.86918
▁கொலை	-6.87433
▁இருந்து	-6.87507
▁ஏன்	-6.87529
ப்பு	-6.88975
▁முதல்வர்	-6.89402
▁4	-6.90912
▁போலீஸ்	-6.92096
▁தோனி	-6.92933
▁தற்கொலை	-6.93962
கள	-6.94925
ல	-6.95153
த்தை	-6.9636
த்திற்கு	-6.97202
வுக்கு	-6.97359
யும்	-6.97827
ப	-6.97858
▁அதிரடி	-6.97994
▁சாதனை	-6.98424
க்கும்	-7.00073
▁விபத்து	-7.01209
▁உயர்நீதிமன்றம்	-7.01622
▁கிரிக்கெட்	-7.02345
▁என	-7.03179
▁நடவடிக்கை	-7.05198
▁புயல்	-7.06785
ம	-7.06949
▁உலக	-7.08368
▁அதிர்ச்சி	-7.08464
▁ம	-7.09305
ந்த	-7.09504
▁மீண்டு	-7.10052
▁அனுமதி	-7.10486
▁வந்த	-7.10765
▁மனு	-7.11702
▁சென்னையில்	-7.1188
வில்லை	-7.12824
▁இலங்கை	-7.12893
▁வீரர்	-7.13684
ிற்கு	-7.14145
▁எச்சரிக்கை	-7.14344
வை	-7.1453
▁கொடுத்த	-7.1482
வ	-7.14896
▁போட்டி	-7.14993
▁நீதிமன்றம்	-7.15325
▁கஜா	-7.15734
▁முடிவு	-7.16389
▁வாய்ப்பு	-7.16609
▁குழந்தை	-7.1715
மா	-7.17405
ப்பட்ட	-7.17709
▁மீண்ட	-7.1878
மாக	-7.18907
▁அதிமுக	-7.18907
▁நான்	-7.19283
வர்	-7.19526
▁அரசியல்	-7.20071
ர	-7.20257
▁யார்	-7.2085
▁மழை	-7.21111
▁இளைஞர்	-7.2183
▁தினகரன்	-7.22505
தால்	-7.2383
▁குறித்த	-7.24496
▁திட்டம்	-7.2508
யே	-7.25793
யாக	-7.25859
▁திமுக	-7.26033
▁உச்சநீதிமன்றம்	-7.26698
▁10	-7.27003
வில்	-7.27057
▁தாக்குதல்	-7.2762
▁ஒர	-7.27942
▁ரூபாய்	-7.2834
▁தலைவர்	-7.29232
வின்	-7.29279
▁பாதுகாப்பு	-7.29882
▁அ	-7.30981
▁தேர்வு	-7.31145
ட்	-7.31639
▁கருத்து	-7.31923
▁திடீர்	-7.32333
▁கடிதம்	-7.3237
▁அரச	-7.33958
▁டிடிவி	-7.34068
▁தீ	-7.34554
▁7	-7.34666
▁20	-7.35358
▁விலை	-7.35454
▁இது	-7.3572
▁என்	-7.35904
த	-7.35996
2	-7.36099
▁ரத்து	-7.36106
▁காங்கிரஸ்	-7.36113
▁த	-7.36343
ாத	-7.36917
▁விவசாயிகள்	-7.37274
▁கோரிக்கை	-7.37622
▁கேரள	-7.37649
ாமல்	-7.37737
▁வாழ்த்து	-7.38169
▁ரயில்	-7.38495
▁வீரர்கள்	-7.38535
▁டி	-7.38606
▁ர	-7.38813
▁சர்ச்சை	-7.39295
▁எதிர்ப்பு	-7.39347
▁டெல்லி	-7.40769
▁சோதனை	-7.41309
▁6	-7.41945
டி	-7.42017
▁ஓபிஎஸ்	-7.42273
ச	-7.42829
▁பேச்சு	-7.43174
▁பழனிசாமி	-7.43205
▁மாணவி	-7.441
▁வ	-7.44157
▁சபரிமலை	-7.44463
▁டெஸ்ட்	-7.44478
▁மனைவி	-7.45289
▁ஆ	-7.45342
▁மரணம்	-7.45361
▁தர	-7.45725
▁ரசிகர்கள்	-7.45809
▁பேட்டி	-7.46241
ுங்கள்	-7.46699
▁இ	-7.46787
ப்ப	-7.471
▁எதிராக	-7.47138
▁சிலை	-7.47508
▁பள்ளி	-7.47542
சி	-7.47613
தா	-7.47802
▁காவிரி	-7.4811
▁பல	-7.48119
▁எப்படி	-7.48125
▁கண்டனம்	-7.4814
▁முடியாது	-7.48477
▁மகன்	-7.48523
▁சென்ற	-7.48638
▁அதிகாரி	-7.48998
▁நாள்	-7.49499
▁தமிழகத்தில்	-7.50035
▁ஜெயலலிதா	-7.50662
▁மா	-7.51692
▁ஹ	-7.5191
▁சசிகலா	-7.52658
▁ஆளுநர்	-7.53058
▁மறுப்பு	-7.53269
▁ஆய்வு	-7.53763
▁தொடரும்	-7.53781
▁மும்பை	-7.54326
▁சிபிஐ	-7.54333
▁வங்கி	-7.54366
▁ந	-7.54715
ங்கள்	-7.54756
▁படத்த	-7.54777
▁திருமணம்	-7.54858
ோம்	-7.55141
▁மக்கள	-7.55917
மான	-7.56246
▁வயது	-7.56516
▁ச	-7.56903
▁கார்	-7.57412
▁செல்ல	-7.57468
▁நீதிபதி	-7.57642
னா	-7.58085
▁கருணாநிதி	-7.58366
▁அணை	-7.58666
▁உறுதி	-7.58667
▁கடும்	-7.58715
▁புது	-7.58825
▁விமான	-7.59439
▁மணி	-7.59684
▁8	-7.59952
▁சிறுமி	-7.60689
▁முன்னா	-7.60691
▁முயற்சி	-7.60744
ரி	-7.60764
▁வெளியீடு	-7.60958
▁விராத்	-7.6097
▁வைத்த	-7.61014
வா	-7.61022
▁நேர	-7.61072
▁பாதிப்பு	-7.6148
20	-7.61592
▁குற்றச்சாட்டு	-7.61594
▁தாக்கல்	-7.62326
▁பெண்கள்	-7.62397
▁உயர்வு	-7.62648
▁ஐபிஎல்	-7.63271
▁தமிழிசை	-7.63278
▁ஆயிரம்	-7.63348
▁அமெரிக்க	-7.63567
▁நிதி	-7.63893
▁பின்	-7.63976
▁கமல்	-7.64206
▁மீனவர்கள்	-7.64259
▁இனி	-7.64552
▁வரை	-7.6477
▁மாணவர்கள்	-7.64791
▁ட்ரம்ப்	-7.65024
▁எம்எல்ஏ	-7.66373
▁சிங்	-7.66733
தி	-7.66792
▁இரு	-7.67413
▁ராகுல்	-7.67481
▁மாத	-7.67783
▁ஆதரவு	-7.68062
▁சிறப்பு	-7.68122
ோ	-7.6813
▁எம்எல்ஏக்கள்	-7.68731
▁விட	-7.69046
▁முன்	-7.69417
ுக்காக	-7.69443
▁கமல்ஹாசன்	-7.69822
▁பேருந்து	-7.69981
▁வைரலாக	-7.7024
க்காக	-7.70393
▁வன்கொடுமை	-7.70546
வி	-7.70741
▁தீர்ப்பு	-7.70893
▁15	-7.7107
▁விராட்	-7.71812
▁விடுமுறை	-7.71812
▁அடுத்த	-7.71816
▁சேவை	-7.7184
▁கதை	-7.72043
▁மோதல்	-7.72254
▁நடத்த	-7.72523
▁ஆக	-7.72632
▁ஷா	-7.73347
▁மீத	-7.73596
ட்டு	-7.7396
1	-7.74105
▁முகஸ்டாலின்	-7.74596
▁தமிழ்	-7.74682
▁தங்க	-7.7473
▁விழா	-7.74951
▁18	-7.75023
▁இந்தியாவ	-7.75087
▁நீக்கம்	-7.76315
▁மிரட்டல்	-7.77282
▁கொன்ற	-7.77331
ங்க	-7.77894
ினார்	-7.78713
▁ராணுவ	-7.78812
▁சிறை	-7.78831
வே	-7.79172
▁வழக்கில்	-7.79212
▁ஸ்டெர்லைட்	-7.79261
▁குழு	-7.79679
▁பிரச்னை	-7.79763
▁தந்தை	-7.79804
▁ஆணையம்	-7.79991
லாம்	-7.80518
▁பதில்	-7.80613
▁உடல்	-7.80633
ிறார்	-7.80747
▁காந்தி	-7.80806
▁மீட்பு	-7.81287
▁இங்கிலாந்து	-7.81549
▁பணம்	-7.81653
▁பாக்	-7.82439
▁எம்பி	-7.82501
▁அறிக்கை	-7.82561
▁கால்பந்து	-7.82641
▁கர்நாடக	-7.83039
▁வீட்டில்	-7.83117
▁போட்டியில்	-7.84089
▁சொன்ன	-7.8423
▁வர	-7.84549
ச்ச	-7.84795
▁சந்திப்பு	-7.84886
▁மோசடி	-7.85439
▁பயிற்சி	-7.85455
▁பெண்ண	-7.85717
▁காரணம்	-7.85918
▁எ	-7.85924
▁பெட்ரோல்	-7.85982
▁விவகாரத்த	-7.86311
▁பதவி	-7.86793
▁ஆலோசனை	-7.86909
▁காஷ்மீர	-7.86919
▁வேண்டாம்	-7.87017
▁மாற்றம்	-7.87574
▁தலைமை	-7.88066
▁அடி	-7.8861
▁தாய்	-7.88984
கி	-7.8916
▁ஆதார்	-7.89788
▁சர்கார்	-7.89917
▁கூட்டணி	-7.89925
▁தீபாவளி	-7.89975
▁சி	-7.9008
ைய	-7.90588
தாக	-7.90811
▁ஜல்லிக்கட்டு	-7.90868
▁சிக்கிய	-7.91054
▁வரி	-7.91465
▁காவல்	-7.91604
▁பற்றி	-7.91975
▁ஏ	-7.92608
▁சிகிச்சை	-7.93018
▁வலியுறுத்த	-7.93019
▁திறப்பு	-7.93147
▁அதிபர்	-7.9347
▁விரைவ	-7.93538
வரை	-7.9395
▁கால	-7.93965
▁விடுதலை	-7.94178
▁பாஜகவ	-7.94417
▁நம்பிக்கை	-7.94525
▁தூத்துக்குடி	-7.94605
ரா	-7.94986
▁வைகோ	-7.95018
▁இந்த	-7.95132
▁நீட்	-7.95349
5	-7.95597
▁வரும்	-7.95896
▁அதிகாரிகள்	-7.95898
▁வேலை	-7.95956
ற்ற	-7.96119
▁எடுத்த	-7.96184
▁சந்தித்த	-7.9622
▁கூட்டம்	-7.96946
▁அம்மா	-7.9746
▁பெற்ற	-7.9747
▁வழங்க	-7.97473
லை	-7.97597
▁இருந்த	-7.97627
▁பணி	-7.98444
▁100	-7.98922
▁மாற	-7.99156
▁தேதி	-7.99299
▁வானிலை	-7.99524
▁காவல்துறை	-7.99524
▁வேதனை	-7.99527
கோள்	-7.9953
▁சதம்	-7.99591
▁தோல்வி	-8.00139
▁11	-8.00158
▁மகிழ்ச்சி	-8.0022
▁அருக	-8.00393
டு	-8.00427
▁படம்	-8.00465
▁கட்ட	-8.00789
பி	-8.00959
▁நடிக்க	-8.00977
▁1	-8.01133
னர்	-8.01194
▁ஆஸி	-8.01203
▁ஜெயக்குமார்	-8.01293
▁ரஜினிகாந்த்	-8.01485
▁சிறுவன்	-8.0194
▁நோட்டுகள்	-8.0246
▁கேட்ட	-8.02569
▁துணை	-8.02692
▁வைரல	-8.02908
▁விற்பனை	-8.02942
▁முக்கிய	-8.02946
▁கேப்டன்	-8.02956
▁விழுந்த	-8.0299
▁கடைசி	-8.03058
▁9	-8.03093
▁பெற	-8.03156
▁பயணம்	-8.03242
த்து	-8.03623
▁பாகிஸ்தான்	-8.03728
▁மருத்துவமனை	-8.04206
▁வைக்க	-8.04321
▁கட்சி	-8.04425
▁போன	-8.04595
▁நோட்டீஸ்	-8.04699
▁ரோகித்	-8.04718
▁பட	-8.04771
▁அசத்த	-8.05176
டா	-8.0522
000	-8.05679
▁மாநில	-8.05741
▁கணவர்	-8.05816
க்குள்	-8.05836
▁இளைஞர்கள்	-8.05936
▁எதிரான	-8.06001
லா	-8.06037
▁வேண்டு	-8.06398
▁பாகுபலி	-8.06483
▁தேசிய	-8.06538
▁விருது	-8.06642
▁அமெரிக்கா	-8.07099
ப்படும்	-8.0738
▁ஆண்டு	-8.07455
ந்து	-8.07591
▁நாட்கள	-8.08018
▁பதிவு	-8.08024
▁பாராட்டு	-8.0818
▁உயிரிழந்த	-8.082
▁தகுதி	-8.08299
▁கூடாது	-8.08476
▁தொடங்கியது	-8.08522
▁தனி	-8.08615
▁எடுக்க	-8.08743
▁ஒருவர்	-8.08743
▁ராவ்	-8.08793
▁இயக்குநர்	-8.09009
▁மகள்	-8.09246
▁தமிழ	-8.09636
▁12	-8.09753
▁பிரபல	-8.10098
▁13	-8.10103
▁நிர்மலா	-8.10153
▁ஒத்திவை	-8.10153
▁மன்னிப்பு	-8.10166
▁அல்ல	-8.10224
▁மட்டும்	-8.10383
▁கேட்க	-8.10396
▁திருமண	-8.10407
▁தயாரிப்பாளர்	-8.10445
ல்ல	-8.10477
▁போ	-8.1081
▁பேச	-8.11047
ுமா	-8.11049
ுள்ள	-8.11106
▁பாகிஸ்தான	-8.112
▁சட்ட	-8.11267
▁இசை	-8.11315
▁தலை	-8.11346
▁டிக்கெட்	-8.11471
▁கடை	-8.11562
▁பள்ளிகள	-8.11664
▁தமிழகம்	-8.11664
▁ஆட்சி	-8.11708
▁மேல	-8.11769
▁சா	-8.11827
▁வைத்து	-8.11958
ட்ட	-8.11983
▁ராஜினாமா	-8.1204
▁காலமானார்	-8.1204
▁அவுட்	-8.12063
▁தண்டனை	-8.1207
▁மையம்	-8.12156
கிறது	-8.12247
▁வென்ற	-8.13173
ராஜ்	-8.13499
▁கோயில்	-8.13535
▁கோப்பை	-8.13636
▁ராஜ்	-8.13657
▁என்னை	-8.13812
▁முறைகேடு	-8.13963
▁கொண்டாட்டம்	-8.13963
▁போலி	-8.1409
▁மாணவர்	-8.1424
▁கொள்ளை	-8.14414
▁தேவை	-8.14576
▁உள்ள	-8.1462
▁ஜெயலலிதாவ	-8.14923
மே	-8.1545
▁பரிசு	-8.15773
4	-8.15793
ய்	-8.15799
▁அபராதம்	-8.15924
▁விமர்சனம்	-8.15924
▁பட்டாசு	-8.15926
▁அளித்த	-8.15941
▁சேர்ந்த	-8.16053
▁மருத்துவமனையில	-8.16063
ிறது	-8.16088
▁விஷால்	-8.16501
▁தேர்தல	-8.17322
▁தான்	-8.17716
▁உரிமை	-8.17858
▁சிசிடிவி	-8.17924
▁எண்ணிக்கை	-8.17924
னி	-8.17957
▁தொல்லை	-8.18036
▁பொதுமக்கள்	-8.18126
▁கொடுக்க	-8.18145
▁பரபரப்பு	-8.1822
▁நீக்க	-8.19235
யான	-8.19297
▁தனுஷ்	-8.19332
▁கிராம	-8.1935
▁தொடர்	-8.19503
▁ஆர்கேநகர்	-8.19563
▁பிடித்த	-8.19905
▁இரட்டை	-8.19965
▁நீர்	-8.20255
▁கடத்தல்	-8.20305
▁டெல்லியில	-8.20451
▁வீடு	-8.2047
3	-8.20515
▁மாற்ற	-8.20669
▁நிலை	-8.20792
▁எனக்கு	-8.21204
▁ஆன	-8.21272
▁குவி	-8.21288
▁சர்வ	-8.21313
▁சபரிமலையில்	-8.21402
▁முதலமைச்சர	-8.21411
▁500	-8.21567
▁மனைவியை	-8.21909
▁கேட்டு	-8.21987
▁பிறகு	-8.2211
▁பிறந்த	-8.22119
▁நியமனம்	-8.2216
னை	-8.22426
▁பார்க்க	-8.22834
▁பயன்படுத்த	-8.22918
த்தின்	-8.23508
▁விளையாட	-8.23538
ாரா	-8.23626
ழைய	-8.23822
▁வருமான	-8.2419
▁வருகிறது	-8.24207
▁இளம்	-8.24258
▁அந்த	-8.24322
▁குழந்தைகள்	-8.24398
▁கட்டணம்	-8.2457
▁வாங்க	-8.2465
▁முறை	-8.25122
▁கனமழை	-8.25391
▁காப்பாற்ற	-8.25406
▁பார்த்த	-8.25633
▁அடித்த	-8.25702
▁ஊழல	-8.2635
▁கர்ப்பிணி	-8.2635
▁பறிமுதல்	-8.2635
▁பேச்சுவார்த்தை	-8.2635
▁முயன்ற	-8.2635
ொரு	-8.26352
▁குண்டு	-8.26376
▁மதுரை	-8.26505
▁அதிக	-8.26615
▁பாடல்	-8.26809
ைக்	-8.26898
ழ	-8.272
▁விளையாட்டு	-8.27301
கா	-8.27326
ுக்கான	-8.27331
▁25	-8.27332
ிலிருந்து	-8.27501
▁நாள	-8.27677
▁காட்ட	-8.27982
▁போல்	-8.283
▁கல்லூரி	-8.28507
▁மின்	-8.28533
▁எப்போது	-8.28572
▁பரிதாப	-8.28732
▁தொடக்கம்	-8.28796
▁ஐ	-8.28957
▁30	-8.2929
ரை	-8.29553
▁பி	-8.29603
▁பயணிகள்	-8.29744
▁50	-8.29942
ுகிறார்	-8.30272
▁நேரம்	-8.304
▁யானை	-8.30611
▁கு	-8.30731
தை	-8.30736
▁ஒலிம்பிக்	-8.30844
▁குடியரசுத்	-8.30931
▁எந்த	-8.30971
மூலம்	-8.31041
▁காண	-8.31089
▁விஜயபாஸ்கர்	-8.3113
▁தா	-8.31173
▁தண்ணீர்	-8.31203
▁இயக்குனர்	-8.31204
▁வழி	-8.3131
▁ஆட்சியர்	-8.31531
▁தின	-8.31567
▁மாறிய	-8.31608
▁பிரதமர	-8.3164
ங்களை	-8.3174
ோர்	-8.32109
▁தூக்கி	-8.32209
▁பிர	-8.32237
▁கொல்ல	-8.32881
ஆம்	-8.32885
▁தம்பதி	-8.33136
▁தள்ளுபடி	-8.3317
▁ஹெச்ராஜா	-8.3317
▁வழக்குப்பதிவு	-8.33171
▁அமைப்பு	-8.33179
▁காவலர்	-8.33283
▁சந்திக்க	-8.33439
ர்வ	-8.33458
▁ஆண்டுகள	-8.33627
▁ஜெ	-8.33772
▁அழைப்பு	-8.33866
▁தொடர	-8.34027
▁ஓய்வு	-8.34117
▁பெயர்	-8.34518
ோடு	-8.34824
ிலும்	-8.34862
ட	-8.3493
▁இருக்க	-8.35162
▁முழு	-8.35167
▁ரயில	-8.35221
▁மிக	-8.35349
▁சொந்த	-8.35515
▁சமூக	-8.35551
▁மசோதா	-8.35551
▁ஜிஎஸ்டி	-8.35553
▁அஞ்சலி	-8.35566
▁சம்பவம்	-8.35588
▁சிறந்த	-8.35595
▁படுகாயம்	-8.35609
▁நீதிமன்ற	-8.35676
▁இல்லாத	-8.357
▁நிகழ்ச்சி	-8.35765
்ட	-8.35849
▁நன்றி	-8.35911
▁கும்பல்	-8.36073
▁கோரி	-8.36144
▁முதல்வர	-8.36193
வும்	-8.36196
▁கே	-8.36318
▁அடித்து	-8.36333
▁கோர	-8.36496
▁காதல்	-8.36498
▁குழந்தையை	-8.36631
▁உதவி	-8.37018
▁உண்மை	-8.37067
▁புயல	-8.37179
▁நல்ல	-8.37542
க்கள்	-8.37626
▁கடல	-8.37747
▁தாக்கிய	-8.3777
▁எடப்பாடி	-8.3799
▁சூப்பர்	-8.3799
▁தயார்	-8.37992
▁வயதில	-8.37994
▁துப்பாக்கிச்சூட	-8.37994
▁சோகம்	-8.37998
▁மாணவர்கள	-8.38052
▁வாக்குப்பதிவு	-8.38214
▁திருட்டு	-8.38237
▁ஓ	-8.3828
▁காட்சிகள்	-8.38326
▁கை	-8.38489
ில்லை	-8.38517
▁கொண்ட	-8.38679
▁மீ	-8.38755
▁சாட	-8.39496
▁பட்ஜெட்	-8.39665
▁திரும்ப	-8.39807
▁தினம்	-8.40047
▁லாரி	-8.40174
▁அஜித்	-8.40192
ண	-8.40297
▁மேகதாது	-8.4049
▁வாபஸ்	-8.4049
▁வன்முறை	-8.40497
▁மறுத்த	-8.4057
▁துப்பாக்கிச்	-8.40576
▁ஒப்புதல்	-8.40671
▁வீராங்கனை	-8.4095
▁ஹீரோ	-8.41012
▁ரஜினிய	-8.41029
▁வீரர	-8.41113
▁ஜ	-8.41935
▁வாகன	-8.41973
▁உணவு	-8.42188
▁ஊழியர்கள்	-8.42198
▁சொத்து	-8.42198
▁விழாவ	-8.42251
▁அட	-8.42263
▁கிரிக்கெட்ட	-8.42422
▁மாவட்ட	-8.42495
ையும்	-8.42781
▁கோவில	-8.42824
▁பேட்ட	-8.4283
▁கூற	-8.42836
▁நிவாரண	-8.42877
6	-8.42916
▁விசாரிக்க	-8.43022
▁கவலை	-8.43049
▁சீன	-8.43092
▁சந்திக்கிறார்	-8.43099
▁குடும்ப	-8.43105
▁விமானம்	-8.43139
▁காயம்	-8.43169
▁வெளியானது	-8.43298
ாது	-8.43438
▁பேர	-8.43616
கு	-8.43702
▁அணிக்கு	-8.43818
▁உருக்கம்	-8.43829
▁நிலைய	-8.43898
▁ல	-8.43968
▁எங்கள	-8.44065
10	-8.44295
▁இழந்த	-8.44629
▁பால	-8.44674
▁வெள்ள	-8.44848
▁காரணமா	-8.45079
▁அறிவ	-8.45206
▁நீதிமன்றத்த	-8.45634
▁பிசிசிஐ	-8.45686
▁பிரகாஷ்	-8.45686
▁திருப்பதி	-8.45693
▁தெரியுமா	-8.45702
▁வாழ்க்கை	-8.4571
▁வெஸ்ட்	-8.4591
▁ஆசிரியர்	-8.45936
▁ஆம்	-8.46002
சா	-8.46028
▁மாலை	-8.46051
▁குமார்	-8.46275
ஜி	-8.46515
▁பிரதமருக்கு	-8.46595
▁ஸ்	-8.46681
▁பஸ்	-8.46685
▁கனமழைக்கு	-8.46861
▁சட்டம்	-8.47059
▁17	-8.47187
▁கான்	-8.47254
▁பாதுகாப்ப	-8.47332
▁வார	-8.47527
▁நிறுவனத்த	-8.47566
7	-8.47629
▁உபி	-8.47731
ுகிறது	-8.47756
போது	-8.47972
▁ரன்	-8.48189
ட்டி	-8.48289
▁ஜோடி	-8.48307
ுவோம்	-8.48359
▁கிலோ	-8.48388
▁டிசம்பர	-8.48389
▁ரிச	-8.48448
▁போக்குவரத்து	-8.48488
▁இரண்டு	-8.48578
▁ஓபன்	-8.48621
▁பண	-8.48907
▁போலீசார்	-8.48917
ுவதா	-8.48933
▁டூ	-8.48981
▁இடம்	-8.491
▁காங்	-8.49224
▁மருத்துவ	-8.49245
▁பேசிய	-8.49457
▁மெரினாவ	-8.49523
▁விபத்த	-8.49763
▁இயக்க	-8.49853
▁விக்கெட்	-8.49858
▁முடிவ	-8.4989
▁சாலை	-8.49955
▁ஆசை	-8.50022
▁சாதி	-8.50193
▁டிவி	-8.5058
தேச	-8.50734
வர	-8.50968
▁மே	-8.51019
▁பரவ	-8.51149
▁சேதுபதி	-8.51166
▁முத்தலாக்	-8.51166
▁அகற்ற	-8.51178
▁பேரணி	-8.51183
▁மட்டும	-8.51252
▁தினகரன	-8.51255
▁சூடு	-8.51325
▁மகள	-8.51361
▁ஆய்வாளர்	-8.5139
▁கேரளாவுக்கு	-8.51633
▁சண்டை	-8.51655
வர்கள்	-8.51682
▁ஜாமீன்	-8.51688
▁சச்சின்	-8.51769
தே	-8.51792
▁கார	-8.51832
▁முடியாத	-8.53008
▁அதிமுகவ	-8.53274
▁நில	-8.53757
வ்	-8.53765
▁மற்ற	-8.53851
▁வா	-8.53946
▁நிதியுதவி	-8.54023
▁தடுக்க	-8.54036
▁வாக்குமூலம்	-8.54043
▁பூஜை	-8.54043
▁இறந்த	-8.54045
▁முதல	-8.54089
▁அதிகரிப்பு	-8.54128
ிக்	-8.54225
ூர்	-8.54291
▁ஆசிய	-8.54302
▁வருத்தம்	-8.54316
▁விற்க	-8.54375
▁போதை	-8.545
ண்ட	-8.54607
▁இலை	-8.5499
▁அசத்தல்	-8.54996
▁குஜராத்	-8.55234
▁போட்ட	-8.55247
▁மத	-8.556
▁மனித	-8.55836
கிறார்	-8.55867
▁ஆதார	-8.55972
▁வாங்கிய	-8.56111
▁14	-8.56643
9	-8.56668
▁அனுப்ப	-8.56697
▁அவசர	-8.56965
▁ஆன்லைன	-8.56965
▁அறிவுரை	-8.56965
▁அபார	-8.56966
▁அலுவலகத்த	-8.56967
▁பாதிக்கப்பட்ட	-8.56977
▁வளர்ச்சி	-8.56988
▁நிற்க	-8.57084
ஜ்	-8.57124
▁அவலம்	-8.5715
▁இடைத்தேர்தல்	-8.57518
ெ	-8.57526
▁இறுதி	-8.57865
▁சிக்கல்	-8.58117
ொன்ராதாகிருஷ்ணன்	-8.58173
▁பேருந்துகள்	-8.58493
த்தான்	-8.58868
▁போர்	-8.59094
▁அப்	-8.59181
▁மலை	-8.59225
ிக்க	-8.59588
▁கார்த்தி	-8.5961
▁கூட	-8.59628
▁திறக்க	-8.59877
▁பெண்ணை	-8.59986
▁சுனாமி	-8.59995
▁ராகுல்காந்தி	-8.59995
▁கடந்த	-8.59997
▁யோகி	-8.60006
▁திருச்சி	-8.60012
▁படுகொலை	-8.60029
▁பதிலடி	-8.60029
க்கூடாது	-8.60062
▁மேல்முறையீடு	-8.60106
▁கொண்டாடிய	-8.60221
▁திருமாவளவன்	-8.60263
▁அமைச்சர	-8.60268
▁மோதி	-8.60319
▁இல்ல	-8.60343
▁மிரட்டிய	-8.60344
▁அமெரிக்காவ	-8.60509
▁வென்றது	-8.60762
▁உயிர்	-8.60845
▁வீரர்களுக்கு	-8.60899
▁தலைவர்கள்	-8.61357
▁பேரை	-8.61437
▁முறைய	-8.6147
▁மு	-8.61551
விற்கு	-8.61781
ஷ்	-8.62078
▁தொடர்ப	-8.62362
▁துறை	-8.6245
▁விஜய்சேதுபதி	-8.6312
▁விவேக்	-8.6312
▁கூடுதல	-8.63124
லி	-8.63129
▁நீட்டிப்பு	-8.63139
▁எதிரொலி	-8.63142
▁தனியார	-8.63159
▁டீசல	-8.63211
▁கூகுள்	-8.63258
▁முழுவத	-8.63263
▁ஏலம்	-8.63324
▁கூட்ட	-8.6339
▁சோனியா	-8.63418
டன்	-8.63445
▁ஜப்பான்	-8.63466
▁சர்மா	-8.63504
▁வெள்ளத்த	-8.63697
▁நிறுத்தம்	-8.63841
▁அமெரிக்காவில	-8.63904
▁செய்தி	-8.6406
ங்கள	-8.6409
▁நீதிபதிகள்	-8.64144
▁பந்த	-8.64165
▁16	-8.64235
▁போராட்டத்த	-8.64414
▁ஃப	-8.645
▁வருட	-8.64535
▁நயன்தாரா	-8.6455
▁நடத்திய	-8.64798
▁திமுகவ	-8.64964
▁செய்யப்பட்ட	-8.64991
▁ஜெய	-8.65262
னு	-8.65364
▁தவிக்க	-8.65383
▁வழக்க	-8.65582
ஐ	-8.65747
▁எங்க	-8.65761
நாடு	-8.65793
ுறுத்தல்	-8.65944
▁சட்டப்பேரவை	-8.65948
▁சினிமா	-8.6596
▁அரசுப்	-8.66008
▁திருநங்கை	-8.66051
ினால்	-8.66146
▁மாவட்டங்களில	-8.66157
▁நபர்	-8.66208
▁இல்லாம	-8.663
ெல்லாம்	-8.66337
ிமீ	-8.66346
▁கவிழ்ந்த	-8.66346
▁பங்கேற்ப	-8.66346
▁டென்னிஸ	-8.66346
▁வசூல்	-8.66349
▁லுக்	-8.66355
லில்	-8.66365
▁மகளிர	-8.6637
த்துறை	-8.66374
▁சொல்கிறார்	-8.66417
டை	-8.66444
பிஎஸ்	-8.66473
▁கடன்	-8.66491
▁கருணாஸ்	-8.66674
▁அவதி	-8.66687
▁ஆண்டுகளுக்கு	-8.66727
▁யார	-8.66767
▁நடந்தது	-8.66792
▁கனவு	-8.66873
▁உயர	-8.66884
▁ட்ரம்ப	-8.66905
▁இண்டீஸ்	-8.66956
▁நாகை	-8.66969
▁தவறு	-8.67236
▁சங்கம்	-8.67466
▁இன்ற	-8.6768
▁40	-8.67727
▁நீ	-8.68151
▁திறந்த	-8.68724
விட்டு	-8.68737
▁ரஷ்ய	-8.68889
▁அரசியல	-8.6911
▁புதுச்சேரி	-8.69431
▁பெரிய	-8.6945
▁பயங்கரவாத	-8.69497
ாலிவுட்	-8.69525
▁அயோத்தி	-8.69679
▁எவ்வளவு	-8.69679
▁கிடையாது	-8.69679
▁பும்ரா	-8.69683
▁ஆதரவா	-8.69684
▁முடியும்	-8.69693
▁மின்சார	-8.69696
▁கண்டுபிடிப்பு	-8.69699
▁ரெட்டி	-8.69765
▁தீர்மானம்	-8.69889
▁மூன்று	-8.69899
▁புகைப்படம்	-8.69923
▁இலக்கு	-8.69933
▁சொல்ல	-8.69995
▁மீனவர்கள	-8.70099
▁யாருக்கு	-8.70144
▁தயாராக	-8.70234
▁தீவிரம்	-8.70313
▁ஆர்கேநகர	-8.70343
சன்	-8.70374
▁கமல	-8.70381
▁த்ரிஷா	-8.70402
▁அஸ்வின்	-8.70584
▁சிம்பு	-8.7074
▁ஆளுநர	-8.7088
▁பெண்களுக்கு	-8.70941
▁யு	-8.71063
▁விட்டு	-8.71068
யாளர்	-8.71208
▁ஆப்	-8.71258
▁தமிழர்கள்	-8.71328
▁ஆணையத்த	-8.71427
▁ட	-8.71449
▁நடுவ	-8.71756
▁ஆலை	-8.71775
▁நெகிழ்ச்சி	-8.71885
▁கொ	-8.71886
▁காலா	-8.71894
▁விடிய	-8.71959
▁சோ	-8.71971
▁மாணவிகள்	-8.72039
▁திரு	-8.72087
▁24	-8.72105
ிருந்து	-8.72124
▁தங்கம்	-8.72142
▁நாடாளுமன்றத்த	-8.72418
ச்சி	-8.72477
▁வெளியிட்ட	-8.72903
▁முக	-8.73013
வு	-8.73032
▁சுதந்திர	-8.73045
▁இருவர	-8.73061
▁ஹாக்கி	-8.73087
▁தீபிகா	-8.73127
▁வருகை	-8.73128
▁ஏற்க	-8.73143
▁இழப்பீடு	-8.73148
▁தவான்	-8.73153
▁சுற்றுலா	-8.73185
▁அவகாசம்	-8.73192
▁வகுப்பு	-8.73254
ண்ட்	-8.73258
▁குவிந்த	-8.73268
▁ரயில்வே	-8.733
▁குவிப்பு	-8.73303
▁அமைச்சர்கள்	-8.73304
▁செல்லும்	-8.73387
பா	-8.73411
▁ஒப்பந்தம்	-8.73546
▁தொடர்ந்த	-8.73552
▁நாளாக	-8.73631
▁அளிக்க	-8.73662
▁இதுதான்	-8.73686
▁உச்சநீதிமன்றத்த	-8.73732
▁வேறு	-8.73743
▁சிறையில	-8.73775
▁நடந்த	-8.73779
▁இன்னும்	-8.73813
▁நாடு	-8.73866
கே	-8.73892
▁கேரளாவில	-8.7391
▁இளைஞர	-8.73926
ஜ	-8.73989
▁பொங்கல	-8.74028
▁கொண்டாட	-8.7404
▁மணல	-8.74078
▁என்று	-8.74159
▁ஏற்ற	-8.74271
ாதீர்கள்	-8.74347
▁அனைத்து	-8.74485
▁முதல்வராக	-8.74624
ள	-8.74634
ின	-8.74662
▁நோட்டு	-8.74758
▁பொருட்கள்	-8.74828
ிங்	-8.74941
▁பா	-8.74987
எஸ்	-8.75038
▁அணிய	-8.75131
▁மிரட்ட	-8.75175
▁என்ற	-8.75501
▁மெட்ரோ	-8.7574
▁கா	-8.75935
வருக்கு	-8.7596
▁நா	-8.75987
▁உள்ளிட்ட	-8.7602
▁தகவல்கள்	-8.76052
▁ட்வீட்	-8.76215
▁பெயர	-8.76248
▁செலுத்த	-8.76427
▁போலீச	-8.76464
▁ஆஜராக	-8.76626
தில்	-8.76641
▁பைக்	-8.76679
▁திருவாரூர	-8.76699
▁மாளிகை	-8.76699
▁ஸ்டிரைக்	-8.76699
▁விஜயகாந்த்	-8.76699
▁சீமான்	-8.767
▁விடுதி	-8.767
▁அதிகரிக்க	-8.76703
▁உள்ளாட்சி	-8.76707
▁உச்ச	-8.76724
▁பய	-8.76731
▁வேலைநிறுத்தம்	-8.76786
ணி	-8.76805
ரன்	-8.76875
▁சிவகார்த்திகேயன	-8.76879
▁ரவி	-8.76901
▁வாஜ்பாய்	-8.77056
▁எதிர்த்து	-8.77063
▁கடற்படை	-8.77088
▁பதவியேற்பு	-8.77135
▁ஹெலிகாப்டர்	-8.77143
▁கணவன்	-8.77167
▁நேரத்தில	-8.77242
▁இடங்கள	-8.77293
▁தான	-8.774
▁செயலாளர்	-8.77479
▁திரை	-8.77737
▁தாக்க	-8.77772
▁இட	-8.77834
▁செய்து	-8.77843
▁துப்பாக்கி	-8.77868
▁மோடியை	-8.77935
▁கொண்டு	-8.78193
ப்பட	-8.78761
▁காட்டம	-8.78961
▁கி	-8.79296
▁இலவச	-8.79397
▁வேட்பாளர்	-8.79481
▁ஆய்வ	-8.79657
▁எழுத	-8.79797
த்துக்கு	-8.79917
நாள்	-8.80007
சாமி	-8.80056
▁டெ	-8.8006
▁காக்க	-8.80386
▁வெ	-8.80392
▁உலகக்கோப்பை	-8.80402
▁கனிமொழி	-8.80402
▁வரவேற்பு	-8.80402
▁அண்ணா	-8.80402
▁அருண்	-8.80402
▁விமர்சித்த	-8.80403
▁டாஸ்மாக்	-8.80403
▁சுட்டுக்கொலை	-8.80403
▁முரளி	-8.80405
▁ஸ்ரீதேவி	-8.80408
▁கர்நாடகா	-8.8042
▁வசதி	-8.80469
▁இடையே	-8.80486
▁விஸ்வாசம்	-8.80494
▁சேல	-8.80544
▁மக்களவை	-8.80688
▁சீதாராமன்	-8.80811
▁இருக்கிறது	-8.80863
▁டே	-8.8089
▁ரன்கள்	-8.809
▁வாக்கு	-8.80955
▁புலி	-8.80968
▁காற்று	-8.8098
▁சிங்கம்	-8.8099
▁கோ	-8.81229
▁இப்படிய	-8.81293
▁உங்கள	-8.81527
▁ராஜஸ்தான்	-8.81539
▁இணைய	-8.81693
ிருக்க	-8.81841
▁உடல	-8.8191
▁செ	-8.8216
▁நாயுடு	-8.82358
▁ஓட்ட	-8.8242
▁உச்சநீதிமன்ற	-8.82621
▁இயங்க	-8.82865
▁பின	-8.8292
▁மன	-8.8322
▁பாலிவுட்	-8.8326
▁லாலு	-8.83514
▁விட்ட	-8.83837
ள்ள	-8.83976
▁நாடாளுமன்ற	-8.84081
▁பழ	-8.84082
ஃபா	-8.84138
▁விழுந்து	-8.84143
▁ஜி	-8.84212
▁வெளியாக	-8.8423
▁பாண்டியராஜன்	-8.84249
▁பாரதிராஜா	-8.84249
▁பொருளாதார	-8.84249
▁விவேகம்	-8.84249
▁தளபதி	-8.8425
▁வழக்கறிஞர்	-8.84251
▁தலைமுறை	-8.84266
▁வெளியாகிறது	-8.84277
▁கொடுமை	-8.84293
▁ஸ்ரீ	-8.84298
▁ஆட்டம்	-8.84433
▁ஓபன்னீர்செல்வம்	-8.84455
▁மருத்துவர்கள்	-8.8454
▁சங்க	-8.84602
▁தேவி	-8.84623
▁மாணவன்	-8.84654
▁தப்பிய	-8.84671
டில்	-8.84679
▁முடக்கம்	-8.8483
▁சாம்பியன்	-8.84867
▁எம்பிக்கள்	-8.85045
▁ஆணையர்	-8.85103
▁நான	-8.85213
▁மனம்	-8.85241
ஸ	-8.85313
▁எம்ஜிஆர்	-8.85317
▁தனுஷ	-8.85464
▁பகுதிகள	-8.85496
▁நோ	-8.85522
▁ரன்ன	-8.85529
ால	-8.85563
▁போட்டு	-8.85732
ஜா	-8.85787
▁பிறந்தநாள்	-8.85799
▁கோவை	-8.85812
▁பு	-8.86019
▁நாட்கள்	-8.86278
மாட்டோம்	-8.86406
▁சீனாவ	-8.8677
▁திட்ட	-8.87095
லாமா	-8.87148
▁அர	-8.87309
▁சாலைய	-8.87468
கை	-8.87534
▁வாழ	-8.87605
▁கூறி	-8.87776
▁சிக்கி	-8.87803
▁விவசாய	-8.87982
▁மூ	-8.88024
க்கா	-8.8812
▁தொடங்கிய	-8.88187
▁இளம்பெண்	-8.88219
▁ஐஸ்வர்யா	-8.88249
▁பசிதம்பரம்	-8.88249
▁பிவிசிந்து	-8.88249
▁ஆஜர்	-8.88249
▁விநாயகர	-8.88249
▁சுருண்ட	-8.88249
▁நிறைவு	-8.88251
▁குட்கா	-8.88252
▁புகழாரம்	-8.88252
▁உட்பட	-8.88261
▁சம்பத்	-8.88265
▁சவுதி	-8.88266
▁பாதித்த	-8.88284
▁96	-8.88298
8	-8.88308
▁நடு	-8.88486
▁கொல்லப்பட்ட	-8.88504
▁பயங்கரவாதிகள	-8.88523
▁மரண	-8.88561
▁நிறுவனம்	-8.88705
▁டீசர்	-8.88728
▁திருடன்	-8.88773
▁புகார	-8.88833
▁காட்டிய	-8.88854
விட	-8.88884
▁தரப்பு	-8.88961
▁அனுப்பிய	-8.89056
▁செய்யும்	-8.89073
▁தலைவர	-8.89166
▁விவசாயி	-8.89184
▁கலை	-8.89271
▁வழங்கிய	-8.89424
▁19	-8.89579
▁முன்ன	-8.8959
▁கண்ணீர்	-8.89598
▁பக்தர்கள்	-8.89619
ியது	-8.89636
▁கோரிய	-8.89814
▁நிறுத்த	-8.90059
▁நிலையத்த	-8.901
▁வைரமுத்து	-8.90108
▁போட	-8.90301
▁ரசிகர்கள	-8.90433
மி	-8.90571
பட	-8.90596
▁தென்	-8.90838
▁பூ	-8.91461
▁எல்லை	-8.91699
விட்ட	-8.9182
ன்ஸ்	-8.91974
ார்கள்	-8.92198
ியோ	-8.92221
▁வெளியே	-8.9224
▁இணையத்த	-8.9225
▁பேட்டிங்	-8.92301
▁டாக்டர்	-8.92348
▁இடைக்கால	-8.92415
▁சபாநாயகர	-8.92415
▁நூதன	-8.92415
▁பன்னீர்செல்வம்	-8.92415
▁பேட்மிண்டன	-8.92415
▁சந்திரபாபு	-8.92415
▁இரங்கல்	-8.92415
▁வேகத்த	-8.92427
▁கண்டித்த	-8.9243
▁எத்தனை	-8.92432
▁பேச்ச	-8.92569
தம்	-8.92625
▁செல்போன்	-8.92696
▁பஞ்சாப்	-8.92722
▁நடை	-8.92723
▁ஓட	-8.92726
▁ரிலீஸ்	-8.92727
▁படைத்த	-8.92744
▁ஜடேஜா	-8.92839
▁ஹீரோயின்	-8.92989
▁குடும்பத்த	-8.93086
▁தொழிலதிபர்	-8.93087
▁ஆட்சியை	-8.93162
▁மல்லையா	-8.93173
▁ரேஷன	-8.9339
▁புயலா	-8.93551
▁குடும்பம்	-8.94002
▁வடகொரியா	-8.94082
▁மீறி	-8.94178
▁மனிதர்	-8.94348
▁இந்து	-8.94455
▁படத்திற்கு	-8.94722
▁பட்டியல்	-8.9477
▁சசிகலாவ	-8.94772
▁குட்டி	-8.94965
▁இருக்கிறார்	-8.95095
▁ஸ்டாலின	-8.95241
▁கர்நாடகாவ	-8.9526
▁கணவர	-8.95275
▁திர	-8.95494
▁ராஜ	-8.95534
▁ஆந்திர	-8.95889
▁வட	-8.9597
▁பெண்களை	-8.96006
த்தால்	-8.96206
▁மீட்ட	-8.96282
▁மூட	-8.96419
▁நோட்டுகள	-8.96427
▁நெ	-8.96455
▁மண	-8.96468
▁உரிமையாளர்	-8.9652
▁குழந்தைகள	-8.96551
▁படப்பிடிப்பு	-8.966
▁சமந்தா	-8.96667
ச்ஐவி	-8.96762
▁தெரிவித்த	-8.96763
▁நள்ளிரவ	-8.96763
▁பரிந்துரை	-8.96763
▁செங்கோட்டையன்	-8.96763
▁தற்காலிக	-8.96763
▁நிரந்தர	-8.96763
▁டெல்டா	-8.96763
▁ஐஐடி	-8.96764
▁மேலாண்மை	-8.96764
▁முன்னிலை	-8.96764
▁அமித்ஷா	-8.9677
▁விடுவிக்க	-8.96771
▁ஸ்மித்	-8.96772
▁இளையராஜா	-8.96774
▁நேர்ந்த	-8.96778
▁தடுத்த	-8.96783
▁அமைக்க	-8.96794
▁தங்கமணி	-8.968
▁நீதி	-8.96828
▁ஆர்ப்பாட்டம்	-8.96828
▁வருகிறார்	-8.96839
▁70	-8.96853
▁ஆவேசம்	-8.96955
▁தாக்கு	-8.97118
▁லஞ்சம்	-8.97125
▁எழுதிய	-8.9716
ின்றி	-8.97187
▁நிர்வாகி	-8.97279
▁என்பது	-8.9732
▁போஸ்டர்	-8.97348
▁ரத்தம்	-8.97364
▁உடைத்த	-8.97392
▁பிரதமராக	-8.97409
▁தி	-8.97416
▁ஆப்கான்	-8.97476
▁கொடூரம்	-8.9751
▁கட்டாயம்	-8.97531
▁ஜியோ	-8.97535
▁கோயில	-8.97658
▁கோட	-8.97697
▁மூதாட்டி	-8.97796
▁அரசை	-8.97889
▁நகை	-8.97913
▁தோனிய	-8.97934
▁பிளாஸ்டிக்	-8.97964
▁ஷாக்	-8.98073
▁தொடங்கி	-8.98086
▁எது	-8.98136
▁ஸ்டார்	-8.9822
▁ராமர	-8.98225
▁உதவிய	-8.98384
▁இருக்கும்	-8.98398
▁பெற்றோர	-8.98515
▁தொகுதி	-8.98529
▁கார்த்திக்	-8.98561
▁சீனா	-8.98668
▁டீ	-8.98781
▁திரைப்பட	-8.99112
▁பெற்றோர்	-8.99215
▁உலகக்	-8.99298
▁அரசியலில்	-8.99305
▁ராம்	-8.99321
▁ஆட	-8.99354
▁ஊழியர்	-8.99552
▁தலா	-8.99569
▁காத்திருக்க	-8.99647
▁கடத்த	-8.99802
▁சரி	-9.00024
ட்டும்	-9.00073
▁ஆட்டோ	-9.00102
▁தலைமைச்	-9.00187
▁கோலிக்கு	-9.0039
▁ஐதராபாத்	-9.00427
சிங்	-9.00552
▁சீ	-9.0059
▁சின்ன	-9.00594
▁மாடியில	-9.00864
▁இணை	-9.01011
▁ஊர	-9.01052
▁23	-9.01127
ஃபே	-9.01166
▁மிதாலி	-9.01274
▁1000	-9.01281
▁டாப்	-9.01306
▁ஃபர்ஸ்ட்	-9.01309
▁அரையிறுதி	-9.01309
▁பறிப்பு	-9.01309
▁கிறிஸ்தும	-9.01309
▁மம்தா	-9.01312
▁பதிலளிக்க	-9.01312
▁கட்டுப்படுத்த	-9.01319
▁எஸ்பி	-9.01321
▁புகைப்படங்கள்	-9.01328
▁சுஷ்மா	-9.01328
ைத்	-9.01342
▁ட்விட்	-9.01403
▁பத்திரிகையாளர்	-9.01432
ர்ஸ்	-9.01454
▁பேரவை	-9.01467
மர்	-9.01502
▁இந்தியர்கள்	-9.01511
▁கட்டி	-9.01605
▁மது	-9.01625
▁கப்பல்	-9.01648
▁மீன்	-9.01741
▁ஊழியர்கள	-9.01907
ூ	-9.02115
ஹ	-9.02222
▁பாடம்	-9.02251
▁தேர்வில்	-9.02347
ோர	-9.02538
▁எங்களுக்கு	-9.02708
▁பாட	-9.02709
ரிய	-9.02771
யம்	-9.02846
▁தந்த	-9.02934
▁வெள்ளம்	-9.02954
▁சிவ	-9.02977
▁இருந்தால்	-9.03183
▁தொழிலாளர்கள்	-9.032
▁காய்ச்சல	-9.03205
▁வி	-9.0321
ஐஏ	-9.03279
▁ட்விட்டரில	-9.03444
▁வெளியிட	-9.03529
▁கண்டு	-9.03577
▁ஆண்ட	-9.03758
▁டெங்கு	-9.03905
▁கட்சிய	-9.03923
ஆவத	-9.04245
▁வீட்ட	-9.04391
▁காட்சி	-9.04449
ாய்	-9.04487
▁பொய்	-9.04545
▁வந்தது	-9.04627
ிலேய	-9.04913
▁திருட	-9.05033
▁திருமணத்த	-9.05158
சு	-9.05175
ர்பில்	-9.05196
▁தவி	-9.0551
▁அனுமதிக்க	-9.05732
▁ஏற்படுத்த	-9.05805
▁தெலுங்க	-9.06055
▁இங்க	-9.06066
▁அக்ஷய்	-9.0607
▁குல்தீப்	-9.0607
▁சின்மயி	-9.0607
▁கேமரா	-9.06071
▁முன்பதிவு	-9.06071
▁துபாய	-9.06082
▁நோக்கி	-9.06094
▁வெடிகுண்டு	-9.06104
▁குகை	-9.06108
▁மரியாதை	-9.06173
▁மோசமான	-9.06176
▁தவறான	-9.06194
▁பாதை	-9.06222
▁நாட்ட	-9.06231
▁மண்ண	-9.06375
▁தலைவராக	-9.06467
▁முதலிடம்	-9.06489
▁சதி	-9.06596
▁செய்யுங்கள்	-9.06607
▁31	-9.06635
▁அம்பலம	-9.0666
▁பாதிப்ப	-9.06766
▁எங்கே	-9.06777
▁இன்	-9.0679
ங்கா	-9.06867
▁வரித்துறை	-9.0693
▁மோகன்	-9.07068
▁எதிர்க்கட்சிகள்	-9.07095
ிருந்த	-9.07133
▁காலை	-9.07143
▁உபிய	-9.0733
ஃப்	-9.07366
▁முடிவுக்கு	-9.07385
க்கி	-9.07397
▁நாட	-9.07648
▁மருத்துவர்	-9.07748
கர்	-9.07903
ுள்ளது	-9.08028
▁குறைப்பு	-9.08039
னார்	-9.0809
▁ட்விட்டர்	-9.08134
டைய	-9.08154
▁அதிகம்	-9.08184
ரின்	-9.08215
ப்போம்	-9.08301
▁கரை	-9.08328
▁மோதிய	-9.08603
▁பட்டியல	-9.08607
▁விலக	-9.08905
▁காதலன்	-9.08984
▁காதலர	-9.09049
▁ஹா	-9.09049
▁கேரளாவ	-9.09066
ப்போ	-9.09122
தற்கு	-9.09146
▁தெரிய	-9.09175
▁காதலன	-9.09199
▁ஏடிஎம்	-9.09431
▁தொடங்க	-9.09445
▁ராணுவம்	-9.09511
▁பாட்டி	-9.09571
▁மேல்	-9.09594
▁ரவுடி	-9.096
▁நாங்கள	-9.09613
▁தீவிர	-9.09988
▁கால்	-9.10006
▁உயர்நீதிமன்றத்த	-9.10033
▁மர்ம	-9.10099
கம்	-9.10207
▁பிடிக்க	-9.103
▁ஆண்	-9.10302
ப்பா	-9.10334
▁சில	-9.10368
ந	-9.10381
▁வீர	-9.10504
▁வெளியேற	-9.10523
▁மோத	-9.10523
▁வெளியான	-9.10596
ண்டு	-9.10597
▁மனைவிய	-9.10608
பெற்ற	-9.10628
▁முடிந்த	-9.10707
▁சட்டத்த	-9.10721
▁கணக்க	-9.10769
ாவில்	-9.1078
வன்	-9.10832
▁60	-9.10892
▁ஓட்டுநர்	-9.10913
▁சினிமாவ	-9.10917
▁விவசாயிகள	-9.11001
ராயி	-9.11042
ீஸ்	-9.11045
▁ஆறு	-9.11068
▁ஆபாச	-9.1107
▁ஆம்புலன்ஸ்	-9.1107
▁சுவாமி	-9.1107
▁பகீர்	-9.1107
▁பருவமழை	-9.1107
▁பறந்த	-9.1107
▁மறக்க	-9.1107
▁விழிப்புணர்வு	-9.1107
▁ஐசிசி	-9.11071
▁விவரங்கள	-9.11071
ீர்களா	-9.11072
▁அடைப்பு	-9.11073
▁ஜாக்டோ	-9.11075
▁நடக்கிறது	-9.11087
டுபட்ட	-9.11102
▁எழுத்தாளர்	-9.1112
▁முறியடித்த	-9.11135
▁சவ	-9.11137
▁டாக்	-9.1115
▁கலாய்த்த	-9.11156
▁நிபந்தனை	-9.11178
▁மானிய	-9.11202
▁பொது	-9.11204
▁எண்	-9.11257
▁பிரசாத்	-9.11259
க்கிங்	-9.11284
▁விவாதம்	-9.11302
போல்	-9.11393
▁சந்தேகம்	-9.11594
▁நாய்	-9.11621
▁வாரியம்	-9.11696
▁நடக்கும்	-9.11697
▁ஏர்	-9.11708
▁சூர்யா	-9.11717
▁முதியவர்	-9.11736
▁ராம	-9.11751
களால்	-9.11809
▁காவலர்கள்	-9.11858
▁வலை	-9.11956
▁அப	-9.11975
▁அறிமுகம	-9.11994
▁சந்திரசேகர்	-9.12032
▁வைத்தார்	-9.12078
▁விவசாயிகளுக்கு	-9.12132
▁போது	-9.12231
▁விஜய	-9.12302
▁படத்தை	-9.12356
▁வான	-9.12391
▁ராஜா	-9.12432
▁விக்ரம்	-9.12482
▁காதலி	-9.1253
▁பார்	-9.12559
▁சவால்	-9.12692
▁ராகுல	-9.12727
▁சக்தி	-9.12819
▁ஓவர	-9.1289
▁எதிர்ப்ப	-9.12906
▁கேரளா	-9.12988
ியல்	-9.13107
▁பேருக்கு	-9.1321
▁போட்டியிட	-9.1334
ித்த	-9.13597
▁எம்எல்ஏக்கள	-9.13704
▁சுற்று	-9.13801
▁தேர்தலை	-9.13838
▁குற்றவாளிகள	-9.13961
▁நி	-9.14084
▁பதில	-9.14264
▁கட்டிய	-9.14386
▁ஜன	-9.14461
ொ	-9.14465
▁கள	-9.14477
▁செய்யக்	-9.14574
ீங்க	-9.14873
▁சே	-9.14902
▁செய்தார்	-9.14934
▁பதவிய	-9.15024
▁இப்படி	-9.15152
ிட்ட	-9.15273
நிலை	-9.15369
▁அனுஷ்கா	-9.15689
▁திலீப்	-9.1569
▁வீரர்கள	-9.15836
மணி	-9.15967
டிய	-9.15971
▁அச	-9.16048
▁கடலுக்கு	-9.16166
▁செயல்	-9.16313
▁ஒதுக்க	-9.1633
▁பிச்சை	-9.16331
▁சேப்பாக்க	-9.16334
▁டிஜிபி	-9.16334
▁திட்டவட்டம	-9.16334
▁தென்னாப்பிரிக்க	-9.16334
▁நக்கீரன	-9.16334
▁பண்டிகை	-9.16334
▁பிரம்மாண்ட	-9.16334
▁விஞ்ஞானி	-9.16334
▁ஸ்கூட்டர	-9.16334
▁ஹாட்ரிக	-9.16334
▁ஜனவரி	-9.16334
▁தம்பிதுரை	-9.16334
▁திடுக்கிட	-9.16334
▁கணிப்பு	-9.16334
▁தடியடி	-9.16334
▁வித்யா	-9.16334
▁மாட்டிறைச்சி	-9.16337
▁குமாரசாமி	-9.16338
▁நாஞ்சி	-9.16344
▁ராஜ்நாத்	-9.1635
▁அறிவித்த	-9.16358
▁ஜெட்லி	-9.16362
▁அறிவிக்க	-9.1639
▁சம்மன்	-9.16399
▁வேலூர	-9.16412
▁மீட்கப்பட்ட	-9.16417
▁மாயாவதி	-9.16423
▁பட்ட	-9.16428
▁பாஸ்	-9.16464
▁சம்பள	-9.16464
▁அப்படி	-9.16487
▁துரைமுருகன்	-9.16571
▁நீடிக்கும்	-9.16628
ள்ளான	-9.16629
சார	-9.1666
▁மதுசூதனன்	-9.16725
▁மெர்சல்	-9.16725
▁அப்ப	-9.16733
▁80	-9.16834
▁என்றால	-9.16834
▁மாவட்டங்கள	-9.16903
17	-9.16915
▁விலகல்	-9.16978
▁ஏமாற்றம்	-9.17087
▁தீபா	-9.17127
▁கலக்கும்	-9.17216
ண்டி	-9.17236
▁போராடும்	-9.17358
▁போராடிய	-9.1745
▁சின்னம்	-9.17451
▁போட்டோ	-9.17464
க்கான	-9.17525
25	-9.17595
▁பிரான்ஸ்	-9.17669
▁போதும்	-9.17725
▁காலி	-9.17832
▁உணவ	-9.17916
▁திருமணத்திற்க	-9.18063
▁முகாம்	-9.18155
மடைந்த	-9.1817
▁குடி	-9.18282
▁திருடிய	-9.18337
▁ரகசிய	-9.18363
த்துடன்	-9.18422
▁வழக்குகளை	-9.1855
▁கொல்கத்தா	-9.1858
▁தோல்விக்கு	-9.1867
ய்வு	-9.18819
▁செயல்பட	-9.18927
படி	-9.19015
▁பல்கலை	-9.1902
▁அரை	-9.19061
▁அது	-9.19093
▁போக	-9.19159
▁பார்த்து	-9.19214
ப்படுகிறது	-9.19224
▁போல	-9.19294
ார	-9.19296
▁அப்பா	-9.19311
▁மாதிரி	-9.19506
▁கட்டாய	-9.19827
பல்	-9.19907
▁ஆணைய	-9.20044
▁காட்டு	-9.20071
▁பகுதி	-9.20176
மில்	-9.20356
▁கட்டண	-9.2059
▁உற்சாக	-9.20609
▁இப்போது	-9.20618
▁உயிரை	-9.20682
▁படங்கள	-9.20724
▁பயணிகள	-9.20773
▁நாட்டு	-9.20806
▁கொடூர	-9.20857
▁குறை	-9.20891
▁கொட	-9.20965
க்குட்டி	-9.21213
▁பேஸ்புக்	-9.21214
ூக்கு	-9.21253
▁தாக்கி	-9.21317
▁ஃபேஸ்புக்	-9.21407
▁கட்டுப்பாடு	-9.21513
▁விளாசி	-9.21514
டோ	-9.21578
▁48	-9.21608
▁மறைந்த	-9.21651
க்கப்பட்ட	-9.21659
▁தூங்க	-9.21675
ஷா	-9.21686
▁வீட்டு	-9.21754
▁ரெ	-9.21796
▁ரஷ்யா	-9.21818
▁கணக்கு	-9.21833
▁அதிருப்தி	-9.21889
▁எய்ம்ஸ்	-9.21889
▁சடலத்த	-9.21889
▁சத்தீஸ்கர	-9.21889
▁பதக்கம்	-9.21889
▁பீகார	-9.21889
▁வரலாறு	-9.21889
▁வீண்	-9.21889
▁ஹைட்ரோ	-9.21889
▁பிரியங்கா	-9.21889
▁பிருத்வி	-9.21889
▁விவரம்	-9.21889
▁செல்ஃபி	-9.2189
▁ஒதுக்கீடு	-9.21893
▁ப்ளூ	-9.21893
▁மதுக்கடை	-9.21899
▁2019	-9.2191
▁வெளிநாடு	-9.21926
▁பழமையான	-9.21929
▁அழுத்த	-9.21947
▁உடைப்பு	-9.21953
▁காஞ்சிபுர	-9.21972
▁பாலாஜி	-9.2198
▁கண்ண	-9.21981
▁செல்கிறார்	-9.22056
▁போராட்டத்திற்கு	-9.2213
▁இரண்டா	-9.22182
▁வீசிய	-9.22263
▁சுன	-9.22364
▁பால்	-9.22414
டையே	-9.22421
▁முடிந்தது	-9.22433
▁விபரீதம்	-9.22469
▁2000	-9.22482
▁நிறைவேற்றம்	-9.22557
▁விசா	-9.2259
▁எல்லாம	-9.22745
▁நாடுகள	-9.22797
▁கோப்பையை	-9.22886
▁உருவான	-9.2292
▁ஆனால்	-9.22928
▁நினைவிடத்த	-9.23019
▁விரக்தி	-9.23063
▁ஜீ	-9.23107
▁கூறிய	-9.2313
க்குழு	-9.23175
▁தாக்கியத	-9.23251
▁மன்	-9.23408
▁இல்லையா	-9.23409
▁வீட்டை	-9.23436
▁கிம்	-9.23443
ப்படவில்லை	-9.23452
கிறேன்	-9.23457
▁சம	-9.23583
▁பணிகள	-9.23598
▁நாட்டின	-9.23601
ானது	-9.23651
▁வங்கிகள	-9.23801
ட்டிய	-9.23837
▁இஸ்லாமிய	-9.23942
▁சிலைகள்	-9.23967
ச்சு	-9.24025
ானில்	-9.24089
▁போராட்ட	-9.24255
ினி	-9.24263
▁கண்	-9.24395
▁போடு	-9.2453
▁இருக்கு	-9.2453
▁ஸ்ட	-9.24641
▁பை	-9.24679
ேஷ்	-9.24735
ற்று	-9.24814
ணும்	-9.24921
▁பொருட்கள	-9.24966
▁ஒப்படை	-9.25035
▁அவ	-9.25134
வேல்	-9.25134
ாதது	-9.25195
▁27	-9.25423
▁நம	-9.25446
ஷ	-9.25454
ுவது	-9.25459
▁வெடிக்க	-9.25634
▁பரிதாபம்	-9.2569
▁தீர்ப்ப	-9.2581
▁புத்தக	-9.25914
▁காதலர்	-9.26014
▁தேவ	-9.2603
▁குழந்தைகளை	-9.26035
▁நடிகைகள்	-9.26137
▁புத்தாண்டு	-9.26458
▁21	-9.26735
ப்படுத்த	-9.26777
▁ஆஸ்திரேலிய	-9.26871
▁ஷூட்டிங்	-9.26891
▁உதவ	-9.26966
▁பின்னணி	-9.27032
▁கோடியை	-9.27034
▁பனி	-9.27136
▁அன்ற	-9.27177
▁கிடைத்த	-9.27278
இ	-9.27308
▁எண்ண	-9.27323
▁கவு	-9.27391
▁ஹி	-9.27422
▁அணிகள்	-9.27465
▁ஆஸ்திரேலியா	-9.27471
ிப்	-9.27485
▁சம்பளம	-9.27492
▁குடியரசு	-9.27542
▁200	-9.27547
▁தல	-9.27624
▁உள்	-9.27645
▁அமித்	-9.27762
▁அரிவாள	-9.27771
▁இவ்வளவ	-9.27771
▁ஏறி	-9.27771
▁சஸ்பெண்ட்	-9.27771
▁டீஸர்	-9.27771
▁பல்கலைக்கழக	-9.27771
▁புகுந்த	-9.27772
▁நவம்பர	-9.27772
▁ஆதித்யநாத்	-9.27773
▁வரிசை	-9.27775
▁நிரூபிக்க	-9.27775
▁மாப்பிள்ளை	-9.2778
▁திருவிழா	-9.27784
▁தீப்பிடித்த	-9.27798
▁நீண்ட	-9.27807
▁எடியூரப்பா	-9.27813
▁பாடகி	-9.27821
▁பிரதேச	-9.27825
▁ஆர்பி	-9.27836
▁உடல்நிலை	-9.27838
▁குப்பை	-9.27862
▁மொபைல்	-9.27869
▁முடியாமல	-9.2787
▁கடத்தப்பட்ட	-9.27876
▁பரப்ப	-9.27888
▁ஸ்டைல	-9.27888
▁ஏற்பட	-9.27922
▁அதிகாரிகள	-9.27927
▁அமைச்சரவை	-9.27938
▁காணாமல்	-9.27941
▁வீச்சு	-9.27983
▁கர்ணன்	-9.2803
▁நிறுவனங்கள	-9.28037
▁காதலிக்க	-9.28048
▁பணத்தை	-9.28059
▁டிரைலர்	-9.28068
▁திரிபுரா	-9.28085
▁பலியான	-9.28143
▁கத்திய	-9.28164
▁இன்ன	-9.28203
▁கொள்ளையர்கள்	-9.28212
▁நீக்கப்பட்ட	-9.28262
▁தேடி	-9.28302
வான	-9.28322
▁செல்லாது	-9.28327
▁விதித்த	-9.28362
▁இஸ்ரேல்	-9.28387
▁வாசி	-9.28389
▁அதிகாரம்	-9.28409
▁வென்றார்	-9.28481
▁இறங்க	-9.28514
▁சங்கர்	-9.28552
▁இன	-9.28596
▁நிவாரணப்	-9.28623
▁நலம்	-9.28638
▁ரிஷ	-9.28655
▁குறைக்க	-9.28706
ாளர்கள்	-9.28853
▁இர	-9.28969
▁ஐநா	-9.29032
▁எஸ்	-9.29061
▁கொட்ட	-9.29194
▁பிரபாஸ்	-9.29275
▁உயர்	-9.2929
▁கருணை	-9.29474
ஸ்ட்	-9.297
▁பாலம்	-9.29939
▁ஆள்	-9.29993
▁குற்ற	-9.3009
▁நிலையம்	-9.30104
▁வாகனங்கள	-9.30344
▁அழி	-9.30389
▁வீழ்த்த	-9.30567
▁குறி	-9.30673
▁பேருந்த	-9.30713
யில்லை	-9.30755
▁சு	-9.31
▁போலீஸ	-9.31032
▁போராட	-9.31045
▁ரெய்னா	-9.31062
▁விமானத்தில	-9.31264
▁தப்பி	-9.31301
▁இந்தியன்	-9.31357
ரோ	-9.31365
▁இயக்கத்த	-9.31567
▁மெ	-9.31588
சிய	-9.31657
ன்று	-9.3166
▁துப்பாக்கிய	-9.31768
▁பெற்று	-9.31801
ப்பி	-9.31807
லையில்	-9.31833
▁இறுதிப்	-9.32011
ப்படி	-9.32012
▁புல	-9.32048
▁இடை	-9.32069
▁இணைப்பு	-9.3212
▁விளையாட்ட	-9.32203
▁முடக்க	-9.32515
ோட	-9.32751
▁இணைந்த	-9.32946
▁மன்ற	-9.33008
்டில்	-9.33032
▁வங்கதேச	-9.33042
▁உண்ணாவிரத	-9.33054
▁குத்த	-9.33212
▁நட்சத்திர	-9.3323
▁கும்ப	-9.33251
▁தமிழர்கள	-9.33268
▁கிடைக்க	-9.33309
▁அவர்	-9.3333
ோர்ட்	-9.33633
▁ஒன்று	-9.33741
▁குதித்த	-9.3378
▁பாம்பு	-9.33796
▁மீட்க	-9.33923
▁அட்வைஸ்	-9.34021
▁கன்னியாஸ்திரி	-9.34021
▁சிபிஎஸ்இ	-9.34021
▁ஜம்மு	-9.34021
▁திண்டுக்கல்	-9.34021
▁பீட்டா	-9.34021
▁புஜாரா	-9.34021
▁பெரும்பான்மை	-9.34021
▁மறியல்	-9.34021
▁வித்தியாச	-9.34021
▁விஸ்வரூபம்	-9.34021
▁பாஸ்போர்ட்	-9.34022
▁கின்னஸ	-9.34022
▁மாற்றுத்திறனாளி	-9.34023
▁கையெழுத்து	-9.34024
▁தாய்லாந்த	-9.34024
▁தலையிட	-9.34025
▁சுழல	-9.34025
▁பார்வதி	-9.34026
▁குடிநீர்	-9.34027
▁சுரேஷ்	-9.34028
▁வாடகை	-9.34029
▁வர்தா	-9.34031
▁கண்ணாடி	-9.34031
▁நடிப்ப	-9.34035
▁தர்ம	-9.34038
▁பணமதிப்பிழப்ப	-9.34038
▁குறைவு	-9.3404
▁சதத்த	-9.34047
▁பாணி	-9.34052
▁சேர்ப்பு	-9.3407
▁வேகமா	-9.34086
▁பூட்டு	-9.34089
▁தீவிரவாதிகள	-9.3411
▁சொல்கிறது	-9.34133
▁பசு	-9.34146
▁கல்வி	-9.34186
▁எடுத்து	-9.34202
▁பிரபலங்கள்	-9.34214
▁இணைக்க	-9.34228
▁நின்ற	-9.34236
▁கவுதம்	-9.34239
▁கூட்டத்த	-9.34265
▁முடித்த	-9.34306
▁யுவராஜ்	-9.34306
▁கிண்டல்	-9.34306
▁தீர்வ	-9.34319
▁மபி	-9.34347
▁திருப்பி	-9.34374
▁விதிக்க	-9.34466
▁சான்றிதழ்	-9.34491
▁டிரைவர்	-9.34508
▁முன்ப	-9.34516
ய்யா	-9.3452
▁கதற	-9.34523
▁போட்டிகளில	-9.34548
▁தீர்த்த	-9.34601
ருக்கு	-9.34607
▁பான்	-9.34623
▁தமிழ்நாட்டி	-9.3465
▁சர்	-9.34654
▁பதறவை	-9.34665
▁பாடிய	-9.34708
▁விமானத்த	-9.34841
▁ட்விட்டர	-9.34845
க்கிறது	-9.34847
▁வங்கிக்	-9.34916
▁விஜயன்	-9.34957
▁பந்துவீச்சாளர்	-9.34984
▁தக்க	-9.35089
▁பாக	-9.35119
▁சிங்க	-9.35187
▁26	-9.35217
▁வில்லன்	-9.35222
▁கிர	-9.35264
▁நிதின்	-9.35344
▁சொல்வத	-9.3542
▁டன்	-9.35502
▁சிறுவன	-9.3553
ொட்டி	-9.35569
50	-9.35572
▁உற்சாகம்	-9.35592
▁22	-9.35809
மில்லை	-9.35811
▁டீம்	-9.35829
▁விவசாயிகளை	-9.3585
▁மார்க்	-9.35905
▁கருணாநிதியை	-9.3596
▁லண்டன்	-9.35997
▁மாதவன	-9.36012
னுக்கு	-9.36162
▁கொடுத்து	-9.36212
▁எம்எல்ஏவ	-9.36239
▁இயக்கம்	-9.36283
▁அணியை	-9.36295
▁மகனை	-9.36411
▁மதிப்பில	-9.36453
ுவதை	-9.36478
▁பங்க	-9.36767
▁சகோதரர்கள	-9.36969
▁மாற்றிய	-9.37011
▁சுரங்க	-9.37039
வேண்டும்	-9.37049
▁மொழி	-9.37088
வதை	-9.37316
▁அறிவிப்ப	-9.37387
▁ஆற்ற	-9.37773
வரா	-9.37823
▁ஊழியர	-9.37861
▁வெளிநாட்டு	-9.37862
▁கமல்ஹாசன	-9.37913
▁பரிச	-9.37916
▁தினம	-9.38138
▁மறுக்க	-9.38194
▁உறவ	-9.38229
ாங்க	-9.38302
▁செல்	-9.3834
▁ட்ரெண்ட்	-9.38425
▁இங்கிலாந்த	-9.38861
த்திற்க	-9.38868
500	-9.38913
▁பாச	-9.38933
▁பல்	-9.39109
▁தவறி	-9.39274
▁நீர	-9.39297
▁நிர்வாக	-9.39415
▁அமைதி	-9.39596
ட்லி	-9.39652
ம்ப	-9.39669
▁சுட்ட	-9.39674
▁காற்ற	-9.39733
ாளி	-9.39736
▁மூட்ட	-9.3974
களும்	-9.3978
▁பணியிட	-9.39828
▁தெலங்கானா	-9.39876
▁களத்தி	-9.39922
▁அளவ	-9.40097
ஸ்ட	-9.40106
▁வாய்	-9.4012
முறை	-9.40144
▁வாய்ப்ப	-9.40198
க்கட்ட	-9.403
▁ஆகும்	-9.40315
▁சிஎஸ்கே	-9.40462
கால	-9.40518
▁விஷ	-9.40543
ஞ்சா	-9.40597
▁எத	-9.40608
▁சுகாதார	-9.4067
▁அனிருத்	-9.40688
▁அர்ச்சகர்	-9.40688
▁ஆர்எஸ்எஸ்	-9.40688
▁இறைச்சி	-9.40688
▁இளவரசர்	-9.40688
▁காலிறுதி	-9.40688
▁குற்றப்பத்திரிக	-9.40688
▁சிவசேனா	-9.40688
▁தருமபுரி	-9.40688
▁முடியுமா	-9.40688
▁மேற்பட்ட	-9.40688
▁யாதவ்	-9.40688
▁விஹாரி	-9.40688
▁சானியா	-9.40688
▁அதிசய	-9.40688
▁சூசக	-9.40688
▁சேவாக்	-9.40688
▁முடியவில்லை	-9.40689
▁விசாரித்த	-9.40689
▁நினைத்த	-9.40689
▁ஏழு	-9.40689
▁ஜூன	-9.40689
▁எரிந்த	-9.4069
▁தட்டுப்பாடு	-9.4069
▁ஹெச்ஐவி	-9.4069
▁மறைவு	-9.40699
▁அமளி	-9.40699
▁படேல்	-9.40699
▁கோடியா	-9.40701
▁எண்ணெய்	-9.40701
▁கவன	-9.40703
ப்பெரிய	-9.40704
▁வெல்ல	-9.40714
▁ஆத்மி	-9.40714
▁நெகிழ	-9.40735
▁பெரியாற	-9.40736
▁கூடுகிறது	-9.40737
▁காத்திருந்த	-9.40753
▁வெடி	-9.40789
▁ஜெர்மனி	-9.40812
▁ஏற்பட்ட	-9.40814
▁கற்க	-9.40824
▁உருக	-9.4084
▁மணிரத்னம்	-9.40856
▁சூரிய	-9.40863
▁கோபால்	-9.40887
▁மறுநாள	-9.40896
▁போர்டு	-9.40925
▁தவறாக	-9.40979
ப்பை	-9.40985
▁படப்பிடிப்ப	-9.40992
▁திவாகரன்	-9.40993
▁வலி	-9.41088
க்கோரி	-9.41116
▁தமிழகத்துக்கு	-9.41187
▁வருத	-9.41193
▁ஃபேஸ்புக்க	-9.41273
▁கடித்து	-9.41312
▁தோ	-9.41383
▁சைக்கிள்	-9.41392
▁குர்	-9.41399
காத	-9.41458
▁அபாயம்	-9.41533
▁ஓடிய	-9.41542
▁கடல்	-9.41627
ுவார்	-9.41641
▁தெரியாத	-9.41702
▁கலைத்த	-9.41744
▁குஜராத்தில	-9.4179
▁சிறுவர்கள்	-9.41854
▁ஆனார	-9.41903
▁29	-9.4194
▁அளவில	-9.41962
▁தள்ளி	-9.42082
குமார்	-9.42095
▁ராய்	-9.42112
▁விரட்டி	-9.42112
▁கொலையா	-9.4221
▁புகழ்	-9.42222
▁ஐந்த	-9.42335
ரான	-9.42413
▁கொடி	-9.42478
டம்	-9.42513
▁யானைகள்	-9.42589
▁மகன	-9.42602
▁மோகன்லால்	-9.42615
கும்	-9.42655
▁பந்து	-9.42898
னது	-9.42977
▁மாட்ட	-9.43059
▁ஏரி	-9.43094
▁துரத்த	-9.4317
▁போராடி	-9.43186
▁மனத	-9.43279
▁நாக	-9.43287
▁ஜா	-9.43346
▁தோற்ற	-9.43351
▁காதல	-9.43462
▁ஹே	-9.43498
ஸ்வர	-9.43628
▁குற்றவாளி	-9.43799
▁ஜோ	-9.43829
ுவதாக	-9.43947
▁அத	-9.43955
▁மதிப்ப	-9.44289
ப்படுத்திய	-9.44434
100	-9.4446
▁அப்போலோ	-9.44651
ோவில்	-9.44894
▁அமை	-9.44912
வைத்த	-9.44958
▁புகழ	-9.44972
▁வேண்டிய	-9.44979
▁பிறந்தநாள	-9.4502
▁ஆசிரியர	-9.45027
▁சிக்கல	-9.4504
▁இயக்குநர	-9.45043
▁தாக்குதல	-9.45083
▁தமிழர்	-9.45246
▁நாட்களுக்கு	-9.45248
ாடி	-9.45546
▁உங்க	-9.4566
▁போன்	-9.45738
▁மரணத்த	-9.45759
▁ட்ரெண்ட	-9.45869
ிகள்	-9.45891
▁யூ	-9.46015
▁150	-9.46146
▁வாழ்வ	-9.46216
▁வீழ்த்தி	-9.46221
▁தட	-9.46246
▁பங்கேற்க	-9.46307
▁சர்ச்சைக்கு	-9.46312
களுக்காக	-9.46408
▁சென்று	-9.46437
▁300	-9.46615
▁கலக்க	-9.46652
வாதம்	-9.46802
ுக்குள்	-9.46848
▁பரபரப்ப	-9.46925
▁தொழிலாளர்கள	-9.46956
▁பெண்கள	-9.47064
▁வடகொரிய	-9.47212
ாம்	-9.47298
சக்கர	-9.47373
▁சிறுமிகள	-9.47399
▁பிரிவு	-9.47444
▁உருவாக்க	-9.47575
▁கருப்பு	-9.4758
▁லீ	-9.47604
▁சாய்	-9.47693
▁ரத்த	-9.47696
▁ஹெல்மெட்	-9.47802
▁எல்லா	-9.47817
▁சுங்கச்சாவடி	-9.47831
▁விதிமீறல	-9.47831
▁ஊடகங்கள	-9.47831
▁கணினி	-9.47831
▁கண்காட்சி	-9.47831
▁சடலம	-9.47831
▁சதவிகித	-9.47831
▁சதவீத	-9.47831
▁சாஸ்திரி	-9.47831
▁சிதம்பரம்	-9.47831
▁திருநாவுக்கரசர்	-9.47831
▁தொலைபேசி	-9.47831
▁நன்கொடை	-9.47831
▁பானர்ஜி	-9.47831
▁பிஎஸ்என்எல்	-9.47831
▁மதிப்பெண்	-9.47831
▁மார்க்சிஸ்ட்	-9.47831
▁இஸ்ரோ	-9.47831
▁ஆபத்து	-9.47831
▁வாட்ஸ்அப்	-9.47831
▁கழுத்த	-9.47831
▁தரிசனம்	-9.47831
▁ஆயுள்	-9.47832
▁பேரறிவாளன	-9.47832
▁ஸ்ரீரெட்டி	-9.47834
▁ஜிவிபிரகாஷ்	-9.47834
▁ஆறுமுகசாமி	-9.47834
▁செயலி	-9.47834
▁கேன்சர	-9.47834
▁கொந்தளி	-9.47836
▁வார்த்தை	-9.47841
▁கங்கை	-9.47841
▁சிவாஜி	-9.47843
▁பங்களாதேஷ்	-9.4785
▁சேகர்	-9.47852
க்கடை	-9.47859
▁தேவையில்லை	-9.47868
▁திரையரங்குகள	-9.47872
▁வீசப்பட்ட	-9.47878
▁தொகை	-9.47878
▁சமாஜ்வாதி	-9.47882
▁சிறுத்தை	-9.47895
▁முல்லைப்	-9.47898
▁மாநிலங்களவை	-9.479
▁144	-9.47904
▁ரெட்	-9.47906
▁ஹூ	-9.47919
▁வடசென்னை	-9.47951
▁மாநாடு	-9.47959
ப்போன	-9.4796
▁நோக்கம	-9.47963
▁சிட்டி	-9.47991
▁செலவ	-9.48006
▁வலைத்தளங்கள	-9.4801
▁நீர்மட்டம்	-9.48013
கான்	-9.48031
▁தாதா	-9.48032
▁அந்தமான	-9.48034
▁முந்த	-9.4805
▁ரணில	-9.48094
▁கள்ள	-9.48125
சரி	-9.48126
▁வாட்ஸ்	-9.4816
▁சுட்டுக்	-9.48183
▁அலி	-9.48193
▁மாசு	-9.48198
▁ஆவ	-9.48221
▁முகமது	-9.48238
▁டிச	-9.48307
▁இடத்தில்	-9.48314
▁பாதுகாக்க	-9.48338
▁புற்றுநோய்	-9.48376
▁செய்யலாம்	-9.48419
▁கரம்	-9.48444
▁புறப்பட்ட	-9.48462
▁அஜித்தின்	-9.48485
▁வாக்குவாதம்	-9.485
▁அழைத்து	-9.48522
▁செய்தியாளர	-9.48559
▁நெல்	-9.48586
▁பிக்பாஸ்	-9.48589
▁தவிர்க்க	-9.48591
ஸி	-9.48614
▁ஷங்கர்	-9.48642
▁விற்ற	-9.4867
▁தஞ்சை	-9.48695
▁கார்டு	-9.48707
▁பின்னா	-9.48778
▁ஹர்பஜன்	-9.48824
▁ஐஎஸ்	-9.48847
▁ஆண்டுகளாக	-9.48868
▁சஞ்ச	-9.48894
▁முஸ்லிம்	-9.489
லால்	-9.48943
▁உண்ணாவிரதம்	-9.48953
ராய்	-9.48955
ிவிட்ட	-9.48986
கூட்டிய	-9.49051
கெட்	-9.49076
▁புகழ்ந்த	-9.49098
▁நீங்கள்	-9.49181
ன்னா	-9.49214
▁கெஜ்ரிவால்	-9.49258
▁நம்ப	-9.49367
▁நோய்	-9.49429
▁திக்	-9.49619
▁அசை	-9.49688
▁ஆண்டுக்கு	-9.4973
ற்ப	-9.49763
பாசிட்	-9.49799
▁தொண்டர்கள்	-9.49937
▁மறுப	-9.5001
▁வெடித்த	-9.50115
மோ	-9.50432
ிஷ	-9.50437
▁ஜல்லிக்கட்ட	-9.50687
ெடுத்த	-9.50687
▁சிலைக்	-9.50713
▁திட்டத்த	-9.50918
▁ஓர	-9.50969
வாரா	-9.51111
▁கோலிய	-9.51135
▁ரோ	-9.51161
00	-9.51172
▁காரை	-9.51386
▁முடிவுகள்	-9.51565
க்ஸ்	-9.51697
▁மோடிய	-9.51757
▁பார்வை	-9.51823
▁இணையும	-9.52481
▁கடைகள	-9.52521
▁சக	-9.52704
▁மகா	-9.52833
▁பேசி	-9.52981
▁கைவிட	-9.53086
▁ஆவணங்கள	-9.53137
▁சுவர	-9.53165
▁இந்தியாவில்	-9.53249
▁பறக்க	-9.53329
▁சிற	-9.53426
▁படத்துக்கு	-9.53443
1000	-9.53481
▁படை	-9.53669
▁அழக	-9.5373
▁90	-9.53741
▁வாரிய	-9.53835
▁28	-9.53863
▁பாதிப்புக்கு	-9.53913
▁உரிம	-9.53925
▁வீரர்களை	-9.53973
▁மாட்டார்	-9.54054
▁ஆயுத	-9.54119
15	-9.54258
▁தவற	-9.54464
▁வேற	-9.54495
▁கேட்கிற	-9.54524
▁இறங்கி	-9.54552
ீவ	-9.54558
▁அபாய	-9.5456
▁தொகுதியில	-9.54563
▁ஒப்பந்த	-9.54575
▁காவல்நிலையத்த	-9.54605
▁பாண்ட்யா	-9.54683
▁தாய	-9.54709
▁பதற	-9.54732
▁இந்தி	-9.54765
▁வேட	-9.54791
ளே	-9.54904
▁விள	-9.54926
▁விஷம	-9.55029
டித்த	-9.55057
அ	-9.55079
▁வெட்டி	-9.55092
்ரா	-9.5524
▁சொ	-9.55282
ிறேன்	-9.55284
லாக	-9.55365
▁பதவியேற்	-9.55412
▁ரெடி	-9.55471
▁சரமாரி	-9.55523
ச்சென்ற	-9.55523
▁அரசாணை	-9.55523
▁இடமாற்றம்	-9.55523
▁ஒபாமா	-9.55523
▁கண்கலங்க	-9.55523
▁குஷ்பு	-9.55523
▁சலுகை	-9.55523
▁ஜிம்பாப்வே	-9.55523
▁தலைமறைவ	-9.55523
▁நிலநடுக்கம்	-9.55523
▁நெருங்க	-9.55523
▁பிரச்சனை	-9.55523
▁பொம்மை	-9.55523
▁மல்யுத்த	-9.55523
▁வரலாற்று	-9.55523
▁அதிவேக	-9.55523
▁குண்டர்	-9.55523
▁பிரமாண்ட	-9.55523
▁சுப்ரமணியன்	-9.55523
▁பிரமுகர	-9.55524
▁மலையாள	-9.55524
▁மேட்டூர	-9.55524
▁சூழல	-9.55525
▁நிலக்கரி	-9.55525
▁நடனமாட	-9.55525
▁நெடுவாசல	-9.55526
▁பெருமை	-9.55526
▁தீபக்	-9.55527
▁அடுத்தடுத்த	-9.5553
▁தாத்தா	-9.5553
▁காஜல	-9.55531
▁ஷமி	-9.55532
▁வழிபாடு	-9.55535
▁சபை	-9.55543
▁அண்ணன	-9.55544
▁விரைந்த	-9.55545
▁சாமியார	-9.55549
▁நவாஸ	-9.55554
▁திட்டமிட்ட	-9.55554
▁பெரு	-9.55563
▁நவீன	-9.55565
▁நிதிஷ்	-9.55565
▁ரெய்டு	-9.55579
▁சாய்னா	-9.5558
▁செய்வது	-9.5559
▁நிராகரித்த	-9.55596
▁நுழைந்த	-9.55597
▁நொறுக்கிய	-9.55598
▁ஐடி	-9.55625
▁கோவா	-9.55637
கிரி	-9.55645
▁கவாஸ்கர்	-9.55654
ளித்த	-9.55675
▁திருவள்ளூர	-9.5575
▁மார்ச்	-9.55792
▁பதற்றம்	-9.55796
தலித்	-9.55798
▁மூழ்கிய	-9.55809
▁காணவில்லை	-9.55814
▁ஏஆர்ரஹ்மான்	-9.55879
▁பிரசவம்	-9.55884
▁லீக்	-9.55944
▁பேனர்	-9.55944
▁புகார்கள்	-9.55978
வேதா	-9.56022
▁இந்தோனேஷியாவ	-9.56034
▁அனுபவம்	-9.56044
▁மிஸ்	-9.5607
▁அகிலேஷ்	-9.56111
▁அவசியம்	-9.56121
ண்	-9.56197
▁உயர்நீதிமன்ற	-9.56209
▁நாய்கள்	-9.56224
▁தள்ளிய	-9.56229
▁வேதா	-9.56242
ிட	-9.56251
▁வாக்குகள்	-9.56297
▁என்னா	-9.56317
▁தென்னை	-9.5635
▁கம்ப	-9.56383
▁சுட்டு	-9.56428
▁மருத்துவர	-9.56514
▁ஊர்வலம்	-9.56567
▁இடிந்த	-9.56569
▁ஸ்பெஷல்	-9.56578
▁ஆர்வம்	-9.5658
▁ஒத்த	-9.56602
சாக	-9.56649
▁புத்தகத்த	-9.56698
▁நிறைவேற்ற	-9.56754
▁கார்பன	-9.56801
▁விமானங்கள்	-9.56837
▁நிர	-9.56848
▁நிராகரிப்ப	-9.56897
கலை	-9.56911
▁பட்டம்	-9.56915
▁அச்சம்	-9.56947
▁குரல்	-9.56979
▁களமிறங்க	-9.57049
▁வழக்குப்	-9.5719
▁திரைப்படம்	-9.57232
▁கிரி	-9.57263
▁ஆதரவாளர்கள்	-9.57289
▁அனைவரும	-9.57464
▁கொடுங்க	-9.57562
▁பறக்கும	-9.5772
▁பெற்றது	-9.57933
ணு	-9.57972
▁சுற்ற	-9.57988
▁ஆலையை	-9.58044
▁விதிகள	-9.58133
மன்	-9.58266
▁மலர்	-9.5835
ாவிட்ட	-9.58421
▁டெல்லியை	-9.5845
▁ஆவணங்கள்	-9.58477
▁நிவாரணம்	-9.58547
▁திரட்ட	-9.58557
▁திட்டத்தை	-9.58627
▁மீற	-9.58796
▁டை	-9.58799
▁வேட்பாளர்கள	-9.58802
▁என்பத	-9.58816
▁நெல்லை	-9.58881
▁கெட்ட	-9.58889
வர்களை	-9.59036
▁அஜித்த	-9.59161
▁விசாரணைக்கு	-9.59181
▁சாக	-9.59316
▁வந்து	-9.59363
30	-9.59723
▁விதி	-9.59785
▁கண்காணிப்பு	-9.59831
▁ரயில்கள்	-9.60049
ஹா	-9.60067
▁தேர்வ	-9.60241
▁தே	-9.60263
ஞ்சி	-9.60302
▁இத	-9.60307
▁காய்ச்சல்	-9.60407
▁ஆந்திராவ	-9.60452
▁கொன்று	-9.60481
▁தன்	-9.60608
னேஷ்	-9.60852
ளை	-9.60867
▁மரங்கள	-9.60927
▁எடுக்கும்	-9.60947
▁வதந்தி	-9.61031
▁கண்ணீர	-9.61043
▁முகாம	-9.61093
▁காங்கிரஸ	-9.61128
▁ஜனநாயக	-9.61186
▁மகளை	-9.61222
▁வீட்டுக்கு	-9.6126
▁பொன்	-9.61294
▁சகோதரர்	-9.61423
▁மெக	-9.61681
▁வங்க	-9.6169
ளம்	-9.61741
▁தீர	-9.61876
▁வெட்டு	-9.62177
▁விளக்கு	-9.62201
▁செக்	-9.62278
▁வங்கிகள்	-9.62279
▁பொ	-9.6235
▁வச	-9.62376
▁பக்தர்கள	-9.6239
▁செல்கிற	-9.62469
▁800	-9.62565
▁கருத்த	-9.62621
▁நினைக்க	-9.62665
▁சீட்	-9.62709
▁கரு	-9.62728
ாலு	-9.62924
▁காரணம	-9.63007
▁காட்டி	-9.63065
ரவ	-9.63266
▁தேச	-9.6332
வெடிப்ப	-9.63359
▁மைதானத்த	-9.63377
பெரும்	-9.63381
▁பாரதி	-9.63569
▁நினைவு	-9.63604
▁வேண்டி	-9.63632
▁ஷாரூக்	-9.63632
▁தடுப்பு	-9.63714
▁தம்பி	-9.63727
புரம்	-9.63731
▁பத்திரிகை	-9.63766
▁ஆண	-9.63832
▁துருக்கி	-9.63857
▁தொழிற்சாலை	-9.63857
▁பறவை	-9.63857
▁விஐபி	-9.63857
▁அட்டாக்	-9.63857
▁உதயநிதி	-9.63857
▁ஏவுகணை	-9.63857
▁கடுமையா	-9.63857
▁கஷோகி	-9.63857
▁கிணற்ற	-9.63857
▁சிபிசிஐடி	-9.63857
▁தரவரிசை	-9.63857
▁நூற்றாண்ட	-9.63857
▁முன்னேறிய	-9.63857
▁முன்னேற்றம்	-9.63857
▁ரோஹிங்ய	-9.63857
▁துணைவேந்தர	-9.63857
▁ஹனுமன	-9.63857
▁மாலத்தீவ	-9.63857
▁அக்டோபர	-9.63857
▁கம்யூ	-9.63858
▁துணி	-9.63859
▁செய்வோ	-9.63862
▁அலர்ட்	-9.63863
▁எஸ்டேட்	-9.63865
▁அழுத	-9.63865
▁மேட்ச்	-9.6387
▁சுந்தர்	-9.63873
▁அர்ஜுன	-9.63878
▁இழக்க	-9.6388
▁இரவு	-9.63881
▁நாயகி	-9.63882
▁கைதான	-9.63882
▁பாவனா	-9.63887
▁சாப்பிட்ட	-9.63888
▁2018	-9.6389
▁பாய்ச்ச	-9.63904
▁செரினா	-9.63918
சல்யா	-9.6392
காந்த	-9.63923
▁மேனன்	-9.63931
▁புதுசு	-9.63953
▁கன்னட	-9.63954
▁கண்கள	-9.63959
▁ஹேக்கர்கள்	-9.63968
▁தாமதம்	-9.63969
▁தடகள	-9.63974
▁மெசேஜ்	-9.63999
▁திரும்பினார்	-9.64002
▁பிரபாகரன்	-9.64007
▁தாலி	-9.6403
▁சிந்து	-9.64047
▁மசூதி	-9.64068
▁யோ	-9.64076
▁வாரியர்	-9.64078
▁தள்ளிப்போ	-9.64094
▁கபடி	-9.64105
▁படிப்ப	-9.64111
▁63	-9.64117
▁மாணவிகள	-9.64122
▁பணப்பட்டுவாடா	-9.64139
▁கிடந்த	-9.6415
▁ஆபத்தான	-9.64156
▁போலீஸார்	-9.64172
▁சுய	-9.64202
▁பின்பு	-9.64231
ிட்டர்	-9.64243
▁வினாத்தாள்	-9.64245
▁அகர்வால்	-9.64245
▁சசிகுமார்	-9.6425
லே	-9.64332
▁ஏற்படுத்திய	-9.64334
னால	-9.64364
▁எரித்து	-9.64367
▁ஸ்வ	-9.6437
▁குழப்பம்	-9.64371
▁வெட்டிய	-9.64402
▁கெ	-9.64435
▁முடிக்க	-9.64441
▁கட்சிகள	-9.64463
த்திரை	-9.64485
▁அனல்	-9.64491
▁தருண	-9.64516
▁தீர்க்க	-9.64523
▁தத்தளி	-9.6461
▁தாண்டிய	-9.64656
▁ராஜமவுலி	-9.64672
▁ஜாதவ்	-9.64752
▁பயங்கரம்	-9.64755
▁கல்லூரிகளுக்கு	-9.64815
▁தூதர்	-9.64817
ாரம்	-9.64827
▁திருநங்கைகள்	-9.64835
ற்க	-9.64864
▁சூட்ட	-9.64903
▁நிறுவன	-9.64916
ிற்க	-9.64954
னில்	-9.64981
▁அனுஷ்காவ	-9.65001
▁விலகிய	-9.65092
▁காயத்த	-9.65183
▁ஐஎஸ்எ	-9.65206
▁அமேசான்	-9.65264
▁டிரம்ப்	-9.65265
▁புத்தகம்	-9.65287
ரம்	-9.65487
▁மர்மம்	-9.65528
▁வார்னர	-9.65564
▁வழக்குகள்	-9.65611
▁போப	-9.65625
▁வெட்ட	-9.6569
▁பவர்	-9.65691
யுங்கள்	-9.65712
▁புத்தாண்ட	-9.65771
▁எல்லைய	-9.65808
▁முடக்கிய	-9.65821
▁பணிய	-9.65874
▁செய்தேன்	-9.65936
▁தந்தையை	-9.65999
▁தற்கொலைக்கு	-9.66072
▁கரையை	-9.66114
▁விலகின	-9.66198
▁நாட்டை	-9.66201
▁ஆண்டுகளுக்குப்	-9.66239
▁மழையா	-9.6645
▁வழக்கம்	-9.66473
▁அன	-9.66542
▁திறந்து	-9.66607
மாத	-9.66645
ாளர்	-9.66688
▁ஏடிஎம்கள	-9.66703
▁கிராமங்கள	-9.66734
▁பட்ஜெட்ட	-9.66741
▁விமானி	-9.66803
ரான்	-9.66842
▁குடும்பத்தை	-9.66845
▁பாடல	-9.66958
▁கூட்டத்தில	-9.66963
▁மாநிலங்கள	-9.67056
ரே	-9.67073
▁இணைப்ப	-9.67161
ானார்	-9.67501
▁ஆடை	-9.67592
சம்	-9.6788
▁உருவ	-9.6792
▁செல்வத	-9.68161
க்கிய	-9.6818
▁பதிவ	-9.68186
▁மான்	-9.68303
▁தொட்ட	-9.68383
▁பக்க	-9.6846
▁நயன்தாராவ	-9.68778
46	-9.68887
▁அம்மாவ	-9.6897
▁ஊர்	-9.69282
கிறாரா	-9.69294
▁கொள்ள	-9.69524
▁37	-9.69775
▁பிற	-9.69781
வந்த	-9.69795
60	-9.69821
▁மண்	-9.69926
▁அழகி	-9.69984
▁அற	-9.69994
▁இந்தியர்	-9.70081
▁மலர	-9.70084
▁லண்டன	-9.70102
▁ராஜஸ்தான	-9.70146
▁உருக்கம	-9.70162
▁ஆட்சியர	-9.70166
▁ரசிகர	-9.7027
டைந்த	-9.70345
வள	-9.70375
▁செய்க	-9.70444
ினேன	-9.7048
ேஷன்	-9.70525
▁ஆல்	-9.70656
▁சேத	-9.70662
▁35	-9.7071
▁பொறுப்பு	-9.70808
லர்	-9.70931
கொள்ள	-9.70978
ாட்ட	-9.7108
▁மேகாலயா	-9.71086
தற்க	-9.71152
▁உற	-9.713
க்கிறோம	-9.71371
▁நம்பர	-9.71414
ளி	-9.71418
▁சிரி	-9.71461
▁ஆசிரியர்கள	-9.71491
ுவதில்	-9.71492
▁பாதிரியார்கள	-9.71506
▁அதிகார	-9.71612
▁அக	-9.71763
வம்	-9.71774
▁கைதி	-9.71838
▁பயங்கர	-9.71847
▁கேப்டனாக	-9.71898
▁அழைத்த	-9.71904
▁1500	-9.7195
▁ஆரம்ப	-9.71974
▁விபரீத	-9.71988
▁தொடக்க	-9.72044
▁உடை	-9.72097
▁கிறிஸ்	-9.7215
▁இந்தோனேஷிய	-9.72343
எ	-9.72399
▁மலேசியா	-9.7241
ஷி	-9.72436
ஓ	-9.72492
வேறு	-9.72499
மோகன்	-9.72507
ுவிட்டார்	-9.7253
▁கலைஞர்	-9.72549
▁நேர்மை	-9.72565
▁கொல	-9.72614
▁சாஹ	-9.72672
▁தயாரிப்ப	-9.72678
▁ராவ	-9.72694
▁பண்ண	-9.72695
▁இரும்பு	-9.72763
▁ஓட்டிய	-9.72883
▁அரவிந்த்	-9.72931
▁பிரியா	-9.72942
நாதன்	-9.72945
▁ஒழிக்க	-9.72948
▁கண்காணிக்க	-9.72948
▁நெருக்கடி	-9.72948
▁லட்சுமி	-9.72948
▁விநோத	-9.72948
▁அகாடமி	-9.72948
▁இளவரசி	-9.72948
▁எஸ்எம்எஸ்	-9.72948
▁கங்குலி	-9.72948
▁காங்கிரச	-9.72948
▁காய்கறி	-9.72948
▁குத்துச்சண்டை	-9.72948
▁கூவத்தூர	-9.72948
▁சட்டமன்ற	-9.72948
▁ஜோதிகா	-9.72948
▁நிலச்சரிவ	-9.72948
▁நெட்டிசன்கள்	-9.72948
▁நேபாள	-9.72948
▁பீர்	-9.72948
▁பெருமிதம்	-9.72948
▁மிசோரம	-9.72948
▁ரொனால்டோ	-9.72948
▁லாரன்ஸ்	-9.72948
▁வடகிழக்கு	-9.72948
▁விடுவிப்பு	-9.72948
▁விண்வெளி	-9.72948
▁விவாகரத்து	-9.72948
▁ஹரியானா	-9.72948
▁அம்ருதா	-9.72948
▁உத்தரவை	-9.72948
▁கண்டெடு	-9.72948
▁தமன்னா	-9.72948
▁ஒவ்வ	-9.72948
▁திடுக்	-9.72948
▁ஏப்ரல	-9.72948
▁அமோக	-9.72948
▁பேரிடர	-9.72949
▁நாராயணசாமி	-9.7295
குடியரசுத்தலைவர்	-9.7295
▁ஒப்புக்கொண்ட	-9.72951
▁வைகை	-9.72951
▁மேஜிக்	-9.72952
▁உள்துறை	-9.72952
▁நிறைவேறியது	-9.72953
▁எதிர்கொள்ள	-9.72953
▁நிலவரம்	-9.72954
▁இவர்கள	-9.72954
▁ஸ்மார்ட்	-9.72955
▁வீரப்பன	-9.72956
▁இணையதளங்கள	-9.7296
▁முதன்முறையாக	-9.72963
▁விடுத்த	-9.72964
▁தாக்கரே	-9.72965
▁குளிக்க	-9.72972
▁தள்ளிவிட்ட	-9.72973
▁பேடி	-9.72973
▁படேகர்	-9.72986
▁செயல்பட்ட	-9.73003
▁அட்டை	-9.73013
▁மெல்போர்ன	-9.73014
▁அதிபர	-9.7302
▁மரத்த	-9.73027
▁அடைந்த	-9.73027
ேற்று	-9.73034
▁எமி	-9.73038
▁காலணி	-9.73047
▁வசூலி	-9.73053
▁ஐடியா	-9.73083
▁கட்சிக்கு	-9.73089
வான்	-9.7309
▁பிரிட்ட	-9.73104
▁வீட்டிற்கு	-9.73109
▁ரில	-9.73133
▁தொடங்குகிறது	-9.7314
▁வர்மா	-9.73143
▁மாயம்	-9.73147
▁ஐஜி	-9.73151
▁வீழ்த்திய	-9.73154
▁பயணித்த	-9.7316
▁முருகன்	-9.73233
▁விரும்பவில்லை	-9.73253
ஷிப்	-9.73278
▁பார	-9.733
▁பென்	-9.73306
▁தேட	-9.73322
▁மூன்றா	-9.73331
▁வைக்கப்பட்ட	-9.73383
▁மீனவர்	-9.73407
▁திரும்பிய	-9.73448
▁மயங்க	-9.73493
▁சிக்கித்	-9.73505
▁வே	-9.73569
▁நம்பிக்கையில்ல	-9.73591
க்கடல	-9.73599
▁பாராட்ட	-9.73604
▁சித்து	-9.73625
▁கிளப்ப	-9.7364
▁புதுச்சேரியில	-9.7365
▁ஸ்ருதிஹாசன்	-9.73654
▁சீரா	-9.73664
▁விலக்கு	-9.7367
▁நுழைய	-9.73773
▁கட்டடம்	-9.73776
▁அடையாள	-9.73781
▁புதைத்த	-9.73794
▁இல	-9.73856
▁சுர	-9.73874
ீஷ்	-9.73918
▁ஃபெடரர்	-9.73933
▁கணேசன்	-9.73933
▁சரத்குமார்	-9.73938
்பூர்	-9.73946
▁பொன்மாணிக்கவேல்	-9.74002
▁உரை	-9.74042
▁கிளை	-9.74092
▁கல்யாண	-9.74133
▁கேக்	-9.74142
▁சந்தை	-9.74212
▁உறவினர்கள்	-9.74218
▁சீல்	-9.74221
ந்தது	-9.74228
▁தூக்கு	-9.74233
▁சாமி	-9.74247
▁சென்ட	-9.74296
▁நிறுத்திய	-9.743
▁நிர்வாகம்	-9.74311
▁ராகுலுக்கு	-9.74438
▁செய்யவில்லை	-9.74458
16	-9.74481
▁எதிரி	-9.74499
ிடு	-9.7451
▁மேடைய	-9.74534
▁பாடல்கள்	-9.74555
▁சல்மான்	-9.74664
▁ராஜேந்திர	-9.74695
▁பிடிவா	-9.74722
▁வலுக்க	-9.74725
▁வலு	-9.74817
தான	-9.75034
▁குறைந்த	-9.75044
▁மன்ன	-9.75094
▁தோள	-9.75128
▁பயணி	-9.75269
▁ஏலத்த	-9.75294
▁வைர	-9.75364
▁பாட்டில்	-9.7541
ளா	-9.75465
டுக்கி	-9.75466
த்திரி	-9.75485
▁மெட்ரோவ	-9.75502
▁அனுமதிய	-9.75514
▁யாரால	-9.75609
ப்படாத	-9.75617
▁வேன	-9.75623
▁காமெடி	-9.75643
▁தகவல்களை	-9.75818
▁ஷே	-9.75831
வர்கள	-9.75965
▁செலவு	-9.7598
கன்	-9.75997
▁போராட்டங்கள	-9.76033
▁சிக்கியது	-9.76046
▁வெள்ளி	-9.76138
▁திறமை	-9.76281
▁மித	-9.7633
▁தூக்க	-9.76364
ரோட்ட	-9.76455
▁பெயரை	-9.76473
▁எல்	-9.76475
▁ஏப	-9.76574
▁சுவர்	-9.76596
▁ஏமாற்ற	-9.76689
▁கிட	-9.76784
▁குவித்த	-9.76943
▁மாதங்கள	-9.77127
▁ஆசிரியர்கள்	-9.77269
▁சிரியாவ	-9.77352
▁தொகுதிகளில	-9.77376
▁தலைமையில	-9.77493
▁படுகோனேவ	-9.77555
▁தாண்ட	-9.77667
▁எதிர	-9.77823
▁கண்ட	-9.77995
▁கட்சிகள்	-9.78054
▁சூர	-9.78137
▁சிறைக்கு	-9.78212
▁உயிர	-9.78339
▁சிரியா	-9.7842
▁சார்	-9.78547
▁சுரங்கத்த	-9.78574
ன்ட்	-9.78704
▁மெரினா	-9.78709
▁நடக்க	-9.78994
▁400	-9.79124
ம்ச	-9.79145
▁லோக்	-9.79343
▁பாக்ஸ	-9.79358
▁72	-9.79831
▁கீழ	-9.79843
▁யோகா	-9.79845
▁போட்டியா	-9.7985
▁குடும்பத்தினர	-9.80007
வத	-9.80028
▁மோகன்லால	-9.80097
▁விக்ரம	-9.8012
▁எம்ஜிஆர	-9.80136
▁ஸ்டார	-9.80161
▁மாணவர	-9.80161
▁பிளா	-9.80222
▁ராக்கி	-9.80337
▁ஜெயராமன	-9.8045
▁நடிகர	-9.8051
ங்கி	-9.80802
மிர்த	-9.80913
▁மாணவர்களை	-9.80984
▁திருடி	-9.81055
▁இல்லாதத	-9.81056
நாத்	-9.81135
▁சொன்னார்	-9.81249
பட்ட	-9.81294
▁வாழ்க்கைய	-9.81313
ஜன்	-9.81528
▁ரீமேக்	-9.81636
▁ஆசி	-9.81797
▁ராஜபக்ச	-9.81865
▁அஸ்வின	-9.81904
றுக்க	-9.81977
▁சுற்றி	-9.82006
▁பர	-9.82008
▁விக்	-9.82012
சர்	-9.82014
▁ராணா	-9.82026
▁நன	-9.82029
▁கடவுள	-9.82044
▁கைய	-9.82147
போ	-9.82175
▁விழ	-9.82191
▁குக்	-9.82275
▁தவிர்	-9.82306
▁செய்யாத	-9.82319
▁அன்பு	-9.82337
போதைய	-9.82436
டேட்	-9.82551
ார்களா	-9.82566
▁அமலா	-9.82657
தேவி	-9.82696
▁வளர	-9.82737
▁பணக்கார	-9.82747
▁இணைந்து	-9.82842
▁நிமிட	-9.82892
வீன	-9.82893
ழிவு	-9.829
ரிசல	-9.82914
மீத்	-9.82946
▁அக்கறை	-9.82948
▁அடேங்கப்பா	-9.82948
▁அவதூற	-9.82948
▁ஆதரவற்ற	-9.82948
▁ஆப்கானிஸ்தான	-9.82948
▁இணையதளத்த	-9.82948
▁ஊற்றி	-9.82948
▁ஏர்போர்ட்	-9.82948
▁ஒழுங்க	-9.82948
▁கன்னியாகுமரி	-9.82948
▁கபில்தேவ்	-9.82948
▁களைகட்டிய	-9.82948
▁கேபிமுனுசாமி	-9.82948
▁கைகலப்ப	-9.82948
▁ஜனாதிபதி	-9.82948
▁டிவில்லியர்ஸ்	-9.82948
▁டொனால்ட	-9.82948
▁தகனம்	-9.82948
▁தனுஸ்ரீ	-9.82948
▁தயாரித்த	-9.82948
▁தர்மபுரி	-9.82948
▁தாஜ்மஹால	-9.82948
▁தேசியக்கொடி	-9.82948
▁தொழில்நுட்ப	-9.82948
▁நூறு	-9.82948
▁பறித்த	-9.82948
▁பழிவாங்க	-9.82948
▁பாரம்பரிய	-9.82948
▁முன்னெச்சரிக்கை	-9.82948
▁முருகதாஸ	-9.82948
▁ராதிகா	-9.82948
▁வாஷிங்டன	-9.82948
▁ஸ்டோக்ஸ்	-9.82948
▁ஒடுக்க	-9.82948
▁கலகல	-9.82948
▁சிறிசேன	-9.82948
▁சேலஞ்ச	-9.82948
▁தர்ணா	-9.82948
▁அமீர்கான்	-9.82948
▁சதுர்த்தி	-9.82948
▁பெப்சி	-9.82948
▁பேராயர	-9.82948
▁ரஹானே	-9.82948
▁இழப்பு	-9.82948
▁மண்டல	-9.82948
▁பரப்புரை	-9.82948
▁ஆறுதல்	-9.82948
▁இம்ரான்	-9.82948
சரஸ்	-9.82948
▁உறுப்பு	-9.82949
▁வெங்கய்ய	-9.82949
▁முல்லைப்பெரியாற	-9.82949
▁செந்தில்பாலாஜி	-9.82949
▁புனே	-9.82949
▁சந்தானம்	-9.82949
ுரிமை	-9.82951
▁ஆஸ்கர	-9.82951
▁ஆர்ட	-9.82953
▁புள்ளி	-9.82954
▁ஜெயேந்திரர	-9.82954
க்ஷன்	-9.82955
▁தொற்று	-9.82955
▁நாய்க்கறி	-9.82956
▁சைவ	-9.82957
▁துருவ	-9.82958
▁தகுதிநீக்க	-9.8296
▁வைப்பு	-9.82969
▁ராஜேஷ்	-9.82971
▁புதித	-9.82972
▁குற்றால	-9.82973
▁சாக்ஷி	-9.82974
▁ராஜூ	-9.82977
▁விமானப்படை	-9.8298
▁வெறுப்ப	-9.82985
▁தசர	-9.82994
▁பரித	-9.82994
▁மாஸ்டர்	-9.82996
▁லூ	-9.82998
▁கமல்நாத்	-9.82999
▁பொறிய	-9.83001
▁வருடத்துக்கு	-9.83007
▁சுட	-9.83011
▁விளக்கமளிக்க	-9.83012
▁கட்கரி	-9.83022
▁கருகி	-9.83026
▁ஷோ	-9.83027
▁நடித்த	-9.83032
▁அள்ளி	-9.83054
▁செருப்ப	-9.83054
▁திறக்கப்படும்	-9.83059
▁மரம்	-9.83062
▁ஒன்ற	-9.83064
ுகிறார்கள்	-9.83085
எஃப்	-9.83091
▁நாயகன	-9.83099
▁மாடல	-9.831
▁இறுதிப்போட்டிய	-9.831
▁வாக்கெடுப்பு	-9.83119
▁கொடைக்கானல்	-9.83121
▁நிச்சயம்	-9.83121
▁சரியான	-9.83125
ப்பணி	-9.83126
▁அழைத்துச்	-9.83134
▁மேரி	-9.83147
▁கருண	-9.8316
▁32	-9.83171
▁ரசிகை	-9.83171
▁பிரபு	-9.83171
▁மின்ன	-9.83174
▁சம்பளத்தை	-9.83179
▁உடைந்த	-9.83189
▁படிக்க	-9.83197
▁தொண்டர்கள	-9.83213
▁பைக்குகள	-9.83214
▁சாய்த்த	-9.83246
▁சிறப்பான	-9.83252
த்தனை	-9.83275
▁கிளி	-9.8328
▁பவன்	-9.83285
▁கோர்ட்	-9.83323
ர்த்தி	-9.83325
▁சரிந்தது	-9.83343
▁அடுக்கும	-9.83345
▁வகை	-9.83348
▁குரு	-9.83403
▁இதை	-9.83406
▁மவுனம்	-9.83417
▁விருப்பம்	-9.83417
▁உயர்வ	-9.83547
▁எதிர்த்த	-9.83563
க்டர்	-9.83573
▁முனைப்ப	-9.83581
▁75	-9.83589
▁இயக்குகிறார்	-9.83619
▁சக்கர	-9.83631
▁தாஸ்	-9.83659
▁பெரியார்	-9.83665
▁உறுப்பினர்	-9.83674
▁பெய்யும்	-9.83675
▁அன்ப	-9.83689
▁ட்ரெய்லர்	-9.8373
▁விண்ணப்பிக்க	-9.83846
▁சாத்த	-9.84001
ித	-9.84014
▁மாணவனை	-9.84021
▁ஆரம்பம்	-9.84038
▁வெளியேறிய	-9.8408
▁கட்	-9.84198
▁அணியினர	-9.84246
▁ரீமேக்க	-9.84277
▁வீடுகள	-9.84285
▁ஆட்டு	-9.84316
▁நட்சத்திரங்கள	-9.84325
▁பரோல்	-9.84361
▁கோவில்	-9.84393
ருங்கள்	-9.84398
▁உண்மையை	-9.84421
▁ரவிசங்கர்	-9.8443
▁வெடித்து	-9.84479
▁இளம்பெண்ணை	-9.84539
▁நாக்	-9.84554
▁பங்கு	-9.84567
▁படகு	-9.84571
▁அமைப்புகள்	-9.84605
▁கொன்றுவிட்ட	-9.8466
▁அமைதிய	-9.84713
சுந்தர	-9.84877
▁சந்த	-9.84887
▁சிவன்	-9.84934
▁நலன	-9.84934
▁உடன்	-9.84949
▁பிப்	-9.84974
▁சிங்கப்பூர்	-9.84984
▁புகாருக்கு	-9.85006
▁பாய்	-9.85026
▁கடனை	-9.85055
▁முட்டை	-9.85136
▁மாரி	-9.85219
▁தொழில்	-9.85288
▁அர்ஜூன்	-9.85301
▁இணைகிறார்	-9.85383
▁நோட்ட	-9.85448
▁அனிதா	-9.85466
▁தெரியும்	-9.85538
▁நாடாளுமன்றம்	-9.85635
▁42	-9.85664
▁தீய	-9.85811
▁திரைப்படங்கள	-9.85833
ேந்திர	-9.86013
▁நிதியை	-9.86027
13	-9.86095
▁விருதை	-9.861
▁சிறுமியை	-9.86103
▁ஆதங்க	-9.86113
▁சொல்லு	-9.86158
▁குற்றம்	-9.86206
ரண	-9.86293
▁பதவிக்கு	-9.86326
▁கோடை	-9.86355
▁நாம	-9.86476
▁அங்க	-9.86503
▁மனுத்	-9.8661
▁பக	-9.86654
▁அம்ப	-9.8667
▁ஆய	-9.86673
▁மாணவியை	-9.86688
▁இருக்கா	-9.86712
▁சந்திப்ப	-9.87032
▁இழந்து	-9.8723
ெட்ட	-9.87342
▁தாயை	-9.87351
▁வாழ்த்த	-9.87381
▁நம்பி	-9.87514
▁பெல்	-9.8764
▁பணிக்கு	-9.87685
▁வீடுகள்	-9.87746
▁ஊருக்கு	-9.87767
▁பேசுவத	-9.87778
ஷ்மி	-9.87827
▁டு	-9.87977
▁தங்கல்	-9.88109
வோ	-9.8816
ச்சார	-9.8819
▁மதிப்பு	-9.88194
▁என்பதா	-9.88238
▁ரியல	-9.88304
▁கழிவறைய	-9.88329
ாக்கிய	-9.88379
மற்ற	-9.8842
▁சவு	-9.88424
64	-9.88571
▁வேண்டுமா	-9.88655
ஏ	-9.88675
▁வரவில்லை	-9.88721
▁உறவு	-9.88722
▁வந்தால	-9.88829
▁உண்டு	-9.88995
▁ஆள	-9.8918
▁செய்யப்பட	-9.8933
ச்சிய	-9.89382
ாலே	-9.8949
▁படத்திற்க	-9.89507
▁எழு	-9.89513
▁ஜாங்	-9.89545
▁36	-9.89547
▁துன்புறுத்த	-9.89645
▁கோவையில	-9.89745
▁பெட்ரோல	-9.89789
▁தினத்த	-9.90121
▁எதிர்க்கட்சி	-9.90165
▁ஜாக்	-9.902
க்காத	-9.90202
▁பற்றிய	-9.90292
▁மனிதர்கள	-9.90347
▁எதிர்	-9.90362
ேனா	-9.90407
▁விஷால	-9.9043
க்கிறார்கள்	-9.90636
▁கணவரை	-9.90699
▁ரூபாய	-9.9075
ன்னு	-9.90753
▁பெறும்	-9.90766
▁பணிகள்	-9.90824
▁அமல	-9.91075
▁பிரபாஸ	-9.91218
▁பிரான்ஸ	-9.91227
▁சவால	-9.91318
கட்ட	-9.91347
▁மூழ்க	-9.91363
▁உத	-9.91424
▁கிள	-9.91477
▁பெங்களூரு	-9.91514
▁சொல்வ	-9.91585
▁எம்	-9.91618
▁உர	-9.91645
பர்	-9.91731
▁அச்ச	-9.91841
▁தஞ்ச	-9.91859
▁43	-9.91883
வார	-9.91883
▁அம	-9.91958
▁அஞ்ச	-9.92034
▁கவுர	-9.92104
▁காவலர	-9.92134
▁தீவு	-9.92221
▁நிக்க	-9.92272
▁தெரிந்த	-9.92289
▁கடம	-9.92348
▁நிலத்த	-9.92404
கின்றன	-9.92468
ஸ்ஸ	-9.92524
▁மெக்சிகோ	-9.92546
▁ப்ரி	-9.92568
▁காட்சிய	-9.92615
▁பேரம்	-9.92662
▁அறை	-9.92704
▁ரி	-9.92732
கொடுத்த	-9.92754
▁ரசிகர்	-9.92825
▁கடக்க	-9.92832
▁உள்ளத	-9.92869
▁ஊதிய	-9.92935
டும்	-9.92943
▁பந்துவீச்ச	-9.92953
▁முர	-9.93045
▁புற	-9.93066
விண்ணப்பிக்கலாம்	-9.9309
▁லஞ்ச	-9.93107
▁புர	-9.93144
▁மான	-9.93185
▁சண்ட	-9.93188
▁ஆக்க	-9.9323
▁கடித்த	-9.93241
நீர்	-9.9327
▁வராத	-9.9333
▁திணற	-9.93426
▁கூடாத	-9.93522
நாட்டு	-9.93574
ப்பது	-9.93648
▁கான	-9.93666
▁ஆணவ	-9.93734
▁ஆதி	-9.9375
▁இளைஞர்கள	-9.93825
▁திருட்ட	-9.93839
▁அணு	-9.93867
மாட்டே	-9.93876
▁நர	-9.9391
▁குடியிருப்ப	-9.93911
▁கீத	-9.93945
▁வனத்துறை	-9.94001
▁நியூ	-9.94015
▁விமர்சிக்க	-9.94017
▁சாப்பிட	-9.94018
▁சன்னி	-9.94053
▁ஸ்ருதி	-9.94056
த்தொகை	-9.94056
▁போற	-9.94057
▁நிகழ	-9.94058
▁மறைத்த	-9.94059
சுப்பிரமணிய	-9.94059
▁அப்புறம்	-9.94059
▁அமலாக்கத்துறை	-9.94059
▁அமைச்சகம்	-9.94059
▁ஆயிரத்த	-9.94059
▁இண்டிகோ	-9.94059
▁இன்ஸ்பெக்டர்	-9.94059
▁இயல்ப	-9.94059
▁எரிவாயு	-9.94059
▁ஏர்செல்	-9.94059
▁கம்பீர	-9.94059
▁கஸ்தூரி	-9.94059
▁கூட்டத்தொடர்	-9.94059
▁கைவரிசை	-9.94059
▁கொள்கை	-9.94059
▁கொள்ளையடிக்க	-9.94059
▁சதமடித்த	-9.94059
▁சித்தார்த்	-9.94059
▁சொகுசு	-9.94059
▁ஜெதீபா	-9.94059
▁தயாரிக்க	-9.94059
▁தாமிரபரணி	-9.94059
▁திடீரென	-9.94059
▁நித்யானந்தா	-9.94059
▁நியூட்ரினோ	-9.94059
▁பாரஞ்சித்	-9.94059
▁பாரிவேந்தர்	-9.94059
▁பீதி	-9.94059
▁பேராசிரியை	-9.94059
▁பொதுச்செயலாளர	-9.94059
▁போர்க்கொடி	-9.94059
▁முகஅழகிரி	-9.94059
▁முற்றுப்புள்ளி	-9.94059
▁மேற்கொ	-9.94059
▁மைல்கல்	-9.94059
▁ரொம்ப	-9.94059
▁வரலட்சுமி	-9.94059
▁வழிப்பறி	-9.94059
▁வேட்பு	-9.94059
▁குரூப்	-9.94059
▁குல்பூஷ	-9.94059
▁ரகுராம	-9.94059
▁ஏர்வேஸ்	-9.94059
▁வயதான	-9.94059
▁ஷாருக்கான	-9.94059
▁சோனாலி	-9.94059
ிராமி	-9.94059
▁சாசன	-9.94059
▁நிகழ்வு	-9.94059
▁வெளுத்த	-9.94059
▁பணியாற்ற	-9.94059
▁பல்லவி	-9.94059
▁மணந்தார்	-9.94059
▁கடுப்ப	-9.94059
▁விரோத	-9.94059
▁யாத்திரை	-9.94059
▁சாதகமா	-9.94059
▁பாண்டே	-9.9406
▁ஆங்கில	-9.9406
▁பிரிந்த	-9.9406
▁கனடா	-9.9406
ிவிபி	-9.9406
▁வளைய	-9.9406
▁தூய்மை	-9.9406
▁கொட்டித்	-9.94061
▁டார்ச்சர	-9.94061
▁பசுமை	-9.94061
▁வாலிபர்	-9.94061
▁மேற்குவங்க	-9.94061
▁அவமதித்த	-9.94061
▁வேல்முருகன்	-9.94061
▁எதிர்பார்க்க	-9.94062
▁என்னுடைய	-9.94062
▁காவலாளி	-9.94063
▁வேடமிட்ட	-9.94063
▁ரசித்த	-9.94063
▁சொல்ற	-9.94064
▁சரக்கு	-9.94065
▁பட்டேல்	-9.94065
▁யுடியூப்	-9.94066
▁வளாகத்தி	-9.94066
▁விதிமுறை	-9.94071
ாவளி	-9.94071
▁முறையீடு	-9.94071
▁ரன்வீர	-9.94071
▁விண்ணப்ப	-9.94072
▁அழைக்க	-9.94073
▁ரம்யா	-9.94073
▁திட்டமிட்டபடி	-9.94075
▁உத்தரவிட்ட	-9.94076
▁வேகம்	-9.94076
▁கட்டாயமில்லை	-9.94078
▁சிவகுமார்	-9.9408
▁தனிப்படை	-9.94081
▁முக்கியத்துவம	-9.94081
▁அருவி	-9.94081
▁மாநகராட்சி	-9.94082
▁கொண்டாட்டத்த	-9.94086
▁ஃப்ள	-9.94088
த்தாள்	-9.94088
▁கிரண்	-9.94089
▁இளங்கோவன்	-9.94089
▁வினோத	-9.94089
▁தென்கொரியா	-9.9409
▁முடிவெடுத்த	-9.94092
▁தெலுங்கானா	-9.94096
▁ரெஸ்ட்	-9.94096
▁ரேசன	-9.94096
▁யுவன்	-9.94099
▁கல்வீச்ச	-9.941
▁வாய்ப்பில்லை	-9.94101
▁சம்பா	-9.94106
▁சரண்	-9.94108
▁கபூர்	-9.94113
ேஜர்	-9.94116
▁நடன	-9.94121
▁ரிப்ப	-9.94125
▁உடனடி	-9.94136
▁2500	-9.9414
▁வீழ்ந்தது	-9.94149
க்கப்படும்	-9.94151
▁எதற்கு	-9.94163
▁மயக்க	-9.94171
▁எரிய	-9.94186
▁ஆஃப்	-9.94201
▁பராமரிக்க	-9.94203
▁பைக்க	-9.94206
▁தமிழ்ச்செல்வன்	-9.94221
▁நியமனத்த	-9.94236
▁அடைத்த	-9.94236
0	-9.94241
▁இயந்திரம்	-9.94254
▁கலெக்டர்	-9.94254
▁ஞாபகம்	-9.94254
▁முதன்	-9.94274
▁காம	-9.94284
▁விருந்து	-9.94335
▁மினி	-9.94341
▁ஏற்பாடுகள்	-9.94343
▁தின்ற	-9.94343
▁வைக்கிறார்	-9.94344
▁நினைவிடம்	-9.94346
▁பெறலாம்	-9.94349
▁அணையில	-9.94402
▁நாக்பூர	-9.9441
னின்	-9.94424
▁பாய்ந்த	-9.94431
▁பிளே	-9.94433
▁பிட்	-9.94437
▁போல்ட்	-9.9444
▁துண்டு	-9.94483
▁பியூ	-9.94489
▁47	-9.94497
▁போலீசாருக்கு	-9.94521
▁ஆனந்த	-9.94543
▁சீர்	-9.94565
▁புனித	-9.94578
▁கோஷம்	-9.9459
▁பாஸ்கர	-9.94602
▁ஆளில்ல	-9.94618
▁ஜெட்	-9.94639
▁தனித்	-9.9464
▁சிலி	-9.94663
▁போன்ற	-9.9468
▁திணறல்	-9.94696
▁செட்	-9.947
▁திருப்பம்	-9.9471
டிபி	-9.94713
▁மலேசிய	-9.94726
▁சுற்றிய	-9.9473
ரேட்	-9.94749
▁சாதிக்கும	-9.94876
▁கட்டணத்த	-9.94877
▁சேர்த்து	-9.94905
▁சீனிவாசன்	-9.94939
▁பேராசிரியர்	-9.94954
▁பொருள்	-9.94959
▁அரிய	-9.95008
▁தெர	-9.95029
▁ஊதியம்	-9.95069
▁எழுதி	-9.95082
▁பிரத	-9.95153
▁கிரண்பேடி	-9.95243
▁கட்டட	-9.95249
▁சேதம்	-9.95296
▁பாபு	-9.95306
▁நேரத்த	-9.95329
▁அறிய	-9.95336
▁சிறு	-9.95543
▁ஆகிறார்	-9.95587
▁கைதிகள	-9.95709
ண்டா	-9.95737
▁மூடல்	-9.9574
முறையாக	-9.95867
கேஎஸ்	-9.9588
சிஸ்	-9.9589
னிஸ்ட	-9.95914
ுள்ளார்	-9.95986
▁ஏழைகளுக்க	-9.9603
▁நிலவ	-9.9606
▁பாபா	-9.96122
▁பொங்க	-9.96143
▁தாள	-9.96144
▁ஆயுதங்கள	-9.96157
▁எதிர்க்க	-9.96215
▁பெத்த	-9.96316
▁டிரா	-9.96338
▁கல்யாணம்	-9.96348
▁பரவிய	-9.96457
▁களம்	-9.96465
▁ரசிகர்களுக்கு	-9.96493
▁சட்டவிரோதம	-9.96552
▁மோதல	-9.96554
ம்பு	-9.96702
▁பாதிரியார்	-9.96769
▁தொடங்கும்	-9.96848
▁சொல்லி	-9.96885
▁பிரா	-9.96931
▁கார்ட	-9.96988
▁நடிகைய	-9.97071
ப்ரியா	-9.97139
▁சிக	-9.97345
▁கடவுள்	-9.97363
▁ஏழைகள	-9.97448
▁ஐயப்பன	-9.97451
▁ஜெயராமன்	-9.97549
▁செய்துவிட்ட	-9.97561
கோல	-9.97583
▁பணத்திற்க	-9.97604
▁வீச	-9.97643
▁கல்யாண்	-9.97649
▁மத்தியக்	-9.97703
▁ரூபா	-9.97708
▁கெத்த	-9.97782
ிக்கொண்ட	-9.97872
▁மடங்க	-9.97918
▁குறு	-9.97928
▁தொழிலாளி	-9.97941
▁வதந்திகள	-9.98011
▁பந்தய	-9.98072
▁அதிகாரிய	-9.98111
▁வாங்கி	-9.98152
▁விமானத்தை	-9.98349
▁பெய்	-9.98617
▁போவத	-9.98767
▁படைக்க	-9.98847
பின்	-9.98849
▁பாப	-9.98873
▁இதற்கா	-9.98888
பிடி	-9.98913
▁ஒலி	-9.98936
ஹி	-9.99093
▁தமிழகத்தை	-9.99099
விக்க	-9.99159
▁ஆலைய	-9.99222
▁தவிப்ப	-9.9923
▁அப்போலோவ	-9.99323
▁மூடப்படு	-9.99329
▁நகர	-9.99333
▁சர்க்க	-9.99382
▁அறுவ	-9.9939
ூட்ட	-9.99406
பால்	-9.99488
▁ஒப்படைக்க	-9.99589
▁கூட்டு	-9.99668
விற்க	-9.99689
▁பேருந்துகள	-9.9977
கேஜி	-9.99828
டிங்	-9.99842
▁சங்கத்த	-9.99849
▁மைதானத்தில	-10.0016
▁கலாம	-10.0022
▁மனிதாபிமானம	-10.0031
த்தது	-10.0036
▁குறைத்த	-10.0041
▁தமிழ்நாடு	-10.0052
ையன்	-10.0058
மெ	-10.0061
▁விரும்பின	-10.0074
▁கையில்	-10.0075
்கிய	-10.0078
பூ	-10.0084
▁பயந்த	-10.0096
▁பாம்பன	-10.0104
ராக	-10.0107
கில்	-10.0123
▁இறக்க	-10.0134
▁ஆராசா	-10.0134
தளங்கள	-10.0144
▁கசிந்த	-10.0146
லையே	-10.0152
▁பொங்கலுக்கு	-10.0155
▁வலுவா	-10.0163
▁ஹோட்டல்	-10.0164
ென	-10.0168
▁பதி	-10.0191
21	-10.0211
ாவோ	-10.0211
▁மையத்த	-10.0212
ாட்சி	-10.0214
வாசல	-10.0215
ிம	-10.022
▁கோப	-10.0223
▁சேர	-10.0227
▁துடி	-10.0234
▁கந்த	-10.024
▁எட்ட	-10.025
▁வடகொரியாவ	-10.0258
▁தன	-10.0262
▁சிலர	-10.0262
▁உன்	-10.0263
▁டெஸ்ட	-10.0267
▁பூங்கா	-10.0268
▁இருக்கை	-10.0275
▁தள்ள	-10.03
▁வெற	-10.03
ரில்	-10.0311
▁ட்	-10.0328
▁ரஞ்சி	-10.0342
▁உள்ளே	-10.0349
▁மார	-10.0353
▁கேஎல்ராகுல	-10.0362
▁ஏஆர்முருகதாஸ	-10.0362
▁ரேஸ	-10.0362
▁தொழில	-10.0362
▁அர்ஜூன	-10.0366
▁ஆதரவாளர்கள	-10.0371
க்கார	-10.0374
▁செயலாளர	-10.0375
▁சச்சின	-10.0377
▁பயணிக்கு	-10.0379
▁சாலைகள	-10.04
வீச்சு	-10.0415
போகும்	-10.042
▁பெ	-10.0443
▁சட்டசபைய	-10.0452
▁ஓராண்டு	-10.0454
▁முஸ்லிம்கள	-10.0466
▁வருவத	-10.047
வெறி	-10.0471
▁கனவ	-10.0471
▁ஓட்டல	-10.0475
▁பயண	-10.0481
▁ஏற்றி	-10.0484
மின்றி	-10.0488
▁எனக்	-10.0499
▁எடு	-10.05
ிவு	-10.0509
▁அடிச்ச	-10.0522
பன்	-10.0526
▁கொடுப்ப	-10.0529
▁லைவ்	-10.0541
▁வீணா	-10.0544
▁புகைப்பட	-10.0557
யோ	-10.056
▁கல்லூரிகள	-10.0564
▁சரிவ	-10.0583
▁நகைகள	-10.0589
ுகிறதா	-10.059
ஆ	-10.0591
▁அத்துமீறி	-10.0603
▁நொறுங்கிய	-10.0606
கடத்தல்	-10.0612
ாதீர்	-10.062
▁மசூத	-10.0624
▁பரபர	-10.0625
▁65	-10.0626
்ரீ	-10.0628
▁புல்ல	-10.0629
லிங்க	-10.0631
ென்ன	-10.0632
▁அஜீத்	-10.0633
ோல்	-10.0644
ூட்டும்	-10.0648
கார்ட	-10.065
▁ஏற்பு	-10.0651
▁பறிபோ	-10.0652
வசூல	-10.0653
ரைலர்	-10.0654
▁மகிழ்	-10.0654
▁போர	-10.0655
உதயகுமார்	-10.0655
்கோழி	-10.0656
சண்முக	-10.0656
▁ஒழிப்ப	-10.0656
▁ஊசி	-10.0656
▁சீமராஜா	-10.0656
▁திருப்பரங்குன்ற	-10.0656
▁பத்மாவத்	-10.0656
▁புஷ்பா	-10.0656
▁ஸ்ரேயாஸ்	-10.0656
▁அன்சாரி	-10.0656
▁அலங்காநல்லூர	-10.0656
▁ஆசிரம	-10.0656
▁என்எல்சி	-10.0656
▁ஏராளமான	-10.0656
▁ஒத்திகை	-10.0656
▁ஒன்றிணை	-10.0656
▁ஒற்றை	-10.0656
▁ஓவியம்	-10.0656
▁கலீல	-10.0656
▁காயத்ரி	-10.0656
▁குளிர்கால	-10.0656
▁கெலாட்	-10.0656
▁கோலாகல	-10.0656
▁சங்கமித்ரா	-10.0656
▁சரணடைய	-10.0656
▁ஜோதிடர	-10.0656
▁டிஜிட்டல	-10.0656
▁தண்ணி	-10.0656
▁திருச்செந்தூர	-10.0656
▁பஜ்ரங்	-10.0656
▁பறிக்க	-10.0656
▁பலாத்காரம்	-10.0656
▁பின்னடைவு	-10.0656
▁பிரபுதேவா	-10.0656
▁புஷ்கர	-10.0656
▁முகமூடி	-10.0656
▁முலாயம்	-10.0656
▁ரசாயன	-10.0656
▁ராமாயண	-10.0656
▁வண்டலூர	-10.0656
▁விஜயலட்சுமி	-10.0656
▁விளாசல்	-10.0656
▁ஸ்பைடர்	-10.0656
▁அப்ரிதி	-10.0656
▁உஷார	-10.0656
▁எஸ்கேப்	-10.0656
▁கத்திக்குத்து	-10.0656
▁காவேரி	-10.0656
▁ஜூலை	-10.0656
▁தடுமாறு	-10.0656
▁பதட்டம	-10.0656
▁வேட்டை	-10.0656
▁சித்தராமையா	-10.0656
▁டாலர்	-10.0656
▁நாளிதழ்	-10.0656
▁பங்கேற்ற	-10.0656
▁வயசு	-10.0656
▁இயலாத	-10.0656
▁எரிப்பு	-10.0656
▁சமையல்	-10.0656
▁சிரம	-10.0656
▁செப்டம்பர	-10.0656
▁மொட்டை	-10.0656
▁வலிமைய	-10.0656
▁எஸ்விசேகர	-10.0656
▁விலங்குகள்	-10.0656
▁அதிகரித்த	-10.0656
▁துல்கர	-10.0656
▁பிரேசில்	-10.0656
▁ஜாமின்	-10.0656
க்கெடு	-10.0656
▁மிஞ்ச	-10.0656
▁விடைபெற்ற	-10.0656
▁திருடர்கள்	-10.0656
▁கழக	-10.0656
▁இஸ்லாமியர்கள்	-10.0656
▁தலையீட	-10.0656
▁குருமூர்த்தி	-10.0656
▁நேசி	-10.0656
▁மகாபாரத	-10.0656
▁நிலுவை	-10.0656
▁அலுவலகம்	-10.0656
▁எளித	-10.0656
▁எஸ்பிவேலுமணி	-10.0656
▁வில்லியர்ஸ்	-10.0656
▁நாடகமாடிய	-10.0657
▁மெஸ்சி	-10.0657
▁ஹிந்தி	-10.0657
▁அமல்படுத்த	-10.0657
▁பார்வையிட	-10.0657
▁மலிங்கா	-10.0657
▁காவல்படை	-10.0657
▁வீசி	-10.0657
▁ஆப்பிள்	-10.0657
▁ரோபோ	-10.0657
▁தலைமுடி	-10.0657
▁தேவசம்	-10.0657
▁பங்களா	-10.0657
▁திமுகவினர	-10.0658
▁மார்க்கெட்	-10.0658
▁திகழ	-10.0658
▁எந்திர	-10.0658
▁பிரியாணி	-10.0658
▁பொதுக்குழு	-10.0659
▁நாடகம்	-10.0659
▁அல	-10.0659
▁மதுபோதை	-10.066
▁நிலையங்களில	-10.066
▁சிலிர்க்க	-10.066
▁வாழ்ந்த	-10.066
▁தேனி	-10.0661
▁தோழ	-10.0661
▁பகவத்	-10.0661
▁எஸ்பிஐ	-10.0661
▁வந்தாச்சு	-10.0661
▁காப்பீடு	-10.0661
ன்மை	-10.0661
▁இந்திரா	-10.0662
▁பொருளாளர	-10.0663
▁அலுவலர்	-10.0663
▁நியூசி	-10.0663
▁யோச	-10.0663
▁ஆடுகள்	-10.0663
▁உயர்கிறது	-10.0663
▁இந்தியாபாக	-10.0664
டுபட	-10.0664
▁தபால்	-10.0664
க்கள	-10.0665
▁2016	-10.0665
▁41	-10.0666
▁அறைந்த	-10.0666
▁அழகிரி	-10.0666
▁ப்ளஸ்	-10.0668
▁நெடு	-10.0668
▁நீளம	-10.067
▁நாராயணன்	-10.067
▁2017	-10.0673
▁விதிக்கப்பட்ட	-10.0674
▁68	-10.0676
▁ஓட்டிகள்	-10.0677
▁நிதியமைச்சர்	-10.0678
▁ஒபிஎஸ்	-10.0678
▁ராக்கர்ஸ்	-10.0678
▁மிர	-10.0679
▁108	-10.0679
▁ஃபார்ம	-10.0681
▁எடை	-10.0683
▁டீமுக்கு	-10.0684
▁அத்துமீறிய	-10.0689
▁நிச்சயதார்த்தம்	-10.0689
▁நடிக்கிறார்	-10.069
▁கடத்தி	-10.069
▁தாக்கப்பட்ட	-10.0692
▁மிரட்டி	-10.0692
▁சங்கத்	-10.0692
ஸ்டர்	-10.0695
▁ராயல்	-10.0695
▁திருமா	-10.0696
▁படித்த	-10.0697
▁ஐபோன்	-10.07
▁சரியாக	-10.0701
▁உறுப்பினர்கள்	-10.0703
▁தாங்க	-10.0704
▁சாகசம்	-10.0704
▁சாம்	-10.0707
▁பேக்	-10.0711
▁ரிவ	-10.0713
▁நோய	-10.0715
▁உமேஷ்	-10.0717
ிக்சர்	-10.0718
▁58	-10.0722
▁குணம	-10.0723
▁புரண்ட	-10.0723
▁ஸ்பெயின	-10.0725
▁குறைந்தது	-10.0727
▁உயிரிழந்தவர்கள	-10.0732
▁அதிர	-10.0734
▁பேய	-10.0734
▁வாக்குறுதி	-10.0734
▁பார்க்கிங்	-10.0739
▁எப்ப	-10.0742
▁விளாசினார	-10.0746
ோக்	-10.0749
டுகள்	-10.0749
▁டிடி	-10.0751
▁செலுத்திய	-10.0756
▁நெய்மர்	-10.0756
▁லியோன்	-10.0756
▁கோபம்	-10.0758
▁கைப்பற்றிய	-10.0761
▁கிடைத்தது	-10.0767
▁நோயாளிகள்	-10.0768
▁தஞ்சம்	-10.0771
▁டாக்டர்கள்	-10.0774
▁வையுங்க	-10.078
▁செல்வ	-10.0781
▁அறுத்த	-10.0784
ப்பிய	-10.0785
▁போலீசாரை	-10.0785
▁டீச்சர்	-10.0797
▁கொடுப்பத	-10.0799
▁பெங்களூர்	-10.0799
▁களமிறங்குகிற	-10.0802
▁அடக்கம்	-10.0802
▁சத்தமி	-10.0805
ுரி	-10.0812
▁காவல்நிலைய	-10.0814
▁தெலங்கானாவி	-10.0815
▁பேஸ்புக்க	-10.0815
சாலி	-10.082
கிருஷ்ணன்	-10.0822
கொண்ட	-10.0823
▁லாரிகள	-10.0824
▁சிவா	-10.0829
▁பள்ளிச்	-10.0832
▁பட்டா	-10.0839
▁ரீதிய	-10.084
▁துப்ப	-10.0841
▁வாடிக்கையாளர்	-10.0842
▁மாவோயிஸ்ட்	-10.0842
▁மருத்துவக்	-10.0849
▁பாசம்	-10.0855
▁திரும்பப்	-10.0856
▁தெரிந்து	-10.086
▁கடத்திய	-10.086
▁வங்கதேசம்	-10.0864
▁குறிவைத்த	-10.0866
டுக்கு	-10.0874
▁கழிவுகள்	-10.0877
ுங்கி	-10.088
▁அடித்துக்	-10.0883
▁நிக்	-10.0887
ளு	-10.0889
▁டிஸ்	-10.0892
ாவூ	-10.0896
▁தவறவிட்ட	-10.0897
▁ரகசியம்	-10.0898
ினல்	-10.0904
▁வீடுகளை	-10.0908
▁பெங்களூருவில	-10.0912
▁இணைகிறார	-10.0912
டீன்	-10.0926
▁சொத்துக்கள	-10.0926
▁ஐய	-10.0926
த்வி	-10.0927
▁தென்ன	-10.0933
▁மருத்துவமனைகள்	-10.0937
▁பொறுப்ப	-10.0937
▁சேதப்படுத்த	-10.0944
ாதீங்க	-10.0948
▁ஏஆர்முருகதாஸ்	-10.0959
▁கேஎல்ராகுல்	-10.0959
▁மருந்து	-10.096
▁ரேஸ்	-10.096
▁சென்ச	-10.0963
லினி	-10.0976
மிக்க	-10.0977
▁அக்	-10.0983
போல	-10.0984
▁மத்தியப்	-10.0987
▁ஆனது	-10.0991
▁தேவர	-10.0996
▁அலை	-10.1002
▁ரஷ்யாவ	-10.1005
▁கதையை	-10.1025
▁நட்ப	-10.1025
▁பரிதாபம	-10.103
▁அமைப்பின	-10.103
▁பாய	-10.1041
▁குடும்பத்தினர்	-10.1041
▁கீழ்	-10.1042
▁பள்ளிக்	-10.1048
▁நோயாளி	-10.105
வில்லையா	-10.1052
▁அப்போ	-10.1058
▁தட்டு	-10.1069
▁மேன்	-10.1071
▁பிரின்	-10.1088
▁சரிந்த	-10.1094
▁மேப்	-10.1103
▁ஓவியா	-10.1111
▁போச்ச	-10.1112
ுபவர்கள	-10.1115
▁மரங்கள்	-10.1124
ிருக்கிற	-10.1125
▁கட்டிட	-10.1136
87	-10.1142
▁பள்ளியில	-10.1143
▁லட்சத்த	-10.1151
24	-10.117
த்தக்க	-10.1173
▁தொ	-10.1176
▁கார்கள்	-10.1176
▁தள	-10.1196
ற்கு	-10.1203
▁ராக	-10.1204
ம்மன்	-10.1204
▁தேர்தலுக்கு	-10.1208
ரண்	-10.1213
▁நிறுத்தி	-10.1218
▁கேள்விக்கு	-10.1228
▁வேண்டியத	-10.1228
▁மல்லையாவ	-10.1232
▁குஜராத்த	-10.124
▁விக்கெட்ட	-10.1258
▁உண்ட	-10.1262
▁வெளிவர	-10.1265
▁அரசியல்வாதிகள	-10.1272
▁அதி	-10.1274
▁முகம	-10.1284
▁பிரிவ	-10.1297
▁பாம்ப	-10.1306
வெ	-10.1322
▁பார்வைய	-10.1328
▁விரும்ப	-10.1332
லரி	-10.1335
முன	-10.1343
▁ஆடி	-10.1348
பூர்வ	-10.1352
▁குழப்பத்த	-10.1365
லோக்	-10.1365
▁தமிழா	-10.138
▁அவர	-10.1382
▁உணர்	-10.1385
▁தூர	-10.1386
▁பிடி	-10.1386
▁பிடித்து	-10.1388
▁கட்டுவத	-10.1396
▁இயற்கை	-10.1396
▁மிஸ்ரா	-10.1398
ாயம்	-10.1398
▁படங்கள்	-10.1411
▁ஏழை	-10.1417
▁விர	-10.1424
த்துக்	-10.1444
▁போட்டியிடுவ	-10.1448
▁முத்த	-10.1469
ிரு	-10.1474
ிஷா	-10.1478
▁தொட்டி	-10.1478
▁ஆந்திரா	-10.1483
▁அப்பாவ	-10.1484
லும்	-10.1486
▁குளத்த	-10.1487
▁நிர்வாண	-10.1489
▁ஓய்வ	-10.1494
▁மீடூ	-10.1527
▁லோ	-10.1536
▁மகாராஷ்டிரா	-10.1537
டியில்	-10.1539
க்கரை	-10.155
▁இருக்கிறத	-10.1558
▁வியாபாரி	-10.1559
▁ஆடியோ	-10.1562
▁போக்	-10.1569
▁சென்றவர்	-10.1572
ந்தர்	-10.1579
▁போராட்டத்தை	-10.158
ாவிட	-10.1589
▁விரைவு	-10.1596
▁ஆய்வுக்கு	-10.1597
▁கூ	-10.1603
▁நேருக்கு	-10.1619
▁ஆதாரங்கள	-10.1628
ன்றி	-10.1637
▁வந்துவிட்ட	-10.1641
▁கலைப்ப	-10.1644
▁சஜ	-10.1645
▁சேர்	-10.1654
ளில்	-10.1671
ழுவ	-10.1671
▁அடிக்க	-10.1688
▁அமைய	-10.1689
சூர்	-10.1694
▁சும	-10.1701
▁மி	-10.1716
ரண்ட்	-10.1723
▁ஏல	-10.1723
▁அனைவர	-10.1725
▁உற்பத்திய	-10.1732
யடைந்த	-10.1748
▁பேரு	-10.1751
▁அனுபவ	-10.1763
▁ஷ	-10.1769
▁சுத்தம	-10.1779
▁வரல	-10.1787
திகார	-10.1787
▁நடராஜன	-10.1788
▁பிள	-10.1791
▁உடன	-10.1791
ரீத்	-10.1792
▁சிங்கப்பூர	-10.1794
▁சென்	-10.1794
▁சல்மான	-10.1796
▁கெஜ்ரிவால	-10.1799
▁சந்திரசேகர	-10.1802
▁முன்னர	-10.1803
▁இண்டீஸ	-10.1804
▁இடைத்தேர்தல	-10.1805
▁வில்லன	-10.1805
▁ஜாமீன	-10.1805
▁நச	-10.1811
▁இருந்தால	-10.1823
▁எம்பிக்கள	-10.1826
▁பாலத்த	-10.1844
▁விய	-10.1859
▁தண்டவாளத்த	-10.1861
▁படகுகள	-10.1873
▁வாடிக்கையாளர்கள	-10.1875
14	-10.1879
பானி	-10.1888
▁நாய	-10.1894
வேண்டாம்	-10.1894
ராஜன்	-10.1895
ர்களை	-10.1896
சிப	-10.1901
▁இல்	-10.1919
▁இரண்ட	-10.192
னரா	-10.1921
600	-10.1925
▁படக்குழு	-10.1933
▁அச்சத்த	-10.1944
▁இறப்பு	-10.1958
▁தீர்மான	-10.1964
▁கதறி	-10.1966
வாசிகள	-10.1969
▁பயப்பட	-10.1977
▁நிகழ்ச்சிய	-10.1995
▁74	-10.2004
▁ஆணையர	-10.201
▁ஹைதராபாத்	-10.2014
▁அவல	-10.2016
▁செல்லாத	-10.202
▁ஏற்ப	-10.2032
▁கேட்ப	-10.2033
ம்பா	-10.2035
▁வாட	-10.2036
முருகன்	-10.2038
நிகழ்ச்சி	-10.2038
வெளி	-10.2039
கொல்லப்பட்ட	-10.204
திறந்த	-10.204
நிதி	-10.2041
கோடி	-10.2041
▁திருவள்ள	-10.2041
செய்த	-10.2041
300	-10.2043
▁புரிந்த	-10.2045
▁கறுப்பு	-10.2046
▁ஏற்பாடு	-10.2047
மூட்டம	-10.2047
▁வாக்காளர	-10.2049
▁திருநங்கைகளுக்க	-10.2051
பேர்	-10.2052
லைந்த	-10.2055
▁அறு	-10.2055
▁பாவ	-10.2061
89	-10.2063
▁கன்ன	-10.207
குதியில	-10.2071
▁சீரமை	-10.2073
▁உத்த	-10.2076
▁திரையரங்க	-10.2076
வ்ளோ	-10.2078
▁தரப்ப	-10.2079
▁ஒப்பிட	-10.2079
ணைப்பு	-10.2079
▁மறைவ	-10.2082
ுறவு	-10.2083
▁பந்துவீச	-10.2083
க்கறி	-10.2083
▁சரத்	-10.2084
▁சூழ்	-10.2084
▁ஆராய	-10.2084
▁45	-10.2084
▁அமீர	-10.2084
▁டிஎன்பிஎ	-10.2084
▁ஒளிந்த	-10.2084
தமிழ்செல்வன்	-10.2084
றுமாற	-10.2084
▁அட்டூழியம்	-10.2084
▁அப்செட்	-10.2084
▁அம்பேத்கர	-10.2084
▁அயர்லாந்து	-10.2084
▁அரண்மனை	-10.2084
▁அற்புதம்மாள்	-10.2084
▁அஷ்வினி	-10.2084
▁ஆட்சியமைக்க	-10.2084
▁ஆயுக்தா	-10.2084
▁ஆலோசகர	-10.2084
▁உண்ண	-10.2084
▁எரிபொருள	-10.2084
▁ஒதுங்க	-10.2084
▁கஜோல்	-10.2084
▁கடற்கரை	-10.2084
▁கட்ஜூ	-10.2084
▁கந்துவட்டி	-10.2084
▁காம்பீர்	-10.2084
▁காற்றழுத்த	-10.2084
▁காலாவதியான	-10.2084
▁குளறுபடி	-10.2084
▁சாத்தியமானது	-10.2084
▁சீதக்காதி	-10.2084
▁சூறை	-10.2084
▁ஜேஎன்யு	-10.2084
▁டிராஜேந்தர்	-10.2084
▁தாழ்வு	-10.2084
▁தீவிபத்து	-10.2084
▁துறந்த	-10.2084
▁தொந்தரவு	-10.2084
▁நிபுணர்	-10.2084
▁பசிதம்பரத்த	-10.2084
▁பதக்கத்தை	-10.2084
▁பீட்டர்	-10.2084
▁மதிமுக	-10.2084
▁மம்மூட்டி	-10.2084
▁வழிச்சாலை	-10.2084
▁விசுவாசம்	-10.2084
▁விம்பிள்டன	-10.2084
▁அக்ஷரா	-10.2084
▁உமா	-10.2084
▁காமன்வெல்த்	-10.2084
▁சுப்புராஜ்	-10.2084
▁துண்டிப்பு	-10.2084
▁நெக்ஸ்ட்	-10.2084
▁ராமேஸ்வர	-10.2084
▁வாசுதேவ	-10.2084
பீட	-10.2084
▁ஜவடேகர	-10.2084
▁புதுமண	-10.2084
▁ஸ்மார்ட்போன்	-10.2084
▁மலாலா	-10.2084
▁கரம்பிடிக்க	-10.2084
▁தந்திரி	-10.2084
▁தளர்வு	-10.2084
▁நக்சல்	-10.2084
▁மாரடைப்ப	-10.2084
▁விஷ்ணு	-10.2084
▁எகிப்த	-10.2084
▁குழாய	-10.2084
▁ஆசிரியை	-10.2085
▁சீற்றம்	-10.2085
▁ஓரங்கட்ட	-10.2085
▁அப்துல்கலாம	-10.2085
▁அஸ்தி	-10.2085
▁சீரியல்	-10.2085
▁மடக்கிப்பிடித்த	-10.2085
▁வரவேற்ற	-10.2085
▁சவுந்தர்யா	-10.2085
▁மதவாத	-10.2085
றீங்களா	-10.2085
▁அதிர்ச்சியளிக்க	-10.2085
▁அமமுக	-10.2085
▁பாண்டிங்	-10.2085
▁அடங்கிய	-10.2085
▁திசை	-10.2085
▁ஜாகிர	-10.2085
▁நியமிக்க	-10.2085
▁வியூகம்	-10.2085
▁கலங்க	-10.2085
▁வளைத்த	-10.2085
▁எம்ஆ	-10.2085
▁டாஸ்	-10.2085
▁எழுப்பிய	-10.2085
▁விசாரிப்ப	-10.2085
▁செங்கல	-10.2085
▁கிடுக	-10.2085
▁டாட்டா	-10.2085
▁செந்தில்	-10.2085
▁வருமானவரித்துறை	-10.2085
▁வட்டி	-10.2085
▁ஆர்பிஉதயகுமார்	-10.2086
▁துண்டிக்கப்பட	-10.2086
▁வாயு	-10.2086
▁அடித்துக்கொலை	-10.2086
▁இனத்தவர	-10.2086
▁செஞ்சு	-10.2086
▁மாற்றுத்	-10.2086
▁வில்லியம்ஸ	-10.2086
▁நடமாட	-10.2086
▁படுக	-10.2086
▁கூட்டுறவு	-10.2086
▁புழல	-10.2087
▁மணிநேர	-10.2087
▁ஆசிஃபா	-10.2087
▁டாப்ஸி	-10.2087
▁கேட்ச	-10.2087
▁தீவிரப்படுத்த	-10.2087
▁சுருள	-10.2088
▁ஓட்டுனர	-10.2088
▁ரெக்கார்ட	-10.2089
▁சுகாதாரத்துறை	-10.2089
பட்ச	-10.2089
▁வாழ்நாள	-10.2089
▁பிஷப்ப	-10.209
▁தன்னை	-10.209
▁ரஷித்	-10.209
2000	-10.209
▁வேண்டுமானால	-10.2091
▁வேட்டையாடிய	-10.2091
▁டிப்ஸ்	-10.2092
▁தீக்குளிப்பு	-10.2092
▁குடிமக்கள	-10.2093
▁டான்ஸ்	-10.2093
ேட்டிங்	-10.2093
▁பழனி	-10.2093
▁தாய்ப்பால	-10.2094
▁போத்ரா	-10.2094
▁காசு	-10.2094
▁சேற்ற	-10.2095
▁ஆப்பிரிக்க	-10.2096
▁சந்திரா	-10.2096
▁படையினர	-10.2096
▁சோகத்த	-10.2096
▁தன்பால	-10.2096
▁என்னாச்சு	-10.2097
▁சேர்த்த	-10.2097
▁பிழை	-10.2097
▁கடலூர்	-10.2097
▁பூனை	-10.2098
▁பின்னுக்கு	-10.2098
▁சீண்ட	-10.2099
▁பிரிக்க	-10.2099
▁சிக்னல்	-10.21
▁கைவிட்ட	-10.21
▁உலுக்க	-10.2101
▁காவி	-10.2101
▁பிளஸ்	-10.2101
▁தெற்க	-10.2101
▁சைதன்யா	-10.2103
▁டிராவிட்ட	-10.2104
▁நாயர்	-10.2105
▁கொடூரமாக	-10.2106
▁அத்துமீறல்	-10.2108
ன்வாரி	-10.2111
▁வயல	-10.2111
▁வைத்திருந்த	-10.2112
▁மூவர்	-10.2113
▁நீங்கியது	-10.2113
▁வளர்ப்ப	-10.2116
▁அர்ஜென்டினா	-10.2118
▁ஸ்டீ	-10.2119
▁அப்பாவி	-10.2119
ிக்கொடுத்த	-10.212
▁காளைகள்	-10.212
ஸ்தான	-10.212
▁எடுக்கலாம்	-10.2121
▁கறுப்புப்	-10.2123
▁ஆஸிகேப்டன	-10.2123
▁மாடுகள	-10.2124
▁ஷாரூக்கான	-10.2124
ரிட்டி	-10.2126
▁எதிர்பார்ப்பு	-10.2127
▁வைரஸ்	-10.2129
▁லெவல்	-10.2129
▁நம்ம	-10.2137
▁சத்து	-10.2137
▁நோயாளிகளை	-10.2139
▁ஏந்தி	-10.2139
▁தகராறு	-10.2144
▁நூல	-10.2145
▁அறிந்த	-10.2147
▁சுக	-10.2149
▁ஏசி	-10.2152
ப்பாடு	-10.2154
▁தஷ்வந்த்	-10.2155
▁சரண்டர்	-10.2155
▁பிரசாரம்	-10.2155
▁எலி	-10.2156
நிலைய	-10.2158
▁ஏமா	-10.2158
▁நதி	-10.2158
த்தாய்	-10.2158
▁இங்கி	-10.2158
▁தூங்கிய	-10.2159
▁சமன்	-10.2161
▁இருக்கிற	-10.2167
▁வீழ்த்தியது	-10.2171
▁வெண்கலம்	-10.2171
▁சசி	-10.2172
▁பாடல்களை	-10.2175
▁திரும்பியது	-10.2176
▁உருவாக	-10.2178
▁வெளியேற்றம்	-10.218
▁கொதிக்க	-10.2181
▁வேண	-10.2184
▁ஏமாற்றிய	-10.2185
▁கட்டுப்பாடுகள்	-10.2186
▁மாதமாக	-10.2188
▁வெடித்தது	-10.2189
▁கருணைக்	-10.219
லசல	-10.219
▁டார்	-10.219
▁தங்கத்	-10.2192
▁உருக்கு	-10.2193
▁ஜப்பானில்	-10.2199
▁கொள்முதல்	-10.2199
▁சத்யராஜ்	-10.2202
▁கெய்ல்	-10.2202
▁புதுவை	-10.2204
▁சகோதரிகள்	-10.2207
▁செய்கிறார்	-10.2208
விட்டரில	-10.2212
▁நீதிபதியாக	-10.2214
▁நிற	-10.2223
▁வெளியேற்ற	-10.2224
வ்யா	-10.2232
▁செப்	-10.2233
ப்பிடித்த	-10.2236
▁வாழ்க	-10.2244
▁உயிருக்கு	-10.2246
▁மீறினா	-10.2247
▁சம்பவத்த	-10.225
▁காவல்துறையினர்	-10.2252
▁வடிய	-10.2253
▁கேப்டனா	-10.2256
▁வராது	-10.2258
▁குடும்பங்கள	-10.2262
▁கடக்கும்	-10.2262
▁அச்சுறுத்த	-10.2263
▁உதை	-10.2264
▁கொஞ்ச	-10.2282
ண்ணு	-10.2286
▁52	-10.2292
▁கனா	-10.2295
▁தேதிகள	-10.2302
▁கொடுக்காதத	-10.2309
▁ஜப்	-10.2311
▁சினிமாவாக	-10.2314
▁எதிர்க்கட்சிகள	-10.2316
பவர்கள	-10.2319
▁கடமை	-10.2322
▁முத்து	-10.2322
▁மிகப்	-10.2328
▁கமிஷனர	-10.2329
பால	-10.2338
ுவதற்க	-10.2342
▁செவிலியர்கள்	-10.2343
▁ராயுடு	-10.2347
▁கோல்	-10.2351
▁ஆவின்	-10.2354
▁செய்துள்ள	-10.2358
ிருக்கலாம	-10.2365
▁பட்டத்த	-10.2367
மலையில்	-10.2367
▁முயற்சியா	-10.2377
▁ஆளும்	-10.2378
ொழி	-10.238
▁ஐதராபாத்த	-10.2381
▁ரப	-10.2381
▁விளக்க	-10.2384
▁உள்ளிட்டோர	-10.2385
▁குற்றங்கள	-10.2385
▁நடராஜன்	-10.2391
்ரீத்	-10.2396
▁ஜால	-10.2397
▁கைகள	-10.2398
பதி	-10.2408
▁கிட்ட	-10.2416
▁தமிழ்ப்	-10.2427
மேன்	-10.2433
▁நவ	-10.2436
▁சங்கங்கள	-10.2438
▁சான்ஸ	-10.244
▁தற்கொலையா	-10.2444
▁சென்றார்	-10.2448
▁குறைய	-10.2449
▁வழங்காத	-10.2452
▁இயக்கிய	-10.2453
▁ராஜு	-10.2463
▁காந்தியை	-10.2473
▁அறைய	-10.2484
▁சென்னையில	-10.249
▁இலவசம்	-10.2504
▁ஆட்டோவ	-10.2512
▁ஹார்	-10.2513
▁கேரி	-10.2522
தார	-10.2523
வித	-10.2524
▁நடந்து	-10.2528
▁ரத்தத்த	-10.2535
▁மைய	-10.2541
▁பூங்காவ	-10.2556
களா	-10.2558
▁பாக்கிய	-10.257
ோன்	-10.2587
▁நிறத்த	-10.2593
ுக்கொண்ட	-10.2607
▁செயலகத்த	-10.2609
▁அரிச	-10.2613
▁தொடர்பு	-10.262
▁ஆண்கள	-10.2629
ோல	-10.263
▁ஜெயில	-10.2633
▁சிறுவனை	-10.2635
▁ஒருவன	-10.2649
போன	-10.2662
னருக்கு	-10.2682
▁மாட்டார்கள	-10.2689
ெட	-10.2696
▁மழையில	-10.2697
▁துன்புறுத்தல	-10.2702
காட்ட	-10.2705
▁பந்தாட	-10.2713
▁நக	-10.2735
▁பழி	-10.274
▁கோடா	-10.2742
▁குழப்ப	-10.2766
வாரி	-10.2774
▁இறந்தவர	-10.2786
▁தேர்வுகள்	-10.2789
▁குற்றச்சாட்ட	-10.2793
▁டெங்குவ	-10.2803
▁அசத்தும	-10.2814
▁மிஸ்ராவ	-10.2829
▁பொறி	-10.2849
▁அகதிகள	-10.2856
▁நாயுடுவ	-10.2861
ுதல	-10.2866
▁காளை	-10.2868
▁கழிவறை	-10.2886
▁தட்டி	-10.2899
▁குரங்குகள	-10.292
சதம்	-10.2926
▁செய்	-10.2934
ப்ஸ்	-10.2941
▁வெளிச்சத்த	-10.2971
▁ஓடி	-10.2975
▁விச	-10.298
திக்கும்	-10.2991
▁காப்பி	-10.2992
▁பயணத்திற்க	-10.2996
▁செய்தவர்	-10.3001
▁கிருஷ்ண	-10.3004
சல்	-10.3006
▁கர	-10.3006
▁நீதிமன்றத்தை	-10.3007
தற்காக	-10.3016
▁நல	-10.302
▁மகிழ்ச்சிய	-10.3032
நிலங்கள	-10.3036
▁குடிக்க	-10.3055
திறப்பு	-10.3078
▁தேடுகிற	-10.3085
▁மாட்டு	-10.3105
▁நாட்டில	-10.3117
▁படைய	-10.3118
▁கடன	-10.3125
▁சாவ	-10.3136
▁மாட்டே	-10.314
▁மய	-10.315
▁வழங்கப்பட	-10.3157
▁மக	-10.3161
▁ஒடிசா	-10.3177
▁அளிக்கிற	-10.3186
்பானி	-10.3203
▁நிய	-10.3241
ுகின்றன	-10.3243
▁தலைவரான	-10.3249
▁ஐஎ	-10.3255
▁உயிரைப்	-10.3256
▁தொழிலாளர்	-10.3258
விழா	-10.3265
▁உட	-10.3267
▁அழைப்ப	-10.3285
18	-10.3287
▁ஏரிகள	-10.3288
▁அதிரடியா	-10.3291
▁கண்டுபிடி	-10.3293
▁வைகோவ	-10.3295
▁மேக	-10.3306
▁காலாவ	-10.3312
▁பெறுவ	-10.3314
யூ	-10.3314
ித்ய	-10.3327
ண்டியி	-10.3334
ொலி	-10.3338
▁பொறுப்பேற்	-10.3339
வதி	-10.334
▁எங்கு	-10.3355
▁அடிப்படை	-10.3357
▁அனிதாவ	-10.3358
▁விரும்புகிற	-10.3366
▁லட்சத்து	-10.3367
▁த்ரிஷாவ	-10.3373
மொழி	-10.3375
▁ஐநாவி	-10.3383
▁வந்தன	-10.3385
நீர	-10.3412
▁காப்பாற்றி	-10.3417
தலை	-10.3418
▁உயர்த்த	-10.3425
▁கொசு	-10.3434
▁நாங்க	-10.3438
▁மணமகன	-10.345
▁கழிவுகள	-10.346
▁செவிலியர்கள	-10.3461
▁அமேசான	-10.3464
▁டிரம்ப	-10.3464
▁சிறுவர்கள	-10.3468
▁மோகன	-10.3469
▁தொழிலதிபர	-10.347
▁ஆப்கான	-10.347
▁சாம்பியன	-10.347
▁செல்போன	-10.3471
▁தண்ணீர	-10.3472
▁இயக்குனர	-10.3472
▁வேட்பாளர	-10.3473
▁முகஸ்டாலின	-10.3474
▁நீங்கள	-10.3477
▁போட்டியில	-10.3489
▁நன்ற	-10.3491
பாடு	-10.3493
▁ரஜினிகாந்த	-10.3496
▁குறிவை	-10.3498
எம்சி	-10.3512
▁குமார	-10.3512
ிள	-10.3513
வங்க	-10.3517
ண்டினா	-10.3535
▁சகோதரர	-10.3538
▁நடத்துவத	-10.3545
▁மதிக்க	-10.3553
▁திருப்ப	-10.3554
▁திருமணமா	-10.3559
▁குரல	-10.3559
ஷர்	-10.3562
▁கெட்	-10.3562
▁நீட்டி	-10.3563
▁மூன்ற	-10.3571
▁குட்டிகள	-10.3573
▁பெர்	-10.3597
▁புரிய	-10.3611
▁நிர்வாகிகள	-10.3621
▁கோபத்த	-10.3623
கோரி	-10.3623
▁நியமன	-10.3629
▁பனிப்பொழிவ	-10.3641
▁எரித்த	-10.3646
▁குக்க	-10.3647
▁பட்டியலி	-10.3648
▁ப்ள	-10.3648
▁கால்பந்த	-10.3649
▁வெண்கல	-10.3651
▁கலவர	-10.3651
▁திறப்ப	-10.3653
ஞ்சு	-10.3656
▁ஆத்திர	-10.3656
▁ஓபன்னீர்செல்வ	-10.3656
▁முனை	-10.3661
ோச	-10.3662
▁பைல	-10.3663
▁மூளை	-10.3672
▁நேரி	-10.3673
ாசில்லா	-10.3689
▁சங்கத்தின	-10.369
▁ராஜி	-10.3697
அன்பழகன்	-10.3703
▁நண்ப	-10.3704
விஜயபாஸ்கர்	-10.3707
ஜெய	-10.3707
கட்சி	-10.3707
▁கிராமத்த	-10.3709
தாக்கல்	-10.3709
வயது	-10.371
ீடு	-10.371
இன்று	-10.371
▁சந்தேக	-10.3711
▁ஊர்வல	-10.3713
▁போத	-10.3713
▁நிபந்தனைய	-10.3713
றோம	-10.3716
ாண்டு	-10.3716
றேன்	-10.372
▁ஹர்த	-10.3727
▁34	-10.3729
▁நிஜ	-10.3731
குடி	-10.3732
▁வேத	-10.3732
▁முத்துக	-10.3734
னிதா	-10.3735
ரிசோதனை	-10.3735
வரத்து	-10.3736
▁உச	-10.3738
▁டென்	-10.3742
▁உறவினர	-10.3742
டக்கம்	-10.3743
டிஆர்	-10.3743
▁செவிலியர	-10.3743
▁விண்ண	-10.3745
யிரம்	-10.3745
ூரில்	-10.3745
▁பழங்குடி	-10.3745
ீர்கள்	-10.3747
▁ஆதரவாளர	-10.3748
▁உத்தரவிட	-10.3748
ாசிரியர்	-10.3749
▁ட்ராக்	-10.375
▁செங்கோட்டை	-10.3751
▁வண்ண	-10.3751
▁அருங்காட்சியக	-10.3751
▁இந்தோனேசிய	-10.3751
▁கோமியத்த	-10.3751
▁தேவகவுடா	-10.3751
▁மிளகாய்	-10.3751
▁வறுத்தெடு	-10.3751
ரஞ்சன்	-10.3751
ாற்காலி	-10.3751
ுட்டுக்கட்டையா	-10.3751
▁அபிஷேக	-10.3751
▁அலைமோத	-10.3751
▁ஆஃபர	-10.3751
▁ஆச்சரியம	-10.3751
▁ஆபரேஷன்	-10.3751
▁ஆறா	-10.3751
▁இடஒதுக்கீடு	-10.3751
▁இன்னிங்ஸில	-10.3751
▁இன்ஸ்டாகிராம	-10.3751
▁இயந்திரத்த	-10.3751
▁இஷாந்த்	-10.3751
▁உம்மன்சாண்டி	-10.3751
▁உளவு	-10.3751
▁எம்ஜேஅக்பர்	-10.3751
▁எவரெஸ்ட	-10.3751
▁ஓஎஸ்மணியன்	-10.3751
▁கலாச்சாரம்	-10.3751
▁கலிபோர்னியா	-10.3751
▁கவிஞ	-10.3751
▁கிரிமினல்	-10.3751
▁கீழ்ப்பாக்க	-10.3751
▁குரங்கணி	-10.3751
▁கேட்டறிந்த	-10.3751
▁கோவிந்த்	-10.3751
▁சப்இன்ஸ்பெக்டர	-10.3751
▁சஸ்பென்ஸ	-10.3751
▁சாக்லேட்	-10.3751
▁சாதாரண	-10.3751
▁சுட்டுக்கொன்ற	-10.3751
▁சுற்றுச்சூழல	-10.3751
▁செயற்கை	-10.3751
▁டிடிவிதினகரன்	-10.3751
▁டெலிவரி	-10.3751
▁தடயவியல்	-10.3751
▁திருக்குறள	-10.3751
▁தேமுதிக	-10.3751
▁தொலைக்காட்சி	-10.3751
▁நகைச்சுவை	-10.3751
▁பன்னீர்செல்வத்த	-10.3751
▁பொதுப்பணித்துறை	-10.3751
▁முத்தரசன்	-10.3751
▁முன்ஜாமீன்	-10.3751
▁மெஸ்ஸி	-10.3751
▁மைத்ரேயன்	-10.3751
▁ராதாரவி	-10.3751
▁வரதட்சணை	-10.3751
▁விளம்பரம்	-10.3751
▁வெளியீட்ட	-10.3751
▁வேளாண்	-10.3751
▁வைத்திலிங்கம்	-10.3751
▁ஷர்மிளா	-10.3751
▁ஷெரீ	-10.3751
▁ஸ்டம்பிங்	-10.3751
▁ஹாங்காங்	-10.3751
▁ஹெக்டே	-10.3751
▁அவமதிப்பு	-10.3751
▁சரணடைந்த	-10.3751
▁சிதம்பரத்த	-10.3751
▁ஜான்சன்	-10.3751
▁துணைத்தலைவர	-10.3751
▁பதக்கங்கள	-10.3751
▁பார்த்திபன்	-10.3751
▁பில்கேட்ஸ	-10.3751
▁மும்முரம	-10.3751
▁அமர்நாத்	-10.3751
▁இடம்பிடித்த	-10.3751
▁ஒழிப்புத்துறை	-10.3751
▁கழித்த	-10.3751
▁காத்திருப்ப	-10.3751
▁கொள்ளையடித்த	-10.3751
▁சிறைபிடித்த	-10.3751
▁சோபியா	-10.3751
▁ஜோனாஸ்	-10.3751
▁தயாநிதி	-10.3751
▁பிள்ளைகள	-10.3751
▁பைரவா	-10.3751
▁மகேஷ்பாபுவ	-10.3751
▁மேத்யூ	-10.3751
▁வணங்க	-10.3751
▁வரலாற்றில	-10.3751
▁ஹோலி	-10.3751
▁ஆலோசி	-10.3751
▁கமிட்டி	-10.3751
▁சுவராஜ்	-10.3751
▁டெய்லர	-10.3751
▁தாமரை	-10.3751
▁துயரம	-10.3751
▁அர்ஜெ	-10.3751
▁கண்முன்	-10.3751
▁கைகோர்	-10.3751
▁பவுலர	-10.3751
▁வர்த்தக	-10.3751
▁சமாளிக்க	-10.3751
▁சோப்ரா	-10.3751
▁ஷர்மா	-10.3751
▁அமிதாப்	-10.3751
▁கலப்பட	-10.3751
▁நாப்கின	-10.3751
▁விக்ரமசிங்க	-10.3751
▁சொர்க்க	-10.3751
▁அகமது	-10.3751
ாந்திர	-10.3751
▁பொன்னையன்	-10.3751
▁தரிச	-10.3751
▁கவலைக்கிடம்	-10.3751
▁கொதித்த	-10.3751
▁பாரிக்கர	-10.3751
▁செயலர	-10.3751
ீஸ்கர	-10.3751
▁சேமிப்ப	-10.3751
▁முழுமையா	-10.3751
▁ரிசல்ட்	-10.3751
▁பின்பற்ற	-10.3751
▁தயங்க	-10.3751
▁சாமானியர்கள	-10.3752
▁மதராஸ	-10.3752
▁ஆர்யா	-10.3752
▁பச்சிள	-10.3752
▁ட்ரூ	-10.3752
▁அனந்த்	-10.3752
▁டயானா	-10.3752
▁நிரூபித்த	-10.3752
▁நீலகிரி	-10.3752
▁குற்றம்சாட்ட	-10.3752
▁அமர்ந்த	-10.3752
▁அல்வா	-10.3752
▁வெறிச்செயல	-10.3752
▁ஸ்ரீஸ்ரீ	-10.3752
▁அமலாபால்	-10.3752
▁வளர்த்த	-10.3752
▁வருத்தத்தி	-10.3752
▁பகிர்ந்த	-10.3752
▁பகிரங்க	-10.3752
▁மகேஷ்	-10.3752
▁மனோகர்	-10.3752
▁மாலிக்	-10.3752
▁மராத்தா	-10.3752
▁யோகிபாபு	-10.3752
▁ஆழ்	-10.3752
▁வெங்கட	-10.3753
▁வெட்டிக்கொலை	-10.3753
▁செயல்படுத்த	-10.3753
▁மாரியப்பன	-10.3753
▁கிருஷ்ணசாமி	-10.3753
ட்ரோல்	-10.3753
ெதிர	-10.3753
▁கொலையாளி	-10.3753
▁தெறிக்கவிட	-10.3753
▁வலுப்படுத்த	-10.3753
▁விடுப்பு	-10.3753
டிஎஸ்பி	-10.3753
▁கண்டுகொள்ள	-10.3754
▁முற்றுகையிட	-10.3754
▁தாமதமாக	-10.3754
▁மேற்கு	-10.3754
▁ஹிட்லர	-10.3754
▁மன்னித்த	-10.3754
▁உறைந்த	-10.3754
வியட்	-10.3754
▁இடித்து	-10.3754
▁அரவிந்த்சாமி	-10.3754
▁லுங்கி	-10.3754
▁வெப்பம	-10.3754
▁இருக்கிறாரா	-10.3755
▁பெட்டி	-10.3755
▁பர்த்	-10.3755
ந்துவிடும	-10.3755
▁சுடுகாட்ட	-10.3755
▁நிற்கிறேன்	-10.3756
▁சுஜா	-10.3756
▁கீர்த்தி	-10.3756
▁வருண	-10.3756
▁நீராட	-10.3756
▁சங்கிலி	-10.3757
▁ஓரினச்	-10.3757
▁சிக்கினார்	-10.3757
▁அலறிய	-10.3758
▁பள்ளத்த	-10.3759
▁காப்பகத்தி	-10.3759
▁மாறிவிட்ட	-10.3759
▁மண்டை	-10.376
▁மனநிலை	-10.376
▁எமன்	-10.3761
▁பூட்டி	-10.3761
▁இருப்பதா	-10.3761
▁பறக்கலாம்	-10.3761
▁மனிதநேயம்	-10.3762
▁வந்துட்டேன்	-10.3762
ணவு	-10.3762
த்திர	-10.3763
▁மறுக்கிறார்	-10.3763
▁தீவிரமடை	-10.3763
▁வார்ஸ்	-10.3763
▁சிக்கன	-10.3765
▁பாடகர்	-10.3766
▁லட்சத்திற்கு	-10.3767
▁மறு	-10.3767
▁பத்திர	-10.3768
▁பரிசோதனை	-10.3768
த்தனமா	-10.3768
▁நடப்பத	-10.3768
▁தொங்கிய	-10.3769
▁கீதத்தை	-10.3769
▁சுசி	-10.377
▁மஹா	-10.377
▁குறைவாக	-10.377
▁சாவந்த	-10.3771
▁சீரி	-10.3771
▁எவ்வ	-10.3771
▁ப்ரீத்	-10.3771
▁குறிப்பிட	-10.3772
▁ட்ரெண்டிங்	-10.3772
▁மனோ	-10.3773
மிஸ்	-10.3773
▁எஸ்சி	-10.3774
▁டூடு	-10.3775
▁எம்பிபிஎஸ்	-10.3775
▁தயாரான	-10.3775
▁ஆதிக்க	-10.3776
▁நண்பன்	-10.3776
▁தொடருமா	-10.3777
▁குரோஷியா	-10.3777
▁கருவி	-10.3777
▁நோட்டாவ	-10.3778
▁கட்டுப்பாட்ட	-10.3778
▁வானவில்	-10.378
▁செர	-10.3781
▁வருமா	-10.3781
▁அஜீத்த	-10.3783
▁பொறுப்பாளர்கள	-10.3784
ாலயத்த	-10.3785
▁அமர்வ	-10.379
▁கசிவு	-10.379
▁எடுத்துச்	-10.3791
▁திறக்கப்பட்டது	-10.3793
▁சுதந்திரமாக	-10.3794
▁அம்பத்த	-10.3794
பர்ஸ்ட்	-10.3794
▁இரும்புத்	-10.3795
▁கைப்ப	-10.3795
மேஷ்	-10.3796
▁விருதுநகர	-10.3797
▁அணுக	-10.3797
▁மகராஜ	-10.3798
▁600	-10.3799
▁பங்கீட	-10.3799
ெந்த	-10.3803
▁அல்க	-10.3805
▁விக்கெட்டுகள	-10.3805
▁சடங்கு	-10.3807
▁கசிய	-10.3807
▁ஒன்றாக	-10.381
▁மின்னல	-10.3811
▁பவார	-10.3811
▁கேட்பது	-10.3812
யளித்த	-10.3813
▁பாதுகாக்கப்பட	-10.3813
▁வட்டிய	-10.3813
▁தூண்ட	-10.3813
▁ஹீரோவை	-10.3814
▁சோன	-10.3814
▁மலி	-10.3816
▁தீக்குளித்த	-10.3816
▁சூர்யாவின்	-10.3816
▁குள	-10.3819
▁திருப்பூர	-10.382
▁உருவாக்கிய	-10.3821
▁நொறுங்கியது	-10.3822
ஸூம்	-10.3822
▁மறைந்தார்	-10.3827
க்காய்	-10.383
▁கிங்	-10.3831
▁பாய்ந்தது	-10.3832
ுவார்கள	-10.3834
▁ஹைதராபாத்த	-10.3835
▁பெருமாள்	-10.3836
▁பேப்பர்	-10.3836
▁தொகுப்பாளர்	-10.3836
▁இப்ப	-10.3838
▁காவலர்களுக்கு	-10.3839
▁ராஜபக்சே	-10.3839
▁தப்பின	-10.384
▁கட்டப்பட்ட	-10.3842
▁கலந்து	-10.3842
லாட்ட	-10.3843
▁இவர்தான்	-10.3847
▁விஜயகுமார	-10.3847
யெடுத்து	-10.3847
▁38	-10.3847
▁கலவரம்	-10.3854
▁ஆத்திரம்	-10.3854
▁ஹேக்	-10.3855
▁மாநிலத்திற்கு	-10.3859
▁பனிப்பொழிவு	-10.3862
▁உண்மைதான்	-10.3863
▁எட்டிய	-10.3864
▁குழும	-10.3868
▁கணக்குகள்	-10.3874
கல்வி	-10.3877
▁டய	-10.3883
▁கஜாவ	-10.3883
▁நகரம்	-10.3884
▁விஷாலுக்கு	-10.3887
▁ஓட்டுநர்கள்	-10.3887
▁ஆல்ரவுண்டர	-10.3889
▁ஏவ	-10.3889
▁பாரிஸ்	-10.3892
▁பாடப்	-10.3894
▁எண்ணூர	-10.3895
▁கொடியேற்ற	-10.3896
▁நந்த	-10.39
▁பஞ்ச்	-10.3901
ருந்த	-10.3902
▁இறப்ப	-10.3903
▁நண்பர்கள்	-10.3906
▁அனு	-10.3908
▁உலவ	-10.391
▁ஆந்த	-10.3912
▁சேர்க்கை	-10.3913
▁சம்பந்த	-10.3917
யானவர்	-10.3917
▁சமரசம்	-10.392
ஸ்சி	-10.3928
▁டைவ	-10.3929
▁நேரத்திற்கு	-10.3934
▁எழும்	-10.3936
ிடுங்க	-10.3939
கூட	-10.3943
▁மருமகன்	-10.3948
▁கஷ்டம்	-10.3948
▁சுப	-10.3948
▁சார	-10.3954
▁கச்ச	-10.3954
ைக்கே	-10.3955
▁வன	-10.3956
▁நினைக்கிறார்	-10.3958
லைட்	-10.3963
▁ஏதும	-10.3974
▁தோண்டி	-10.3986
▁தப்பு	-10.399
▁பைக்கை	-10.399
▁கூட்டம	-10.4004
▁அழகு	-10.4005
▁திருத்த	-10.4016
னவர்	-10.4017
▁ஓட்டல்	-10.4019
▁ஷூட்டிங்க	-10.4019
▁சஞ்சு	-10.4024
ப்பர்	-10.4026
▁இல்லா	-10.4028
்யூ	-10.4029
35	-10.4037
▁மன்றம்	-10.4042
▁உண்மைக்	-10.4047
▁பெயர்கள்	-10.405
▁கோயிலுக்கு	-10.4058
▁மனிஷ	-10.4059
▁மணமகன்	-10.4061
▁துவ	-10.4064
▁உயிரோட	-10.407
▁உரிமையை	-10.4081
▁பெரும்	-10.4084
▁சிரிப்ப	-10.4084
▁கொள்ளுங்கள	-10.4087
▁போகிற	-10.4105
19	-10.4107
▁கட்டாயப்படுத்த	-10.4108
▁மூழ்கி	-10.4114
40	-10.4115
▁மொத்த	-10.4116
▁காப்ப	-10.4117
▁ஆஸ்திரேலியாவ	-10.4119
்தேன்	-10.4119
▁நடால	-10.4126
▁ஹீரோக்கள	-10.4126
▁தோல்வியை	-10.4136
▁மூடிவிடு	-10.4138
▁திக	-10.4139
ப்பட்டார்	-10.4145
▁பிரே	-10.4145
▁நல்லது	-10.4147
மடைய	-10.4152
▁புதை	-10.4156
ர்த்திய	-10.4156
▁எழுந்த	-10.4158
த்துவம	-10.4162
▁திட்டிய	-10.417
▁மோட்	-10.4173
▁உழைப்ப	-10.4184
▁வேலைகள்	-10.4184
▁பொறுப்பேற்க	-10.4193
▁சுத்த	-10.4194
▁பிரபஞ்சன	-10.4196
▁நாத	-10.4196
ைட்டில்	-10.4202
▁வேல்	-10.422
▁கண்டுபிடிக்க	-10.4222
▁ஓட்டம்	-10.4225
11	-10.4229
▁பிரசவத்த	-10.4247
▁விடுதலையா	-10.4248
▁ராதாகிருஷ்ணன	-10.425
▁கிருஷ்ணன	-10.4252
▁தொகுதிகள	-10.4256
▁குரேஷி	-10.4264
▁கொஞ்சம	-10.4265
▁ஜெயிக்கும	-10.4271
▁அவமானத்த	-10.4271
▁எதிரானது	-10.4288
ின்டன்	-10.4291
▁வெயில்	-10.4302
மேல்	-10.4307
▁கேட்டது	-10.4317
க்ஷா	-10.4317
▁ரயில்கள	-10.4318
நாசம்	-10.4324
▁பெய்ய	-10.4332
▁போக்கு	-10.4338
▁தள்	-10.4342
▁நடவடிக்கையா	-10.4345
▁நானும்	-10.4348
▁ஒடிசாவ	-10.4361
▁இல்லம்	-10.4363
▁பாதுகாப்பானத	-10.4364
▁டைர	-10.4386
புயல்	-10.4388
▁விமானப்	-10.4395
▁சேர்க்க	-10.4396
▁திருமணங்கள	-10.4399
▁ஆடியோவ	-10.4413
ஹான	-10.4414
▁விவகார	-10.4414
▁நெகிழ்ச்சிய	-10.4419
வளை	-10.4426
▁தற்போத	-10.4432
க்கப்படுகிறது	-10.4436
விருந்த	-10.4446
▁இறந்து	-10.445
▁அதிகாரப்பூர்வம	-10.4451
▁காதலை	-10.4457
ப்படை	-10.4465
▁இசையில்	-10.447
▁சர்ச்சையை	-10.4471
▁தடைகளை	-10.4473
▁அழுக	-10.4475
▁கவர	-10.4478
▁விருத	-10.4484
▁கோம்	-10.4486
▁அலட்சியம	-10.4488
நாயக	-10.4493
▁இறக்கும	-10.4509
▁மூடி	-10.4511
கேட்	-10.4547
▁புத	-10.4554
▁வடிவேலு	-10.4557
▁மிர்சா	-10.4558
▁செய்யப்படும	-10.4558
கிவிட்ட	-10.4563
▁இருக்கலாம	-10.4566
▁மஞ்சு	-10.4568
ோரா	-10.4577
▁செய்கிறத	-10.4577
வலி	-10.4584
▁கரைய	-10.4586
கார	-10.4617
▁ஆற்றுக்கு	-10.4622
ாக்ஸ்	-10.4628
▁ஹீரோவா	-10.4634
▁சமஸ்கிருத	-10.4644
▁டெண்டர்	-10.4647
▁மாற்றுவத	-10.468
மைப்பாளர்	-10.4688
▁டும்	-10.4694
▁சரிய	-10.4708
▁புறக்கணித்த	-10.4715
டத்தில்	-10.4728
▁ஹோட்டல்கள	-10.4728
▁அகதி	-10.4748
▁மதுபான	-10.4752
▁நாடா	-10.4771
▁மைதான	-10.4774
▁குற்றம	-10.4783
▁தரவில்லை	-10.4784
ோமா	-10.4786
▁இழுத்து	-10.4793
▁திட்டங்கள	-10.4813
▁வருடங்கள	-10.4824
க்காரர்	-10.4828
▁மொழிகள	-10.4828
ளிக்க	-10.4833
ளிக்கிற	-10.4848
ோஹி	-10.485
▁தூ	-10.4869
போத	-10.4877
▁பயன்படுத்தி	-10.4879
▁கொல்கத்தாவ	-10.488
ிவரும்	-10.4888
ுபோன	-10.4888
29	-10.4892
▁ஹாப்	-10.4917
▁அலட்சிய	-10.4919
ியர்களுக்கு	-10.4939
விடம்	-10.4965
▁நெல்லையில	-10.4968
க்கூ	-10.4988
▁ஹெச்	-10.5014
▁எளிமை	-10.5027
▁தேசத்திற்க	-10.5029
▁மாற்றி	-10.5039
▁மிதக்க	-10.5043
▁அம்மாவை	-10.5049
தாங்க	-10.5064
▁கற்றுக்	-10.5069
வுண்ட்	-10.507
▁சிம்புவ	-10.5116
யாளர்கள்	-10.5119
பாதை	-10.5144
▁காமெடிய	-10.5151
▁கற்ற	-10.5158
▁ஸ்டாலினை	-10.5164
▁அழ	-10.5166
▁நட்பு	-10.5167
▁அவமான	-10.5169
▁போலீசார	-10.5184
▁நுழை	-10.5198
யட்	-10.52
▁காள	-10.52
ிம்ப	-10.5203
▁தாவ	-10.5219
வீர	-10.5233
▁பகல	-10.5258
▁சென்றவர்கள	-10.5264
▁மூதாட்டிய	-10.5267
சூ	-10.5276
வ்வ	-10.5281
▁கட்டினா	-10.5288
▁ஆல	-10.5293
ிலான	-10.5311
ிப்பதா	-10.5315
▁போர்க்க	-10.5321
குவா	-10.5342
▁33	-10.5347
▁மொத்தம	-10.5355
ினேஷ	-10.536
க்கொண்ட	-10.5369
▁மாநாட்ட	-10.5373
▁கூர	-10.5391
▁கத	-10.5393
காரர்	-10.5408
▁திட்டியத	-10.5423
▁வேலைவாய்ப்பு	-10.5428
ஃபோ	-10.5439
குமார	-10.5443
டங்கு	-10.5445
▁மாறும	-10.5453
▁ஹோட்டல	-10.5458
▁ரவிசங்கர	-10.5461
▁பரோல	-10.5463
▁ஸ்பெஷல	-10.5465
▁ஆர்வம	-10.5465
▁ஹர்பஜன	-10.5466
▁முதியவர	-10.5469
▁போஸ்டர	-10.547
▁கணவன	-10.5471
▁தயாரிப்பாளர	-10.5473
▁உறவினர்கள	-10.5473
▁தகவல	-10.5475
படுத்த	-10.5493
▁தெரிவிக்க	-10.5503
ங்கட	-10.5503
▁உல	-10.5505
▁தொலை	-10.551
▁ராய	-10.5525
▁விற்று	-10.5526
்மையான	-10.553
▁சாம	-10.5532
▁தீப்பற்றி	-10.5542
▁நிறுத்தப்பட	-10.5542
▁எல	-10.5545
▁ராஜமவுலிய	-10.5546
மதி	-10.5547
▁தோற்கடி	-10.5549
தனை	-10.5551
னியாவ	-10.5558
▁நெட்	-10.5559
ரூ	-10.5572
▁மங்க	-10.5572
▁கோஷ	-10.5572
வேல	-10.5574
றார்	-10.5575
ளவில்	-10.5591
▁உடைய	-10.5599
ோடிகள	-10.5601
ாரோ	-10.5607
கிறதா	-10.5613
▁வாக்குறுதிகள	-10.5622
▁நடைபெற	-10.5622
▁நினைவ	-10.5628
வீரர்	-10.5636
துறை	-10.5637
▁நீடிக்க	-10.5637
மூல	-10.5641
▁கலந்த	-10.5642
▁ஜெயராம	-10.5643
ாங்களே	-10.5644
▁சிவி	-10.5644
▁தீவிரவாத	-10.565
ருப்பு	-10.5652
▁மவுன	-10.5653
▁விருப்ப	-10.5653
▁விவாத	-10.5656
▁கடித	-10.5656
▁ஆவேச	-10.5656
▁தீபாவளிய	-10.5668
▁ஆசியக்	-10.5671
▁குப்பைத்	-10.568
▁லெவ	-10.5688
பாய்	-10.5692
▁தீக்குளி	-10.5694
58	-10.5699
▁துரோக	-10.57
ஹாசன்	-10.5701
வாய்ந்த	-10.5703
▁ஆர்டிஐ	-10.5703
எக்ஸ்	-10.5703
்பூரில்	-10.5704
ஜெட்	-10.5705
பிரபு	-10.5705
சக்தி	-10.5706
மரியாதை	-10.5706
மீட்ட	-10.5707
கூறி	-10.5707
பார்க்க	-10.5707
ஆயிரம்	-10.5708
டெல்லி	-10.5708
டெஸ்ட்	-10.5708
▁முறி	-10.5709
கார்பன	-10.571
▁350	-10.571
பரீட்சை	-10.5711
கசிவு	-10.5711
▁கலாய்	-10.5715
▁ஆட்ட	-10.5717
▁மோசம	-10.5723
தலைக்	-10.5723
▁காஞ்சி	-10.5724
▁நியாயம	-10.5726
250	-10.5728
ிஹெச்	-10.5729
▁உயர்ந்த	-10.5732
▁டிராவிட்	-10.5734
▁கடற்ப	-10.5739
▁கிழி	-10.5739
▁ஷெரிப்	-10.5741
ப்பெண்	-10.5747
▁ட்ரெ	-10.5747
ண்ணெய்	-10.5747
ாக்ஷி	-10.5748
▁நாடகமா	-10.575
ுதீன்	-10.575
மூர்த்தி	-10.5751
திறனாளி	-10.5751
▁பயன்பட	-10.5751
▁எம்எல்	-10.5751
வஞ்சக	-10.5751
▁அண்டார்டிக	-10.5751
▁அஃப்ரிடி	-10.5751
▁ஒடிஷா	-10.5751
▁கனஅடி	-10.5751
▁கொச்சைப்படுத்த	-10.5751
▁நக்சலைட்	-10.5751
▁பாத்திமாவ	-10.5751
▁வரவேற்க	-10.5751
கதீ	-10.5751
வீழ்ச்சி	-10.5751
ெழுந்த	-10.5751
▁அசாருதீன்	-10.5751
▁அநீதி	-10.5751
▁அன்புச்செழியன	-10.5751
▁அலைக்கழிப்ப	-10.5751
▁ஆயிரக்கணக்க	-10.5751
▁இசைக்கலைஞர்	-10.5751
▁இணையதளம்	-10.5751
▁இத்தாலி	-10.5751
▁இயந்திரங்கள்	-10.5751
▁இலகணேசன்	-10.5751
▁இழுபறி	-10.5751
▁உச்சவரம்ப	-10.5751
▁உத்தராகண்ட	-10.5751
▁உரையாற்ற	-10.5751
▁உர்ஜித்	-10.5751
▁எச்சரித்த	-10.5751
▁எம்எஸ்கே	-10.5751
▁எரிச்சல	-10.5751
▁ஓய்வூதிய	-10.5751
▁கம்பெனி	-10.5751
▁கரம்பிடித்த	-10.5751
▁கல்லெறி	-10.5751
▁களமிறக்க	-10.5751
▁காசநோய்	-10.5751
▁காட்டெருமை	-10.5751
▁குதறி	-10.5751
▁கும்பகோண	-10.5751
▁கையெழுத்திட	-10.5751
▁சந்தீப்	-10.5751
▁சமுத்திரக்கனி	-10.5751
▁சல்யூட்	-10.5751
▁சிவபெருமான	-10.5751
▁சீக்ரெட்	-10.5751
▁சுற்றுப்பயண	-10.5751
▁ஜாக்கிரதை	-10.5751
▁ஜேபிநட்டா	-10.5751
▁தடாலடி	-10.5751
▁தடுப்பூசி	-10.5751
▁தன்னம்பிக்கை	-10.5751
▁திமிங்கல	-10.5751
▁நமீதா	-10.5751
▁நிதியமைச்சகம்	-10.5751
▁நினைவேந்தல	-10.5751
▁பட்டுக்கோட்டை	-10.5751
▁பண்ற	-10.5751
▁பன்றிக்காய்ச்சல	-10.5751
▁பரிவர்த்தனை	-10.5751
▁பவுலிங்	-10.5751
▁பிலிப்பைன்ஸ	-10.5751
▁புறக்கணிக்க	-10.5751
▁பெல்ஜியம்	-10.5751
▁பொல்லார்ட்	-10.5751
▁மறந்த	-10.5751
▁மிஷ்கின	-10.5751
▁முதியோர	-10.5751
▁ரஹீம	-10.5751
▁லைசென்ஸ	-10.5751
▁வறண்ட	-10.5751
▁விறுவிறு	-10.5751
▁விவேகானந்தர	-10.5751
▁ஸீ	-10.5751
▁ஸ்பின்னர்	-10.5751
▁ஹன்சிகா	-10.5751
▁ஹேஷ்டேக்	-10.5751
▁அங்கீக	-10.5751
▁கவனக்குறைவ	-10.5751
▁கவிழ்க்க	-10.5751
▁கிளீன	-10.5751
▁குதிரை	-10.5751
▁சிறுவயதில	-10.5751
▁சிறைபிடிப்பு	-10.5751
▁சிவகாசி	-10.5751
▁சுசித்ரா	-10.5751
▁டிஆர்எஸ்	-10.5751
▁நலத்திட்ட	-10.5751
▁பயன்படுத்துவோர	-10.5751
▁பிரசன்னா	-10.5751
▁பேத்திய	-10.5751
▁மதச்சார்ப	-10.5751
▁முன்னேற்றத்தை	-10.5751
▁ரசகுல்லா	-10.5751
▁லார்ட்ஸ	-10.5751
▁விழுப்புர	-10.5751
▁ஸ்கூல	-10.5751
▁உத்தரகாண்ட	-10.5751
▁கட்டாயமாகிறது	-10.5751
▁கைவிரி	-10.5751
▁மஜத	-10.5751
▁ரபாடா	-10.5751
▁குடிமகன	-10.5751
▁சேட்டன்	-10.5751
▁பயோபிக்	-10.5751
▁ராக்கெட்	-10.5751
▁விளம்பரப்படுத்த	-10.5751
▁வெங்கைய	-10.5751
▁மகாத்மா	-10.5751
▁ரொமான	-10.5751
▁லாசரஸ்	-10.5751
▁ஷில்பா	-10.5751
▁சிக்கித்தவி	-10.5751
▁பபாண்டி	-10.5751
▁மாசுபாட்ட	-10.5751
▁யாருடைய	-10.5751
▁நெல்லித்தோப்ப	-10.5751
▁சின்ஹா	-10.5751
▁தேக்கடி	-10.5751
▁வெட்கம	-10.5751
▁அதிர்வு	-10.5751
▁கோழி	-10.5751
▁படமாக்க	-10.5751
▁எடுப்பார்	-10.5751
▁கிளார்க்	-10.5751
▁மணமகள்	-10.5751
▁வருஷ	-10.5751
▁கர்ப்பம	-10.5751
▁புரிந்துகொள்ள	-10.5751
▁இம்முறை	-10.5751
▁வீச்சில	-10.5751
▁சிலிண்டர	-10.5751
▁ஜெயந்தி	-10.5751
▁காணிக்கை	-10.5751
▁சிகரெட்	-10.5751
▁காரணங்கள	-10.5751
▁இரானி	-10.5751
▁அழைப்பிதழ	-10.5751
▁மாயமான	-10.5751
▁ராணி	-10.5751
▁வசனம்	-10.5751
▁ஓஎன்ஜிசி	-10.5751
▁பிரிவினை	-10.5751
▁குடிசை	-10.5751
▁ஆணவக்கொலை	-10.5752
▁மாமனார	-10.5752
▁பாஇரஞ்சித்	-10.5752
▁ஹனன்	-10.5752
▁பணிப்பெண்	-10.5752
▁வைத்தியநாதன	-10.5752
▁பச்சன்	-10.5752
▁ஆண்டர்சன	-10.5752
▁பதவியேற்றார்	-10.5752
▁சீரியஸ	-10.5752
▁விமானநிலையத்த	-10.5752
▁பாடலாசிரியர்	-10.5752
▁மின்கோபுர	-10.5752
▁இதுக்கெல்லாம	-10.5752
▁புத்தகமாக்கி	-10.5752
▁பொருந்த	-10.5752
▁கிருஷ்ணகிரி	-10.5752
▁சத்திய	-10.5752
▁ரசூல	-10.5752
ுதவி	-10.5752
▁கொள்வ	-10.5752
எஸ்டி	-10.5752
▁ஸ்கோர	-10.5752
▁துணிச்சல	-10.5752
▁வருவே	-10.5752
▁துறைமுக	-10.5752
▁சன்னிதான	-10.5752
▁நிரம்பியது	-10.5752
▁மணிப்பூர	-10.5752
▁வளங்கள	-10.5752
▁டப்பிங்	-10.5752
▁செய்வதை	-10.5752
▁மட்டை	-10.5753
ருமை	-10.5753
▁பிரேமலதா	-10.5753
▁மணப்பெண்	-10.5753
▁சரித்திர	-10.5753
▁முறிவு	-10.5753
▁குளியல்	-10.5753
ப்பிரதேச	-10.5753
▁மோர்க	-10.5753
ுவிடுவார்	-10.5753
▁இன்ஜினீயர	-10.5753
▁திவாரி	-10.5753
▁வலம்	-10.5753
▁மைனா	-10.5753
▁நிமிடங்களில	-10.5753
▁ஆமை	-10.5754
▁டோக்க	-10.5754
▁வேஷ	-10.5754
▁ஜொலி	-10.5754
▁பழுது	-10.5754
ப்பிடிக்கும	-10.5754
▁விபர	-10.5754
பூபா	-10.5754
▁பதாகை	-10.5754
▁நன்மைக்க	-10.5755
▁ஜீரோ	-10.5755
விலங்கு	-10.5755
▁மய்ய	-10.5755
▁வழிகாட்ட	-10.5755
▁அதிர்ந்த	-10.5756
▁மன்னிக்க	-10.5756
▁தெரியப்படுத்த	-10.5756
▁சிங்கிள்	-10.5756
▁வாரிச	-10.5756
▁தாகூர	-10.5756
▁கவலைப்படாத	-10.5757
▁இந்துக்கள	-10.5757
▁மெக்கா	-10.5757
▁எல்லாரும	-10.5757
▁ஜெய்ப்பூர	-10.5757
▁தோட்டா	-10.5757
▁மாற்றப்படு	-10.5758
▁பழங்குடியினர	-10.5758
சைன்	-10.5758
▁திநகர	-10.5758
▁நிபா	-10.5759
தர்மே	-10.5759
62	-10.576
▁விஷயத்த	-10.576
ாவடி	-10.576
▁திறக்கப்பட்ட	-10.5761
▁வருந்து	-10.5761
▁கூறுவது	-10.5761
▁கதவை	-10.5761
ிருக்காங்க	-10.5761
▁லிப்	-10.5762
▁கரடி	-10.5762
▁கொம்ப	-10.5762
▁பதவிக்கால	-10.5762
▁கேப்டன்ஷிப்	-10.5762
▁ஐரோ	-10.5762
▁கிடைக்குமா	-10.5763
▁கபில்	-10.5763
▁தகர்	-10.5763
▁குருவி	-10.5763
▁டிரெண்ட	-10.5764
▁அமர	-10.5764
ஃபின்	-10.5764
▁பங்கேற்கிறார்	-10.5765
▁ஆண்டனி	-10.5765
▁அளிக்கப்பட்டத	-10.5765
▁ஸ்ரீதரன்	-10.5766
▁பச்சை	-10.5766
▁தனபால	-10.5767
▁பார்ட்டி	-10.5767
▁பிரித்த	-10.5767
▁செல்வாக்க	-10.5767
▁தொடர்ச்சியா	-10.5767
▁போகலாம்	-10.5768
▁செய்வதா	-10.5769
க்கணக்க	-10.5769
▁பயன்பாட்ட	-10.5769
▁பன்றிக்	-10.5769
▁வியந்த	-10.577
▁கொலைவெறி	-10.5771
▁தகர்க்க	-10.5771
▁தீவிரவாதியா	-10.5771
லபுர	-10.5771
▁கேலி	-10.5771
மனு	-10.5772
▁கார்கில்	-10.5773
▁இருப்பது	-10.5773
▁வசந்த	-10.5774
▁ஆச்சு	-10.5775
▁பட்டப்ப	-10.5775
▁தில்ல	-10.5776
▁சாத்தான்	-10.5776
▁பெருந்த	-10.5777
▁தீர்மானி	-10.578
▁ரியா	-10.578
▁முதல்கட்ட	-10.5781
மக்கள்	-10.5782
▁வாங்கின	-10.5783
▁தலைநகர	-10.5784
▁நலமாக	-10.5784
▁இந்தியர்களுக்கு	-10.5785
ழ்வா	-10.5786
▁நெருக்கமான	-10.5788
▁மலைப்பா	-10.579
▁110	-10.579
▁செம்மர	-10.579
ங்காய்	-10.5791
▁அழிப்பு	-10.5791
க்கணுமா	-10.5792
▁என்கவுன்டர	-10.5794
▁கோயிலுக்குள்	-10.5794
▁விரும்பிய	-10.5795
▁உடன்பாட	-10.5796
▁போடப்பட்ட	-10.5798
▁கொன்றவர	-10.5799
▁சூட	-10.5799
னிகா	-10.5799
▁தெளி	-10.58
▁கட்சியினர	-10.58
▁நியாயமா	-10.58
▁இண்ட	-10.5801
▁லட்டு	-10.5802
▁வெறிய	-10.5802
▁உரையாடல்	-10.5803
▁ராவத்	-10.5805
▁ரெடியா	-10.5806
▁நினைக்கிற	-10.5806
▁நிறுவனர்	-10.5807
மிங்	-10.5807
ரத்னா	-10.5807
▁சொந்தமான	-10.5807
▁பகத்	-10.5808
▁சஹா	-10.5808
வாலா	-10.5808
▁நெருப்ப	-10.581
▁அன்பழகன்	-10.5811
▁தமிழகம	-10.5814
▁பண்ணிய	-10.5815
▁கிளப்	-10.5816
▁பறிபோனது	-10.5816
▁கிருஷ்ணா	-10.5816
▁காட்டுகிறது	-10.5817
பணம்	-10.5817
▁சாதனையாளர்	-10.5817
▁700	-10.5818
▁உத்தப்பா	-10.5819
கொண்டா	-10.582
▁சுவாரஸ்யங்கள	-10.5821
▁குடித்த	-10.5822
▁நகரங்கள	-10.5822
▁நள	-10.5823
▁61	-10.5823
▁250	-10.5823
▁சிஎஸ்கேவ	-10.5824
▁பிரஷர	-10.5825
ாவின்	-10.5826
ும்பு	-10.5827
▁வாய்ந்த	-10.5829
▁பாகுபாடு	-10.5831
ங்கிலி	-10.5835
▁குதித்தார்	-10.5835
▁இணைந்தார்	-10.5835
ிட்னி	-10.5837
▁பாரதிய	-10.5837
▁104	-10.5838
▁பேட்ம	-10.5838
▁நெஞ்சு	-10.5841
▁கரும்பு	-10.5841
▁ஜோடியாக	-10.5845
▁3000	-10.5845
▁காலிஸ்	-10.5846
க்காதீங்க	-10.5846
▁அவசியமில்ல	-10.5847
▁வசிய	-10.5847
▁ஊதியத்தை	-10.5848
▁இடைத்	-10.585
▁பெயர்ப்ப	-10.585
▁கருப்புப்	-10.5851
▁எழுத்து	-10.5856
▁கருத	-10.5858
▁விநியோகம்	-10.5859
▁அடைக்க	-10.5863
▁கட்டிவை	-10.5865
ாருதி	-10.5865
▁பாட்டில	-10.5866
▁59	-10.5867
▁கற்றுக்கொடு	-10.5867
▁வாகா	-10.5868
டைத்த	-10.5869
▁நீரி	-10.587
▁பிரசாத்த	-10.5871
▁வெட்டிக்	-10.5872
▁சாஹா	-10.5875
▁இதயம	-10.5877
▁ஒருங்கிணைப்ப	-10.5878
▁குடித்து	-10.5878
▁நடைபெறும்	-10.5883
▁படல	-10.5884
்கனி	-10.5885
▁வியா	-10.5888
பாஸ்	-10.5888
▁சிவன	-10.5888
▁நிலையத்திற்கு	-10.5889
▁மங்கை	-10.5889
▁பந்துகள	-10.5896
▁காசி	-10.5896
ரிச்	-10.591
▁படைப்ப	-10.5913
▁வாக்களித்த	-10.5914
▁பியா	-10.5916
▁வெளியிட்டார்	-10.5922
▁கிரா	-10.5931
செ	-10.5932
▁நடுவர்	-10.5933
▁உடையாத	-10.5935
▁கிறிஸ்தவ	-10.5939
சேகர	-10.5939
▁பெற்றோர்கள்	-10.5946
வைசி	-10.5951
ஹார	-10.5954
▁செய்வார	-10.5955
▁செல்போன்கள்	-10.5956
▁முடிகிறத	-10.5958
▁கூடிய	-10.5959
▁போனஸ்	-10.596
▁தெரு	-10.5961
▁62	-10.5968
▁பெங்களூருக்கு	-10.5973
▁மிட	-10.5981
▁புரியவில்லை	-10.5985
▁பாண்ட்யாவ	-10.5987
▁வெயிட்	-10.5989
▁ஹெலிகாப்டர	-10.5991
ிருக்கிறார்	-10.5998
▁அசர	-10.5998
▁தொடங்கின	-10.5999
▁பாதிப்புகளை	-10.6009
▁கேக்க	-10.601
▁ஆண்டில	-10.6011
▁அனைத்துக்	-10.6012
▁டக்	-10.6018
▁சட்டப்பேரவைக்	-10.6024
▁பின்னணியில்	-10.6026
▁தேஜ	-10.6027
▁கும்பல	-10.6027
▁கேபிள	-10.6029
37	-10.603
▁நபர்கள்	-10.6034
▁பணியிடங்கள	-10.6035
▁பிரியர்கள	-10.6039
ஷ்டி	-10.604
ாச்சு	-10.6046
ென்ஸ்	-10.6054
▁அரேபியாவ	-10.6055
▁துணைத்	-10.6076
▁போலீஸ்காரர	-10.6082
▁தேவஸ	-10.6082
▁தரையிறக்க	-10.6082
▁தமிழர்களுக்கு	-10.6083
▁வாழ்க்கைக்	-10.6083
▁அனுபவங்கள	-10.6084
▁சொத்துகள்	-10.6091
ியூவ	-10.6096
▁சமைத்த	-10.6102
▁தப்பிப்ப	-10.6109
▁மற்றவர்கள	-10.6111
▁கேப்	-10.6116
▁இல்லாதோர	-10.6119
ம்பம்	-10.6124
▁சிறைத்	-10.6127
▁தேர்வை	-10.6129
▁வாக்களிப்ப	-10.613
பண்ணா	-10.6132
▁இருக்கக்	-10.6136
▁வில	-10.6143
▁சிலையா	-10.6152
▁இறந்தது	-10.6155
▁பனிப்ப	-10.616
▁கோலியா	-10.6169
▁தொடங்கப்படும	-10.6181
▁மாற்றுப	-10.6189
விலை	-10.6194
▁ஸ்மிர	-10.6195
▁பங்கேற்காத	-10.6207
▁செயல்படுகிற	-10.621
▁மிக்க	-10.6212
டபிள்	-10.6215
▁பேட்ஸ்மேன்கள	-10.6217
▁மேகாலயாவில	-10.6224
▁திரையுலக	-10.6227
▁விருதுகள்	-10.6238
▁அடிப்படையில	-10.626
ர்ஷ்	-10.6266
▁போக்க	-10.6269
தையாக	-10.6278
▁மலைப்பாம்பு	-10.6285
▁மோ	-10.6298
ப்பிக்க	-10.6298
▁தத்	-10.6311
▁ரஞ்சித்த	-10.6315
▁ரஹ்மான	-10.6332
▁கவிதை	-10.634
▁தொலைவ	-10.6349
▁பூமி	-10.6349
▁அலங்க	-10.636
▁துள	-10.6369
▁ஓட்டியவர	-10.6381
▁சூ	-10.6391
கடைக்காரர்	-10.6396
டியும்	-10.6398
▁மாடி	-10.6403
▁குமுறல	-10.6406
▁நிறை	-10.6418
▁நீல	-10.6422
▁பாலிவுட்டி	-10.6436
▁அசா	-10.6437
▁டிக்கெட்ட	-10.6437
▁மகர	-10.6442
▁அமைப்ப	-10.6462
▁ஜனநாயகத்த	-10.6467
▁கொடிய	-10.647
28	-10.6476
ைகளும்	-10.6483
▁போஸ்	-10.6487
▁செயல்படுகிறத	-10.6488
▁பிடிக்கவில்லை	-10.6531
ிருக்கா	-10.6533
▁ட்ரம்ப்ப	-10.6542
ளன	-10.6542
▁வருவார	-10.6555
▁வியாபாரிகள	-10.6561
▁நட	-10.657
▁இருக்கிறேன	-10.657
▁நீர்திற	-10.6577
லதா	-10.6601
▁சாதிக்க	-10.6603
▁மீடூவ	-10.6615
▁முஸ்லீம்	-10.662
▁மகாராஷ்டிராவ	-10.663
தரகர்	-10.6648
▁களங்க	-10.6652
▁அழகிய	-10.668
75	-10.6681
▁நடந்தால	-10.6683
▁அதிர்ச்சியடை	-10.6695
்வேர்	-10.6701
▁வெடிப்ப	-10.6705
▁டிராப	-10.6725
▁அநாகரிகமா	-10.6732
ப்படுகின்றன	-10.6734
▁நியமித்த	-10.6748
▁நிம்மதிய	-10.6759
▁பிளாக்	-10.6767
க்ரை	-10.677
▁வெளிச்ச	-10.6797
▁இழுத்த	-10.681
▁ஷூ	-10.682
▁விரட்ட	-10.6832
யினர்	-10.6841
▁தத்த	-10.6852
ோட்டா	-10.6853
▁மதுபானம	-10.686
▁குத்திக்கொ	-10.6861
▁குரங்கு	-10.6869
▁உணர்வு	-10.6877
▁ஆணையத்திற்க	-10.689
▁வலைத்தள	-10.6916
▁ஜெயிச்ச	-10.6935
▁விமானங்கள	-10.6949
▁பூட	-10.6962
ிருந்தால	-10.6982
▁படுகோனே	-10.6991
▁சமஸ்கிருதத்த	-10.6995
பொடி	-10.7034
▁நம்புகிற	-10.7036
▁வைரமுத்துவ	-10.7074
▁தேசத்த	-10.7078
▁வரவேண்ட	-10.7099
▁நியமித்தத	-10.7102
▁அரசியல்வாதி	-10.7114
▁காத்த	-10.7121
▁வடிவேலுவ	-10.7126
ாளர்களை	-10.7131
▁அஜித்திற்க	-10.7138
▁ட்ரெண்டாக	-10.715
▁ஒலிக்க	-10.7162
▁நீங்க	-10.717
▁ஆட்டத்த	-10.7172
▁மருந்துகள	-10.718
▁சகோதரி	-10.7186
யில்லாத	-10.7186
▁சாம்ப	-10.719
▁கேரளாவிற்க	-10.7207
▁மதுவ	-10.7222
ங்கப்பா	-10.7228
▁முகங்கள	-10.7243
▁அதிகாரப்பூர்வ	-10.7245
▁போராடுவத	-10.7254
▁குறைப்ப	-10.7254
▁தற்போதை	-10.727
போட்டு	-10.7278
▁துரத்தி	-10.7289
▁இவர்	-10.729
700	-10.73
ருணா	-10.7311
▁திறமைய	-10.7318
▁யாருக்க	-10.7321
பிள்	-10.7326
▁அடையாளம	-10.7343
▁வாக்களி	-10.7344
▁சக்திய	-10.7388
94	-10.7399
▁கைப்பற்றும	-10.7413
பொன்ராதாகிருஷ்ணன	-10.7423
▁விடப்பட	-10.7429
▁பிரசவ	-10.743
91	-10.7433
ரப்பா	-10.7436
▁கேசி	-10.744
▁தொண்டர்	-10.7451
தீஷ்	-10.7454
▁கதையும	-10.7454
டிகட்ட	-10.7464
ுவிக்க	-10.7464
▁குமரி	-10.7465
▁வருவா	-10.7467
▁ஸ்வீட	-10.747
▁ஐயப்ப	-10.7489
▁குரேஷிய	-10.7498
▁ஜெயிக்க	-10.7509
▁பாலின	-10.7516
மிட்ட	-10.7524
▁ஓப	-10.7524
▁அலங்கா	-10.7532
ணாம	-10.7547
▁மின்கம்ப	-10.7567
▁சூதாட்ட	-10.7571
▁குட்ட	-10.7576
▁வரிகள	-10.758
▁பிரபஞ்ச	-10.7592
▁யானைகள	-10.7595
▁இடி	-10.7598
யோக்	-10.76
▁தீர்ப்பாய	-10.7603
▁உழை	-10.7609
▁நண்பர்	-10.7614
▁ஹெலிகாப்டரில	-10.7621
னதாக	-10.7637
▁மாணவன	-10.7687
▁அறிமுக	-10.7711
தியா	-10.7735
▁விளையாடுவ	-10.7737
▁காவல	-10.774
▁வீராங்கனைய	-10.7749
ார்த்தன	-10.7758
▁பெங்களூர	-10.7762
▁ஜப்பான	-10.7764
▁அஸ்வினி	-10.779
38	-10.7792
▁அப்போத	-10.7797
▁வரித்துறையின	-10.7797
▁விற்ப	-10.7816
▁வயிற்றில	-10.7819
▁மேடை	-10.7824
▁திண	-10.7834
ரீதியான	-10.7869
▁ரக	-10.7872
▁ஒத்தை	-10.7877
▁சீக்கிய	-10.7884
▁மட்டும்தான	-10.7887
▁சந்திக்கவ	-10.789
▁தூதர	-10.7909
ருகே	-10.7914
னூர்	-10.7927
ண்டிக்க	-10.7928
▁சிங்கத்த	-10.793
▁71	-10.7937
வைத்தது	-10.794
விடாதீர்கள்	-10.7945
▁கஷ்டம	-10.7951
▁மருமகன	-10.7951
▁த்ரில்	-10.7952
▁எண்கள	-10.7953
▁வெயில	-10.7953
▁காவல்துறையினர	-10.7955
▁மாவோயிஸ்ட	-10.7955
▁தொண்ட	-10.7956
▁உன	-10.7958
ைப்பதா	-10.7958
▁டீச்சர	-10.7958
▁பொன்மாணிக்கவேல	-10.7963
▁ஃபெடரர	-10.7963
▁கணேசன	-10.7963
▁சரத்குமார	-10.7963
ியர்கள்	-10.7964
▁பிக்பாஸ	-10.7966
▁ஷங்கர	-10.7966
▁சைக்கிள	-10.7967
▁இஸ்ரேல	-10.7968
▁அடக்கம	-10.7969
▁மீள	-10.797
▁கருணாஸ	-10.7972
▁டீசர	-10.7972
▁ஜாதவ	-10.7972
▁விஜயபாஸ்கர	-10.7973
▁பொதுமக்கள	-10.7973
▁வருத்தம	-10.7974
▁வாஜ்பாய	-10.7976
▁பாதிக்க	-10.7977
தமிழகத்தில்	-10.7978
▁பேனர	-10.7978
▁கொண்டுவர	-10.7979
▁டெக்ன	-10.798
▁மீட்ப	-10.7982
▁பயணம	-10.7993
▁உறுப்பினர	-10.7995
▁சம்பந்தம	-10.7997
▁பெறுக	-10.8015
▁சீதாராமன	-10.8034
▁சங்கம	-10.8036
க்கப்படுமா	-10.8042
ப்பிர	-10.8046
ப்பாவுக்கு	-10.8054
ட்டிவிட்ட	-10.8064
▁ஆவண	-10.8086
▁பாரத்	-10.8086
▁சிறப்ப	-10.8093
▁பாலி	-10.8109
▁குட்	-10.8121
▁தொல்ல	-10.8123
▁காரில	-10.8128
ங்கர்	-10.8136
▁வடமாநில	-10.8138
▁பாதி	-10.8141
▁தகராற	-10.8143
▁கரும்ப	-10.8143
▁மேல்முறையீட	-10.8149
▁விநியோக	-10.8149
▁அதிகரிப்ப	-10.8149
▁வகுப்ப	-10.8149
▁போக்குவரத்த	-10.815
▁170	-10.8151
▁ஆபத்தா	-10.8155
▁பதற்ற	-10.8155
▁வெளிநாட்டி	-10.8158
▁பணப்பட்டுவாடாவ	-10.8159
▁உயிரிழப்ப	-10.8161
▁சுவாரஸ்ய	-10.8163
▁மாச	-10.8165
▁சீதாராம	-10.8165
போட்டியில்	-10.8166
▁முதலிட	-10.8166
▁நெஞ்ச	-10.8167
▁சொல்கிற	-10.817
▁சாகச	-10.8175
▁தன்மான	-10.8181
▁டிராவி	-10.8183
▁உரையாட	-10.8185
குட்டி	-10.8192
▁கண்டன	-10.8194
▁உப	-10.8201
▁சித்ர	-10.8201
▁ஹால	-10.8203
சேர்க்கை	-10.8204
பெறும்	-10.8204
நீக்க	-10.8204
பாபு	-10.8204
யிட்	-10.8204
கீழ	-10.8205
மாநில	-10.8205
நாய்கள்	-10.8206
பாலாஜி	-10.8206
வடசென்னை	-10.8206
பெயர்	-10.8206
மாயாவதி	-10.8206
பிரசாத்	-10.8206
டீசர்	-10.8207
செய்யப்பட்ட	-10.8207
முடியாமல	-10.8207
திருமாவளவன்	-10.8207
இங்கிலாந்து	-10.8207
நடிகை	-10.8207
முடியாது	-10.8207
கிரிக்கெட்	-10.8207
தண்டனை	-10.8208
▁ஜெர்மன	-10.8208
முதல்	-10.8208
அரசு	-10.8208
ஸ்ரீ	-10.8208
பள்ளி	-10.821
▁போராடியவர்	-10.821
பியூ	-10.8211
▁பட்டதாரி	-10.8211
மார்க்	-10.8213
▁முறியடி	-10.8215
▁ஹேக்கர்	-10.8217
▁மீனவ	-10.8219
ெஞ்ச	-10.8221
ரசு	-10.8224
▁நொறுக்க	-10.8225
▁சரவண	-10.8225
ெய்ட்	-10.8225
▁அடில	-10.8227
▁தியேட்டர	-10.8228
மரண	-10.8232
▁ஆசா	-10.8233
ல்லறை	-10.8234
▁நீங்கிய	-10.8235
▁டிரெ	-10.8235
ாக்கிவிட்ட	-10.8235
▁லாக்	-10.8235
நோக்க	-10.8236
ாடகர்	-10.8237
றுமுக	-10.8237
மெண்ட்	-10.8238
ெரிய	-10.8238
▁ராதா	-10.8242
▁பிஷப்	-10.8242
ப்பட்டுள்ளன	-10.8242
▁டான்	-10.8243
க்கொலை	-10.8243
ொழிலாளர்கள்	-10.8245
▁இடமில்லை	-10.8246
▁வில்லிய	-10.8247
▁பாக்கி	-10.8249
பாகரன்	-10.8249
றிஞர்	-10.8249
▁வருமானவரி	-10.8249
டியூப்	-10.8249
ண்கலம்	-10.825
சொல்லுங்க	-10.825
▁ஊக்க	-10.8251
▁நிறைவேற	-10.8251
▁சவுந்தர	-10.8251
▁தொகுப்ப	-10.8251
படுத்திய	-10.8251
▁சிதறி	-10.8251
க்குறி	-10.8251
▁இடைவேளை	-10.8251
▁ஒற்றுமை	-10.8251
▁ஒளிபரப்ப	-10.8251
▁தட்டுப்பாட்ட	-10.8251
▁தற்காப்பு	-10.8251
▁பணப்பரிமாற்ற	-10.8251
▁பற்றாக்குறை	-10.8251
சுறா	-10.8251
முன்வடிவு	-10.8251
ராட்டக்குழுவினர்	-10.8251
ுச்செல்லப்பட்ட	-10.8251
▁ஃபிளைட்	-10.8251
▁அகமதாபாத்	-10.8251
▁அட்டவணை	-10.8251
▁அபுதாபி	-10.8251
▁அமர்க்களம்	-10.8251
▁அவ்வளவுதான	-10.8251
▁ஆமிர்கான்	-10.8251
▁ஆருடம்	-10.8251
▁உதாரண	-10.8251
▁எஃப்ஐஆர்	-10.8251
▁எட்டுவழிச்	-10.8251
▁என்கவுண்டர	-10.8251
▁எறி	-10.8251
▁எஸ்ஏசந்திரசேகர	-10.8251
▁ஏழுமலையான	-10.8251
▁ஒகேனக்கல	-10.8251
▁ஓபிராவத்	-10.8251
▁கருத்துவேறுபாடு	-10.8251
▁கறி	-10.8251
▁கலைஞருக்க	-10.8251
▁கல்ராணி	-10.8251
▁காட்டுத்தீ	-10.8251
▁காப்பியடித்த	-10.8251
▁கிடுக்குப்பிடி	-10.8251
▁கூலிப்படை	-10.8251
▁கொய்ராலா	-10.8251
▁சடலங்கள்	-10.8251
▁சர்ப்ரைஸ்	-10.8251
▁சுமித்ரா	-10.8251
▁செயற்குழு	-10.8251
▁செயற்பாட்டாளர்	-10.8251
▁ஜவுளி	-10.8251
▁டாய்ல	-10.8251
▁டிஎம்கிருஷ்ணா	-10.8251
▁தடுப்பணை	-10.8251
▁தன்ஷிகா	-10.8251
▁தள்ளுமுள்ளு	-10.8251
▁தேர்ச்சி	-10.8251
▁தொகாடியா	-10.8251
▁தொழிற்சங்க	-10.8251
▁நாகாலாந்து	-10.8251
▁நாணயங்கள	-10.8251
▁நியாயவிலைக்	-10.8251
▁நிரபராதி	-10.8251
▁நிவின்பாலி	-10.8251
▁நேவால்	-10.8251
▁பத்திரப்பதிவு	-10.8251
▁பத்மாவதி	-10.8251
▁பயமுறுத்த	-10.8251
▁பல்கலைகழக	-10.8251
▁பழனிச்சாமி	-10.8251
▁பிந்த்ரே	-10.8251
▁பிரணாப்	-10.8251
▁பேரமைப்பு	-10.8251
▁மஜீத	-10.8251
▁மடாதிபதி	-10.8251
▁மணிமண்டப	-10.8251
▁மருமகள	-10.8251
▁மறுமண	-10.8251
▁மல்லிகா	-10.8251
▁மாகாணம்	-10.8251
▁மின்வெட்டு	-10.8251
▁முடிவெடுக்க	-10.8251
▁முட்டாள்	-10.8251
▁முழக்கமிட்ட	-10.8251
▁மெதுவாக	-10.8251
▁யமஹா	-10.8251
▁யெச்சூரி	-10.8251
▁ரவிசாஸ்திரி	-10.8251
▁ராட்ச	-10.8251
▁ராம்தேவ்	-10.8251
▁ரேணுகா	-10.8251
▁லைசன்ஸ்	-10.8251
▁வக்கீல	-10.8251
▁வட்டாட்சியர்	-10.8251
▁வரலாற்றை	-10.8251
▁விசாகப்பட்டினம	-10.8251
▁விளாசுவ	-10.8251
▁வீதி	-10.8251
▁வுண்டர்பார்	-10.8251
▁வெற்றிபெற	-10.8251
▁வெளிநடப்பு	-10.8251
▁வேளாங்கண்ணி	-10.8251
▁ஸ்கிரிப்ட	-10.8251
▁ஆக்ஸ்ஃபோர்ட	-10.8251
▁இசையமைப்பாளர்	-10.8251
▁இடைநீக்கம்	-10.8251
▁கடத்தல்காரர்கள்	-10.8251
▁கட்டுமானம்	-10.8251
▁சமுதாயத்த	-10.8251
▁சரோஜா	-10.8251
▁சிஇஓ	-10.8251
▁சிக்ஸர்கள	-10.8251
▁டவுட்	-10.8251
▁டிரெய்லர	-10.8251
▁திக்திக்திக்	-10.8251
▁நிகிடி	-10.8251
▁பரிசீலி	-10.8251
▁பாலபாஸ்கர	-10.8251
▁பிசினஸ்	-10.8251
▁பிற்பகல	-10.8251
▁பேசிக்கொள்ள	-10.8251
▁மறைக்க	-10.8251
▁மழலைய	-10.8251
▁யுனெஸ்கோ	-10.8251
▁யூனியன	-10.8251
▁வாசகம்	-10.8251
▁ஸ்பாட்	-10.8251
ர்வலர்கள்	-10.8251
▁அதிகப்பட்ச	-10.8251
▁கர்ணா	-10.8251
▁கெளதம	-10.8251
▁கொழும்ப	-10.8251
▁சந்தோஷ	-10.8251
▁தாற்காலிக	-10.8251
▁பணிபுரி	-10.8251
▁பாடத்திட்ட	-10.8251
▁பெருமளவ	-10.8251
▁முறைகேட்டில	-10.8251
▁முழங்க	-10.8251
▁ராஜநாக	-10.8251
▁ஸ்ரீரங்க	-10.8251
▁கோகாய்	-10.8251
▁டவுன்	-10.8251
▁படையெடு	-10.8251
▁முண்டாசு	-10.8251
▁அபராதத்த	-10.8251
▁ஆதரவை	-10.8251
▁ஆயத்தமாகு	-10.8251
▁இழிவுபடுத்த	-10.8251
▁உபிமுதல்வர	-10.8251
▁சிகாகோ	-10.8251
▁சேவகர	-10.8251
▁மின்வாரிய	-10.8251
▁வெப்பத்தை	-10.8251
▁அத்தியா	-10.8251
▁தடயங்கள்	-10.8251
▁புல்கூட	-10.8251
▁முன்னோடி	-10.8251
▁அரவணைப்ப	-10.8251
▁அளிப்பத	-10.8251
▁ஆயுஷ்	-10.8251
▁பதிவேற்ற	-10.8251
▁முகவரி	-10.8251
▁சுங்கக்	-10.8251
▁தூர்வார	-10.8251
▁உடற்	-10.8251
▁கலகம்	-10.8251
▁தரைதட்டி	-10.8251
▁பலூன்	-10.8251
▁களைகட்டு	-10.8251
▁கழற்ற	-10.8251
▁பதப்படுத்தப்பட	-10.8251
▁பிக்சிங்	-10.8251
▁அமில	-10.8251
▁ஆப்ரேஷன	-10.8251
▁நியூசிலாந்த	-10.8251
▁விநாடி	-10.8251
▁அம்பயர்	-10.8251
▁கருபழனியப்பன்	-10.8251
▁விதவை	-10.8251
▁வருகிறாரா	-10.8251
▁சத்தியமங்கல	-10.8251
▁வேதாந்தா	-10.8251
▁டேட்டா	-10.8251
ன்என்	-10.8251
▁செயலிழந்த	-10.8251
▁செய்வதற்க	-10.8251
▁இதற்குத்தான	-10.8251
▁சமாளிப்ப	-10.8251
▁மேயாத	-10.8251
டெண்ட	-10.8251
▁மூடப்பட்டது	-10.8251
▁ஹெட்போன	-10.8251
▁இம்சை	-10.8251
▁ஃபாசில	-10.8251
▁ஆல்பம்	-10.8251
▁யாசின	-10.8252
▁மச்சான	-10.8252
▁அஜய	-10.8252
▁கிண்டலடித்த	-10.8252
▁அனைத்துக்கட்சி	-10.8252
▁தியாகராஜ	-10.8252
ாபகம்	-10.8252
▁ஆட்டக்காரர்	-10.8252
▁லேசா	-10.8252
நொடிய	-10.8252
▁சதவி	-10.8252
▁சேத்ரி	-10.8252
▁ஊக்கத்தொகை	-10.8252
▁நிலானி	-10.8252
▁பொதுமன்னிப்பு	-10.8252
▁பாடகரா	-10.8252
ட்டிப்போட்ட	-10.8252
▁ஜிக்னேஷ	-10.8252
▁சிஆர்பிஎ	-10.8252
▁வழக்குப்பதி	-10.8252
▁அணுசக்தி	-10.8252
▁முரண்பட	-10.8252
மீனாட்சி	-10.8252
▁கதிர்	-10.8252
▁கவர்ந்த	-10.8252
▁செல்ஃபோன	-10.8252
▁வெறித்தனமா	-10.8252
▁குழி	-10.8252
▁நவாஸுதீன்	-10.8252
▁காயமடைந்த	-10.8252
▁நிர்ப	-10.8252
▁மகேந்திர	-10.8252
்குகள	-10.8252
வேலுமணி	-10.8252
▁எதிர்கட்சிகள	-10.8252
▁ரகுல்	-10.8252
▁கிவீரமணி	-10.8252
▁சக்ச	-10.8252
▁ஆக்ராவ	-10.8252
▁மோமோ	-10.8253
▁அக்பர்	-10.8253
▁மதபோதகர்	-10.8253
▁உலகப்போர	-10.8253
▁வணிக	-10.8253
▁குடிகார	-10.8253
▁மதகுகள	-10.8253
▁பிச்சைக்காரர்	-10.8253
▁சைனா	-10.8253
சிஆர்	-10.8253
▁ருசி	-10.8253
▁பகவான்	-10.8253
எஸ்ஆர்	-10.8253
என்ஜிகே	-10.8253
▁கிளம்ப	-10.8254
▁கதவு	-10.8254
▁அடிமை	-10.8254
▁வசனத்த	-10.8254
▁கொள்ளையன்	-10.8254
தர்ஷன்	-10.8254
திரையிட	-10.8254
▁சுற்றித்திரி	-10.8254
▁ஏற்றுக்கொள்ள	-10.8254
▁பாக்யராஜ	-10.8254
▁திவ்யா	-10.8254
▁இமாச்சல	-10.8254
▁அப்துல்	-10.8254
▁ஆன்டி	-10.8254
▁ஆபிஸ	-10.8254
▁நிரம்ப	-10.8254
▁தீபம்	-10.8254
▁மீன்பிடி	-10.8254
▁வளைவ	-10.8254
தூக்க	-10.8255
்கோவில	-10.8255
▁மின்துறை	-10.8255
▁அமர்ந்திருப்ப	-10.8255
▁பேசுன	-10.8255
▁உணர்ச்சி	-10.8255
ர்ஜுன	-10.8255
▁குவாரிகள	-10.8255
▁ஷாப்பிங்	-10.8255
▁மூவர்ண	-10.8255
▁அறுவடை	-10.8256
▁கல்ப	-10.8256
▁கூலித்	-10.8256
▁பதிலளித்த	-10.8256
▁கேட்ஸ	-10.8256
▁காரைக்கால	-10.8256
▁யுஏ	-10.8256
▁இணைகிறதா	-10.8256
▁ஆராய்ச்சி	-10.8256
▁விற்பனையாளர்கள்	-10.8256
▁உயிரின	-10.8256
▁பண்பாட	-10.8257
▁ஸ்ட்ர	-10.8257
ோத்ரா	-10.8257
▁தொடங்கிவைத்த	-10.8257
▁ஆதாரமற்ற	-10.8257
▁அவதார	-10.8257
▁வருவாய்	-10.8257
▁உயர்நிலை	-10.8257
▁கிரைம்	-10.8257
▁மல்க	-10.8257
▁இதெல்லாம்	-10.8257
▁உயிர்தான	-10.8257
▁நோக்கத்த	-10.8258
▁தடயம்	-10.8258
▁திட்டமில்லை	-10.8258
▁லீவு	-10.8258
▁ஆதித்ய	-10.8258
▁விரிவாக்க	-10.8259
ிதழ	-10.8259
▁சுருட்டி	-10.8259
ர்ப்பாளர்	-10.8259
▁குஷி	-10.8259
▁ஜிகாத	-10.826
யாரென்ற	-10.826
▁உறுதிமொழி	-10.8261
▁வருகிறதா	-10.8261
▁மனசு	-10.8261
▁நழுவி	-10.8261
▁ஒப்பிட்ட	-10.8261
▁திரும்புவார்	-10.8261
▁தூவி	-10.8261
▁நெரித்த	-10.8261
▁திரிப	-10.8262
▁நிலைகுலைய	-10.8262
▁இப்படித்தான்	-10.8263
▁ஏஎ	-10.8263
▁பேசினேன	-10.8263
▁வரம்பு	-10.8263
▁செள	-10.8263
▁சிஎ	-10.8263
பாரத	-10.8263
▁இடமில்லையா	-10.8263
▁பஞ்சாயத்து	-10.8263
▁அருந்த	-10.8264
▁ஹிந்துஸ்தான	-10.8264
▁பெஸ்ட்	-10.8264
▁சொல்லலாமா	-10.8265
▁தடுப்பத	-10.8265
▁முயல	-10.8265
▁இருப்பார	-10.8265
▁ரம்பா	-10.8265
▁வெல்லுமா	-10.8265
▁விரும்பாத	-10.8265
▁கொள்ளலாம்	-10.8266
ிக்ஸிங்	-10.8266
▁கனிந்து	-10.8267
▁சத்ர	-10.8267
▁பிரைம்	-10.8267
▁ஜெயித்த	-10.8267
▁நிமிடங்கள்	-10.8268
▁நிர்ணயித்த	-10.8269
▁கெஞ்ச	-10.8269
▁ஹெச்டிஎ	-10.8269
▁விதை	-10.827
▁மெழுகு	-10.827
▁எழுத்த	-10.8271
▁எல்டி	-10.8271
▁முடங்கிய	-10.8272
▁சீரமைப்பு	-10.8273
▁ஜேட்லி	-10.8273
▁தெரிகிறதா	-10.8273
▁செக்கச	-10.8273
▁தாபாண்டியன	-10.8273
▁பசுக்கள	-10.8273
வகை	-10.8274
▁ஆப்தே	-10.8275
▁கண்டிக்க	-10.8275
▁க்ளா	-10.8275
▁சிறுநீர	-10.8277
▁சரவணன்	-10.8278
▁பயிர்கள	-10.8278
▁சிங்கங்கள்	-10.8278
▁விளைவ	-10.8279
▁மொ	-10.8279
▁செத்து	-10.8279
▁வெட்டப்பட்ட	-10.828
▁நாகர	-10.828
▁திஷா	-10.828
▁தருவதாக	-10.8281
▁கூட்டுப்	-10.8281
▁நிரப்ப	-10.8282
▁விவி	-10.8282
▁நிதிஷ்குமார	-10.8282
▁ஹாரி	-10.8283
▁காப்பாளர	-10.8283
▁ஹிட்	-10.8283
▁உள்ளூர்	-10.8283
முடி	-10.8284
▁புறக்கணித்தாரா	-10.8285
▁வெல்வத	-10.8285
▁புடிச்ச	-10.8285
▁ஏகே	-10.8286
▁வொ	-10.8286
▁விசாரிக்கிறது	-10.8286
▁சாய்ந்த	-10.8287
▁ஓயாத	-10.8287
▁லாக்கர	-10.8287
▁இடிக்கப்படு	-10.8287
ரகுமான்	-10.8288
▁விரதம	-10.8289
▁தப்பா	-10.829
▁பொய்யான	-10.829
ிங்கிள்	-10.8291
▁பட்டதாரிகள்	-10.8291
▁ஆன்மா	-10.8291
▁நிஜமாக	-10.8291
▁வாட்ச	-10.8291
▁முற்ற	-10.8291
▁பசுவை	-10.8292
▁ஹாக்கிங்க	-10.8292
▁வைத்திருக்க	-10.8294
▁மைதானத்திற்கு	-10.8294
கஸ்டா	-10.8295
▁சுமத்த	-10.8295
▁அதற்கு	-10.8296
▁தேடுத	-10.8296
▁தடுப்புச்	-10.8297
▁அறிமுகமாகிற	-10.8298
▁ஐரா	-10.8298
▁தொடர்கிறது	-10.8299
பலி	-10.8299
▁இருந்ததை	-10.83
ருடை	-10.8301
▁ஓச	-10.8301
▁முதுகு	-10.8301
▁ககன்	-10.8302
▁சித்ரா	-10.8302
▁அந்தஸ்து	-10.8302
▁157	-10.8303
ப்பரீட்சை	-10.8303
▁திருவி	-10.8305
▁தாங்கி	-10.8306
ஸ்டார்	-10.8306
▁தூதரக	-10.8307
▁ஆளான	-10.8308
▁ஆஜராகாத	-10.8308
▁கபாலி	-10.8308
▁சறுக்கி	-10.831
▁பர்ம	-10.8311
யாடிய	-10.8312
▁சமந்தாவை	-10.8313
▁பணக்காரர்	-10.8314
▁காம்ப	-10.8314
▁மாற்றலாம்	-10.8314
▁துரோகி	-10.8317
▁பார்சல	-10.8317
▁நிலையங்கள்	-10.832
ுள்ளனர்	-10.832
▁உறுதியாகும	-10.8321
▁டவர்	-10.8322
▁விளையாடல	-10.8323
▁உயர்ந்தது	-10.8324
▁நலக்	-10.8324
▁பன்றிக்கு	-10.8326
▁ஹாசன்	-10.8326
▁நாய்களை	-10.8328
▁பொதுச்	-10.833
▁சசிகலாவிற்க	-10.8331
▁தோல	-10.8332
▁ப்ளா	-10.8333
▁காப்பீட்டு	-10.8334
▁ரைட	-10.8335
▁ப்ளே	-10.8337
▁ஸ்கே	-10.8338
▁இதுவும்	-10.834
▁ஆக்கிரமிப்பு	-10.8342
▁மருத்துவப்	-10.8347
▁தங்கினார்	-10.8351
▁ஓட்டி	-10.8353
▁குதிக்க	-10.8353
▁கப்ச	-10.8354
▁வல்ல	-10.8354
▁ஆணவக்	-10.8355
▁ரகளைய	-10.8356
ராப	-10.8358
▁பிரம்ம	-10.8361
▁மத்தியக்குழு	-10.8361
▁பயணியை	-10.8362
ியாவை	-10.8362
▁ஃபேன்	-10.8364
▁எக்ஸ்	-10.8364
▁லிங்க	-10.8365
▁வடமாநிலங்கள	-10.8365
▁துடித்த	-10.8365
▁விபத்துக்கள	-10.8368
70	-10.8369
▁விஜயன	-10.837
▁கலைஞர்கள்	-10.8371
ோட்டம்	-10.8374
▁போட்டியில்லை	-10.8375
▁தொல்	-10.8376
▁உணவக	-10.8378
▁போராடினா	-10.8378
▁கொசுக்கள	-10.838
▁செல்லாதது	-10.8381
▁காட்டுத்	-10.8382
▁கலைந்தத	-10.8385
▁சர்ஜிக	-10.839
▁தயான	-10.8391
▁விஷயம	-10.8393
▁பேனர்கள்	-10.8394
ிஎம்	-10.8395
▁பண்ட்	-10.8398
நகராட்சி	-10.84
▁தொங்க	-10.8403
▁மழலைகள	-10.8404
▁ராப	-10.8416
▁பொருத்த	-10.8424
▁பேரிடம்	-10.8432
▁இமான	-10.8434
▁வெளிப்படுத்த	-10.8437
▁போதுமா	-10.8438
▁சானிட	-10.8442
▁அழகே	-10.8444
▁தொன	-10.8445
கேட்டு	-10.8461
▁ஆண்ட்ர	-10.8464
▁தொப்பி	-10.8476
ென்ஷன	-10.8482
எல்	-10.8485
▁ரேப	-10.8489
▁வீணான	-10.8494
▁சில்க்	-10.8494
▁வடகாட	-10.8496
▁தத்தா	-10.8498
▁லைவ்வ	-10.85
▁சம்ம	-10.8502
மாவை	-10.8505
ழமை	-10.8509
▁ஜெயா	-10.8516
▁தோற்கடித்த	-10.8516
▁ராஜன்	-10.8517
▁ஆப்ப	-10.8521
▁வாக்களிக்க	-10.8522
▁கேபாக்	-10.8525
▁பிராமணர	-10.8525
▁ராஜராஜ	-10.8528
▁ஆக்கிய	-10.8547
▁கைஃப	-10.8548
லயங்கள	-10.855
▁படக்குழுவ	-10.8554
▁த்ரில்லா	-10.856
▁வாலி	-10.8565
▁துண்ட	-10.8565
▁ஸ்டோர	-10.8565
▁மேன	-10.8569
▁கிடைக்காத	-10.8572
▁செயின	-10.8581
▁கண்டறிய	-10.8589
▁பேரன	-10.8589
▁பாலூட்ட	-10.8591
▁விரும்புவ	-10.8593
ப்படுத்தியத	-10.8601
ியான்	-10.8613
▁பாதிக்கப்பட	-10.8616
▁கட்டுக்கட	-10.8623
▁அமலான	-10.8627
▁மூச்ச	-10.8641
▁குறைந்துள்ள	-10.8659
▁ஆசியாவி	-10.8662
▁நீடிப்பார	-10.8664
▁வறட்சிய	-10.8665
▁வெளி	-10.8674
ஸ்லிம	-10.8676
▁இதோ	-10.8689
த்துல	-10.8697
▁வேலைவாய்ப்புகள	-10.87
▁வயிற்ற	-10.8703
▁பிடிக்காதத	-10.8719
நுழைவு	-10.872
▁செம்ம	-10.8744
▁சோள	-10.8747
▁நேஷ	-10.8761
▁கோள	-10.878
▁உரிமையாளர்கள	-10.8785
▁தருவ	-10.8786
▁மருந்த	-10.8792
யார்க	-10.8803
39	-10.8821
▁அண்ட	-10.8823
▁கூண்டு	-10.8832
னார்கள்	-10.8832
▁முடி	-10.8835
▁சங்கி	-10.8855
▁பணியாளர	-10.8862
▁குறைவா	-10.8864
▁நடக்காத	-10.8874
▁ரோட்டி	-10.8874
▁குர	-10.8885
▁இயக்கப்படும	-10.8902
ுணம்	-10.8905
▁பொன்னா	-10.8937
▁கவுத	-10.8949
ாமை	-10.8957
▁பூசல	-10.8962
▁பையன	-10.8968
▁சூதாட்டத்த	-10.898
ோராட்டக்காரர்கள்	-10.8987
▁உதவியாளர	-10.8996
மனிதன	-10.9004
▁அச்சம	-10.9023
▁இதைய	-10.9025
டிவிட்	-10.9027
▁கைப்பற்ற	-10.9035
▁பிரார்த்	-10.9063
▁பிறப்ப	-10.9073
▁வாடி	-10.9074
▁மதுர	-10.9092
ிழ	-10.9099
▁குமரிய	-10.9104
▁கட்டப்ப	-10.9105
▁ரவுடிகள	-10.9107
விகா	-10.9112
சரித	-10.9141
ைப்போல	-10.915
வான்கள	-10.9211
▁வாழ்வார்	-10.9213
பவன	-10.9228
▁பொய்ய	-10.9241
▁கூட்டங்கள	-10.9249
▁குவ	-10.9258
▁வடிவம	-10.9259
▁இப்போத	-10.9262
▁எளிமையாக	-10.9263
▁செய்தவர்கள	-10.929
▁பிடிப்ப	-10.9299
ஹெச்டி	-10.9304
▁பாடுவ	-10.931
▁இயங்காத	-10.9314
▁தொடங்குகிற	-10.934
▁ஸ்டெர்லைட்ட	-10.9345
மைத்து	-10.9353
▁வெளிவ	-10.9354
▁ஏற்றும	-10.9357
மதிப்ப	-10.9389
▁கல்யாணம	-10.9411
▁போகன	-10.9413
▁சேதத்த	-10.945
▁நிர்வாணத்த	-10.9455
▁பயணத்த	-10.9461
▁ஆராசாவ	-10.9462
▁உன்னா	-10.9474
ுளிர	-10.9476
வேதி	-10.9499
▁இறுதிச்சடங்கு	-10.9526
▁கால்நடைகள	-10.9539
ப்பாருங்க	-10.9575
▁அவர்கள	-10.9578
▁கொடுக்கவில்லை	-10.9598
▁ஃபார	-10.9601
▁வெளிநாட்ட	-10.9624
▁வெள்ளைய	-10.964
▁இயற்கைய	-10.9663
▁ஜிவ	-10.9689
▁வலைத்தளத்த	-10.9712
▁ஏற்றிய	-10.9717
▁வேல	-10.9718
யத்தி	-10.9724
▁பரிசளி	-10.975
ிச்சுட்ட	-10.9766
▁அனைத்த	-10.9781
கட்டளை	-10.9793
ெரா	-10.9796
னியஸ்	-10.98
▁பல்கலையில	-10.9817
▁லட்சம	-10.9833
பொறியாளர	-10.9833
▁காய	-10.9838
ுமு	-10.9842
▁டெண்டர்கள	-10.9872
▁இருப்போ	-10.9886
▁நீதிபதிகளுக்க	-10.9935
ஃபோன	-10.995
▁சரியில்ல	-10.9956
▁நிவாரணத்திற்க	-10.9975
▁வெடித்ததா	-10.9987
23	-11.0023
▁மஞ்ச	-11.0023
▁மிர்சாவ	-11.0023
▁கால்நடை	-11.0028
▁காளைய	-11.0028
ப்பிங்	-11.0033
▁அநாகரிக	-11.004
▁தில	-11.0101
▁குற்றத்த	-11.0104
ன்சூர	-11.0104
ரதம்	-11.0122
▁குறைந்ததா	-11.0127
ுக்கட்	-11.0152
வீசும்	-11.0217
▁இஸ்லாம	-11.0268
ச்சுட	-11.0273
▁காணோம	-11.0277
நகர்	-11.0298
▁மனுக்கள	-11.0306
ரேட்டர்	-11.0323
பெல்ட்	-11.0329
▁செயலக	-11.0348
ுர்வேத	-11.0363
▁செலவிட	-11.0383
▁நீலம	-11.0392
▁குறுக்க	-11.0393
▁பயணிகளுக்க	-11.0396
▁வீழ்த்துவ	-11.0417
ஸ்தம்பித்த	-11.0421
▁பஞ்ச	-11.0424
▁கத்தி	-11.0427
எப்	-11.045
▁ஆதங்கத்த	-11.0477
ேந்திரர	-11.0502
▁கேள	-11.0533
ணயம்	-11.0543
▁கார்த்திய	-11.0564
▁நிறைவேற்றுவ	-11.0572
▁வாயில	-11.0597
▁வாங்கியத	-11.0598
▁பிளாஸ்டிக்க	-11.0616
துளைக்	-11.062
▁விவசாயிகளுக்க	-11.0634
மிகா	-11.0635
▁வளர்க்க	-11.0645
போராட்டக்காரர்கள	-11.068
▁முத்திரை	-11.0693
்டிற்கு	-11.0723
▁வீரன	-11.075
▁போடுவ	-11.0754
▁தெ	-11.0779
▁வழிபட	-11.0799
▁முட்டைகள	-11.0803
▁சுதாகர	-11.0804
தடை	-11.0826
▁இந்தியாவில	-11.0834
▁கூண்ட	-11.0837
▁ஜீப்ப	-11.0849
▁வைத்துவிட்ட	-11.0852
▁ராஜேந்திரன	-11.0894
▁சகோதர	-11.09
▁கார்டுகள	-11.0902
▁தவறவிட்டத	-11.0909
▁பெட	-11.0919
பூர்	-11.092
வேலி	-11.0928
▁பக்தர்	-11.0958
▁லட்சிய	-11.0974
▁கமிஷன	-11.098
▁ஜியோவ	-11.0989
▁ஆளுநருக்க	-11.1001
▁சூர்யாவ	-11.1009
▁சங்கர	-11.101
▁அறி	-11.1015
கோவி	-11.1018
▁பாதுகா	-11.1029
▁இளம்பெண்ண	-11.1035
▁வார்ன	-11.1053
▁140	-11.1063
▁தீபாவ	-11.1091
ிங்க	-11.1093
▁நிறுத்தப்ப	-11.1113
ருத்தி	-11.1114
▁அவசியம	-11.1131
சென்டா	-11.1136
▁புதுக்கோட்டைய	-11.1159
▁ஊர்வலம	-11.1164
▁பிண	-11.1166
ிவிடுவ	-11.1168
▁பதவியேற்ப	-11.1179
நலம்	-11.1184
▁வெளியேற்றி	-11.1184
லைவன	-11.1193
ட்டிப்பிடித்த	-11.1195
▁இப்போ	-11.1195
▁கிரண்பேடிய	-11.1196
▁ஜடேஜாவ	-11.12
▁கேஸ	-11.1212
▁அவதிப்பட	-11.123
▁வாக்குப்பதிவ	-11.1233
▁பொருள	-11.1268
▁வெஸ்ட்ல	-11.1273
▁கேபி	-11.1285
▁பாரிஸ	-11.1285
▁நலம	-11.1287
▁ஆளும	-11.1289
▁சத்யராஜ	-11.1289
▁கெய்ல	-11.1289
▁சமரசம	-11.1291
▁நெய்மர	-11.1292
▁பாதிரியார	-11.1293
▁சீனிவாசன	-11.1294
▁பேராசிரியர	-11.1294
▁லியோன	-11.1294
▁ஆகிறார	-11.1294
▁கொள்முதல	-11.1295
▁ட்ரெய்லர	-11.1296
▁ஸ்ருதிஹாசன	-11.1297
▁அகிலேஷ	-11.1299
முக	-11.1299
▁புற்றுநோய	-11.13
▁உரிமையாளர	-11.1301
▁சான்றிதழ	-11.1302
33	-11.1302
▁மெர்சல	-11.1303
▁மதுசூதனன	-11.1303
▁கொள்ளையர்கள	-11.1304
▁பிரசாத	-11.1304
▁ரிலீஸ	-11.1304
▁பஞ்சாப	-11.1305
▁டாக்டர	-11.1305
▁வாக்குவாதம	-11.1306
▁திருமாவளவன	-11.1306
▁ஒப்புதல	-11.1307
▁கப்பல	-11.1314
▁நடிக	-11.1314
▁நபர	-11.132
டுக்கட	-11.1331
▁தப்பியோட	-11.1331
▁மிருக	-11.1347
க்காடு	-11.1367
ேம்பி	-11.1378
▁சித்துவ	-11.1401
▁குடை	-11.1404
▁டிரைவர	-11.1414
▁பேட்	-11.1427
ருவி	-11.1428
▁எச்சரிக்க	-11.1434
கேப்டன்	-11.1442
▁ஊதியத்த	-11.1455
▁பிஸ	-11.1462
கண்ண	-11.1468
▁ரோட்	-11.1469
▁காப்பீட்ட	-11.147
▁பாகுபாட	-11.1473
▁சடங்க	-11.1475
▁எதிர்பார்ப்ப	-11.1476
▁ஆக்கிரமி	-11.1477
▁பறிபோனத	-11.1481
▁ஓபன	-11.1486
▁நிச்சயதார்த்த	-11.1486
▁நீர்மட்ட	-11.1488
▁வேலைநிறுத்த	-11.149
▁படுகாய	-11.1491
டியேற்றம்	-11.1492
▁விஸ்வாச	-11.1494
▁மணிரத்ன	-11.1496
▁பன்றி	-11.1497
பட்டின	-11.1502
▁புகை	-11.1509
வாழ்	-11.1512
சீரு	-11.1516
▁உற்சாகம	-11.1521
ுப்பாட்டு	-11.1526
▁பயிர்க்க	-11.1532
கடல	-11.1532
ிழப்பு	-11.1533
▁காட்டுகிற	-11.1534
▁தொட	-11.1534
விநியோகம்	-11.1536
பொறுப்பேற்	-11.1537
சைதன்யா	-11.1538
▁படுத்தி	-11.1538
வைரஸ்	-11.1538
தமிழ்ச்செல்வன்	-11.1538
செலவு	-11.1539
மாட்டார்கள	-11.1539
தீர்த்த	-11.154
பிளாஸ்டிக்	-11.154
▁ஆன்ம	-11.154
தீவிர	-11.154
ரஷ்யா	-11.154
பணத்தை	-11.154
வைரமுத்து	-11.154
கொடுமை	-11.154
சுற்றுலா	-11.154
பொருட்கள்	-11.154
வசதி	-11.154
படுகொலை	-11.154
அனிதா	-11.154
அனுஷ்கா	-11.154
கல்லூரி	-11.154
பிறகு	-11.154
சேர்ந்த	-11.154
அவுட்	-11.154
பயிற்சி	-11.1541
ரோகித்	-11.1541
மிரட்டல்	-11.1541
கமல்ஹாசன்	-11.1541
ஆனால்	-11.1541
விளக்கம்	-11.1541
விஜய்	-11.1541
▁உணர்வ	-11.1541
சர்ச்சை	-11.1541
ரெட்டி	-11.1543
ரோஷ	-11.1545
நேர	-11.1545
விதிக்க	-11.1546
தொடர்ந்த	-11.1546
மனம்	-11.1547
▁முல்லை	-11.1548
▁கேரக்டர	-11.155
வைத்துவிட்ட	-11.1551
▁கபால	-11.1551
புரத்தி	-11.1551
▁இள	-11.1551
▁குரோஷிய	-11.1553
பாடிய	-11.1553
ஆர்பி	-11.1559
▁அலுவல	-11.1559
▁விளக்கமளி	-11.1561
▁ஸ்ரீதர	-11.1561
ராட்சி	-11.1562
சிம்பு	-11.1563
▁முடங்க	-11.1564
கட்டணம்	-11.1564
▁ஆக்கிரமிப்ப	-11.1566
ஜியோ	-11.1566
ப்பதுதான	-11.1567
ஞ்சாயத்து	-11.1567
▁திட்டமிட	-11.1568
டாதீங்க	-11.1569
ாப்பீடு	-11.1569
ஐஜி	-11.1569
ோராட்டம்	-11.1569
கரமாக	-11.1571
▁விற	-11.1571
தீக	-11.1573
▁வீட்	-11.1574
சூர்யா	-11.1574
▁நிரூப	-11.1578
▁பணமதிப்ப	-11.1578
▁கவிழ்த்த	-11.1578
ீசிய	-11.1578
ப்பிள்ளை	-11.1579
▁தெறி	-11.158
▁வந்துட்ட	-11.158
மோட்	-11.1581
▁ஓரின	-11.1582
▁முத்தமிட	-11.1582
▁மரியா	-11.1583
த்திறன்	-11.1583
டெல்	-11.1583
▁ஏற்றுக்கொள்	-11.1583
▁அத்துமீற	-11.1583
▁கற்றுத்	-11.1583
▁கல்வீச	-11.1583
லீப்ப	-11.1583
ற்றுநோய்	-11.1583
விபிரகாஷ்	-11.1583
மாணிக்கவேல்	-11.1584
▁மடக்கி	-11.1584
▁ஏஆர்	-11.1584
ழிப்பற	-11.1584
▁இமயமலை	-11.1584
▁இயற்பியல	-11.1584
▁ஊட்டி	-11.1584
▁எரிமலை	-11.1584
▁கிரியேட்டர்	-11.1584
▁கையெழுத்தா	-11.1584
▁சரவெடி	-11.1584
▁நூறா	-11.1584
▁புண்படுத்த	-11.1584
▁பொறாமை	-11.1584
▁மதத்தினரு	-11.1584
▁மியூசிய	-11.1584
▁ரேக்ளா	-11.1584
▁லங்கேஷ	-11.1584
▁வைகுண்ட	-11.1584
கிணறு	-11.1584
ச்சந்திரன	-11.1584
யுறு	-11.1584
ரஷீத்	-11.1584
ரியேற	-11.1584
வீலர்	-11.1584
்ஆனா	-11.1584
▁1997	-11.1584
▁அஃப்ரிதி	-11.1584
▁அதிர்ஷ்டம்	-11.1584
▁அத்வானி	-11.1584
▁அன்னபூர்ணா	-11.1584
▁அய்யாக்கண்ணு	-11.1584
▁ஆச்சர்யம	-11.1584
▁ஆதரித்த	-11.1584
▁ஆரோக்கிய	-11.1584
▁இன்டர்நெட்	-11.1584
▁இறந்துவிடுவ	-11.1584
▁இல்லையென்ற	-11.1584
▁இளைஞன்	-11.1584
▁இழுக்க	-11.1584
▁உடலுறுப்ப	-11.1584
▁உத்தரப்பிரதேச	-11.1584
▁உளைச்சல	-11.1584
▁உள்வாங்கிய	-11.1584
▁உழவர்	-11.1584
▁உழுத	-11.1584
▁எமோஜி	-11.1584
▁எலக்ட்ர	-11.1584
▁ஏஞ்சல	-11.1584
▁ஒட்டுக்கேட்ப	-11.1584
▁ஒளிப்பதிவாளர	-11.1584
▁கயிற்ற	-11.1584
▁கல்லீரல்	-11.1584
▁கவிழ்ப்ப	-11.1584
▁கவுன்ட்டர	-11.1584
▁கில்லாடி	-11.1584
▁கீழ்த்தரமான	-11.1584
▁குடியேற	-11.1584
▁கும்பமேளா	-11.1584
▁கேதார்நாத்	-11.1584
▁கைகொடுக்குமா	-11.1584
▁கொத்தடிமை	-11.1584
▁கொரில்லா	-11.1584
▁சிஆர்சரஸ்வதி	-11.1584
▁சுசீந்திரன	-11.1584
▁சுசுவாமி	-11.1584
▁சுயநினைவ	-11.1584
▁சுவாசி	-11.1584
▁சூனியம்	-11.1584
▁ஜலராஜா	-11.1584
▁ஜிகேவாசன்	-11.1584
▁டெண்டுல்கர்	-11.1584
▁தங்கப்பதக்கம்	-11.1584
▁தணிக்கை	-11.1584
▁தன்னார்வலர்கள்	-11.1584
▁தலிபான்	-11.1584
▁தவிடுபொடியாக்கி	-11.1584
▁திருநாவுக்கரசு	-11.1584
▁திருவனந்தபுர	-11.1584
▁தெய்வங்கள	-11.1584
▁நடத்துநர்	-11.1584
▁நுரையீரல	-11.1584
▁பனிச்சரிவ	-11.1584
▁பரிசீலனை	-11.1584
▁பறிகொடுத்த	-11.1584
▁பளீச்	-11.1584
▁பாலகிருஷ்ண	-11.1584
▁புரமோஷன்	-11.1584
▁புறக்கணிப்ப	-11.1584
▁பெயிட்டி	-11.1584
▁போதைப்பொருள்	-11.1584
▁மனமுடைந்த	-11.1584
▁மயிலாப்பூர	-11.1584
▁மறுவாழ்வு	-11.1584
▁மறைமுக	-11.1584
▁மல்லுக்கட்டிய	-11.1584
▁மாம்பழங்கள	-11.1584
▁மார்கழி	-11.1584
▁முழக்கம்	-11.1584
▁மேம்பாலம்	-11.1584
▁மேற்கூரை	-11.1584
▁ரசிக்கலாம்	-11.1584
▁ராமமோகன	-11.1584
▁லஷ்மண்	-11.1584
▁லேப்டாப்	-11.1584
▁வல்லுநர்கள	-11.1584
▁வழிமறித்த	-11.1584
▁விக்கிரமசிங்க	-11.1584
▁விட்டுக்கொடுக்க	-11.1584
▁விதவிதமா	-11.1584
▁வீணடிக்க	-11.1584
▁வீணடிப்ப	-11.1584
▁வெனிசுலா	-11.1584
▁ஹனிமூன	-11.1584
▁ஹிருத்திக்	-11.1584
▁அமிதாப்பச்சன	-11.1584
▁அல்போன்	-11.1584
▁இருதரப்ப	-11.1584
▁உறைபனி	-11.1584
▁என்ஜிஓக்கள	-11.1584
▁சாணக்கிய	-11.1584
▁ட்ரோன்	-11.1584
▁புவனேஷ்குமார	-11.1584
▁மந்திர	-11.1584
▁மனசாட்சி	-11.1584
▁மிதிவண்டி	-11.1584
▁ரோஹிங்கிய	-11.1584
▁வட்டார	-11.1584
▁வெளியுறவு	-11.1584
சுப்ரமணிய	-11.1584
▁அகராதி	-11.1584
▁அஜாக்கிரதையா	-11.1584
▁அடப்பாவி	-11.1584
▁அடித்துக்கொன்ற	-11.1584
▁ஆர்ஜே	-11.1584
▁ஓய்வெடு	-11.1584
▁கட்காரி	-11.1584
▁கருத்தரங்க	-11.1584
▁கீமோ	-11.1584
▁குடியுரிமை	-11.1584
▁கோபிசந்த்	-11.1584
▁கோயம்பேட	-11.1584
▁செவ்வாய்	-11.1584
▁சைலேந்திர	-11.1584
▁ஜூலிய	-11.1584
▁பிரித்திகா	-11.1584
▁புத்திசாலி	-11.1584
▁புரட்சி	-11.1584
▁மன்னார்குடி	-11.1584
▁முன்னோட்ட	-11.1584
▁முரளிதரன்	-11.1584
▁மெக்ஸிக	-11.1584
▁ரான்சம்வேர	-11.1584
▁வழிபாட்டு	-11.1584
▁விருந்தினர	-11.1584
▁வெடிவிபத்து	-11.1584
▁ஷகிலாவ	-11.1584
ஜெண்ட	-11.1584
▁ஆஸ்திர	-11.1584
▁இன்னிங்ஸ்	-11.1584
▁சுவாதி	-11.1584
▁டூரிஸ்ட்	-11.1584
▁துரித	-11.1584
▁லக்னோ	-11.1584
▁வண்ணமயமா	-11.1584
▁வாங்கணுமா	-11.1584
சினேகா	-11.1584
▁ஒத்துழை	-11.1584
▁கதாநாயக	-11.1584
▁சம்மதத்துடன	-11.1584
▁நிர்ணயம்	-11.1584
▁பாலினத்தவர்	-11.1584
▁மடோனா	-11.1584
▁லெட்டர்	-11.1584
ீஸ்வரர்	-11.1584
▁அமுக்கிய	-11.1584
▁கணக்கெடு	-11.1584
▁தாரங்கா	-11.1584
▁பண்பு	-11.1584
▁மதமாற்ற	-11.1584
▁ரிகோ	-11.1584
▁லக்கானி	-11.1584
▁வேதிகா	-11.1584
▁புழக்கத்த	-11.1584
▁மெஷின்	-11.1584
▁ஸ்லோ	-11.1584
▁மாமியார	-11.1585
▁மேம்பாடு	-11.1585
▁வீட்டுப்பாட	-11.1585
்கிப்பிடி	-11.1585
▁சிதைந்த	-11.1585
▁ஹெலிக	-11.1585
▁உருண்டு	-11.1585
▁ஒப்பந்ததாரரி	-11.1585
▁குழம்ப	-11.1585
▁இதுபோன்ற	-11.1585
▁போர்க்கப்பல்	-11.1585
வேற்காட	-11.1585
▁கையாண்ட	-11.1585
▁டிரான்ஸ்ப	-11.1585
▁தாம்பர	-11.1585
▁திக்திக்	-11.1585
▁கொரியாவ	-11.1585
▁முத்துராம	-11.1585
▁விசிட்	-11.1585
▁நாகரிக	-11.1585
▁சமாஜ்	-11.1585
▁அரியலூர	-11.1585
▁நேசம்	-11.1585
▁ஆன்மிக	-11.1585
▁சண்முகராஜன	-11.1585
▁தனித்தனி	-11.1585
▁பிரியதர்ஷன	-11.1585
▁விரிசல்	-11.1585
▁வள்ளி	-11.1585
▁அலுவலகங்கள	-11.1585
▁ஜானகி	-11.1585
▁சிதறியது	-11.1585
▁பாலைவனத்த	-11.1585
ேமலதா	-11.1585
▁இந்தோன	-11.1585
▁தூண்கள	-11.1585
▁நரசிம்	-11.1585
மெட்ராஸ்	-11.1585
▁மீம்ஸ்கள	-11.1585
▁யாஷி	-11.1585
▁தியாகி	-11.1585
▁பருவ	-11.1585
▁ராஞ்சி	-11.1585
▁ஹாதியாவ	-11.1585
ரிமையை	-11.1585
▁சைபர்	-11.1585
▁கற்பி	-11.1585
▁தர்காவ	-11.1585
▁லைக்ஸ்	-11.1585
▁சித்தரி	-11.1585
▁வேண்டுமென	-11.1585
▁டிக்கெட்டுகளை	-11.1585
்ஷீட்	-11.1585
▁கன்றுகள்	-11.1585
▁மகாசப	-11.1585
▁கணிக்க	-11.1585
▁லாபம	-11.1585
▁போய்விட்ட	-11.1585
▁உடைமை	-11.1585
▁வான்கோழிகள	-11.1585
சாலமன	-11.1585
▁விவரத்த	-11.1585
வீரமணி	-11.1585
வாசுகி	-11.1585
▁சிபிஎ	-11.1585
்ரோவ்	-11.1585
▁சூழ்ச்சிகள	-11.1585
பாண்டிராஜ்	-11.1585
▁முற்றுப்	-11.1585
▁த்ரில்லிங்க	-11.1585
▁ஹர்மன்ப்ரீத்	-11.1585
ுதாரணம	-11.1585
▁வேகங்கள	-11.1585
▁போயஸ்	-11.1585
▁மூச்சுத்	-11.1585
▁இழிவுப்படுத்தி	-11.1585
ுக்கொள்ளும	-11.1585
▁சிம்லா	-11.1585
▁குத்துச்	-11.1585
▁ஸ்ரீசாந்த்	-11.1585
▁தோட்டத்த	-11.1586
▁முல்லைப்பெரியா	-11.1586
▁மெனுவ	-11.1586
▁முறிந்தது	-11.1586
▁திராவிடம	-11.1586
▁மொழிபெயர்	-11.1586
▁பட்டப்படிப்ப	-11.1586
▁பம்பை	-11.1586
▁சாதியக்	-11.1586
▁விரதத்த	-11.1586
▁பன்ட்ட	-11.1586
▁சுடுதல	-11.1586
▁பள்ளம்	-11.1586
ிருப்பது	-11.1586
ட்ராக்டர்	-11.1586
▁சேகரி	-11.1586
▁பிடிபட்ட	-11.1586
▁ஆயுதப்படை	-11.1586
▁பிறப்பித்த	-11.1586
▁தோசை	-11.1586
▁பிரிண்ட	-11.1586
▁கட்டாயமாக்க	-11.1586
▁குலு	-11.1586
▁சுற்றிப்பார்	-11.1587
▁ரேங்க	-11.1587
▁பிஎஸ்எ	-11.1587
▁நாணயம்	-11.1587
▁வேந்தர்	-11.1587
▁கவுதமி	-11.1587
▁தேவாலயத்த	-11.1587
▁ரோஷன	-11.1587
▁நினைவகம்	-11.1587
▁மிராக்க	-11.1587
ிந்திய	-11.1587
ுவச்ச	-11.1587
▁ஆசைகாட்டி	-11.1587
▁பொழிவு	-11.1587
▁கைவிடப்பட்டது	-11.1588
▁நிரூபிப்ப	-11.1588
▁இமாம்	-11.1588
▁தாமதமான	-11.1588
▁மகாஜன்	-11.1588
▁தாய்மை	-11.1588
ரவிக்குமார	-11.1588
▁கடுங்க	-11.1588
்கவுண்ட்ட	-11.1588
▁எதிர்கால	-11.1588
▁ஏய்ப்ப	-11.1588
▁முத்தமிட்ட	-11.1588
▁துடை	-11.1588
டுக்கின்றன	-11.1588
▁கோகுல	-11.1588
ராய்ச்சி	-11.1588
▁திருத்தணி	-11.1588
குலுக்கு	-11.1589
▁பாத்திர	-11.1589
▁மகாதேவ	-11.1589
பெடரர்	-11.1589
▁வேறுபாடு	-11.1589
▁விழிப்	-11.1589
▁நடக்கப்போ	-11.1589
▁மூக்கில்	-11.1589
்காவை	-11.1589
▁கியூ	-11.1589
59	-11.1589
▁இளைய	-11.1589
▁தாதாவாக	-11.1589
▁விதிப்படி	-11.1589
▁பதுங்கி	-11.159
▁அவமானப்படுத்த	-11.159
▁நிதான	-11.159
▁பணிப்பெண்ண	-11.159
▁ரஸல	-11.159
ழங்கு	-11.159
▁மிரள	-11.159
▁கணக்காளர்	-11.1591
ானந்தா	-11.1591
▁கருப்பை	-11.1591
▁யோசிக்க	-11.1591
▁செய்யப்போகிற	-11.1591
▁அதிருதுல	-11.1591
▁விஞ்சி	-11.1591
ைக்கோ	-11.1591
ுக்கொண்டிருக்கிற	-11.1591
▁வழியில	-11.1592
▁போதாது	-11.1592
▁பிரதமராக்க	-11.1592
▁மதுபாட்டில்கள	-11.1592
▁சுட்டுக்கொண்ட	-11.1592
▁கொடுத்துவிடு	-11.1592
▁லேட்ட	-11.1592
▁சாதிப்பார	-11.1593
▁ஹெட்ம	-11.1593
▁உபரி	-11.1593
குலைக்க	-11.1593
▁முறுக்க	-11.1593
▁சம்மதி	-11.1593
்பட்டு	-11.1593
▁சூச்சி	-11.1593
▁நடைமுறை	-11.1594
▁ஆறுமுக	-11.1594
▁கவுண்டி	-11.1594
▁கடைபிடிக்க	-11.1594
▁எஸ்எஸ்	-11.1594
▁அக்னி	-11.1594
▁அந்ந	-11.1595
▁கால்வாய	-11.1595
▁இதயத்த	-11.1596
▁பிஎம்டப	-11.1596
டுபிடி	-11.1596
மிட	-11.1596
▁கொண்டிருக்கு	-11.1597
▁பவுன்	-11.1597
▁பட்லர	-11.1597
▁பேசிக்கொண்ட	-11.1597
▁பணியின்போத	-11.1599
▁ஹெல்மெட்ட	-11.16
▁எரிக்க	-11.16
ணப்படுத்த	-11.16
▁விமர்சிக்கிறார்	-11.1601
▁தீர்மானங்கள்	-11.1601
▁இவ்ளோ	-11.1602
விகேஎஸ்	-11.1602
▁கட்டளைய	-11.1602
ைப்பூச	-11.1602
▁பிளேட்ட	-11.1602
▁பக்கத்து	-11.1603
▁புக்கி	-11.1603
▁மாற்றிவிட்ட	-11.1604
▁ஷெரிப்ப	-11.1604
பரப்பு	-11.1604
▁சிறுவா	-11.1604
▁தாண்டியதாக	-11.1605
குவாரி	-11.1605
▁தேங்கி	-11.1605
▁ஆற்றைக்	-11.1606
▁குளிரு	-11.1606
▁காவு	-11.1606
▁போகிறாரா	-11.1606
▁கிழிப்பு	-11.1606
▁தாக்கலாக	-11.1607
▁வனத்துறையினர	-11.1608
▁புவனே	-11.1608
▁கல்லறை	-11.1608
▁கமெண்ட்	-11.1608
▁மாறிப்போ	-11.1609
▁பொறுப்பேற்ப	-11.1609
ிடாதீங்க	-11.1609
▁சிற்ப	-11.1609
▁வேகப்	-11.161
▁அடிபட்ட	-11.161
படமாகிறது	-11.1611
▁நாடகத்	-11.1611
▁பதுங்கிய	-11.1611
ள்ளையா	-11.1611
ஆக	-11.1613
▁மிதாலிராஜ்	-11.1614
▁தற்கொலைப்படை	-11.1615
சாளர்	-11.1615
சாத்தியமா	-11.1616
ஃபார்ம	-11.1616
▁லஷ்	-11.1617
▁சோழ	-11.1618
▁தியான	-11.1618
▁எஸ்வி	-11.1619
▁கேரக்டர்கள	-11.1619
▁தினங்கள	-11.162
▁சிஐஏ	-11.1622
▁மல்லுக	-11.1622
▁பிடிக்கிறார்	-11.1622
ப்பொழ	-11.1623
▁லவ்	-11.1624
யேற்ப	-11.1625
▁இல்லாதபோது	-11.1628
▁சுடப்பட்ட	-11.163
▁காஸ்ட்	-11.163
▁தீவைத்த	-11.163
▁சப்பா	-11.1631
▁கோச்ச	-11.1631
▁சல்மான்கான	-11.1632
▁99	-11.1634
▁முஷ	-11.1634
▁குடியிருப்புகள	-11.1634
▁நூலகம	-11.1635
▁இர்மா	-11.1636
▁அம்ர	-11.1636
▁பல்டி	-11.1637
▁பயிர்க்கடன	-11.1638
▁தடுக்கவே	-11.1641
▁உண்மையான	-11.1642
▁தம்பதியினர	-11.1642
ங்குள	-11.1643
▁கெளரவ	-11.1645
க்களிக்க	-11.1646
▁நிவின்	-11.1647
கரமான	-11.1647
▁பெனா	-11.1648
▁வரைவு	-11.1648
திரிந்த	-11.1649
▁மதிப்பிழப்ப	-11.1649
▁காலத்தில	-11.165
▁மாள	-11.1651
▁காதலிக்கிறேன	-11.1651
திலே	-11.1652
வாசன்	-11.1653
▁மீரா	-11.1653
▁சபா	-11.1654
▁எம்ச	-11.1656
▁உடல்நலக்குறைவ	-11.1659
▁ஸ்டேட	-11.1666
▁டீம	-11.1667
டேகர்	-11.1668
▁செய்கிறார	-11.1668
▁சொதப்பிய	-11.167
▁ராஜம	-11.1671
▁வாக்காளர்கள	-11.1676
▁புகைப்ப	-11.1677
▁போற்ற	-11.1683
▁ஐரி	-11.1687
▁நாளிலே	-11.169
குவாண்ட	-11.1698
▁ஸ்டேஷன	-11.1705
ெயல	-11.1707
▁வெறிச்ச	-11.1708
▁கீழடி	-11.1709
▁பஸ்ச	-11.1715
த்துக்கொ	-11.1741
▁பட்டைய	-11.1742
▁கேன்கள	-11.1751
▁ரவுண்ட	-11.1761
▁மூளைச்	-11.1767
▁பிரிவுகளி	-11.178
▁ஷப	-11.1783
▁மையங்கள	-11.1783
தானி	-11.1785
தினம்	-11.1785
▁போராடுவ	-11.1786
▁தீவிரவாதம	-11.1792
▁வென்றிரு	-11.1795
கப்படுத்து	-11.1795
▁நடத்தப்போ	-11.1797
ந்துவிட்டத	-11.1798
கர்ஜி	-11.1803
▁ராஜபக்சவ	-11.1804
▁வழங்கினா	-11.1812
ம்பித்த	-11.1818
▁முடியல	-11.1821
மைக்கா	-11.1824
▁மிருகங்கள	-11.1828
▁பிடிப்பத	-11.183
▁வடமாநிலத்தவர்	-11.183
▁வறுமை	-11.1832
▁பயிர	-11.1837
வோருக்க	-11.1879
480	-11.188
ேயர்	-11.1885
▁பிடிச்ச	-11.1887
▁நினைவுகள	-11.1893
தேர்வ	-11.1894
விடப்பட்டது	-11.1906
▁மீறியத	-11.1912
▁தென்தமிழக	-11.1913
▁பண்ணுவ	-11.1918
▁பூத	-11.192
▁லாங்க	-11.1929
த்தனமான	-11.193
ிலா	-11.1932
▁ராணாவு	-11.1938
▁முட	-11.195
▁உடல்நல	-11.1954
▁மெட	-11.1958
்டிருக்க	-11.1981
▁பக்ர	-11.1983
கபூர	-11.1985
▁கொண்டுவரப்பட	-11.2001
▁விளக்குகள	-11.2014
▁ஏமாற்றுவத	-11.2018
ுங்கும	-11.2023
▁புதுக்கோட்டை	-11.2029
▁தெரிவிக்கலாம	-11.2044
▁சகோதரன	-11.2064
▁நடிக்கிறேன	-11.2065
▁பிணத்த	-11.2066
▁திலீப்ப	-11.2069
டெக்னிக்	-11.207
▁கார்டன	-11.208
▁மதிக்கிற	-11.2092
▁தோற்றுவிட்ட	-11.2101
▁ஜமா	-11.2107
▁மெக்சிகோவ	-11.211
▁ட்வீட்ட	-11.2126
▁சீக்கியர	-11.2135
▁கொசுவ	-11.2136
▁நேர்மையா	-11.2171
சட்டம்	-11.218
▁தண்டவாள	-11.2184
150	-11.2191
பிரிட்ட	-11.2198
▁ஓராண்ட	-11.221
▁சட்டசபை	-11.2214
▁மிரட்டினார	-11.2231
▁விற்பத	-11.2231
▁நண்பர்கள	-11.2233
▁கடன்களுக்க	-11.224
▁நுண்	-11.2241
▁அழிவ	-11.2245
மர்சன	-11.2248
▁லட்சியத்த	-11.2263
▁பூக்கள	-11.2271
▁மாவட்டத்தில	-11.2272
▁அளிக்கப்பட	-11.2278
▁வாரியத்துக்க	-11.2279
▁கருவ	-11.2283
▁தொடர்பாளர்	-11.2283
போதகர்	-11.2297
ஹெல்	-11.2298
▁தொண்டன	-11.2318
▁வைப்பத	-11.2321
▁நில்லு	-11.2328
▁மழைநீர	-11.2338
▁லாலுவ	-11.2366
பார்ட்	-11.2366
ரீஷ	-11.2375
ோமியோ	-11.2378
▁அட்மின	-11.2378
க்கிர	-11.2386
▁எடுக்காதத	-11.2389
▁ஓவர்கள	-11.2428
▁சுதாகரன	-11.2432
▁சுற்றுச்ச	-11.2462
▁ரோம	-11.2482
▁லட்ச	-11.2484
ஊ	-13.334
ஃ	-13.3341
ஞ	-13.3342
ஒ	-13.3343
உ	-13.3344
ங	-13.3345
ீ	-13.3346
ற	-13.3347
