<pad>	0
<s>	0
</s>	0
<unk>	0
▁அரசு	-5.54172
▁மீது	-5.60127
▁பேர்	-5.63831
▁இன்று	-5.65018
▁கைது	-5.65977
▁இந்திய	-5.83872
▁தமிழக	-5.87392
▁மத்திய	-5.89809
▁வழக்கு	-5.91661
▁புதிய	-5.95795
▁பிரதமர்	-5.97762
▁அமைச்சர்	-6.02162
▁புகார்	-6.02509
▁மோடி	-6.03205
▁ஒரு	-6.1121
▁மீண்டும்	-6.12353
▁பாலியல்	-6.14287
▁தடை	-6.16659
▁வேண்டும்	-6.16659
▁நடிகர்	-6.17462
▁பெண்	-6.19498
▁ஸ்டாலின்	-6.20741
▁நாளை	-6.22846
▁விவகாரம்	-6.23273
▁இல்லை	-6.23701
▁மக்கள்	-6.23701
▁முதல்	-6.24563
▁உத்தரவு	-6.24997
▁தகவல்	-6.25432
▁போராட்டம்	-6.2587
▁விளக்கம்	-6.26751
▁2	-6.28988
▁உயிரிழப்பு	-6.30355
▁முதலமைச்சர்	-6.31277
▁என்ன	-6.33619
▁கோடி	-6.33619
▁தேர்தல்	-6.34094
▁வீடியோ	-6.35533
▁பலி	-6.37978
▁அறிவிப்பு	-6.38474
▁பாஜக	-6.40484
▁அணி	-6.4516
▁லட்சம்	-6.45694
▁விஜய்	-6.4623
▁இந்தியா	-6.47856
▁ஏன்	-6.49509
▁நடிகை	-6.51756
▁முதல்வர்	-6.51756
▁விசாரணை	-6.52326
▁இருந்து	-6.53475
▁கேள்வி	-6.53475
▁போலீஸ்	-6.53475
▁3	-6.55225
▁சென்னை	-6.55225
▁உயர்நீதிமன்றம்	-6.61914
▁கிரிக்கெட்	-6.63819
▁வெற்றி	-6.63819
▁செய்ய	-6.66417
▁கோலி	-6.67077
▁விபத்து	-6.67077
▁தற்கொலை	-6.67741
▁5	-6.71131
▁புயல்	-6.71131
▁கொலை	-6.71823
▁சென்னையில்	-6.71823
▁அதிரடி	-6.7252
▁நடவடிக்கை	-6.7464
▁நீதிமன்றம்	-6.75357
▁வீரர்	-6.75357
▁4	-6.76079
▁மனு	-6.76807
▁அனுமதி	-6.77539
▁ரஜினி	-6.77539
▁வாய்ப்பு	-6.77539
▁எச்சரிக்கை	-6.79021
▁செய்த	-6.80524
▁தோனி	-6.80524
▁யார்	-6.80524
▁கஜா	-6.82051
▁தினகரன்	-6.82051
▁முடிவு	-6.82051
▁அரசியல்	-6.82823
▁இளைஞர்	-6.85973
▁உச்சநீதிமன்றம்	-6.86776
▁திட்டம்	-6.86776
▁அதிமுக	-6.88403
▁இலங்கை	-6.90055
▁ஒரே	-6.90055
▁தாக்குதல்	-6.90055
▁அதிர்ச்சி	-6.90892
▁தலைவர்	-6.90892
▁நான்	-6.91736
▁கடிதம்	-6.92587
▁குறித்து	-6.92587
▁திடீர்	-6.93446
▁ரூபாய்	-6.95185
▁திமுக	-6.96955
▁போட்டி	-6.96955
▁ரத்து	-6.96955
▁விவசாயிகள்	-6.96955
▁சாதனை	-6.97852
▁டிடிவி	-6.97852
▁வீரர்கள்	-6.97852
▁காங்கிரஸ்	-6.9967
▁ரயில்	-6.9967
▁பாதுகாப்பு	-7.00592
▁கருத்து	-7.02461
▁தேர்வு	-7.02461
▁என	-7.03409
▁கேரள	-7.03409
▁எதிர்ப்பு	-7.05332
▁மரணம்	-7.05332
▁ரசிகர்கள்	-7.05332
▁கொடுத்த	-7.07293
▁எதிராக	-7.08288
▁கண்டனம்	-7.08288
▁பேட்டி	-7.08288
▁முடியாது	-7.08288
▁ஓபிஎஸ்	-7.09293
▁கோரிக்கை	-7.09293
▁தமிழகத்தில்	-7.09293
▁டெஸ்ட்	-7.10308
▁நாள்	-7.10308
▁குழந்தை	-7.11334
▁எப்படி	-7.1237
▁ஆளுநர்	-7.13417
▁தொடரும்	-7.13417
▁வாழ்த்து	-7.13417
▁10	-7.14475
▁திருமணம்	-7.15545
▁மறுப்பு	-7.15545
▁வந்த	-7.15545
▁பழனிசாமி	-7.16626
▁பேச்சு	-7.16626
▁20	-7.17719
▁என்	-7.17719
▁மகன்	-7.17719
▁6	-7.18824
▁மழை	-7.18824
▁7	-7.19941
▁ஆய்வு	-7.19941
▁கடும்	-7.19941
▁சபரிமலை	-7.21071
▁ஜெயலலிதா	-7.21071
▁பெண்கள்	-7.21071
▁சசிகலா	-7.22214
▁தாக்கல்	-7.22214
▁வயது	-7.22214
▁கமல்	-7.2337
▁சிபிஐ	-7.2337
▁மாணவர்கள்	-7.2337
▁மீனவர்கள்	-7.2337
▁வெளியீடு	-7.2337
▁ஆயிரம்	-7.2454
▁சர்ச்சை	-7.2454
▁உயர்வு	-7.25723
▁கார்	-7.25723
▁ட்ரம்ப்	-7.25723
▁முன்னாள்	-7.25723
▁தமிழிசை	-7.26921
▁பாதிப்பு	-7.26921
▁விராத்	-7.26921
▁விலை	-7.26921
▁எம்எல்ஏக்கள்	-7.28133
▁இது	-7.2936
▁கமல்ஹாசன்	-7.2936
▁சிங்	-7.2936
▁சோதனை	-7.2936
▁ராகுல்	-7.30602
▁தீ	-7.3186
▁வரை	-7.3186
▁அதிகாரி	-7.33134
▁ஆதரவு	-7.33134
▁ஐபிஎல்	-7.33134
▁காவிரி	-7.33134
▁நீதிபதி	-7.33134
▁மோதல்	-7.33134
▁சிலை	-7.34424
▁முகஸ்டாலின்	-7.34424
▁குற்றச்சாட்டு	-7.35731
▁நீக்கம்	-7.35731
▁விராட்	-7.35731
▁உறுதி	-7.37056
▁வைரலாகும்	-7.37056
▁வழக்கில்	-7.38398
▁ஆணையம்	-7.39759
▁உலக	-7.39759
▁எம்எல்ஏ	-7.39759
▁டெல்லி	-7.39759
▁பின்	-7.39759
▁மிரட்டல்	-7.39759
▁ஸ்டெர்லைட்	-7.39759
▁டெல்லியில்	-7.41138
▁பதில்	-7.41138
▁பள்ளி	-7.41138
▁முயற்சி	-7.41138
▁வன்கொடுமை	-7.41138
▁விடுமுறை	-7.41138
▁விழா	-7.41138
▁சென்ற	-7.42537
▁தீர்ப்பு	-7.42537
▁நிதி	-7.42537
▁பேருந்து	-7.42537
▁போட்டியில்	-7.42537
▁விமான	-7.42537
▁அமெரிக்க	-7.43955
▁பணம்	-7.43955
▁மனைவி	-7.43955
▁இனி	-7.45394
▁காரணம்	-7.45394
▁கால்பந்து	-7.45394
▁சிறப்பு	-7.45394
▁வீட்டில்	-7.45394
▁அரசின்	-7.46854
▁இங்கிலாந்து	-7.46854
▁பெட்ரோல்	-7.46854
▁மாற்றம்	-7.46854
▁மீதான	-7.46854
▁வேண்டாம்	-7.46854
▁8	-7.48335
▁ஆதார்	-7.48335
▁உடல்	-7.48335
▁மணி	-7.49839
▁வைத்த	-7.49839
▁எம்பி	-7.51366
▁கர்நாடக	-7.51366
▁காவல்	-7.51366
▁சர்கார்	-7.51366
▁அரசுக்கு	-7.52916
▁திறப்பு	-7.52916
▁பற்றி	-7.52916
▁அதிகாரிகள்	-7.54491
▁சந்திப்பு	-7.54491
▁மீட்பு	-7.54491
▁வரும்	-7.54491
▁15	-7.56091
▁அதிபர்	-7.56091
▁கருணாநிதி	-7.56091
▁காந்தி	-7.56091
▁கூட்டம்	-7.56091
▁சிக்கிய	-7.56091
▁தந்தை	-7.56091
▁புது	-7.56091
▁மருத்துவமனையில்	-7.56091
▁விரைவில்	-7.57717
▁விவகாரத்தில்	-7.57717
▁சதம்	-7.5937
▁தமிழ்	-7.5937
▁படம்	-7.5937
▁மும்பை	-7.5937
▁அறிக்கை	-7.61051
▁ஆலோசனை	-7.61051
▁குழு	-7.61051
▁சிறுவன்	-7.61051
▁சேவை	-7.61051
▁ஜெயக்குமார்	-7.61051
▁நீட்	-7.61051
▁நோட்டுகள்	-7.61051
▁பாகிஸ்தான்	-7.61051
▁முன்	-7.61051
▁பயணம்	-7.6276
▁மாணவி	-7.6276
▁மோசடி	-7.6276
▁ரஜினிகாந்த்	-7.6276
▁வங்கி	-7.6276
▁அணை	-7.645
▁இளைஞர்கள்	-7.645
▁நம்பிக்கை	-7.645
▁நோட்டீஸ்	-7.645
▁வலியுறுத்தல்	-7.645
▁வானிலை	-7.645
▁கதை	-7.66269
▁ராணுவ	-7.66269
▁அருகே	-7.68071
▁ஒருவர்	-7.68071
▁கூடாது	-7.68071
▁செல்ல	-7.68071
▁தமிழகம்	-7.68071
▁தொடங்கியது	-7.68071
▁ராவ்	-7.68071
▁ரோகித்	-7.68071
▁வைகோ	-7.68071
▁அம்மா	-7.69906
▁எதிரான	-7.69906
▁கணவர்	-7.69906
▁கூட்டணி	-7.69906
▁ஜல்லிக்கட்டு	-7.69906
▁தீபாவளி	-7.69906
▁மகிழ்ச்சி	-7.69906
▁மட்டும்	-7.69906
▁வேண்டுகோள்	-7.69906
▁வேதனை	-7.69906
▁அடுத்த	-7.71775
▁அமெரிக்கா	-7.71775
▁காலமானார்	-7.71775
▁காவல்துறை	-7.71775
▁கேப்டன்	-7.71775
▁தாய்	-7.71775
▁மையம்	-7.71775
▁வைத்து	-7.71775
▁இயக்குநர்	-7.7368
▁கொண்டாட்டம்	-7.7368
▁மகள்	-7.7368
▁ராஜினாமா	-7.7368
▁100	-7.75622
▁18	-7.75622
▁அபராதம்	-7.75622
▁அவுட்	-7.75622
▁உலகின்	-7.75622
▁டிக்கெட்	-7.75622
▁துணை	-7.75622
▁விமர்சனம்	-7.75622
▁விஷால்	-7.75622
▁11	-7.77602
▁2வது	-7.77602
▁ஆர்கேநகர்	-7.77602
▁டி20	-7.77602
▁தான்	-7.77602
▁பதவி	-7.77602
▁பரபரப்பு	-7.77602
▁பாக்	-7.77602
▁பொதுமக்கள்	-7.77602
▁விருது	-7.77602
▁ஒத்திவைப்பு	-7.79623
▁சபரிமலையில்	-7.79623
▁தனுஷ்	-7.79623
▁தூத்துக்குடி	-7.79623
▁தேசிய	-7.79623
▁தோல்வி	-7.79623
▁நிர்மலா	-7.79623
▁படத்தில்	-7.79623
▁பதிவு	-7.79623
▁மாணவர்	-7.79623
▁வரி	-7.79623
▁விடுதலை	-7.79623
▁500	-7.81685
▁என்னை	-7.81685
▁கடத்தல்	-7.81685
▁குழந்தைகள்	-7.81685
▁கோயில்	-7.81685
▁தயாரிப்பாளர்	-7.81685
▁தேதி	-7.81685
▁நியமனம்	-7.81685
▁பழைய	-7.81685
▁பிரபல	-7.81685
▁ஆக	-7.8379
▁கட்டணம்	-7.8379
▁வருகிறது	-7.8379
▁வீடு	-7.8379
▁எடுத்த	-7.85941
▁எண்ணிக்கை	-7.85941
▁கனமழை	-7.85941
▁பரிசு	-7.85941
▁பறிமுதல்	-7.85941
▁போலி	-7.85941
▁போல்	-7.85941
▁முறைகேடு	-7.85941
▁ராஜ்	-7.85941
▁அமெரிக்காவில்	-7.88138
▁இந்த	-7.88138
▁எனக்கு	-7.88138
▁கடைசி	-7.88138
▁சிறை	-7.88138
▁தொடக்கம்	-7.88138
▁தொடர்	-7.88138
▁பட்டாசு	-7.88138
▁பயணிகள்	-7.88138
▁பாடல்	-7.88138
▁ரஜினியின்	-7.88138
▁வைரல்	-7.88138
▁இரு	-7.90386
▁இளம்	-7.90386
▁குடியரசுத்	-7.90386
▁கேட்டு	-7.90386
▁கோப்பை	-7.90386
▁தண்ணீர்	-7.90386
▁தேர்தலில்	-7.90386
▁நாட்களில்	-7.90386
▁நேரம்	-7.90386
▁மூலம்	-7.90386
▁விஜயபாஸ்கர்	-7.90386
▁13	-7.92685
▁அல்ல	-7.92685
▁ஆட்சியர்	-7.92685
▁சிறுமி	-7.92685
▁தள்ளுபடி	-7.92685
▁தொல்லை	-7.92685
▁மனைவியை	-7.92685
▁வழக்குப்பதிவு	-7.92685
▁ஆண்டு	-7.95038
▁இயக்குனர்	-7.95038
▁காட்டம்	-7.95038
▁கேரளாவில்	-7.95038
▁சம்பவம்	-7.95038
▁சிசிடிவி	-7.95038
▁சிறையில்	-7.95038
▁தலைமை	-7.95038
▁தேவை	-7.95038
▁படுகாயம்	-7.95038
▁பிறகு	-7.95038
▁ஷா	-7.95038
▁அஞ்சலி	-7.97447
▁அழைப்பு	-7.97447
▁எப்போது	-7.97447
▁காட்சிகள்	-7.97447
▁கொன்ற	-7.97447
▁சோகம்	-7.97447
▁தினம்	-7.97447
▁நன்றி	-7.97447
▁பிரச்னை	-7.97447
▁பெயர்	-7.97447
▁வருமான	-7.97447
▁விழுந்த	-7.97447
▁வேலை	-7.97447
▁50	-7.99917
▁அடி	-7.99917
▁அந்த	-7.99917
▁ஆட்சி	-7.99917
▁இரட்டை	-7.99917
▁ஊழியர்கள்	-7.99917
▁ஒப்புதல்	-7.99917
▁காவலர்	-7.99917
▁கும்பல்	-7.99917
▁சிகிச்சை	-7.99917
▁சூப்பர்	-7.99917
▁தகுதி	-7.99917
▁துப்பாக்கிச்	-7.99917
▁நடத்த	-7.99917
▁நீதிமன்றத்தில்	-7.99917
▁பட்ஜெட்	-7.99917
▁பயிற்சி	-7.99917
▁பெற்ற	-7.99917
▁வாக்குப்பதிவு	-7.99917
▁வாபஸ்	-7.99917
▁அமைப்பு	-8.02448
▁ஆண்டுகள்	-8.02448
▁உருக்கம்	-8.02448
▁எடப்பாடி	-8.02448
▁காஷ்மீரில்	-8.02448
▁குவியும்	-8.02448
▁கொள்ளை	-8.02448
▁சந்திக்கிறார்	-8.02448
▁தயார்	-8.02448
▁பாராட்டு	-8.02448
▁பிடித்த	-8.02448
▁பிறந்த	-8.02448
▁புயலால்	-8.02448
▁மேலும்	-8.02448
▁வெளியானது	-8.02448
▁25	-8.05046
▁அஜித்	-8.05046
▁உரிமை	-8.05046
▁எடுக்க	-8.05046
▁கட்சி	-8.05046
▁காதல்	-8.05046
▁காயம்	-8.05046
▁குமார்	-8.05046
▁கோரி	-8.05046
▁சட்டம்	-8.05046
▁திருட்டு	-8.05046
▁தெரியுமா	-8.05046
▁நடிக்க	-8.05046
▁நேரத்தில்	-8.05046
▁போன	-8.05046
▁மன்னிப்பு	-8.05046
▁மாவட்டங்களில்	-8.05046
▁முயன்ற	-8.05046
▁வயதில்	-8.05046
▁விமானம்	-8.05046
▁அணிக்கு	-8.07713
▁ஒலிம்பிக்	-8.07713
▁கனமழைக்கு	-8.07713
▁கல்லூரி	-8.07713
▁சமூக	-8.07713
▁சிறந்த	-8.07713
▁சொன்ன	-8.07713
▁தண்டனை	-8.07713
▁பட	-8.07713
▁பணி	-8.07713
▁பஸ்	-8.07713
▁போலீசார்	-8.07713
▁மாநில	-8.07713
▁மோடிக்கு	-8.07713
▁ரிசர்வ்	-8.07713
▁விசாரிக்க	-8.07713
▁வெஸ்ட்	-8.07713
▁1	-8.10453
▁அடித்து	-8.10453
▁இசை	-8.10453
▁இடம்	-8.10453
▁காங்	-8.10453
▁ஜாமீன்	-8.10453
▁தங்க	-8.10453
▁நேரில்	-8.10453
▁பாகுபலி	-8.10453
▁பிரதமருக்கு	-8.10453
▁விளையாட்டு	-8.10453
▁வென்ற	-8.10453
▁ஹீரோ	-8.10453
▁30	-8.1327
▁அசத்தல்	-8.1327
▁அதிகரிப்பு	-8.1327
▁ஆசிரியர்	-8.1327
▁ஆஸி	-8.1327
▁இரண்டு	-8.1327
▁குழந்தையை	-8.1327
▁சச்சின்	-8.1327
▁சர்வதேச	-8.1327
▁சூடு	-8.1327
▁பிரகாஷ்	-8.1327
▁மருத்துவமனை	-8.1327
▁முக்கிய	-8.1327
▁மேகதாது	-8.1327
▁வருத்தம்	-8.1327
▁வாக்குமூலம்	-8.1327
▁ஹெச்ராஜா	-8.1327
▁அடித்த	-8.16169
▁அணியில்	-8.16169
▁அளித்த	-8.16169
▁அவலம்	-8.16169
▁உதவி	-8.16169
▁ஓபன்	-8.16169
▁குஜராத்	-8.16169
▁கேரளாவுக்கு	-8.16169
▁சிக்கல்	-8.16169
▁தாக்கிய	-8.16169
▁நாளில்	-8.16169
▁படத்தின்	-8.16169
▁பலத்த	-8.16169
▁பேட்ட	-8.16169
▁பேருந்துகள்	-8.16169
▁பொன்ராதாகிருஷ்ணன்	-8.16169
▁மக்களுக்கு	-8.16169
▁மாறிய	-8.16169
▁மெரினாவில்	-8.16169
▁லாரி	-8.16169
▁அதிக	-8.19154
▁கிலோ	-8.19154
▁சந்திக்க	-8.19154
▁தலைவர்கள்	-8.19154
▁தவிக்கும்	-8.19154
▁திருமாவளவன்	-8.19154
▁நிதியுதவி	-8.19154
▁நிலை	-8.19154
▁நிவாரண	-8.19154
▁நீர்	-8.19154
▁பதிலடி	-8.19154
▁போக்குவரத்து	-8.19154
▁மசோதா	-8.19154
▁மணல்	-8.19154
▁முத்தலாக்	-8.19154
▁மேல்முறையீடு	-8.19154
▁ரன்	-8.19154
▁விக்கெட்	-8.19154
▁வென்றது	-8.19154
▁12	-8.22231
▁அறிவுரை	-8.22231
▁இடைத்தேர்தல்	-8.22231
▁ஏலம்	-8.22231
▁ஓய்வு	-8.22231
▁கிராம	-8.22231
▁கூகுள்	-8.22231
▁கொல்ல	-8.22231
▁சாதனையை	-8.22231
▁சொத்து	-8.22231
▁ஜப்பான்	-8.22231
▁ஜெயலலிதாவின்	-8.22231
▁திருமண	-8.22231
▁நிறுத்தம்	-8.22231
▁நீதிபதிகள்	-8.22231
▁பிசிசிஐ	-8.22231
▁பெண்ணை	-8.22231
▁முழு	-8.22231
▁விட	-8.22231
▁விற்பனை	-8.22231
▁விவேக்	-8.22231
▁வீரர்களுக்கு	-8.22231
▁அரசுப்	-8.25406
▁அறிவுறுத்தல்	-8.25406
▁ஆம்	-8.25406
▁ஆய்வாளர்	-8.25406
▁ஊழல்	-8.25406
▁எதிரொலி	-8.25406
▁சங்கம்	-8.25406
▁ஜிஎஸ்டி	-8.25406
▁டிசம்பர்	-8.25406
▁டீசல்	-8.25406
▁துப்பாக்கிச்சூடு	-8.25406
▁நடந்தது	-8.25406
▁பரிதாப	-8.25406
▁மாவட்ட	-8.25406
▁மோதி	-8.25406
▁ராகுல்காந்தி	-8.25406
▁வசூல்	-8.25406
▁அமைச்சர்கள்	-8.28685
▁ஆண்டுகளுக்கு	-8.28685
▁ஆன	-8.28685
▁இண்டீஸ்	-8.28685
▁இந்தியாவின்	-8.28685
▁இல்லாத	-8.28685
▁இல்லாமல்	-8.28685
▁உண்மை	-8.28685
▁உபியில்	-8.28685
▁உயிரிழந்த	-8.28685
▁எவ்வளவு	-8.28685
▁கண்டுபிடிப்பு	-8.28685
▁கருணாஸ்	-8.28685
▁கிடையாது	-8.28685
▁கிமீ	-8.28685
▁கூடுதல்	-8.28685
▁கேட்ட	-8.28685
▁சாடல்	-8.28685
▁சீன	-8.28685
▁செய்தது	-8.28685
▁சொந்த	-8.28685
▁டென்னிஸ்	-8.28685
▁தங்கம்	-8.28685
▁தமிழர்கள்	-8.28685
▁தம்பதி	-8.28685
▁தீர்மானம்	-8.28685
▁தீவிரம்	-8.28685
▁நபர்	-8.28685
▁நயன்தாரா	-8.28685
▁நீட்டிப்பு	-8.28685
▁பங்கேற்பு	-8.28685
▁புகைப்படம்	-8.28685
▁பொங்கல்	-8.28685
▁மட்டுமே	-8.28685
▁மாணவிகள்	-8.28685
▁மாத	-8.28685
▁மாலை	-8.28685
▁முடியும்	-8.28685
▁ரஷ்ய	-8.28685
▁லுக்	-8.28685
▁ஹாலிவுட்	-8.28685
▁9	-8.32075
▁அசத்திய	-8.32075
▁அபார	-8.32075
▁அவகாசம்	-8.32075
▁இதுதான்	-8.32075
▁இலக்கு	-8.32075
▁இழப்பீடு	-8.32075
▁உச்சநீதிமன்றத்தில்	-8.32075
▁உணவு	-8.32075
▁ஏ	-8.32075
▁கான்	-8.32075
▁குவிப்பு	-8.32075
▁கொண்டாடிய	-8.32075
▁சினிமா	-8.32075
▁செல்லும்	-8.32075
▁சோனியா	-8.32075
▁ஜோடி	-8.32075
▁ட்விட்டரில்	-8.32075
▁தகவல்கள்	-8.32075
▁தனி	-8.32075
▁தமிழகத்திற்கு	-8.32075
▁தவான்	-8.32075
▁பள்ளிகளுக்கு	-8.32075
▁பெண்ணுக்கு	-8.32075
▁பொருட்கள்	-8.32075
▁மகளிர்	-8.32075
▁முழுவதும்	-8.32075
▁மூன்று	-8.32075
▁விமானத்தில்	-8.32075
▁அஸ்வின்	-8.35584
▁ஆசிய	-8.35584
▁இந்தியாவுக்கு	-8.35584
▁இன்னும்	-8.35584
▁இருந்த	-8.35584
▁உள்ளிட்ட	-8.35584
▁கடன்	-8.35584
▁கொண்ட	-8.35584
▁கோடிக்கு	-8.35584
▁சீமான்	-8.35584
▁சுனாமி	-8.35584
▁சேர்ந்த	-8.35584
▁திருச்சி	-8.35584
▁நாளாக	-8.35584
▁நீக்க	-8.35584
▁நீதிமன்ற	-8.35584
▁நெகிழ்ச்சி	-8.35584
▁பாதிக்கப்பட்ட	-8.35584
▁பெற	-8.35584
▁பைக்	-8.35584
▁மற்றும்	-8.35584
▁முறை	-8.35584
▁யோகி	-8.35584
▁ரயில்வே	-8.35584
▁வர	-8.35584
▁வழங்க	-8.35584
▁விஜயகாந்த்	-8.35584
▁வேலைநிறுத்தம்	-8.35584
▁வைக்கும்	-8.35584
▁ஆதரவாக	-8.39221
▁இருக்கிறது	-8.39221
▁எதிர்த்து	-8.39221
▁என்று	-8.39221
▁ஒப்பந்தம்	-8.39221
▁காலா	-8.39221
▁கிரிக்கெட்டில்	-8.39221
▁குவிந்த	-8.39221
▁சீதாராமன்	-8.39221
▁சுட்டுக்கொலை	-8.39221
▁தீபிகா	-8.39221
▁த்ரிஷா	-8.39221
▁நாட்கள்	-8.39221
▁பதவியேற்பு	-8.39221
▁பல	-8.39221
▁பாஜகவுக்கு	-8.39221
▁பும்ரா	-8.39221
▁பெண்களுக்கு	-8.39221
▁பேச்சுவார்த்தை	-8.39221
▁மிரட்டிய	-8.39221
▁மெட்ரோ	-8.39221
▁ரன்கள்	-8.39221
▁ராஜஸ்தான்	-8.39221
▁வன்முறை	-8.39221
▁வரவேற்பு	-8.39221
▁விபத்தில்	-8.39221
▁விஸ்வாசம்	-8.39221
▁வேறு	-8.39221
▁ஸ்டிரைக்	-8.39221
▁ஹாக்கி	-8.39221
▁அவதி	-8.42995
▁ஆட்டம்	-8.42995
▁ஆர்கேநகரில்	-8.42995
▁இலை	-8.42995
▁இழந்த	-8.42995
▁எந்த	-8.42995
▁எம்ஜிஆர்	-8.42995
▁எம்பிக்கள்	-8.42995
▁ஓபன்னீர்செல்வம்	-8.42995
▁கடலில்	-8.42995
▁கணவன்	-8.42995
▁கர்நாடகா	-8.42995
▁காரணமா	-8.42995
▁குண்டு	-8.42995
▁சாலையில்	-8.42995
▁சொல்கிறார்	-8.42995
▁ட்வீட்	-8.42995
▁தமிழில்	-8.42995
▁தவறு	-8.42995
▁நாடாளுமன்றத்தில்	-8.42995
▁நாடு	-8.42995
▁பாண்டியராஜன்	-8.42995
▁பாலிவுட்	-8.42995
▁பிறந்தநாள்	-8.42995
▁மருத்துவர்கள்	-8.42995
▁மின்	-8.42995
▁முடக்கம்	-8.42995
▁முடியாத	-8.42995
▁மோடியை	-8.42995
▁யானை	-8.42995
▁வாஜ்பாய்	-8.42995
▁வாழ்க்கை	-8.42995
▁விடிய	-8.42995
▁விழாவில்	-8.42995
▁வெளியாகிறது	-8.42995
▁வெளியிட்ட	-8.42995
▁ஹெலிகாப்டர்	-8.42995
▁96	-8.46917
▁அருண்	-8.46917
▁ஆசை	-8.46917
▁ஆணையர்	-8.46917
▁இருவர்	-8.46917
▁எனது	-8.46917
▁கட்ட	-8.46917
▁கனிமொழி	-8.46917
▁கவலை	-8.46917
▁காஷ்மீர்	-8.46917
▁சர்மா	-8.46917
▁செய்யப்பட்ட	-8.46917
▁சேதுபதி	-8.46917
▁டீசர்	-8.46917
▁தடுக்க	-8.46917
▁தனியார்	-8.46917
▁தரப்பு	-8.46917
▁திருடன்	-8.46917
▁நிறுவனம்	-8.46917
▁நிறைவு	-8.46917
▁பக்தர்கள்	-8.46917
▁பசிதம்பரம்	-8.46917
▁படுகொலை	-8.46917
▁புகழாரம்	-8.46917
▁பெரிய	-8.46917
▁பேரணி	-8.46917
▁பேரை	-8.46917
▁போர்	-8.46917
▁மாணவன்	-8.46917
▁மாணவிக்கு	-8.46917
▁முரளி	-8.46917
▁வகுப்பு	-8.46917
▁விழுந்து	-8.46917
▁வீராங்கனை	-8.46917
▁17	-8.50999
▁3வது	-8.50999
▁இடையே	-8.50999
▁இணையும்	-8.50999
▁இரங்கல்	-8.50999
▁உயிர்	-8.50999
▁உலகக்கோப்பை	-8.50999
▁கடற்படை	-8.50999
▁கண்ணீர்	-8.50999
▁கனவு	-8.50999
▁காற்று	-8.50999
▁குடும்பம்	-8.50999
▁கொண்டு	-8.50999
▁சந்தித்தார்	-8.50999
▁சிம்பு	-8.50999
▁சுருண்டது	-8.50999
▁செல்போன்	-8.50999
▁டாஸ்மாக்	-8.50999
▁டிவி	-8.50999
▁டூ	-8.50999
▁திருநங்கை	-8.50999
▁தொடங்கிய	-8.50999
▁நடத்திய	-8.50999
▁நடுவானில்	-8.50999
▁நாயுடு	-8.50999
▁நோட்டு	-8.50999
▁பஞ்சாப்	-8.50999
▁பட்டியல்	-8.50999
▁பன்னீர்செல்வம்	-8.50999
▁பாதித்த	-8.50999
▁பெயரில்	-8.50999
▁போட்ட	-8.50999
▁போராட்டத்தில்	-8.50999
▁மருத்துவ	-8.50999
▁மீ	-8.50999
▁முதல்வராக	-8.50999
▁ரிலீஸ்	-8.50999
▁ரூ10	-8.50999
▁வளர்ச்சி	-8.50999
▁விவேகம்	-8.50999
▁வெற்றியை	-8.50999
▁வேட்பாளர்	-8.50999
▁40	-8.55255
▁70	-8.55255
▁அனைத்து	-8.55255
▁ஆஜராக	-8.55255
▁ஆஜர்	-8.55255
▁ஆப்	-8.55255
▁ஆப்கான்	-8.55255
▁ஆர்ப்பாட்டம்	-8.55255
▁ஆவேசம்	-8.55255
▁இருக்கும்	-8.55255
▁இளம்பெண்	-8.55255
▁உட்பட	-8.55255
▁உலகக்	-8.55255
▁உள்ளது	-8.55255
▁கட்டாயம்	-8.55255
▁கர்ப்பிணி	-8.55255
▁கவிழ்ந்து	-8.55255
▁காட்டிய	-8.55255
▁கார்த்தி	-8.55255
▁கூட்டத்தில்	-8.55255
▁கொடூரம்	-8.55255
▁கோலிக்கு	-8.55255
▁சண்டை	-8.55255
▁செங்கோட்டையன்	-8.55255
▁செயலாளர்	-8.55255
▁செய்யும்	-8.55255
▁தங்கமணி	-8.55255
▁தர	-8.55255
▁படத்திற்கு	-8.55255
▁பயிற்சியாளர்	-8.55255
▁பரவும்	-8.55255
▁பூஜை	-8.55255
▁பேசிய	-8.55255
▁பேட்மிண்டன்	-8.55255
▁மழைக்கு	-8.55255
▁ராமர்	-8.55255
▁லஞ்சம்	-8.55255
▁லாலு	-8.55255
▁வது	-8.55255
▁வருகிறார்	-8.55255
▁வழக்கறிஞர்	-8.55255
▁வாங்கிய	-8.55255
▁விநாயகர்	-8.55255
▁வெளியே	-8.55255
▁ஷாக்	-8.55255
▁ஸ்டார்	-8.55255
▁14	-8.597
▁அசத்தும்	-8.597
▁அரசை	-8.597
▁அலுவலகத்தில்	-8.597
▁ஆந்திர	-8.597
▁ஆன்லைன்	-8.597
▁இணையத்தில்	-8.597
▁இந்தியர்கள்	-8.597
▁இறந்த	-8.597
▁உச்சநீதிமன்ற	-8.597
▁என்ற	-8.597
▁ஐதராபாத்	-8.597
▁ஐஸ்வர்யா	-8.597
▁களத்தில்	-8.597
▁கார்த்திக்	-8.597
▁கூறி	-8.597
▁சந்திரபாபு	-8.597
▁சம்பத்	-8.597
▁சார்பில்	-8.597
▁சாலை	-8.597
▁செய்து	-8.597
▁ஜடேஜா	-8.597
▁டெல்டா	-8.597
▁தலைமைச்	-8.597
▁திருப்பதி	-8.597
▁துப்பாக்கி	-8.597
▁தொழிலதிபர்	-8.597
▁தொழிலாளர்கள்	-8.597
▁நல்ல	-8.597
▁நாட்டின்	-8.597
▁நிலையத்தில்	-8.597
▁நிலையில்	-8.597
▁நேர்ந்த	-8.597
▁பகுதிகளில்	-8.597
▁பறிப்பு	-8.597
▁பாடம்	-8.597
▁பாரதிராஜா	-8.597
▁பார்க்க	-8.597
▁பிளாஸ்டிக்	-8.597
▁புகைப்படங்கள்	-8.597
▁பேட்டிங்	-8.597
▁போதையில்	-8.597
▁மக்களின்	-8.597
▁மல்லையா	-8.597
▁மீறி	-8.597
▁முதலில்	-8.597
▁மேல்	-8.597
▁மோடியின்	-8.597
▁ரத்தம்	-8.597
▁ரயிலில்	-8.597
▁ரேஷன்	-8.597
▁வந்தது	-8.597
▁வருகை	-8.597
▁விவசாயி	-8.597
▁வெள்ள	-8.597
▁வைரமுத்து	-8.597
▁அதிகம்	-8.64352
▁அமித்ஷா	-8.64352
▁அரசியலில்	-8.64352
▁அளவில்	-8.64352
▁ஆய்வில்	-8.64352
▁இதுவரை	-8.64352
▁ஊழியர்	-8.64352
▁எங்கே	-8.64352
▁எச்ஐவி	-8.64352
▁எதிர்க்கட்சிகள்	-8.64352
▁எத்தனை	-8.64352
▁ஏற்க	-8.64352
▁கடை	-8.64352
▁காதலன்	-8.64352
▁காப்பாற்றிய	-8.64352
▁கிறிஸ்துமஸ்	-8.64352
▁குட்கா	-8.64352
▁குல்தீப்	-8.64352
▁கொலையில்	-8.64352
▁சந்தித்த	-8.64352
▁சிங்கம்	-8.64352
▁சீனா	-8.64352
▁சுஷ்மா	-8.64352
▁செய்யுங்கள்	-8.64352
▁ஜியோ	-8.64352
▁டாக்டர்	-8.64352
▁தூக்கிட்டு	-8.64352
▁தேர்வில்	-8.64352
▁தொடர்ந்து	-8.64352
▁நூதன	-8.64352
▁படப்பிடிப்பு	-8.64352
▁பண	-8.64352
▁பெண்களை	-8.64352
▁போஸ்டர்	-8.64352
▁மனித	-8.64352
▁மாஃபா	-8.64352
▁மாறன்	-8.64352
▁மாறும்	-8.64352
▁முதலிடம்	-8.64352
▁மோகன்	-8.64352
▁ராணுவம்	-8.64352
▁வெள்ளத்தில்	-8.64352
▁ஸ்மித்	-8.64352
▁ஸ்ரீதேவி	-8.64352
▁60	-8.69231
▁ஃபர்ஸ்ட்	-8.69231
▁அடைப்பு	-8.69231
▁இருக்க	-8.69231
▁இலவச	-8.69231
▁இளையராஜா	-8.69231
▁உபி	-8.69231
▁உரிமையாளர்	-8.69231
▁எங்கள்	-8.69231
▁ஓட்டுநர்	-8.69231
▁கப்பல்	-8.69231
▁காவலர்கள்	-8.69231
▁கேட்கும்	-8.69231
▁கொல்லப்பட்ட	-8.69231
▁கோவை	-8.69231
▁சந்திரசேகர்	-8.69231
▁சந்தேகம்	-8.69231
▁சமந்தா	-8.69231
▁சிக்கி	-8.69231
▁செய்தி	-8.69231
▁செய்யக்	-8.69231
▁டாப்	-8.69231
▁டெங்கு	-8.69231
▁தலைமுறை	-8.69231
▁தலைவராக	-8.69231
▁திரும்ப	-8.69231
▁திறக்க	-8.69231
▁துறை	-8.69231
▁தேவி	-8.69231
▁நடக்கிறது	-8.69231
▁நடக்கும்	-8.69231
▁நாகை	-8.69231
▁பகீர்	-8.69231
▁பட்டியலில்	-8.69231
▁பதிலளிக்க	-8.69231
▁பார்த்த	-8.69231
▁பினராயி	-8.69231
▁பிரசாத்	-8.69231
▁போது	-8.69231
▁மனம்	-8.69231
▁மனிதர்	-8.69231
▁மம்தா	-8.69231
▁மருத்துவர்	-8.69231
▁மறுத்த	-8.69231
▁மிதாலி	-8.69231
▁மும்பையில்	-8.69231
▁ரஃபேல்	-8.69231
▁ரவி	-8.69231
▁வடகொரியா	-8.69231
▁வழக்கை	-8.69231
▁வழங்கிய	-8.69231
▁வாங்க	-8.69231
▁வாரியம்	-8.69231
▁விக்ரம்	-8.69231
▁விஜய்சேதுபதி	-8.69231
▁விஜய்யின்	-8.69231
▁விட்டு	-8.69231
▁விழிப்புணர்வு	-8.69231
▁விவாதம்	-8.69231
▁வெள்ளம்	-8.69231
▁வேகத்தில்	-8.69231
▁வைத்தார்	-8.69231
▁1000	-8.74361
▁அக்ஷய்	-8.74361
▁அண்ணா	-8.74361
▁அனுப்பிய	-8.74361
▁ஆட்சியை	-8.74361
▁ஆம்புலன்ஸ்	-8.74361
▁இந்து	-8.74361
▁என்றால்	-8.74361
▁எல்லையில்	-8.74361
▁எழுதிய	-8.74361
▁ஏமாற்றம்	-8.74361
▁ஐசிசி	-8.74361
▁கர்நாடகாவில்	-8.74361
▁காண	-8.74361
▁குடும்பத்திற்கு	-8.74361
▁குறைப்பு	-8.74361
▁கை	-8.74361
▁கொடுமை	-8.74361
▁கோலியை	-8.74361
▁சபாநாயகர்	-8.74361
▁சம்பளம்	-8.74361
▁சம்மன்	-8.74361
▁செய்தார்	-8.74361
▁ட்விட்டர்	-8.74361
▁தடியடி	-8.74361
▁தயாராகும்	-8.74361
▁தலைமையில்	-8.74361
▁தின	-8.74361
▁துரைமுருகன்	-8.74361
▁தொடங்கி	-8.74361
▁தொடர்பான	-8.74361
▁நாடாளுமன்ற	-8.74361
▁நிர்வாகி	-8.74361
▁நீடிக்கும்	-8.74361
▁படத்தை	-8.74361
▁பயங்கரவாத	-8.74361
▁பால்	-8.74361
▁பிவிசிந்து	-8.74361
▁புதுச்சேரி	-8.74361
▁பெற்றோர்	-8.74361
▁போதும்	-8.74361
▁மதுசூதனன்	-8.74361
▁மரியாதை	-8.74361
▁மாணவர்களுக்கு	-8.74361
▁மாயாவதி	-8.74361
▁மாளிகை	-8.74361
▁முடிவுக்கு	-8.74361
▁முதியவர்	-8.74361
▁முறையில்	-8.74361
▁மூதாட்டி	-8.74361
▁மெர்சல்	-8.74361
▁மேலாண்மை	-8.74361
▁யாருக்கு	-8.74361
▁விடுவிக்க	-8.74361
▁விலகல்	-8.74361
▁விளையாட	-8.74361
▁விவசாயிகளுக்கு	-8.74361
▁வெளியான	-8.74361
▁ஹீரோயின்	-8.74361
▁16	-8.79767
▁2000	-8.79767
▁ஃபேஸ்புக்	-8.79767
▁அணிகள்	-8.79767
▁அணியின்	-8.79767
▁அணையில்	-8.79767
▁அதிகரிக்கும்	-8.79767
▁அனுஷ்கா	-8.79767
▁அப்பா	-8.79767
▁அவசர	-8.79767
▁ஆனார்	-8.79767
▁ஆனால்	-8.79767
▁இடங்களில்	-8.79767
▁இல்ல	-8.79767
▁இல்லையா	-8.79767
▁உடைப்பு	-8.79767
▁உயர்நீதிமன்றத்தில்	-8.79767
▁எங்களுக்கு	-8.79767
▁என்பது	-8.79767
▁எய்ம்ஸ்	-8.79767
▁எல்லாம்	-8.79767
▁எழுத்தாளர்	-8.79767
▁ஐஏஎஸ்	-8.79767
▁ஒருநாள்	-8.79767
▁கணிப்பு	-8.79767
▁கண்டு	-8.79767
▁காட்சி	-8.79767
▁காத்திருக்கும்	-8.79767
▁காலை	-8.79767
▁கால்	-8.79767
▁கூட	-8.79767
▁கோரிய	-8.79767
▁கோவிலில்	-8.79767
▁சட்ட	-8.79767
▁சவால்	-8.79767
▁சாதி	-8.79767
▁சின்மயி	-8.79767
▁சிறுமிக்கு	-8.79767
▁சிலைகள்	-8.79767
▁சுதந்திர	-8.79767
▁சுனில்	-8.79767
▁செல்ஃபி	-8.79767
▁செல்கிறார்	-8.79767
▁ஜெட்லி	-8.79767
▁ட்விட்	-8.79767
▁தமிழகத்தின்	-8.79767
▁தலா	-8.79767
▁தவறான	-8.79767
▁திடுக்கிடும்	-8.79767
▁திட்டவட்டம்	-8.79767
▁திறந்த	-8.79767
▁தீவிர	-8.79767
▁தென்	-8.79767
▁தேர்தலை	-8.79767
▁நடந்த	-8.79767
▁நடிகைகள்	-8.79767
▁நாஞ்சில்	-8.79767
▁நிறைவேற்றம்	-8.79767
▁பதக்கம்	-8.79767
▁பதவியை	-8.79767
▁பயன்படுத்த	-8.79767
▁பரிதாபம்	-8.79767
▁பரிந்துரை	-8.79767
▁பாதை	-8.79767
▁பிரான்ஸ்	-8.79767
▁பிருத்வி	-8.79767
▁பேருக்கு	-8.79767
▁பேஸ்புக்	-8.79767
▁போட்டு	-8.79767
▁போராடும்	-8.79767
▁போலீசில்	-8.79767
▁மதுரை	-8.79767
▁மாற்ற	-8.79767
▁முடிந்தது	-8.79767
▁முன்பதிவு	-8.79767
▁மோசமான	-8.79767
▁ரியோ	-8.79767
▁ரூ	-8.79767
▁ரூ1	-8.79767
▁வரலாறு	-8.79767
▁வரித்துறை	-8.79767
▁வழக்குகளை	-8.79767
▁விபரீதம்	-8.79767
▁விமர்சித்த	-8.79767
▁விவரம்	-8.79767
▁வீண்	-8.79767
▁ஹாட்ரிக்	-8.79767
▁அடுத்து	-8.85483
▁அதிகாரம்	-8.85483
▁அமித்	-8.85483
▁அயோத்தி	-8.85483
▁அரையிறுதியில்	-8.85483
▁ஆட்டோ	-8.85483
▁ஆண்	-8.85483
▁ஆதாரை	-8.85483
▁ஆபாச	-8.85483
▁ஆஸ்திரேலிய	-8.85483
▁இடைக்கால	-8.85483
▁இந்தியாவை	-8.85483
▁இப்படி	-8.85483
▁இயங்கும்	-8.85483
▁இறுதி	-8.85483
▁இஸ்ரேல்	-8.85483
▁உள்ள	-8.85483
▁ஏர்	-8.85483
▁கடத்த	-8.85483
▁கட்டுப்பாடு	-8.85483
▁கர்ணன்	-8.85483
▁கலக்கும்	-8.85483
▁கலாய்த்த	-8.85483
▁கிம்	-8.85483
▁குடியரசு	-8.85483
▁குடும்ப	-8.85483
▁குட்டி	-8.85483
▁கேட்க	-8.85483
▁கொடுக்க	-8.85483
▁கொல்கத்தா	-8.85483
▁கொள்ளையர்கள்	-8.85483
▁கோப்பையை	-8.85483
▁கோயிலில்	-8.85483
▁கோரும்	-8.85483
▁கோலியின்	-8.85483
▁சங்கர்	-8.85483
▁சட்டப்பேரவை	-8.85483
▁சவரன்	-8.85483
▁சவுதி	-8.85483
▁சஸ்பெண்ட்	-8.85483
▁சிறுமிகள்	-8.85483
▁சுவாமி	-8.85483
▁செல்லாது	-8.85483
▁ஜாக்டோ	-8.85483
▁ஜெயலலிதாவுக்கு	-8.85483
▁டிரைலர்	-8.85483
▁டீஸர்	-8.85483
▁தாக்கு	-8.85483
▁திருமணத்தை	-8.85483
▁நலம்	-8.85483
▁நாங்கள்	-8.85483
▁நிகழ்ச்சி	-8.85483
▁நிலையம்	-8.85483
▁நீதி	-8.85483
▁நோக்கி	-8.85483
▁படைத்த	-8.85483
▁பயங்கரவாதிகள்	-8.85483
▁பறக்கும்	-8.85483
▁பள்ளிகளில்	-8.85483
▁பாடகி	-8.85483
▁பாட்டி	-8.85483
▁பாலம்	-8.85483
▁பாலாஜி	-8.85483
▁பின்னணி	-8.85483
▁பிரியங்கா	-8.85483
▁பொய்	-8.85483
▁மக்களவையில்	-8.85483
▁மது	-8.85483
▁மனைவிக்கு	-8.85483
▁மரண	-8.85483
▁மாடியில்	-8.85483
▁மின்சாரம்	-8.85483
▁முகாம்	-8.85483
▁முடிவை	-8.85483
▁முறையாக	-8.85483
▁ரஜினிக்கு	-8.85483
▁ராஜ்நாத்	-8.85483
▁ரூ5	-8.85483
▁ரெட்டி	-8.85483
▁வாகன	-8.85483
▁வீச்சு	-8.85483
▁வெடிகுண்டு	-8.85483
▁ஷூட்டிங்	-8.85483
▁ஸ்கூட்டர்	-8.85483
▁19	-8.91546
▁24	-8.91546
▁அட்வைஸ்	-8.91546
▁அணியை	-8.91546
▁அனுமதிக்க	-8.91546
▁அப்	-8.91546
▁ஆகும்	-8.91546
▁ஆதித்யநாத்	-8.91546
▁ஆஸ்திரேலியா	-8.91546
▁இயக்கம்	-8.91546
▁இருக்கு	-8.91546
▁இறுதிப்	-8.91546
▁உடலை	-8.91546
▁உற்சாகம்	-8.91546
▁எண்	-8.91546
▁எல்லை	-8.91546
▁எஸ்பி	-8.91546
▁ஒதுக்கீடு	-8.91546
▁ஓடும்	-8.91546
▁கதையில்	-8.91546
▁கருணாநிதியை	-8.91546
▁கர்ப்பிணிக்கு	-8.91546
▁காரணமாக	-8.91546
▁காரில்	-8.91546
▁கிண்டல்	-8.91546
▁குஜராத்தில்	-8.91546
▁குமாரசாமி	-8.91546
▁கையெழுத்து	-8.91546
▁கொண்டாடும்	-8.91546
▁கோடநாடு	-8.91546
▁கோடியை	-8.91546
▁சான்றிதழ்	-8.91546
▁சின்னம்	-8.91546
▁சுரேஷ்	-8.91546
▁செயல்	-8.91546
▁சேப்பாக்கம்	-8.91546
▁சேர்ப்பு	-8.91546
▁சேலம்	-8.91546
▁சொல்கிறது	-8.91546
▁டி	-8.91546
▁ட்ரம்பின்	-8.91546
▁தளபதி	-8.91546
▁தாக்கி	-8.91546
▁திருப்பதியில்	-8.91546
▁திருமணத்திற்கு	-8.91546
▁திரைப்பட	-8.91546
▁தீபா	-8.91546
▁தெலுங்கு	-8.91546
▁தொகுதி	-8.91546
▁தோல்விக்கு	-8.91546
▁நக்கீரன்	-8.91546
▁நினைவிடத்தில்	-8.91546
▁நோட்டுகளை	-8.91546
▁பணத்தை	-8.91546
▁பரிதாபமாக	-8.91546
▁பருவமழை	-8.91546
▁பள்ளியில்	-8.91546
▁பாகிஸ்தானில்	-8.91546
▁பாகிஸ்தானுக்கு	-8.91546
▁பாஜகவை	-8.91546
▁பார்த்து	-8.91546
▁பிச்சை	-8.91546
▁பிரதமராக	-8.91546
▁பிரபலங்கள்	-8.91546
▁பிரபாஸ்	-8.91546
▁பெண்ணின்	-8.91546
▁போட்டோ	-8.91546
▁போராட்டத்திற்கு	-8.91546
▁மன்னிப்புக்	-8.91546
▁மறியல்	-8.91546
▁மாட்டிறைச்சி	-8.91546
▁மாதம்	-8.91546
▁மாதிரி	-8.91546
▁முதல்வருக்கு	-8.91546
▁முன்னிலை	-8.91546
▁மொபைல்	-8.91546
▁யுவராஜ்	-8.91546
▁ரகசிய	-8.91546
▁ரவுடி	-8.91546
▁ராஜா	-8.91546
▁லண்டன்	-8.91546
▁வங்கிக்	-8.91546
▁வசதி	-8.91546
▁வர்தா	-8.91546
▁வழி	-8.91546
▁வாக்கு	-8.91546
▁விஜயன்	-8.91546
▁வில்லன்	-8.91546
▁வீட்டின்	-8.91546
▁வென்றார்	-8.91546
▁வெளியாகும்	-8.91546
▁ஸ்ரீ	-8.91546
▁2019	-8.98
▁48	-8.98
▁அதிர்ச்சியில்	-8.98
▁அது	-8.98
▁அனிருத்	-8.98
▁அன்று	-8.98
▁அபாயம்	-8.98
▁அறிமுகம்	-8.98
▁ஆணையத்தில்	-8.98
▁ஆறு	-8.98
▁ஆள்	-8.98
▁இந்தியாவில்	-8.98
▁இப்போது	-8.98
▁இருந்தால்	-8.98
▁இவ்வளவு	-8.98
▁உயர்	-8.98
▁உயிரிழந்தோர்	-8.98
▁உள்ளாட்சி	-8.98
▁ஏழு	-8.98
▁கடந்து	-8.98
▁கடல்	-8.98
▁கண்டித்து	-8.98
▁கருணாநிதியின்	-8.98
▁கவுதம்	-8.98
▁காப்பாற்ற	-8.98
▁கால	-8.98
▁காலி	-8.98
▁குடிநீர்	-8.98
▁குறைவு	-8.98
▁குழந்தைகளை	-8.98
▁கூடுகிறது	-8.98
▁கேரளா	-8.98
▁கோபால்	-8.98
▁சங்க	-8.98
▁சிறுமியின்	-8.98
▁சிறுவர்கள்	-8.98
▁சுற்றுலா	-8.98
▁சென்று	-8.98
▁சேவாக்	-8.98
▁சைக்கிள்	-8.98
▁டாக்	-8.98
▁டிஜிபி	-8.98
▁தட்டுப்பாடு	-8.98
▁தமிழ்நாட்டில்	-8.98
▁தம்பிதுரை	-8.98
▁தல	-8.98
▁தினமும்	-8.98
▁திலீப்	-8.98
▁திவாகரன்	-8.98
▁தீர்ப்பை	-8.98
▁தீவிரவாதிகள்	-8.98
▁தோனியின்	-8.98
▁நடை	-8.98
▁நானா	-8.98
▁நிவாரணப்	-8.98
▁நீண்ட	-8.98
▁படேல்	-8.98
▁பத்திரிகையாளர்	-8.98
▁பழமையான	-8.98
▁பாஜகவில்	-8.98
▁பாடிய	-8.98
▁பாணியில்	-8.98
▁பார்வதி	-8.98
▁பிரதமரை	-8.98
▁புதுச்சேரியில்	-8.98
▁புத்தாண்டு	-8.98
▁போர்டு	-8.98
▁போல	-8.98
▁மணிரத்னம்	-8.98
▁மர்ம	-8.98
▁மாதத்தில்	-8.98
▁மிகப்பெரிய	-8.98
▁முக்கியம்	-8.98
▁முடியாமல்	-8.98
▁முடியுமா	-8.98
▁மூத்த	-8.98
▁மைதானத்தில்	-8.98
▁மோகன்லால்	-8.98
▁யானைகள்	-8.98
▁ரஷ்யா	-8.98
▁ராய்	-8.98
▁ரிஷப்	-8.98
▁ரெய்னா	-8.98
▁வங்கியில்	-8.98
▁வரிசையில்	-8.98
▁விஞ்ஞானி	-8.98
▁விஷம்	-8.98
▁வீட்டை	-8.98
▁வைக்க	-8.98
▁ஹெச்ஐவி	-8.98
▁21	-9.04899
▁300	-9.04899
▁அதிரடியாக	-9.04899
▁அதிருப்தி	-9.04899
▁அனைவரும்	-9.04899
▁அப்போலோ	-9.04899
▁அமைக்க	-9.04899
▁அரசியலுக்கு	-9.04899
▁ஆத்மி	-9.04899
▁ஆபத்து	-9.04899
▁ஆறுமுகசாமி	-9.04899
▁இப்படியும்	-9.04899
▁இயக்கத்தில்	-9.04899
▁இருக்கிறார்	-9.04899
▁இல்லாததால்	-9.04899
▁இளைஞரின்	-9.04899
▁இஸ்லாமிய	-9.04899
▁உங்க	-9.04899
▁உங்கள்	-9.04899
▁உண்ணாவிரதம்	-9.04899
▁ஊரில்	-9.04899
▁எடியூரப்பா	-9.04899
▁எண்ணெய்	-9.04899
▁ஐந்து	-9.04899
▁ஓடிய	-9.04899
▁கடத்தப்பட்ட	-9.04899
▁கடந்த	-9.04899
▁கடித்து	-9.04899
▁கட்சியில்	-9.04899
▁கட்டாய	-9.04899
▁கரம்	-9.04899
▁காட்டும்	-9.04899
▁காணாமல்	-9.04899
▁கூறிய	-9.04899
▁கெஜ்ரிவால்	-9.04899
▁கேமரா	-9.04899
▁கொடுத்து	-9.04899
▁கொலையா	-9.04899
▁கோவையில்	-9.04899
▁சதி	-9.04899
▁சபரிமலைக்கு	-9.04899
▁சாஸ்திரி	-9.04899
▁சிஎஸ்கே	-9.04899
▁சிதம்பரம்	-9.04899
▁சிவகார்த்திகேயன்	-9.04899
▁சிவசேனா	-9.04899
▁சீனாவில்	-9.04899
▁சூர்யா	-9.04899
▁செய்யலாம்	-9.04899
▁சோதனையில்	-9.04899
▁டிரைவர்	-9.04899
▁ட்ரெண்ட்	-9.04899
▁தமிழர்	-9.04899
▁தரிசனம்	-9.04899
▁தவறி	-9.04899
▁தவித்த	-9.04899
▁திண்டுக்கல்	-9.04899
▁திரிபுரா	-9.04899
▁திருநாவுக்கரசர்	-9.04899
▁திருவாரூரில்	-9.04899
▁திருவாரூர்	-9.04899
▁திருவிழா	-9.04899
▁தூக்கி	-9.04899
▁தெரியாமல்	-9.04899
▁தேவையில்லை	-9.04899
▁தொண்டர்கள்	-9.04899
▁நகை	-9.04899
▁நடிகைக்கு	-9.04899
▁நள்ளிரவில்	-9.04899
▁நிதின்	-9.04899
▁நிபந்தனை	-9.04899
▁நிரந்தர	-9.04899
▁நிற்கும்	-9.04899
▁நிலம்	-9.04899
▁நீங்கள்	-9.04899
▁நீர்மட்டம்	-9.04899
▁நெல்	-9.04899
▁நோபல்	-9.04899
▁பங்களாதேஷ்	-9.04899
▁பந்து	-9.04899
▁பானர்ஜி	-9.04899
▁பான்	-9.04899
▁பிஎஸ்என்எல்	-9.04899
▁பிரம்மாண்ட	-9.04899
▁பீட்டா	-9.04899
▁புகார்கள்	-9.04899
▁புஜாரா	-9.04899
▁பெரியாறு	-9.04899
▁பொருளாதார	-9.04899
▁போட்டிகளில்	-9.04899
▁போராடிய	-9.04899
▁மதிப்பிலான	-9.04899
▁மதுரையில்	-9.04899
▁மறக்க	-9.04899
▁மறுநாள்	-9.04899
▁மாதவன்	-9.04899
▁மாநாடு	-9.04899
▁மார்க்சிஸ்ட்	-9.04899
▁மீன்	-9.04899
▁முடியவில்லை	-9.04899
▁முடிவுகள்	-9.04899
▁முதல்வரின்	-9.04899
▁முல்லைப்	-9.04899
▁யாதவ்	-9.04899
▁வடகொரிய	-9.04899
▁வந்தால்	-9.04899
▁வந்து	-9.04899
▁வழக்குப்	-9.04899
▁வாக்குவாதம்	-9.04899
▁வாட்ஸ்	-9.04899
▁வாதம்	-9.04899
▁விலகினார்	-9.04899
▁விவரங்களை	-9.04899
▁வீசிய	-9.04899
▁வீட்டு	-9.04899
▁வீழ்த்தி	-9.04899
▁வைரலான	-9.04899
▁ஷங்கர்	-9.04899
▁144	-9.1231
▁80	-9.1231
▁90	-9.1231
▁அச்சம்	-9.1231
▁அதிமுகவின்	-9.1231
▁அனுபவம்	-9.1231
▁அம்பலம்	-9.1231
▁அவர்	-9.1231
▁ஆண்டில்	-9.1231
▁ஆதரவாளர்கள்	-9.1231
▁ஆயுள்	-9.1231
▁ஆர்வம்	-9.1231
▁ஆலை	-9.1231
▁ஆவணங்கள்	-9.1231
▁இடத்தில்	-9.1231
▁இடமாற்றம்	-9.1231
▁இணை	-9.1231
▁இந்தி	-9.1231
▁இரண்டாவது	-9.1231
▁இளவரசர்	-9.1231
▁இஸ்ரோ	-9.1231
▁உதவிய	-9.1231
▁உருவானது	-9.1231
▁உள்ளாட்சித்	-9.1231
▁ஊர்வலம்	-9.1231
▁எங்க	-9.1231
▁எழுத	-9.1231
▁ஏஆர்ரஹ்மான்	-9.1231
▁கடலோர	-9.1231
▁கட்டண	-9.1231
▁கட்டிய	-9.1231
▁கண்	-9.1231
▁கருப்பு	-9.1231
▁கவாஸ்கர்	-9.1231
▁காணவில்லை	-9.1231
▁காதலர்	-9.1231
▁கார்டு	-9.1231
▁கின்னஸ்	-9.1231
▁குதித்த	-9.1231
▁குழந்தைக்கு	-9.1231
▁கொடநாடு	-9.1231
▁கொன்று	-9.1231
▁கோவிலுக்கு	-9.1231
▁சதவீதம்	-9.1231
▁சமாஜ்வாதி	-9.1231
▁சானியா	-9.1231
▁சாய்னா	-9.1231
▁சிபிஎஸ்இ	-9.1231
▁ஜிவிபிரகாஷ்	-9.1231
▁ஜெ	-9.1231
▁டன்	-9.1231
▁டீம்	-9.1231
▁டெபாசிட்	-9.1231
▁தடுத்து	-9.1231
▁தப்பிய	-9.1231
▁தற்காலிக	-9.1231
▁தலித்	-9.1231
▁திக்	-9.1231
▁திமுகவுக்கு	-9.1231
▁திரைப்படம்	-9.1231
▁தீபக்	-9.1231
▁துப்பாக்கியால்	-9.1231
▁தெலங்கானா	-9.1231
▁தொகுதியில்	-9.1231
▁தொடரில்	-9.1231
▁தோனியை	-9.1231
▁நவாஸ்	-9.1231
▁நாய்	-9.1231
▁நாய்கள்	-9.1231
▁நிதிஷ்	-9.1231
▁நிரவ்	-9.1231
▁நிலநடுக்கம்	-9.1231
▁நிவாரணம்	-9.1231
▁நீ	-9.1231
▁பட்டம்	-9.1231
▁பதறவைக்கும்	-9.1231
▁பதற்றம்	-9.1231
▁பறந்த	-9.1231
▁பல்கலை	-9.1231
▁பாதுகாப்பை	-9.1231
▁பாஸ்	-9.1231
▁பின்னால்	-9.1231
▁பிரசவம்	-9.1231
▁பிரதமரின்	-9.1231
▁புற்றுநோய்	-9.1231
▁பெற்றது	-9.1231
▁பேச	-9.1231
▁போப்	-9.1231
▁மகனை	-9.1231
▁மகளின்	-9.1231
▁மகளுக்கு	-9.1231
▁மக்களை	-9.1231
▁மிக	-9.1231
▁மிரட்டும்	-9.1231
▁மீண்டு	-9.1231
▁மீனவர்களை	-9.1231
▁முதலமைச்சராக	-9.1231
▁முன்கூட்டியே	-9.1231
▁மோதிய	-9.1231
▁ரஜினியுடன்	-9.1231
▁ரன்னில்	-9.1231
▁ரன்னுக்கு	-9.1231
▁ரூ100	-9.1231
▁ரெட்	-9.1231
▁லீக்	-9.1231
▁வங்கிகள்	-9.1231
▁வழக்குகள்	-9.1231
▁வாக்குகள்	-9.1231
▁வாட்ஸ்அப்	-9.1231
▁விதிக்க	-9.1231
▁வித்யாசாகர்	-9.1231
▁விமானங்கள்	-9.1231
▁விரக்தி	-9.1231
▁விற்பனைக்கு	-9.1231
▁விவசாயிகளை	-9.1231
▁வெள்ளத்தால்	-9.1231
▁வேட்பாளர்கள்	-9.1231
▁வேற	-9.1231
▁ஸ்பெஷல்	-9.1231
▁ஹெல்மெட்	-9.1231
▁ஹைட்ரோ	-9.1231
▁200	-9.20314
▁800	-9.20314
▁அகர்வால்	-9.20314
▁அஜித்தின்	-9.20314
▁அட்டாக்	-9.20314
▁அமேசான்	-9.20314
▁அளிக்க	-9.20314
▁அழுத்தம்	-9.20314
▁அவசியம்	-9.20314
▁ஆணைய	-9.20314
▁ஆண்டுகளாக	-9.20314
▁ஆன்லைனில்	-9.20314
▁இடிந்து	-9.20314
▁இணைக்க	-9.20314
▁இணைப்பு	-9.20314
▁இந்தோனேஷியாவில்	-9.20314
▁இன்னொரு	-9.20314
▁இன்ப	-9.20314
▁இருந்தும்	-9.20314
▁இலங்கையில்	-9.20314
▁உதயநிதி	-9.20314
▁உற்சாக	-9.20314
▁எடுத்து	-9.20314
▁எரிந்த	-9.20314
▁ஐஎஸ்	-9.20314
▁ஐஐடி	-9.20314
▁ஒபாமா	-9.20314
▁ஓவரில்	-9.20314
▁கணவரின்	-9.20314
▁கருணை	-9.20314
▁காக்க	-9.20314
▁காஜல்	-9.20314
▁காட்டி	-9.20314
▁காதலனை	-9.20314
▁காத்திருந்த	-9.20314
▁காய்ச்சலால்	-9.20314
▁காய்ச்சல்	-9.20314
▁காவல்நிலையத்தில்	-9.20314
▁கிராமம்	-9.20314
▁குண்டுவெடிப்பு	-9.20314
▁குற்றப்பத்திரிகை	-9.20314
▁குழப்பம்	-9.20314
▁குஷ்பு	-9.20314
▁கேட்கிறார்	-9.20314
▁கோடியா	-9.20314
▁சக்தி	-9.20314
▁சசிகலாவை	-9.20314
▁சசிகுமார்	-9.20314
▁சஞ்சய்	-9.20314
▁சடலத்தை	-9.20314
▁சட்டத்தை	-9.20314
▁சாய்	-9.20314
▁சில	-9.20314
▁சுப்ரமணியன்	-9.20314
▁செயலி	-9.20314
▁செய்தேன்	-9.20314
▁செய்வது	-9.20314
▁செரினா	-9.20314
▁செலுத்த	-9.20314
▁சொன்னது	-9.20314
▁சொல்ல	-9.20314
▁ஜம்மு	-9.20314
▁ஜாதவ்	-9.20314
▁டிரம்ப்	-9.20314
▁தமிழகத்துக்கு	-9.20314
▁தாமதம்	-9.20314
▁தினகரனுக்கு	-9.20314
▁தினேஷ்	-9.20314
▁திருடிய	-9.20314
▁திருநங்கைகள்	-9.20314
▁திருமணமான	-9.20314
▁திரும்பினார்	-9.20314
▁தூதர்	-9.20314
▁தொடரை	-9.20314
▁நடிக்கும்	-9.20314
▁நமது	-9.20314
▁நாட்களுக்கு	-9.20314
▁நாட்டு	-9.20314
▁நிராகரிப்பு	-9.20314
▁நிரூபிக்க	-9.20314
▁நீக்கப்பட்ட	-9.20314
▁நொறுக்கிய	-9.20314
▁நோய்	-9.20314
▁படத்துக்கு	-9.20314
▁படப்பிடிப்பில்	-9.20314
▁பதற	-9.20314
▁பதவியேற்கிறார்	-9.20314
▁பதிலாக	-9.20314
▁பயங்கரம்	-9.20314
▁பாகுபலி2	-9.20314
▁பாண்ட்யா	-9.20314
▁பாம்பு	-9.20314
▁பிக்பாஸ்	-9.20314
▁பிரச்னையில்	-9.20314
▁பிரபாகரன்	-9.20314
▁புகுந்த	-9.20314
▁புத்தகம்	-9.20314
▁பெற்று	-9.20314
▁பெற்றோரை	-9.20314
▁பேனர்	-9.20314
▁போடும்	-9.20314
▁போன்	-9.20314
▁போலீஸார்	-9.20314
▁மர்மம்	-9.20314
▁மறைந்த	-9.20314
▁மாசு	-9.20314
▁மாட்டார்	-9.20314
▁மாணவர்களின்	-9.20314
▁மார்க்	-9.20314
▁மார்ச்	-9.20314
▁மீட்கப்பட்ட	-9.20314
▁மீட்ட	-9.20314
▁முகமது	-9.20314
▁முன்னேற்றம்	-9.20314
▁முஸ்லிம்	-9.20314
▁மோதும்	-9.20314
▁யாரும்	-9.20314
▁ரயில்கள்	-9.20314
▁ரூ1000	-9.20314
▁ரெடி	-9.20314
▁ரெய்டு	-9.20314
▁வடசென்னை	-9.20314
▁வாரியர்	-9.20314
▁வாழ	-9.20314
▁விசா	-9.20314
▁விசாரணைக்கு	-9.20314
▁விடுதி	-9.20314
▁விரைந்து	-9.20314
▁விளாசிய	-9.20314
▁விஹாரி	-9.20314
▁வீரருக்கு	-9.20314
▁வேகமாக	-9.20314
▁வேண்டி	-9.20314
▁வேன்	-9.20314
▁ஷமி	-9.20314
▁ஷாரூக்	-9.20314
▁ஹர்பஜன்	-9.20314
▁ஹேக்கர்கள்	-9.20314
▁150	-9.29015
▁1500	-9.29015
▁23	-9.29015
▁26	-9.29015
▁31	-9.29015
▁ஃபெடரர்	-9.29015
▁அகாடமி	-9.29015
▁அடியில்	-9.29015
▁அடுத்தடுத்து	-9.29015
▁அதிவேக	-9.29015
▁அனுப்ப	-9.29015
▁அரவிந்த்	-9.29015
▁அழைத்து	-9.29015
▁ஆசிரியர்கள்	-9.29015
▁ஆண்டுக்கு	-9.29015
▁ஆர்எஸ்எஸ்	-9.29015
▁ஆளுநருக்கு	-9.29015
▁ஆவணங்களை	-9.29015
▁இட்லி	-9.29015
▁இந்தியர்	-9.29015
▁இன்றைய	-9.29015
▁இருசக்கர	-9.29015
▁உடல்நிலை	-9.29015
▁உடைத்த	-9.29015
▁உயர	-9.29015
▁உயிரை	-9.29015
▁உறவினர்கள்	-9.29015
▁உள்துறை	-9.29015
▁எங்களை	-9.29015
▁எடுக்கும்	-9.29015
▁எது	-9.29015
▁ஐஎஸ்எல்	-9.29015
▁ஐடியா	-9.29015
▁ஐநா	-9.29015
▁ஒகி	-9.29015
▁கடலுக்கு	-9.29015
▁கட்சிகள்	-9.29015
▁கட்டடம்	-9.29015
▁கணக்கு	-9.29015
▁கணேசன்	-9.29015
▁கல்லூரிகளுக்கு	-9.29015
▁கழுத்தை	-9.29015
▁கவுசல்யா	-9.29015
▁காரை	-9.29015
▁கார்பன்	-9.29015
▁கிடந்த	-9.29015
▁கிணற்றில்	-9.29015
▁குடியரசுத்தலைவர்	-9.29015
▁குண்டர்	-9.29015
▁குப்பை	-9.29015
▁குரல்	-9.29015
▁குற்றவாளிகள்	-9.29015
▁கூட்ட	-9.29015
▁கேக்	-9.29015
▁கேட்டார்	-9.29015
▁கைதான	-9.29015
▁கொந்தளித்த	-9.29015
▁கோவில்	-9.29015
▁சகோதரர்	-9.29015
▁சசிகலாவுக்கு	-9.29015
▁சடலமாக	-9.29015
▁சம்பள	-9.29015
▁சரத்குமார்	-9.29015
▁சர்ச்சையில்	-9.29015
▁சல்மான்	-9.29015
▁சாமியார்	-9.29015
▁சாம்பியன்ஷிப்	-9.29015
▁சிக்கித்	-9.29015
▁சிக்கியது	-9.29015
▁சிலையை	-9.29015
▁சிவாஜி	-9.29015
▁சீல்	-9.29015
▁சுந்தர்	-9.29015
▁சுவர்	-9.29015
▁சூசகம்	-9.29015
▁சென்னையை	-9.29015
▁சென்றது	-9.29015
▁செய்க	-9.29015
▁செய்யவில்லை	-9.29015
▁சேகர்	-9.29015
▁சொந்தம்	-9.29015
▁ஜெர்மனி	-9.29015
▁தக்க	-9.29015
▁தனுஷின்	-9.29015
▁தமன்னா	-9.29015
▁தரும்	-9.29015
▁தற்கொலைக்கு	-9.29015
▁தள்ளிய	-9.29015
▁தவிர்க்க	-9.29015
▁தாக்கரே	-9.29015
▁தாத்தா	-9.29015
▁தாயின்	-9.29015
▁தாய்லாந்து	-9.29015
▁திடுக்	-9.29015
▁திட்டத்தை	-9.29015
▁திரும்பிய	-9.29015
▁தீர்த்த	-9.29015
▁துபாயில்	-9.29015
▁துரத்தும்	-9.29015
▁தூத்துக்குடியில்	-9.29015
▁தொடங்குகிறது	-9.29015
▁நடத்தும்	-9.29015
▁நம்பர்	-9.29015
▁நவம்பர்	-9.29015
▁நிகழ்ச்சியில்	-9.29015
▁நிர்வாகம்	-9.29015
▁நிறுவனங்களுக்கு	-9.29015
▁நிறுவனத்திற்கு	-9.29015
▁நிறைவேறியது	-9.29015
▁நில	-9.29015
▁நிலவரம்	-9.29015
▁நெட்டிசன்கள்	-9.29015
▁பசு	-9.29015
▁படேகர்	-9.29015
▁பணப்பட்டுவாடா	-9.29015
▁பணமதிப்பிழப்பு	-9.29015
▁பலியான	-9.29015
▁பாஜகவின்	-9.29015
▁பாதிப்புக்கு	-9.29015
▁பாரதி	-9.29015
▁பாஸ்போர்ட்	-9.29015
▁பிரமுகர்	-9.29015
▁பீகாரில்	-9.29015
▁பீர்	-9.29015
▁புலி	-9.29015
▁பூட்டு	-9.29015
▁பெருமிதம்	-9.29015
▁பெற்றார்	-9.29015
▁பொம்மை	-9.29015
▁மணிக்கு	-9.29015
▁மதிப்பெண்	-9.29015
▁மபி	-9.29015
▁மறைவு	-9.29015
▁மாட்டேன்	-9.29015
▁மானிய	-9.29015
▁மாப்பிள்ளை	-9.29015
▁மாயம்	-9.29015
▁முடிந்த	-9.29015
▁முறியடித்த	-9.29015
▁மூழ்கிய	-9.29015
▁மே	-9.29015
▁மேகாலயா	-9.29015
▁மேட்ச்	-9.29015
▁மேனன்	-9.29015
▁ராஜமவுலி	-9.29015
▁ரூ2	-9.29015
▁ரூ20	-9.29015
▁ரொனால்டோ	-9.29015
▁லண்டனில்	-9.29015
▁லாரன்ஸ்	-9.29015
▁வழங்கும்	-9.29015
▁வழிபாடு	-9.29015
▁வாகனம்	-9.29015
▁வாடகை	-9.29015
▁வாய்ப்பை	-9.29015
▁வார்னர்	-9.29015
▁விடுவிப்பு	-9.29015
▁விதித்த	-9.29015
▁வீசப்பட்ட	-9.29015
▁வீரர்களின்	-9.29015
▁வீரர்களை	-9.29015
▁வீழ்த்திய	-9.29015
▁வெட்டிய	-9.29015
▁ஸ்ரீரெட்டி	-9.29015
▁ஸ்ருதிஹாசன்	-9.29015
▁2ஜி	-9.38546
▁4வது	-9.38546
▁அகற்ற	-9.38546
▁அக்டோபர்	-9.38546
▁அடேங்கப்பா	-9.38546
▁அட்டை	-9.38546
▁அணிந்து	-9.38546
▁அணையின்	-9.38546
▁அண்ணன்	-9.38546
▁அதிகரிக்க	-9.38546
▁அதிசய	-9.38546
▁அதிமுகவில்	-9.38546
▁அனல்	-9.38546
▁அபாய	-9.38546
▁அப்டேட்	-9.38546
▁அமிர்தசரஸ்	-9.38546
▁அமீர்கான்	-9.38546
▁அமைச்சரை	-9.38546
▁அமைப்புகள்	-9.38546
▁அம்ருதா	-9.38546
▁அரசாணை	-9.38546
▁அரை	-9.38546
▁அர்ச்சகர்	-9.38546
▁அர்ஜுன்	-9.38546
▁அர்ஜூன்	-9.38546
▁அறிவிக்க	-9.38546
▁அலர்ட்	-9.38546
▁அழைத்துச்	-9.38546
▁ஆரம்பம்	-9.38546
▁ஆறுதல்	-9.38546
▁ஆற்றில்	-9.38546
▁ஆலையில்	-9.38546
▁ஆலையை	-9.38546
▁ஆல்	-9.38546
▁ஆளுநரை	-9.38546
▁இடுக்கி	-9.38546
▁இணைந்து	-9.38546
▁இத்தனை	-9.38546
▁இந்தியில்	-9.38546
▁இருக்கிறார்கள்	-9.38546
▁இழந்து	-9.38546
▁உச்ச	-9.38546
▁உத்தரவை	-9.38546
▁உயர்நீதிமன்ற	-9.38546
▁உரை	-9.38546
▁உறுப்பினர்	-9.38546
▁ஊழியரை	-9.38546
▁ஊழியர்களுக்கு	-9.38546
▁எதுவும்	-9.38546
▁என்னா	-9.38546
▁எஸ்டேட்	-9.38546
▁ஏடிஎம்மில்	-9.38546
▁ஏற்படுத்தும்	-9.38546
▁ஏற்பட்ட	-9.38546
▁ஐடி	-9.38546
▁ஒப்படைப்பு	-9.38546
▁ஒவ்வொரு	-9.38546
▁கட்கரி	-9.38546
▁கட்டுப்படுத்த	-9.38546
▁கண்ணாடி	-9.38546
▁கத்தியால்	-9.38546
▁கபடி	-9.38546
▁கபில்தேவ்	-9.38546
▁கமல்நாத்	-9.38546
▁கருணாநிதிக்கு	-9.38546
▁கலைஞர்	-9.38546
▁காதலி	-9.38546
▁காலணி	-9.38546
▁காலில்	-9.38546
▁காவிரியில்	-9.38546
▁கீழே	-9.38546
▁குக்	-9.38546
▁குடிபோதையில்	-9.38546
▁குத்துச்சண்டை	-9.38546
▁குர்மீத்	-9.38546
▁குறித்த	-9.38546
▁குறைக்க	-9.38546
▁குற்றம்	-9.38546
▁கேபிமுனுசாமி	-9.38546
▁கேப்டனாக	-9.38546
▁கொடுங்கள்	-9.38546
▁கொடைக்கானல்	-9.38546
▁கொன்றது	-9.38546
▁சதவிகித	-9.38546
▁சதுர்த்தி	-9.38546
▁சத்தீஸ்கர்	-9.38546
▁சந்தானம்	-9.38546
▁சரிந்தது	-9.38546
▁சாமி	-9.38546
▁சாம்பியன்	-9.38546
▁சிங்கப்பூர்	-9.38546
▁சித்து	-9.38546
▁சிந்து	-9.38546
▁சிரியா	-9.38546
▁சிறைக்கு	-9.38546
▁சிவன்	-9.38546
▁சுரங்க	-9.38546
▁சுரங்கத்தில்	-9.38546
▁சுற்றுக்கு	-9.38546
▁செக்	-9.38546
▁செந்தில்பாலாஜி	-9.38546
▁சென்னையின்	-9.38546
▁செயல்பட்ட	-9.38546
▁செய்யப்படும்	-9.38546
▁செய்வோம்	-9.38546
▁செல்கிறது	-9.38546
▁சேர்ந்து	-9.38546
▁சேலத்தில்	-9.38546
▁ஜனவரி	-9.38546
▁ஜெயம்	-9.38546
▁டெல்லியை	-9.38546
▁ட்ரம்புக்கு	-9.38546
▁ட்ரெய்லர்	-9.38546
▁தகனம்	-9.38546
▁தங்கல்	-9.38546
▁தஞ்சை	-9.38546
▁தடகள	-9.38546
▁தருமபுரி	-9.38546
▁தாக்கியதில்	-9.38546
▁திமுகவில்	-9.38546
▁திறக்கப்படும்	-9.38546
▁திறந்தார்	-9.38546
▁துணைவேந்தர்	-9.38546
▁துபாய்	-9.38546
▁தெரியும்	-9.38546
▁தொற்று	-9.38546
▁நன்கொடை	-9.38546
▁நம்பிக்கையில்லா	-9.38546
▁நாகையில்	-9.38546
▁நாடாளுமன்றம்	-9.38546
▁நிச்சயம்	-9.38546
▁நிறுத்திய	-9.38546
▁நிறுவனத்தில்	-9.38546
▁நிலக்கரி	-9.38546
▁நிலச்சரிவில்	-9.38546
▁நெருங்கும்	-9.38546
▁நெல்லை	-9.38546
▁பகுதி	-9.38546
▁படை	-9.38546
▁பணிகள்	-9.38546
▁பண்டிகை	-9.38546
▁பயணிகளுக்கு	-9.38546
▁பரபரப்பான	-9.38546
▁பரோல்	-9.38546
▁பல்வேறு	-9.38546
▁பாதுகாக்க	-9.38546
▁பாய்ச்சல்	-9.38546
▁பார்வை	-9.38546
▁பிரதேச	-9.38546
▁பிராவோ	-9.38546
▁பிரியா	-9.38546
▁பிரிவு	-9.38546
▁புகாரில்	-9.38546
▁புனே	-9.38546
▁பெண்ணிடம்	-9.38546
▁பெயரை	-9.38546
▁பெய்யும்	-9.38546
▁பெரியார்	-9.38546
▁பேரவையில்	-9.38546
▁போகும்	-9.38546
▁போராட்டங்கள்	-9.38546
▁ப்ளூவேல்	-9.38546
▁மகளுடன்	-9.38546
▁மகா	-9.38546
▁மத	-9.38546
▁மத்தியக்	-9.38546
▁மனதை	-9.38546
▁மன்மோகன்	-9.38546
▁மரம்	-9.38546
▁மல்யுத்த	-9.38546
▁மழையில்	-9.38546
▁மவுனம்	-9.38546
▁மாணவர்களை	-9.38546
▁மாற்றிய	-9.38546
▁மாற்றுத்திறனாளி	-9.38546
▁மின்சார	-9.38546
▁மீனவர்	-9.38546
▁முடித்த	-9.38546
▁முதலமைச்சருக்கு	-9.38546
▁முன்பே	-9.38546
▁மெசேஜ்	-9.38546
▁மெரினா	-9.38546
▁மேஜிக்	-9.38546
▁மேற்பட்ட	-9.38546
▁யாராலும்	-9.38546
▁யோகா	-9.38546
▁ரசிகர்களை	-9.38546
▁ரணில்	-9.38546
▁ரயிலை	-9.38546
▁ரவிசங்கர்	-9.38546
▁ராக்கி	-9.38546
▁ராஜேந்திர	-9.38546
▁ரீமேக்	-9.38546
▁ரோஹிங்யா	-9.38546
▁லாரிகள்	-9.38546
▁வங்கதேச	-9.38546
▁வருட	-9.38546
▁வலி	-9.38546
▁வலுக்கிறது	-9.38546
▁வலைத்தளங்களில்	-9.38546
▁வழக்கம்போல்	-9.38546
▁வாக்கெடுப்பு	-9.38546
▁வாரம்	-9.38546
▁வாருங்கள்	-9.38546
▁வார்த்தை	-9.38546
▁விசாரித்தார்	-9.38546
▁விண்ணப்பிக்கலாம்	-9.38546
▁வினாத்தாள்	-9.38546
▁விருப்பம்	-9.38546
▁விரும்பவில்லை	-9.38546
▁விற்கும்	-9.38546
▁விலக்கு	-9.38546
▁விளையாடிய	-9.38546
▁விவசாய	-9.38546
▁விவசாயிகளின்	-9.38546
▁விவாகரத்து	-9.38546
▁வீடுகள்	-9.38546
▁வீட்டுக்கு	-9.38546
▁வெடி	-9.38546
▁வெட்டி	-9.38546
▁வெட்டு	-9.38546
▁வெளிநாடு	-9.38546
▁வெளிநாட்டு	-9.38546
▁வேலூர்	-9.38546
▁வைப்பு	-9.38546
▁ஸ்டோக்ஸ்	-9.38546
▁ஸ்மார்ட்	-9.38546
▁ஹஜ்	-9.38546
▁ஹரியானா	-9.38546
▁2500	-9.49082
▁27	-9.49082
▁36	-9.49082
▁5000	-9.49082
▁அஜித்துடன்	-9.49082
▁அட	-9.49082
▁அடைந்த	-9.49082
▁அந்தமான்	-9.49082
▁அனிதா	-9.49082
▁அபிராமி	-9.49082
▁அப்படி	-9.49082
▁அப்புறம்	-9.49082
▁அமளி	-9.49082
▁அமைச்சகம்	-9.49082
▁அமைதி	-9.49082
▁அயோத்தியில்	-9.49082
▁அறுவை	-9.49082
▁அளித்தார்	-9.49082
▁ஆகிறார்	-9.49082
▁ஆதங்கம்	-9.49082
▁ஆபத்தான	-9.49082
▁ஆர்டர்	-9.49082
▁இங்கிலாந்தில்	-9.49082
▁இட	-9.49082
▁இணைகிறார்	-9.49082
▁இணைந்த	-9.49082
▁இண்டிகோ	-9.49082
▁இதற்காகத்தான்	-9.49082
▁இந்தோனேஷிய	-9.49082
▁இன்றும்	-9.49082
▁இன்ஸ்பெக்டர்	-9.49082
▁இப்படியொரு	-9.49082
▁இம்ரான்	-9.49082
▁இயக்குகிறார்	-9.49082
▁இயக்கும்	-9.49082
▁இயந்திரம்	-9.49082
▁இரவு	-9.49082
▁இளங்கோவன்	-9.49082
▁இழப்பு	-9.49082
▁இவர்கள்	-9.49082
▁உண்டு	-9.49082
▁உரிமைகள்	-9.49082
▁உருக்கமான	-9.49082
▁ஊதியம்	-9.49082
▁எதற்கு	-9.49082
▁எனும்	-9.49082
▁என்பதா	-9.49082
▁எஸ்எம்எஸ்	-9.49082
▁ஏபிவிபி	-9.49082
▁ஏர்வேஸ்	-9.49082
▁ஏற்படுத்திய	-9.49082
▁ஏற்பாடுகள்	-9.49082
▁ஏவுகணை	-9.49082
▁ஒழிக்க	-9.49082
▁ஓய்வுபெற்ற	-9.49082
▁கங்குலி	-9.49082
▁கடனை	-9.49082
▁கடம்பூர்	-9.49082
▁கடித்த	-9.49082
▁கட்சியின்	-9.49082
▁கட்டாயமில்லை	-9.49082
▁கட்டி	-9.49082
▁கண்காணிப்பு	-9.49082
▁கண்டெடுப்பு	-9.49082
▁கன்னியாஸ்திரி	-9.49082
▁கபூர்	-9.49082
▁கமலுக்கு	-9.49082
▁கம்யூனிஸ்ட்	-9.49082
▁கருகி	-9.49082
▁கல்யாணம்	-9.49082
▁கல்யாண்	-9.49082
▁கல்வி	-9.49082
▁களம்	-9.49082
▁களைகட்டிய	-9.49082
▁கஸ்தூரி	-9.49082
▁காதலில்	-9.49082
▁காந்தியின்	-9.49082
▁காமெடி	-9.49082
▁காய்கறி	-9.49082
▁காவலாளி	-9.49082
▁கிடைத்த	-9.49082
▁கிரண்	-9.49082
▁குடும்பத்தை	-9.49082
▁குற்றவாளி	-9.49082
▁குளிக்க	-9.49082
▁குழந்தைகளுக்கு	-9.49082
▁குழந்தைகளுடன்	-9.49082
▁கூடாதா	-9.49082
▁கூட்டத்தொடர்	-9.49082
▁கூறவில்லை	-9.49082
▁கொடி	-9.49082
▁கொடுக்கும்	-9.49082
▁கொடூர	-9.49082
▁கோடியில்	-9.49082
▁கோஷம்	-9.49082
▁சகோதரர்கள்	-9.49082
▁சட்டத்திற்கு	-9.49082
▁சன்னி	-9.49082
▁சபை	-9.49082
▁சரண்	-9.49082
▁சாக்ஷி	-9.49082
▁சிக்கலில்	-9.49082
▁சித்தார்த்	-9.49082
▁சிரியாவில்	-9.49082
▁சிறிசேன	-9.49082
▁சிறுமியை	-9.49082
▁சிவகுமார்	-9.49082
▁சீனிவாசன்	-9.49082
▁சுட்டு	-9.49082
▁சுழல்	-9.49082
▁சென்னைக்கு	-9.49082
▁செலவு	-9.49082
▁சேதம்	-9.49082
▁ஜனாதிபதி	-9.49082
▁ஜல்லிக்கட்டுக்கு	-9.49082
▁ஜெட்	-9.49082
▁ஜெயராமன்	-9.49082
▁ஜோதிகா	-9.49082
▁டிவில்லியர்ஸ்	-9.49082
▁டே	-9.49082
▁தகவல்களை	-9.49082
▁தசரா	-9.49082
▁தந்தையை	-9.49082
▁தனிப்படை	-9.49082
▁தமிழ்ச்செல்வன்	-9.49082
▁தர்ணா	-9.49082
▁தலை	-9.49082
▁தள்ளி	-9.49082
▁தவறாக	-9.49082
▁தாக்கும்	-9.49082
▁தாதா	-9.49082
▁தாயை	-9.49082
▁தாஸ்	-9.49082
▁தினகரனை	-9.49082
▁திருப்பம்	-9.49082
▁திருப்பி	-9.49082
▁திறந்து	-9.49082
▁தீப்பிடித்து	-9.49082
▁தீர்வு	-9.49082
▁துருக்கி	-9.49082
▁தென்னாப்பிரிக்கா	-9.49082
▁தென்னை	-9.49082
▁தெரிவித்த	-9.49082
▁தெரிவித்து	-9.49082
▁தெலங்கானாவில்	-9.49082
▁தேடி	-9.49082
▁தேதிக்கு	-9.49082
▁தொகுதிகளில்	-9.49082
▁தொடக்க	-9.49082
▁தொடங்கும்	-9.49082
▁தொடர்ந்த	-9.49082
▁நடனமாடிய	-9.49082
▁நட்சத்திர	-9.49082
▁நள்ளிரவு	-9.49082
▁நாராயணசாமி	-9.49082
▁நினைவிடம்	-9.49082
▁நினைவு	-9.49082
▁நிர்வாக	-9.49082
▁நிறுவனத்துக்கு	-9.49082
▁நிற்க	-9.49082
▁நிலைய	-9.49082
▁நீரில்	-9.49082
▁நூறு	-9.49082
▁நெரிசலில்	-9.49082
▁நேரடி	-9.49082
▁நேற்று	-9.49082
▁நோக்கம்	-9.49082
▁படங்களில்	-9.49082
▁பட்டேல்	-9.49082
▁பணக்கார	-9.49082
▁பணிகளை	-9.49082
▁பணியில்	-9.49082
▁பதவிக்கு	-9.49082
▁பயங்கர	-9.49082
▁பரிசாக	-9.49082
▁பரிதவிக்கும்	-9.49082
▁பறித்த	-9.49082
▁பல்லவி	-9.49082
▁பவன்	-9.49082
▁பவர்	-9.49082
▁பாக்ஸ்	-9.49082
▁பாடல்கள்	-9.49082
▁பாண்டே	-9.49082
▁பாரஞ்சித்	-9.49082
▁பாரம்பரிய	-9.49082
▁பாரிவேந்தர்	-9.49082
▁பாவனா	-9.49082
▁பிரமாண்ட	-9.49082
▁பிரிட்டன்	-9.49082
▁பில்	-9.49082
▁பிளான்	-9.49082
▁புதுசு	-9.49082
▁புறப்பட்டார்	-9.49082
▁பெங்களூரு	-9.49082
▁பெரும்பான்மையை	-9.49082
▁பெறலாம்	-9.49082
▁பேசி	-9.49082
▁பேச்சால்	-9.49082
▁பேச்சுக்கு	-9.49082
▁பேச்சுவார்த்தைக்கு	-9.49082
▁பேடி	-9.49082
▁பேரறிவாளன்	-9.49082
▁பேராசிரியர்	-9.49082
▁பேராயர்	-9.49082
▁பைக்கில்	-9.49082
▁பொன்	-9.49082
▁பொன்மாணிக்கவேல்	-9.49082
▁பொறியியல்	-9.49082
▁பொறுப்பு	-9.49082
▁போடு	-9.49082
▁போதை	-9.49082
▁போராடி	-9.49082
▁போர்க்கொடி	-9.49082
▁போல்ட்	-9.49082
▁மணந்தார்	-9.49082
▁மதிப்பு	-9.49082
▁மத்தியப்	-9.49082
▁மனைவியுடன்	-9.49082
▁மழையால்	-9.49082
▁மாட்டோம்	-9.49082
▁மாணவியை	-9.49082
▁முதன்முறையாக	-9.49082
▁முதலமைச்சரை	-9.49082
▁முனைப்பில்	-9.49082
▁முருகன்	-9.49082
▁முறையீடு	-9.49082
▁முற்றுப்புள்ளி	-9.49082
▁மூடல்	-9.49082
▁மெக்சிகோ	-9.49082
▁மேட்டூர்	-9.49082
▁மொழி	-9.49082
▁யாத்திரை	-9.49082
▁ரசிகர்	-9.49082
▁ரசிகை	-9.49082
▁ரஹானே	-9.49082
▁ராகுலுக்கு	-9.49082
▁ராஜபக்ச	-9.49082
▁ராஜஸ்தானில்	-9.49082
▁ராணா	-9.49082
▁ரிப்போர்ட்	-9.49082
▁ரியல்	-9.49082
▁ரூ25	-9.49082
▁ரெஸ்ட்	-9.49082
▁லிட்டர்	-9.49082
▁லோக்	-9.49082
▁வட	-9.49082
▁வதந்தி	-9.49082
▁வந்தார்	-9.49082
▁வனத்துறை	-9.49082
▁வம்சாவளி	-9.49082
▁வரலட்சுமி	-9.49082
▁வரலாற்று	-9.49082
▁வருடத்திற்கு	-9.49082
▁வருது	-9.49082
▁வழிப்பறி	-9.49082
▁வாங்கும்	-9.49082
▁வாய்ப்பில்லை	-9.49082
▁வாலிபர்	-9.49082
▁விசாரணையில்	-9.49082
▁விதிமீறல்	-9.49082
▁வித்தியாசத்தில்	-9.49082
▁விபரீத	-9.49082
▁விமானி	-9.49082
▁விற்ற	-9.49082
▁விலகிய	-9.49082
▁விஸ்வரூபம்	-9.49082
▁வீரப்பன்	-9.49082
▁வீரராக	-9.49082
▁வீரரின்	-9.49082
▁வீழ்த்த	-9.49082
▁வீழ்ந்தது	-9.49082
▁வெளியேறிய	-9.49082
▁வெளியேறும்	-9.49082
▁வேகம்	-9.49082
▁வேண்டுமா	-9.49082
▁வேல்முருகன்	-9.49082
▁வைக்கிறார்	-9.49082
▁ஸ்கெட்ச்	-9.49082
▁ஹேப்பி	-9.49082
▁2ஆம்	-9.6086
▁2ஓ	-9.6086
▁37	-9.6086
▁41	-9.6086
▁42	-9.6086
▁43	-9.6086
▁65	-9.6086
▁75	-9.6086
▁ஃபேஸ்புக்கில்	-9.6086
▁அஜீத்	-9.6086
▁அடக்கம்	-9.6086
▁அடித்துக்	-9.6086
▁அணியும்	-9.6086
▁அணு	-9.6086
▁அன்சாரி	-9.6086
▁அப்ப	-9.6086
▁அப்ரிதி	-9.6086
▁அமலா	-9.6086
▁அமைச்சரவை	-9.6086
▁அம்பானி	-9.6086
▁அறிவிப்புக்கு	-9.6086
▁அலுவலகம்	-9.6086
▁அலோக்	-9.6086
▁அழகி	-9.6086
▁அழிக்க	-9.6086
▁அழுத	-9.6086
▁அவதூறு	-9.6086
▁ஆஃப்	-9.6086
▁ஆசிரியருக்கு	-9.6086
▁ஆடுகள்	-9.6086
▁ஆண்டுகளில்	-9.6086
▁ஆண்டுகளுக்குப்	-9.6086
▁ஆந்திராவில்	-9.6086
▁ஆனது	-9.6086
▁ஆப்பிள்	-9.6086
▁ஆய்வுக்கு	-9.6086
▁ஆராசா	-9.6086
▁ஆர்பிஐ	-9.6086
▁இணைகிறாரா	-9.6086
▁இணைய	-9.6086
▁இந்தியன்	-9.6086
▁இந்தியாபாக்	-9.6086
▁இந்தியாவிற்கு	-9.6086
▁இறுதிப்போட்டியில்	-9.6086
▁இறைச்சி	-9.6086
▁இல்	-9.6086
▁இளைஞரை	-9.6086
▁இழந்தது	-9.6086
▁இஸ்லாமியர்கள்	-9.6086
▁உடன்	-9.6086
▁உடைத்து	-9.6086
▁உண்ணாவிரதப்	-9.6086
▁உதயகுமார்	-9.6086
▁உமேஷ்	-9.6086
▁உயர்கிறது	-9.6086
▁உரிமம்	-9.6086
▁உறுப்பினர்கள்	-9.6086
▁ஊதிய	-9.6086
▁ஊருக்கு	-9.6086
▁எங்கெல்லாம்	-9.6086
▁எதையும்	-9.6086
▁என்னுடைய	-9.6086
▁எரிப்பு	-9.6086
▁எரிவாயு	-9.6086
▁எல்லா	-9.6086
▁எஸ்கேப்	-9.6086
▁ஏஆர்முருகதாஸ்	-9.6086
▁ஏடிஎம்	-9.6086
▁ஏப்ரல்	-9.6086
▁ஏறி	-9.6086
▁ஏறிய	-9.6086
▁ஏற்படும்	-9.6086
▁ஏலத்துக்கு	-9.6086
▁ஒபிஎஸ்	-9.6086
▁ஓட்டலில்	-9.6086
▁ஓட்டிகள்	-9.6086
▁ஓவியம்	-9.6086
▁கஞ்சா	-9.6086
▁கடத்தி	-9.6086
▁கடவுள்	-9.6086
▁கடுமையாக	-9.6086
▁கட்சிக்கு	-9.6086
▁கணக்கில்	-9.6086
▁கண்காட்சி	-9.6086
▁கத்திக்குத்து	-9.6086
▁கமலின்	-9.6086
▁கரையை	-9.6086
▁கலாம்	-9.6086
▁கலெக்டர்	-9.6086
▁களமிறங்குகிறார்	-9.6086
▁கழிவுகள்	-9.6086
▁கவுர்	-9.6086
▁கஷோகி	-9.6086
▁காஞ்சிபுரம்	-9.6086
▁காதலிக்க	-9.6086
▁கார்கள்	-9.6086
▁காவலரை	-9.6086
▁கிடைக்கும்	-9.6086
▁கிடைத்தது	-9.6086
▁கிரண்பேடி	-9.6086
▁கீழ்	-9.6086
▁குகையில்	-9.6086
▁குடும்பத்தினர்	-9.6086
▁குறைந்தது	-9.6086
▁குற்றவாளிகளை	-9.6086
▁கூறும்	-9.6086
▁கெலாட்	-9.6086
▁கேஎல்ராகுல்	-9.6086
▁கேட்கிறது	-9.6086
▁கைதி	-9.6086
▁கையில்	-9.6086
▁கைவரிசை	-9.6086
▁கொடுத்தார்	-9.6086
▁கொண்டாட்டத்தில்	-9.6086
▁கோபம்	-9.6086
▁கோரினார்	-9.6086
▁கோர்ட்	-9.6086
▁சக	-9.6086
▁சங்கத்	-9.6086
▁சட்டசபையில்	-9.6086
▁சதமடித்து	-9.6086
▁சத்தீஸ்கரில்	-9.6086
▁சமையல்	-9.6086
▁சரக்கு	-9.6086
▁சலுகை	-9.6086
▁சாகசம்	-9.6086
▁சிட்டி	-9.6086
▁சின்ன	-9.6086
▁சிபிசிஐடி	-9.6086
▁சிலைக்கடத்தல்	-9.6086
▁சீட்	-9.6086
▁சுப்பிரமணியன்	-9.6086
▁சுற்றி	-9.6086
▁சுற்றுலாப்	-9.6086
▁சூரிய	-9.6086
▁சென்டினல்	-9.6086
▁செய்தால்	-9.6086
▁செய்தியாளரை	-9.6086
▁செலவில்	-9.6086
▁செல்லூர்	-9.6086
▁சொகுசு	-9.6086
▁சொன்னார்	-9.6086
▁ஜாங்	-9.6086
▁ஜாமின்	-9.6086
▁ஜெயலலிதாவை	-9.6086
▁டாக்டர்கள்	-9.6086
▁டிகேஎஸ்	-9.6086
▁டீச்சர்	-9.6086
▁தஞ்சம்	-9.6086
▁தந்த	-9.6086
▁தமிழர்களின்	-9.6086
▁தமிழுக்கு	-9.6086
▁தயாரிப்பில்	-9.6086
▁தலைமறைவான	-9.6086
▁தலைவரை	-9.6086
▁தாண்டிய	-9.6086
▁தானே	-9.6086
▁தாருங்கள்	-9.6086
▁திட்டத்தில்	-9.6086
▁திணறல்	-9.6086
▁தின்ற	-9.6086
▁திமுகவின்	-9.6086
▁திருடர்கள்	-9.6086
▁திருடி	-9.6086
▁திருடும்	-9.6086
▁திருமா	-9.6086
▁திரை	-9.6086
▁தூக்கு	-9.6086
▁தேர்வுக்கு	-9.6086
▁நடிகர்கள்	-9.6086
▁நடிக்கிறார்	-9.6086
▁நடுரோட்டில்	-9.6086
▁நாடகம்	-9.6086
▁நாட்டை	-9.6086
▁நானே	-9.6086
▁நாயகன்	-9.6086
▁நாயகி	-9.6086
▁நாராயணன்	-9.6086
▁நிச்சயதார்த்தம்	-9.6086
▁நினைக்கவில்லை	-9.6086
▁நிறுவன	-9.6086
▁நீதிமன்றக்	-9.6086
▁நுழைந்த	-9.6086
▁நுழைய	-9.6086
▁நூற்றாண்டு	-9.6086
▁நொறுங்கிய	-9.6086
▁நோயாளிகள்	-9.6086
▁பசுமை	-9.6086
▁படகு	-9.6086
▁படங்கள்	-9.6086
▁பணத்திற்காக	-9.6086
▁பணிக்கு	-9.6086
▁பதவியில்	-9.6086
▁பந்தில்	-9.6086
▁பந்தை	-9.6086
▁பயணித்த	-9.6086
▁பலர்	-9.6086
▁பலாத்காரம்	-9.6086
▁பள்ளிகள்	-9.6086
▁பள்ளிக்	-9.6086
▁பாசம்	-9.6086
▁பாதிப்பை	-9.6086
▁பாதிரியார்	-9.6086
▁பாபா	-9.6086
▁பாபு	-9.6086
▁பாம்பன்	-9.6086
▁பிடிக்கும்	-9.6086
▁பின்னடைவு	-9.6086
▁பிரச்சனை	-9.6086
▁பிரபு	-9.6086
▁பிரிந்த	-9.6086
▁பிரேசில்	-9.6086
▁பிளே	-9.6086
▁புகழ்ந்த	-9.6086
▁புல்லட்	-9.6086
▁பெங்களூர்	-9.6086
▁பெறும்	-9.6086
▁பேசும்	-9.6086
▁பேசுவது	-9.6086
▁பேரம்	-9.6086
▁பேருந்தில்	-9.6086
▁போலீஸில்	-9.6086
▁மகளை	-9.6086
▁மசூத்	-9.6086
▁மரங்கள்	-9.6086
▁மரணத்தில்	-9.6086
▁மருத்துவக்	-9.6086
▁மருத்துவமனைகள்	-9.6086
▁மறுக்கும்	-9.6086
▁மலர்	-9.6086
▁மலிங்கா	-9.6086
▁மலேசிய	-9.6086
▁மலேசியாவில்	-9.6086
▁மலை	-9.6086
▁மாணவனை	-9.6086
▁மாணவியின்	-9.6086
▁மாநகராட்சி	-9.6086
▁மாநிலங்களில்	-9.6086
▁மாநிலம்	-9.6086
▁மாரி	-9.6086
▁மிரட்டி	-9.6086
▁மீட்க	-9.6086
▁மீறல்	-9.6086
▁முக்கியத்துவம்	-9.6086
▁முடிக்க	-9.6086
▁முடிவில்	-9.6086
▁முடிவெடுத்த	-9.6086
▁மூன்றாவது	-9.6086
▁மெகா	-9.6086
▁மேன்	-9.6086
▁யுவன்	-9.6086
▁யோ	-9.6086
▁யோசனை	-9.6086
▁ரகசியம்	-9.6086
▁ரசிகர்களுக்கு	-9.6086
▁ரசித்த	-9.6086
▁ரஜினியை	-9.6086
▁ரன்வீர்	-9.6086
▁ராஜேஷ்	-9.6086
▁ராதிகா	-9.6086
▁ராம்	-9.6086
▁ரூ3	-9.6086
▁ரூ4	-9.6086
▁ரேசன்	-9.6086
▁ரொம்ப	-9.6086
▁லியோன்	-9.6086
▁லைவ்	-9.6086
▁வங்கதேசம்	-9.6086
▁வந்தாச்சு	-9.6086
▁வரவில்லை	-9.6086
▁வர்மா	-9.6086
▁வலைதளங்களில்	-9.6086
▁வளாகத்தில்	-9.6086
▁வழங்கப்படும்	-9.6086
▁வாழ்க்கையை	-9.6086
▁விஐபி	-9.6086
▁விக்னேஷ்	-9.6086
▁விசாரணையை	-9.6086
▁விடாமல்	-9.6086
▁விடுதியில்	-9.6086
▁விடுத்த	-9.6086
▁விடும்	-9.6086
▁விமானத்தை	-9.6086
▁விருதை	-9.6086
▁விருந்து	-9.6086
▁விரைவு	-9.6086
▁விற்க	-9.6086
▁விலக	-9.6086
▁விலங்குகள்	-9.6086
▁வில்லியர்ஸ்	-9.6086
▁விளக்கு	-9.6086
▁விளாசல்	-9.6086
▁வீடியோவில்	-9.6086
▁வெற்றிக்கு	-9.6086
▁வெல்லும்	-9.6086
▁வெளிநாடுகளில்	-9.6086
▁வேதா	-9.6086
▁வேலூரில்	-9.6086
▁வைகை	-9.6086
▁ஸ்டாலினுடன்	-9.6086
▁ஸ்டைலில்	-9.6086
▁ஹோட்டல்	-9.6086
▁108	-9.74214
▁2018	-9.74214
▁2ம்	-9.74214
▁32	-9.74214
▁35	-9.74214
▁400	-9.74214
▁45	-9.74214
▁56	-9.74214
▁5வது	-9.74214
▁63	-9.74214
▁அகற்றம்	-9.74214
▁அகிலேஷ்	-9.74214
▁அசைவ	-9.74214
▁அடித்துக்கொலை	-9.74214
▁அடுக்குமாடி	-9.74214
▁அடையாளம்	-9.74214
▁அட்டூழியம்	-9.74214
▁அதிகாரிக்கு	-9.74214
▁அதிமுகவை	-9.74214
▁அதிரடியில்	-9.74214
▁அதிர்ச்சியடைந்த	-9.74214
▁அத்துமீறல்	-9.74214
▁அத்துமீறி	-9.74214
▁அனுமதியின்றி	-9.74214
▁அப்செட்	-9.74214
▁அமலாக்கத்துறை	-9.74214
▁அமெரிக்காவின்	-9.74214
▁அமைச்சரின்	-9.74214
▁அமோக	-9.74214
▁அரசியலை	-9.74214
▁அருவியில்	-9.74214
▁அறிவித்த	-9.74214
▁அற்புதம்மாள்	-9.74214
▁அவசரச்	-9.74214
▁ஆட்சியரிடம்	-9.74214
▁ஆணவப்	-9.74214
▁ஆந்திரா	-9.74214
▁ஆராய	-9.74214
▁ஆர்பிஉதயகுமார்	-9.74214
▁ஆளில்லா	-9.74214
▁ஆஷஸ்	-9.74214
▁இங்க	-9.74214
▁இங்கி	-9.74214
▁இடைக்காலத்	-9.74214
▁இணையதளங்கள்	-9.74214
▁இதை	-9.74214
▁இந்தியன்2	-9.74214
▁இன்றுடன்	-9.74214
▁இன்றே	-9.74214
▁இயலாது	-9.74214
▁இயல்பு	-9.74214
▁இரண்டே	-9.74214
▁இருந்தது	-9.74214
▁இருந்தார்	-9.74214
▁இருந்தாலும்	-9.74214
▁இருந்தால்தான்	-9.74214
▁இலவசம்	-9.74214
▁உடனடியாக	-9.74214
▁உண்மையை	-9.74214
▁உயரமான	-9.74214
▁உருகும்	-9.74214
▁உள்நாட்டு	-9.74214
▁உள்பட	-9.74214
▁உள்ளே	-9.74214
▁எடுக்கலாம்	-9.74214
▁எதிர்கொள்ளும்	-9.74214
▁என்எல்சி	-9.74214
▁என்னாச்சு	-9.74214
▁என்னால்	-9.74214
▁எப்ப	-9.74214
▁எமி	-9.74214
▁எம்எல்ஏவின்	-9.74214
▁எரியும்	-9.74214
▁எஸ்பிவேலுமணி	-9.74214
▁ஏமாந்த	-9.74214
▁ஏர்செல்	-9.74214
▁ஏற்பாடு	-9.74214
▁ஏற்பு	-9.74214
▁ஐஐடியில்	-9.74214
▁ஐஜி	-9.74214
▁ஐபிஎஸ்	-9.74214
▁ஐபோன்	-9.74214
▁ஐயப்பன்	-9.74214
▁ஒன்றரை	-9.74214
▁ஒன்று	-9.74214
▁ஒப்படைக்க	-9.74214
▁ஒப்படைத்த	-9.74214
▁ஓவியா	-9.74214
▁கஜோல்	-9.74214
▁கடக்க	-9.74214
▁கடைகளை	-9.74214
▁கடைக்குட்டி	-9.74214
▁கடையை	-9.74214
▁கட்ஜூ	-9.74214
▁கட்டுப்பாடுகள்	-9.74214
▁கணினி	-9.74214
▁கணினிகள்	-9.74214
▁கண்கலங்க	-9.74214
▁கண்காணிக்க	-9.74214
▁கண்டித்த	-9.74214
▁கண்ணீருடன்	-9.74214
▁கனா	-9.74214
▁கன்னட	-9.74214
▁கமல்ஹாசனின்	-9.74214
▁கருணைக்	-9.74214
▁கற்க	-9.74214
▁கல்லூரிகள்	-9.74214
▁கள்ள	-9.74214
▁காட்டு	-9.74214
▁காம்பீர்	-9.74214
▁காயத்ரி	-9.74214
▁காற்றில்	-9.74214
▁காலக்கெடு	-9.74214
▁காலம்	-9.74214
▁காலிறுதிக்கு	-9.74214
▁காலிறுதியில்	-9.74214
▁காளைகள்	-9.74214
▁காவல்துறையினர்	-9.74214
▁காவல்படை	-9.74214
▁கிறிஸ்	-9.74214
▁குடும்பத்தில்	-9.74214
▁குற்ற	-9.74214
▁கூட்டணியில்	-9.74214
▁கெத்து	-9.74214
▁கெய்ல்	-9.74214
▁கேட்கவில்லை	-9.74214
▁கேன்சர்	-9.74214
▁கேள்விக்கு	-9.74214
▁கொஞ்சம்	-9.74214
▁கொடுக்கிறார்	-9.74214
▁கொட்டும்	-9.74214
▁கொண்டாட	-9.74214
▁கொன்றுவிட்டு	-9.74214
▁கொள்கை	-9.74214
▁கொள்முதல்	-9.74214
▁கொள்ளையை	-9.74214
▁கோவாவில்	-9.74214
▁சகோதரிகள்	-9.74214
▁சஜ்ஜன்	-9.74214
▁சட்டத்தில்	-9.74214
▁சண்டக்கோழி	-9.74214
▁சத்யராஜ்	-9.74214
▁சந்தித்தது	-9.74214
▁சந்தையில்	-9.74214
▁சமன்	-9.74214
▁சம்பளத்தை	-9.74214
▁சரண்டர்	-9.74214
▁சரமாரி	-9.74214
▁சரியாக	-9.74214
▁சவுதியில்	-9.74214
▁சவுந்தர்யா	-9.74214
▁சாதிக்குமா	-9.74214
▁சாத்தியமானது	-9.74214
▁சாஹோ	-9.74214
▁சி	-9.74214
▁சித்தராமையா	-9.74214
▁சிபிஐக்கு	-9.74214
▁சிறிய	-9.74214
▁சிறுத்தைகள்	-9.74214
▁சிறுவனின்	-9.74214
▁சீமராஜா	-9.74214
▁சீரமைக்க	-9.74214
▁சீற்றம்	-9.74214
▁சுட்டுக்	-9.74214
▁சுட்டுக்கொல்லப்பட்ட	-9.74214
▁சுத்தம்	-9.74214
▁சுப்புராஜ்	-9.74214
▁சுற்றிய	-9.74214
▁சுவரில்	-9.74214
▁சூழல்	-9.74214
▁செட்	-9.74214
▁செந்தில்	-9.74214
▁சென்றவர்	-9.74214
▁சென்றார்	-9.74214
▁செயல்பட	-9.74214
▁செல்லாத	-9.74214
▁செவிலியர்கள்	-9.74214
▁சேதுபதியின்	-9.74214
▁சேலஞ்ச்	-9.74214
▁சைதன்யா	-9.74214
▁ஜனவரியில்	-9.74214
▁ஜப்தி	-9.74214
▁ஜிம்பாப்வேயில்	-9.74214
▁ஜூன்	-9.74214
▁ஜூலை	-9.74214
▁ஜெதீபா	-9.74214
▁ஜெயேந்திரர்	-9.74214
▁ஞாபகம்	-9.74214
▁டாட்டா	-9.74214
▁டான்ஸ்	-9.74214
▁டார்ச்சர்	-9.74214
▁டாஸ்	-9.74214
▁டிஜிட்டல்	-9.74214
▁டிப்ஸ்	-9.74214
▁டிராஜேந்தர்	-9.74214
▁டீ	-9.74214
▁டீன்	-9.74214
▁டெஸ்டில்	-9.74214
▁ட்ரெண்டான	-9.74214
▁ட்ரைலர்	-9.74214
▁தகாத	-9.74214
▁தஞ்சாவூர்	-9.74214
▁தடையை	-9.74214
▁தண்ணி	-9.74214
▁தனுஸ்ரீ	-9.74214
▁தன்	-9.74214
▁தப்பிக்க	-9.74214
▁தப்பியது	-9.74214
▁தமிழ்நாடு	-9.74214
▁தமிழ்ப்	-9.74214
▁தயாரித்த	-9.74214
▁தரப்பில்	-9.74214
▁தற்காலிகமாக	-9.74214
▁தளர்வு	-9.74214
▁தவிப்பு	-9.74214
▁தஷ்வந்த்	-9.74214
▁தாக்கம்	-9.74214
▁தாக்குதலில்	-9.74214
▁தாஜ்மஹால்	-9.74214
▁தாறுமாறாக	-9.74214
▁தாலி	-9.74214
▁தி	-9.74214
▁திடீரென	-9.74214
▁திட்டத்திற்கு	-9.74214
▁திட்டமிட்ட	-9.74214
▁திட்டமிட்டபடி	-9.74214
▁தினகரனின்	-9.74214
▁தினசரி	-9.74214
▁திருமணத்திற்காக	-9.74214
▁திருமுருகன்	-9.74214
▁திரும்பியது	-9.74214
▁திரும்பும்	-9.74214
▁திருவள்ளுவர்	-9.74214
▁திருவள்ளூரில்	-9.74214
▁திரையரங்குகள்	-9.74214
▁தீக்குளிப்பு	-9.74214
▁தீபாவளிக்கு	-9.74214
▁தீவிபத்து	-9.74214
▁துண்டிப்பு	-9.74214
▁துண்டு	-9.74214
▁தென்னாப்பிரிக்க	-9.74214
▁தேர்தலுக்கு	-9.74214
▁தேர்வுகள்	-9.74214
▁தேவசம்	-9.74214
▁தொடங்க	-9.74214
▁தொடர	-9.74214
▁தொடர்பாக	-9.74214
▁தொட்டியில்	-9.74214
▁தொந்தரவு	-9.74214
▁தொழிற்சாலை	-9.74214
▁தோனிக்கு	-9.74214
▁தோளில்	-9.74214
▁நடந்து	-9.74214
▁நடராஜன்	-9.74214
▁நம்	-9.74214
▁நம்பி	-9.74214
▁நாக	-9.74214
▁நாக்	-9.74214
▁நாக்பூர்	-9.74214
▁நாடுகள்	-9.74214
▁நாட்டிலேயே	-9.74214
▁நாம்	-9.74214
▁நாயர்	-9.74214
▁நாயுடுவுக்கு	-9.74214
▁நாய்க்கறி	-9.74214
▁நாளிதழ்	-9.74214
▁நிகழ்ச்சிக்கு	-9.74214
▁நிகழ்ச்சியை	-9.74214
▁நிக்	-9.74214
▁நித்யானந்தா	-9.74214
▁நியூசி	-9.74214
▁நியூட்ரினோ	-9.74214
▁நிறுத்தி	-9.74214
▁நீங்கியது	-9.74214
▁நெகிழ	-9.74214
▁நெக்ஸ்ட்	-9.74214
▁நெடுவாசலில்	-9.74214
▁நெல்லையில்	-9.74214
▁நேர	-9.74214
▁நேரிடும்	-9.74214
▁நேருக்கு	-9.74214
▁நேர்	-9.74214
▁பகவத்	-9.74214
▁பக்ரீத்	-9.74214
▁பஜ்ரங்	-9.74214
▁படத்திற்காக	-9.74214
▁படத்துக்காக	-9.74214
▁பணியிடை	-9.74214
▁பத்திரிகை	-9.74214
▁பத்மாவத்	-9.74214
▁பந்துவீச	-9.74214
▁பனிமூட்டம்	-9.74214
▁பன்வாரிலால்	-9.74214
▁பற்றிய	-9.74214
▁பாதிப்பால்	-9.74214
▁பாதுகாப்பாக	-9.74214
▁பாராட்டுக்கள்	-9.74214
▁பிடிவாரண்ட்	-9.74214
▁பிட்ச்	-9.74214
▁பின்பு	-9.74214
▁பிரசாரம்	-9.74214
▁பிரச்னைக்கு	-9.74214
▁பிரத்யேக	-9.74214
▁பிரின்சிபல்	-9.74214
▁பிரியாணி	-9.74214
▁பிறந்தநாளில்	-9.74214
▁பீகார்	-9.74214
▁பீதி	-9.74214
▁புகழும்	-9.74214
▁புகாரை	-9.74214
▁புதிதாக	-9.74214
▁புனித	-9.74214
▁புலிகள்	-9.74214
▁பூங்கா	-9.74214
▁பெரும்பான்மை	-9.74214
▁பொங்கலுக்கு	-9.74214
▁போட்டியை	-9.74214
▁போராட்ட	-9.74214
▁போராட்டத்தை	-9.74214
▁போலீசாருக்கு	-9.74214
▁போலீசாரை	-9.74214
▁ப்ரியா	-9.74214
▁ப்ளூ	-9.74214
▁மகாராஷ்டிரா	-9.74214
▁மசூதி	-9.74214
▁மடங்கு	-9.74214
▁மணிமேகலை	-9.74214
▁மண்டலப்	-9.74214
▁மனிதர்களை	-9.74214
▁மனைவியின்	-9.74214
▁மம்மூட்டி	-9.74214
▁மரங்களை	-9.74214
▁மரணத்தை	-9.74214
▁மறுத்ததால்	-9.74214
▁மறுத்தது	-9.74214
▁மலையில்	-9.74214
▁மாதத்திற்குள்	-9.74214
▁மாநிலங்களவையில்	-9.74214
▁மானியம்	-9.74214
▁மாரத்தான்	-9.74214
▁மாற்றுத்	-9.74214
▁மாலத்தீவில்	-9.74214
▁மாவட்டங்களுக்கு	-9.74214
▁மிசோரம்	-9.74214
▁மின்னணு	-9.74214
▁மிஸ்	-9.74214
▁மிஸ்ரா	-9.74214
▁மீடூ	-9.74214
▁மீனவர்களுக்கு	-9.74214
▁முகஅழகிரி	-9.74214
▁முகமூடி	-9.74214
▁முகம்	-9.74214
▁முகாமில்	-9.74214
▁முடக்க	-9.74214
▁முடக்கிய	-9.74214
▁முத்துக்கிருஷ்ணன்	-9.74214
▁முன்னெச்சரிக்கை	-9.74214
▁முன்னேறியது	-9.74214
▁முருகதாஸ்	-9.74214
▁முல்லைப்பெரியாறு	-9.74214
▁மூவர்	-9.74214
▁மெஸ்சி	-9.74214
▁மேடையில்	-9.74214
▁மேரி	-9.74214
▁மேற்குவங்க	-9.74214
▁மேற்கொள்ள	-9.74214
▁மோசடியில்	-9.74214
▁யாரையும்	-9.74214
▁யுபிஎஸ்சி	-9.74214
▁ரகுராம்	-9.74214
▁ரசிகர்களின்	-9.74214
▁ராகவா	-9.74214
▁ராகுலுடன்	-9.74214
▁ராகுலை	-9.74214
▁ராக்கர்ஸ்	-9.74214
▁ராஜூ	-9.74214
▁ராம்நாத்	-9.74214
▁ரீமேக்கில்	-9.74214
▁ரூ2000	-9.74214
▁ரூ50	-9.74214
▁ரூம்	-9.74214
▁ரெட்டியின்	-9.74214
▁ரேஸில்	-9.74214
▁ரேஸ்	-9.74214
▁லெவல்	-9.74214
▁வடகிழக்கு	-9.74214
▁வராது	-9.74214
▁வருடத்துக்கு	-9.74214
▁வருமானவரித்துறை	-9.74214
▁வலைவீச்சு	-9.74214
▁வாகனத்தில்	-9.74214
▁வாடிக்கையாளர்	-9.74214
▁வாடிக்கையாளர்கள்	-9.74214
▁வானம்	-9.74214
▁வாழும்	-9.74214
▁விஜய	-9.74214
▁விஜய்க்கு	-9.74214
▁விதி	-9.74214
▁விதிகளை	-9.74214
▁விதிகள்	-9.74214
▁வித்தியாசமான	-9.74214
▁விநோத	-9.74214
▁வியூகம்	-9.74214
▁விலைக்கு	-9.74214
▁விளையாட்டுப்	-9.74214
▁விழாவுக்கு	-9.74214
▁விவசாயிகளுக்காக	-9.74214
▁விஸ்வரூபம்2	-9.74214
▁வீடுகளில்	-9.74214
▁வீடுகளை	-9.74214
▁வீட்டிற்கு	-9.74214
▁வீழ்த்தியது	-9.74214
▁வெடிக்கும்	-9.74214
▁வெடித்த	-9.74214
▁வெடித்தது	-9.74214
▁வெடித்து	-9.74214
▁வெண்கலம்	-9.74214
▁வெறும்	-9.74214
▁வெளியேற்றம்	-9.74214
▁வெளுத்து	-9.74214
▁வேடத்தில்	-9.74214
▁வைக்கப்பட்ட	-9.74214
▁ஸ்மார்ட்போன்	-9.74214
▁ஸ்ருதி	-9.74214
▁ஸ்வேதா	-9.74214
▁ஹனுமன்	-9.74214
▁ஹிந்தி	-9.74214
▁ஹிப்	-9.74214
▁ஹூமா	-9.74214
▁ஹெலிகாப்டரில்	-9.74214
▁ஹைதராபாத்	-9.74214
▁15000	-9.89629
▁160	-9.89629
▁182	-9.89629
▁18வது	-9.89629
▁20ல்	-9.89629
▁22	-9.89629
▁29	-9.89629
▁49	-9.89629
▁4ல்	-9.89629
▁52	-9.89629
▁58	-9.89629
▁5ஆம்	-9.89629
▁68	-9.89629
▁72வது	-9.89629
▁87	-9.89629
▁89	-9.89629
▁அகமது	-9.89629
▁அகற்றுங்கள்	-9.89629
▁அச்சத்தில்	-9.89629
▁அடையாள	-9.89629
▁அதிகாரிகளை	-9.89629
▁அதிமுகவுக்கு	-9.89629
▁அனில்	-9.89629
▁அன்பு	-9.89629
▁அப்பாவி	-9.89629
▁அமர்நாத்	-9.89629
▁அமலாபால்	-9.89629
▁அமலுக்கு	-9.89629
▁அமெரிக்கப்	-9.89629
▁அமைச்சரவைக்	-9.89629
▁அமைதியாக	-9.89629
▁அமைப்பாளர்	-9.89629
▁அமைப்பினர்	-9.89629
▁அரண்மனை	-9.89629
▁அரிசி	-9.89629
▁அரிய	-9.89629
▁அரிவாளால்	-9.89629
▁அர்ஜூனா	-9.89629
▁அர்ஜெண்டினா	-9.89629
▁அர்ஜென்டினா	-9.89629
▁அறிவித்தார்	-9.89629
▁அறை	-9.89629
▁அறைந்த	-9.89629
▁அலி	-9.89629
▁அலுவலகத்துக்கு	-9.89629
▁அலுவலர்	-9.89629
▁அளிக்கிறது	-9.89629
▁அழகான	-9.89629
▁அழிந்து	-9.89629
▁அஸ்தி	-9.89629
▁ஆசிஃபா	-9.89629
▁ஆசிட்	-9.89629
▁ஆசிரமம்	-9.89629
▁ஆசிரியர்களை	-9.89629
▁ஆடி	-9.89629
▁ஆடை	-9.89629
▁ஆட்சிக்கு	-9.89629
▁ஆதாரங்களை	-9.89629
▁ஆத்திரம்	-9.89629
▁ஆபரேஷன்	-9.89629
▁ஆயுக்தா	-9.89629
▁ஆயுத	-9.89629
▁ஆவது	-9.89629
▁இடஒதுக்கீடு	-9.89629
▁இடங்கள்	-9.89629
▁இணைப்புக்கு	-9.89629
▁இந்தியப்	-9.89629
▁இந்திரா	-9.89629
▁இனத்தவர்	-9.89629
▁இப்ப	-9.89629
▁இயற்கை	-9.89629
▁இருக்கிறதா	-9.89629
▁இருக்கிறாரா	-9.89629
▁இரும்புத்	-9.89629
▁இறங்கி	-9.89629
▁இறங்கிய	-9.89629
▁இறந்து	-9.89629
▁இல்லம்	-9.89629
▁இல்லா	-9.89629
▁இளம்பெண்ணைக்	-9.89629
▁இளவரசி	-9.89629
▁இவர்தான்	-9.89629
▁இஷாந்த்	-9.89629
▁உடலுக்கு	-9.89629
▁உடைந்த	-9.89629
▁உணவுக்காக	-9.89629
▁உண்ணாவிரத	-9.89629
▁உண்மைக்	-9.89629
▁உண்மைதான்	-9.89629
▁உதவ	-9.89629
▁உதவும்	-9.89629
▁உத்தரவுக்கு	-9.89629
▁உன்	-9.89629
▁உமா	-9.89629
▁உம்மன்சாண்டி	-9.89629
▁உயிருக்கு	-9.89629
▁உயிரைப்	-9.89629
▁உரிமையாளர்கள்	-9.89629
▁உருக்குலைந்த	-9.89629
▁உறவு	-9.89629
▁உறவுக்கு	-9.89629
▁உறவை	-9.89629
▁ஊடகங்கள்	-9.89629
▁ஊற்றி	-9.89629
▁ஊழலில்	-9.89629
▁ஊழலை	-9.89629
▁எங்கு	-9.89629
▁எடுத்துச்	-9.89629
▁எடை	-9.89629
▁எதிரானது	-9.89629
▁எதிர்பார்க்கும்	-9.89629
▁எதிர்ப்பை	-9.89629
▁எந்திரத்தில்	-9.89629
▁எந்தெந்த	-9.89629
▁என்கிறது	-9.89629
▁என்பதை	-9.89629
▁எம்ஆர்விஜயபாஸ்கர்	-9.89629
▁எம்எல்ஏக்களுக்கு	-9.89629
▁எம்எல்ஏக்களை	-9.89629
▁எம்ஜேஅக்பர்	-9.89629
▁எரித்து	-9.89629
▁எரித்துக்	-9.89629
▁எழுதுவதை	-9.89629
▁எழுப்பிய	-9.89629
▁எஸ்பிஐ	-9.89629
▁ஏடிஎம்கள்	-9.89629
▁ஏமாற்றிய	-9.89629
▁ஏரி	-9.89629
▁ஏர்போர்ட்டில்	-9.89629
▁ஏழைகளுக்கு	-9.89629
▁ஐதராபாத்தில்	-9.89629
▁ஒடிசா	-9.89629
▁ஒதுக்க	-9.89629
▁ஒத்திகை	-9.89629
▁ஒன்றிணைய	-9.89629
▁ஒப்புக்கொண்ட	-9.89629
▁ஒற்றை	-9.89629
▁ஒலிம்பிக்கில்	-9.89629
▁ஒழுங்கா	-9.89629
▁ஓஎஸ்மணியன்	-9.89629
▁ஓட்டம்	-9.89629
▁ஓட்டல்	-9.89629
▁ஓட்டிய	-9.89629
▁ஓட்டுநர்கள்	-9.89629
▁ஓபன்னீர்செல்வத்திற்கு	-9.89629
▁ஓர்	-9.89629
▁ஓவர்	-9.89629
▁கசிவு	-9.89629
▁கடற்கரையில்	-9.89629
▁கடுப்பான	-9.89629
▁கட்	-9.89629
▁கட்டும்	-9.89629
▁கணக்குகள்	-9.89629
▁கணவருக்கு	-9.89629
▁கணவரை	-9.89629
▁கண்கலங்கிய	-9.89629
▁கண்ட	-9.89629
▁கதறி	-9.89629
▁கதறும்	-9.89629
▁கந்துவட்டி	-9.89629
▁கனடா	-9.89629
▁கனவுக்கு	-9.89629
▁கனவை	-9.89629
▁கன்னத்தில்	-9.89629
▁கன்னியாகுமரி	-9.89629
▁கமிட்டி	-9.89629
▁கருத்தில்	-9.89629
▁கருவி	-9.89629
▁கரை	-9.89629
▁கலகல	-9.89629
▁கலவரம்	-9.89629
▁கலாச்சாரம்	-9.89629
▁கலீல்	-9.89629
▁கலை	-9.89629
▁கலைத்தார்	-9.89629
▁கல்யாண	-9.89629
▁களமிறங்கும்	-9.89629
▁கவனம்	-9.89629
▁கவலைக்கிடம்	-9.89629
▁காணும்	-9.89629
▁காதலருடன்	-9.89629
▁காதலரை	-9.89629
▁காதலிக்காக	-9.89629
▁காந்தியை	-9.89629
▁காப்பீடு	-9.89629
▁காமராஜ்	-9.89629
▁காய்ச்சலுக்கு	-9.89629
▁காற்றழுத்த	-9.89629
▁காவி	-9.89629
▁காவிரிக்காக	-9.89629
▁காவேரி	-9.89629
▁கிகி	-9.89629
▁கிரிக்கெட்டை	-9.89629
▁கிரிராஜ்	-9.89629
▁கிளை	-9.89629
▁குகைக்குள்	-9.89629
▁குடும்பங்களுக்கு	-9.89629
▁குரு	-9.89629
▁குறிவைக்கும்	-9.89629
▁குறிவைத்து	-9.89629
▁குற்றால	-9.89629
▁குளறுபடி	-9.89629
▁குளிர்கால	-9.89629
▁குழந்தைகளின்	-9.89629
▁குவித்த	-9.89629
▁குவைத்தில்	-9.89629
▁கூட்டுறவு	-9.89629
▁கூற	-9.89629
▁கூவத்தூர்	-9.89629
▁கேமராக்கள்	-9.89629
▁கேரி	-9.89629
▁கேவியட்	-9.89629
▁கையை	-9.89629
▁கைவிட்ட	-9.89629
▁கொட்டித்	-9.89629
▁கொன்றேன்	-9.89629
▁கோடை	-9.89629
▁கோபத்தில்	-9.89629
▁கோம்	-9.89629
▁கோயிலுக்கு	-9.89629
▁கோர	-9.89629
▁கோரிக்கையை	-9.89629
▁கோலாகல	-9.89629
▁கோவா	-9.89629
▁கோவிந்த்	-9.89629
▁கோவிலை	-9.89629
▁சங்கத்தின்	-9.89629
▁சஞ்சு	-9.89629
▁சடலத்துடன்	-9.89629
▁சட்டமன்ற	-9.89629
▁சட்டீஸ்கரில்	-9.89629
▁சதத்தை	-9.89629
▁சத்துணவு	-9.89629
▁சந்திரசேகர	-9.89629
▁சமரசம்	-9.89629
▁சரமாரியாக	-9.89629
▁சரியான	-9.89629
▁சர்க்கரை	-9.89629
▁சர்ச்சைக்கு	-9.89629
▁சலசலப்பு	-9.89629
▁சாகித்ய	-9.89629
▁சாசன	-9.89629
▁சாடிய	-9.89629
▁சான்ஸ்	-9.89629
▁சாப்பிட்ட	-9.89629
▁சாய்த்தார்	-9.89629
▁சார்	-9.89629
▁சிக்கினார்	-9.89629
▁சிக்சர்	-9.89629
▁சினிமாவின்	-9.89629
▁சிறப்பான	-9.89629
▁சிலைகளை	-9.89629
▁சிலைக்	-9.89629
▁சிவந்த	-9.89629
▁சிவா	-9.89629
▁சீனாவின்	-9.89629
▁சீராய்வு	-9.89629
▁சீரியல்	-9.89629
▁சீரிஸ்	-9.89629
▁சுசி	-9.89629
▁சுட்ட	-9.89629
▁சுழலில்	-9.89629
▁சூழலில்	-9.89629
▁சென்சார்	-9.89629
▁சென்றதாக	-9.89629
▁செயல்படும்	-9.89629
▁செய்கிறார்	-9.89629
▁செய்தவர்	-9.89629
▁செய்யாத	-9.89629
▁செரீனா	-9.89629
▁செல்லவில்லை	-9.89629
▁சேதமடைந்த	-9.89629
▁சைவ	-9.89629
▁சொல்லும்	-9.89629
▁சோகத்தில்	-9.89629
▁சோனாலி	-9.89629
▁ஜப்பானில்	-9.89629
▁ஜல்லிக்கட்டில்	-9.89629
▁ஜாக்சன்	-9.89629
▁ஜான்சன்	-9.89629
▁ஜாலி	-9.89629
▁ஜி20	-9.89629
▁ஜிம்பாப்வே	-9.89629
▁ஜெயராமனின்	-9.89629
▁ஜேஎன்யு	-9.89629
▁ஜோனாஸ்	-9.89629
▁டிஎன்பிஎஸ்சி	-9.89629
▁டிகிரி	-9.89629
▁டிசம்பரில்	-9.89629
▁டிடிவிதினகரன்	-9.89629
▁டிஸ்மிஸ்	-9.89629
▁டீமுக்கு	-9.89629
▁டும்	-9.89629
▁டொனால்ட்	-9.89629
▁ட்ராக்	-9.89629
▁ட்ரோல்	-9.89629
▁தகராறு	-9.89629
▁தகுதிநீக்க	-9.89629
▁தடுக்கும்	-9.89629
▁தடுப்பு	-9.89629
▁தடையில்லை	-9.89629
▁தண்டனைக்கு	-9.89629
▁தண்டனையை	-9.89629
▁தத்தளித்த	-9.89629
▁தந்தையின்	-9.89629
▁தனிப்பட்ட	-9.89629
▁தப்பி	-9.89629
▁தயாராக	-9.89629
▁தர்ம	-9.89629
▁தற்கொலையா	-9.89629
▁தலைமைத்	-9.89629
▁தலையிட	-9.89629
▁தலைவரானார்	-9.89629
▁தலைவரின்	-9.89629
▁தள்ளிவிட்ட	-9.89629
▁தவறவிட்ட	-9.89629
▁தவிர்ப்பு	-9.89629
▁தாக்கப்பட்ட	-9.89629
▁தாமிரபரணி	-9.89629
▁தாய்ப்பால்	-9.89629
▁தாழ்வு	-9.89629
▁திட்டியதால்	-9.89629
▁தினத்தில்	-9.89629
▁திமுகவினர்	-9.89629
▁திரட்ட	-9.89629
▁திருட	-9.89629
▁திரும்பப்	-9.89629
▁திருவள்ளூர்	-9.89629
▁திரையில்	-9.89629
▁திறக்கப்பட்டது	-9.89629
▁தீயணைப்பு	-9.89629
▁தீர்ப்புக்கு	-9.89629
▁தூங்க	-9.89629
▁தூங்கிய	-9.89629
▁தென்கொரியா	-9.89629
▁தெரிந்து	-9.89629
▁தெற்கு	-9.89629
▁தேசியக்கொடி	-9.89629
▁தேதிகளில்	-9.89629
▁தொகுப்பாளர்	-9.89629
▁தொகையை	-9.89629
▁தொடங்குகிறார்	-9.89629
▁தொடருமா	-9.89629
▁தொடர்பு	-9.89629
▁தொலைபேசி	-9.89629
▁தொழிலாளர்	-9.89629
▁தொழில்	-9.89629
▁தோனியும்	-9.89629
▁த்ரிஷாவின்	-9.89629
▁நகரம்	-9.89629
▁நசுங்கி	-9.89629
▁நடிகையுடன்	-9.89629
▁நடிப்பது	-9.89629
▁நடுக்கடலில்	-9.89629
▁நண்பன்	-9.89629
▁நண்பர்கள்	-9.89629
▁நன்றாக	-9.89629
▁நல்லடக்கம்	-9.89629
▁நவம்பரில்	-9.89629
▁நவீன	-9.89629
▁நாடகமாடிய	-9.89629
▁நாட்களாக	-9.89629
▁நாட்டில்	-9.89629
▁நான்கு	-9.89629
▁நாற்காலியில்	-9.89629
▁நிக்கி	-9.89629
▁நிஜ	-9.89629
▁நிதிக்கு	-9.89629
▁நிதியமைச்சர்கள்	-9.89629
▁நிதியை	-9.89629
▁நினைத்து	-9.89629
▁நிறுத்துங்கள்	-9.89629
▁நிறுவனத்தின்	-9.89629
▁நிவேதா	-9.89629
▁நெடுவாசல்	-9.89629
▁நெய்மர்	-9.89629
▁நெருக்கடி	-9.89629
▁நொறுங்கியது	-9.89629
▁நோட்டுகளுக்கு	-9.89629
▁நோயாளி	-9.89629
▁பகுதியில்	-9.89629
▁பக்க	-9.89629
▁பங்களா	-9.89629
▁பங்கேற்ற	-9.89629
▁பஞ்ச்	-9.89629
▁படக்குழு	-9.89629
▁படுகோனேவுக்கு	-9.89629
▁படைக்க	-9.89629
▁பட்ஜெட்டில்	-9.89629
▁பட்டத்தை	-9.89629
▁பணியை	-9.89629
▁பதவியிலிருந்து	-9.89629
▁பந்துவீச்சாளர்கள்	-9.89629
▁பந்த்	-9.89629
▁பயணிக்கும்	-9.89629
▁பயந்து	-9.89629
▁பரப்புரை	-9.89629
▁பரவிய	-9.89629
▁பர்ஸ்ட்	-9.89629
▁பறக்கலாம்	-9.89629
▁பலன்	-9.89629
▁பல்கலைக்கழக	-9.89629
▁பல்கலைக்கழகம்	-9.89629
▁பல்கலையில்	-9.89629
▁பள்ளிச்	-9.89629
▁பாகம்	-9.89629
▁பாடகர்	-9.89629
▁பாடப்	-9.89629
▁பாடலை	-9.89629
▁பாடல்களை	-9.89629
▁பாட்டில்	-9.89629
▁பாயும்	-9.89629
▁பாய்ந்தது	-9.89629
▁பாரிஸ்	-9.89629
▁பார்த்திபன்	-9.89629
▁பாலத்தை	-9.89629
▁பிசிசிஐக்கு	-9.89629
▁பிடிக்க	-9.89629
▁பிடித்து	-9.89629
▁பிரதமரிடம்	-9.89629
▁பிரதேசத்தில்	-9.89629
▁பிரபுதேவா	-9.89629
▁பிரான்ஸில்	-9.89629
▁பிரிக்க	-9.89629
▁பிரிவுக்கு	-9.89629
▁பிறகும்	-9.89629
▁பிளஸ்	-9.89629
▁புகழ்	-9.89629
▁புகாருக்குள்ளான	-9.89629
▁புத்தகத்தில்	-9.89629
▁புத்தகத்தை	-9.89629
▁புத்தாண்டையொட்டி	-9.89629
▁புயலில்	-9.89629
▁புழல்	-9.89629
▁புஷ்பா	-9.89629
▁பெங்களூருவில்	-9.89629
▁பெத்துராஜ்	-9.89629
▁பெயர்கள்	-9.89629
▁பெருமை	-9.89629
▁பெரும்	-9.89629
▁பேய்	-9.89629
▁பேரணியில்	-9.89629
▁பேராசிரியை	-9.89629
▁பேரிடராக	-9.89629
▁பைரவா	-9.89629
▁பைலட்	-9.89629
▁பொது	-9.89629
▁பொதுச்செயலாளர்	-9.89629
▁பொதுப்பணித்துறை	-9.89629
▁பொன்னையன்	-9.89629
▁பொருட்களை	-9.89629
▁பொருளாளர்	-9.89629
▁பொருள்	-9.89629
▁போக்கு	-9.89629
▁போக்சோவில்	-9.89629
▁போட்டியா	-9.89629
▁போட்டியிடும்	-9.89629
▁போட்டியிலும்	-9.89629
▁போன்ற	-9.89629
▁போறீங்களா	-9.89629
▁ப்ரித்வி	-9.89629
▁மகாபாரதம்	-9.89629
▁மகேஷ்	-9.89629
▁மக்களவை	-9.89629
▁மணமகன்	-9.89629
▁மண்	-9.89629
▁மண்டியிட்டு	-9.89629
▁மதம்	-9.89629
▁மதுக்கடையை	-9.89629
▁மதுபோதையில்	-9.89629
▁மதுரைக்கு	-9.89629
▁மன	-9.89629
▁மனம்திறந்த	-9.89629
▁மனிதநேயம்	-9.89629
▁மனுத்தாக்கல்	-9.89629
▁மனோகர்	-9.89629
▁மன்றம்	-9.89629
▁மருந்து	-9.89629
▁மருமகன்	-9.89629
▁மறைந்தார்	-9.89629
▁மறைவுக்கு	-9.89629
▁மற்றொரு	-9.89629
▁மலாலா	-9.89629
▁மாடல்	-9.89629
▁மாட்டார்கள்	-9.89629
▁மாணவிகளை	-9.89629
▁மாதங்களில்	-9.89629
▁மாநிலங்களவை	-9.89629
▁மாபெரும்	-9.89629
▁மாரடைப்பால்	-9.89629
▁மிகவும்	-9.89629
▁மிதமான	-9.89629
▁மிரண்டு	-9.89629
▁மீட்டது	-9.89629
▁மீத்தேன்	-9.89629
▁மீனவர்களின்	-9.89629
▁மீறினால்	-9.89629
▁முட்டை	-9.89629
▁முத்தரசன்	-9.89629
▁முந்திய	-9.89629
▁முன்ஜாமீன்	-9.89629
▁முன்னரே	-9.89629
▁முன்னிலையில்	-9.89629
▁மும்பைக்கு	-9.89629
▁முறியடித்தார்	-9.89629
▁மூடப்படும்	-9.89629
▁மூதாட்டியை	-9.89629
▁மெட்ரோவில்	-9.89629
▁மெல்போர்னில்	-9.89629
▁மேப்	-9.89629
▁மேற்கு	-9.89629
▁மைத்ரேயன்	-9.89629
▁மையத்தில்	-9.89629
▁மொத்தம்	-9.89629
▁மோகன	-9.89629
▁மோகன்லாலை	-9.89629
▁மோடியுடன்	-9.89629
▁மோதியது	-9.89629
▁யாருக்கும்	-9.89629
▁யுடியூப்	-9.89629
▁ரபேல்	-9.89629
▁ரஷித்	-9.89629
▁ராஜபக்சே	-9.89629
▁ராஜிவ்	-9.89629
▁ராஜீவ்	-9.89629
▁ராஜு	-9.89629
▁ராஜ்குமார்	-9.89629
▁ராதாரவி	-9.89629
▁ராயுடு	-9.89629
▁ரிசல்ட்	-9.89629
▁ரிலையன்ஸ்	-9.89629
▁ரூ13	-9.89629
▁ரூபானி	-9.89629
▁ரூபாய்க்கு	-9.89629
▁ரெட்டிக்கு	-9.89629
▁ரெஹானா	-9.89629
▁லஞ்ச	-9.89629
▁லட்சத்தை	-9.89629
▁லட்சுமி	-9.89629
▁லீனா	-9.89629
▁வசூலித்த	-9.89629
▁வடிய	-9.89629
▁வந்தன	-9.89629
▁வயசு	-9.89629
▁வயதான	-9.89629
▁வரலக்ஷ்மி	-9.89629
▁வரவேண்டாம்	-9.89629
▁வருடம்	-9.89629
▁வருமா	-9.89629
▁வலுவான	-9.89629
▁வாகனங்களுக்கு	-9.89629
▁வாங்கி	-9.89629
▁வாசிகள்	-9.89629
▁வாரத்தில்	-9.89629
▁வாரிய	-9.89629
▁வார்ஸ்	-9.89629
▁வாழ்க	-9.89629
▁வாழ்க்கையின்	-9.89629
▁வாழ்த்திய	-9.89629
▁வாஷிங்டன்	-9.89629
▁விக்கெட்டை	-9.89629
▁விசுவாசம்	-9.89629
▁விஜயலட்சுமி	-9.89629
▁விடமாட்டோம்	-9.89629
▁விடுதலைக்கு	-9.89629
▁விடைபெற்றார்	-9.89629
▁விட்டது	-9.89629
▁விண்ணில்	-9.89629
▁விண்வெளிக்கு	-9.89629
▁விமானத்தின்	-9.89629
▁விமானப்	-9.89629
▁விமானப்படை	-9.89629
▁வியாபாரி	-9.89629
▁விரட்டி	-9.89629
▁விளம்பரம்	-9.89629
▁விளாசினார்	-9.89629
▁விழுந்தார்	-9.89629
▁விவரங்கள்	-9.89629
▁வீசி	-9.89629
▁வீராங்கனைகள்	-9.89629
▁வீராங்கனைக்கு	-9.89629
▁வெடிக்க	-9.89629
▁வெட்டிக்கொலை	-9.89629
▁வென்றேன்	-9.89629
▁வெள்ளி	-9.89629
▁வேடமிட்டு	-9.89629
▁வேண்டிய	-9.89629
▁வேலைகள்	-9.89629
▁வேல்	-9.89629
▁வைத்திலிங்கம்	-9.89629
▁வைரஸ்	-9.89629
▁ஷர்மா	-9.89629
▁ஷர்மிளா	-9.89629
▁ஷாருக்கான்	-9.89629
▁ஸ்டாலினுக்கு	-9.89629
▁ஸ்டைல்	-9.89629
▁ஸ்ரேயாஸ்	-9.89629
▁ஹசாரே	-9.89629
▁ஹர்திக்	-9.89629
▁ஹாங்காங்	-9.89629
▁ஹேக்	-9.89629
▁102	-10.0786
▁2017	-10.0786
▁28	-10.0786
▁2வில்	-10.0786
▁3000	-10.0786
▁33	-10.0786
▁350	-10.0786
▁3ஆம்	-10.0786
▁40000	-10.0786
▁600	-10.0786
▁61	-10.0786
▁62	-10.0786
▁63வது	-10.0786
▁74	-10.0786
▁7ல்	-10.0786
▁82	-10.0786
▁9வது	-10.0786
▁அக்கறை	-10.0786
▁அசத்தினார்	-10.0786
▁அசாருதீன்	-10.0786
▁அசைக்க	-10.0786
▁அசோக்	-10.0786
▁அடிப்படை	-10.0786
▁அடிப்படையில்	-10.0786
▁அடைத்து	-10.0786
▁அணியினர்	-10.0786
▁அண்ணாதுரை	-10.0786
▁அதிகரித்த	-10.0786
▁அதிகாரிகளுக்கு	-10.0786
▁அதிகாரியின்	-10.0786
▁அதிமுகவினர்	-10.0786
▁அதிரடியாய்	-10.0786
▁அதிர்ச்சியளிக்கிறது	-10.0786
▁அதிர்வு	-10.0786
▁அத்துமீறிய	-10.0786
▁அந்தமானில்	-10.0786
▁அனிதாவின்	-10.0786
▁அனைத்துக்	-10.0786
▁அன்பழகன்	-10.0786
▁அப்துல்கலாம்	-10.0786
▁அப்போ	-10.0786
▁அமர்வுக்கு	-10.0786
▁அமைகிறது	-10.0786
▁அமைச்சரிடம்	-10.0786
▁அமைச்சருக்கு	-10.0786
▁அம்பத்தி	-10.0786
▁அம்பேத்கர்	-10.0786
▁அரச	-10.0786
▁அரசிடம்	-10.0786
▁அரிவாள்	-10.0786
▁அரைசதம்	-10.0786
▁அரோரா	-10.0786
▁அர்ச்சகர்கள்	-10.0786
▁அலங்காநல்லூரில்	-10.0786
▁அலங்கார	-10.0786
▁அலறிய	-10.0786
▁அலைமோதும்	-10.0786
▁அல்லாத	-10.0786
▁அளிக்கும்	-10.0786
▁அள்ளிய	-10.0786
▁அழகிரி	-10.0786
▁அழிப்பு	-10.0786
▁அழைத்த	-10.0786
▁அவமதிப்பு	-10.0786
▁அவமானத்தால்	-10.0786
▁அவல	-10.0786
▁அவைகளும்	-10.0786
▁அஸ்வினுக்கு	-10.0786
▁ஆகிறது	-10.0786
▁ஆக்ஷன்	-10.0786
▁ஆசியக்	-10.0786
▁ஆசிரியர்களுக்கு	-10.0786
▁ஆச்சு	-10.0786
▁ஆடியோ	-10.0786
▁ஆட்களை	-10.0786
▁ஆட்சியமைக்க	-10.0786
▁ஆட்டோவை	-10.0786
▁ஆணையத்தை	-10.0786
▁ஆதரவற்ற	-10.0786
▁ஆதாரம்	-10.0786
▁ஆதி	-10.0786
▁ஆத்திரத்தில்	-10.0786
▁ஆப்கானிஸ்தானில்	-10.0786
▁ஆம்னி	-10.0786
▁ஆயுதங்கள்	-10.0786
▁ஆர்வமுடன்	-10.0786
▁ஆலைக்கு	-10.0786
▁ஆவின்	-10.0786
▁ஆஸிகேப்டன்	-10.0786
▁ஆஸிக்கு	-10.0786
▁ஆஸிடெஸ்ட்	-10.0786
▁ஆஸ்கரில்	-10.0786
▁ஆஸ்கர்	-10.0786
▁இசையில்	-10.0786
▁இணைந்தார்	-10.0786
▁இணையதளத்தில்	-10.0786
▁இணையதளத்தை	-10.0786
▁இணையதளம்	-10.0786
▁இனவெறி	-10.0786
▁இன்றி	-10.0786
▁இயக்க	-10.0786
▁இயக்குனரை	-10.0786
▁இயந்திரங்கள்	-10.0786
▁இருக்கக்	-10.0786
▁இருக்கா	-10.0786
▁இருக்கிறோம்	-10.0786
▁இருக்கை	-10.0786
▁இருந்தா	-10.0786
▁இரும்பு	-10.0786
▁இறக்குமதி	-10.0786
▁இறந்தது	-10.0786
▁இறப்பு	-10.0786
▁இலகணேசன்	-10.0786
▁இளைஞர்களுக்கு	-10.0786
▁உசேன்	-10.0786
▁உடனே	-10.0786
▁உடல்கள்	-10.0786
▁உடை	-10.0786
▁உணவுக்கு	-10.0786
▁உணவை	-10.0786
▁உதை	-10.0786
▁உயிரிழந்தவர்களின்	-10.0786
▁உரிமையை	-10.0786
▁உருவ	-10.0786
▁உருவான	-10.0786
▁உரையாடல்	-10.0786
▁உர்ஜித்	-10.0786
▁உலகம்	-10.0786
▁உலவும்	-10.0786
▁உலுக்கிய	-10.0786
▁உள்ளதா	-10.0786
▁உள்ளிட்டோர்	-10.0786
▁ஊழியர்களை	-10.0786
▁எடுக்கப்பட்ட	-10.0786
▁எட்டிய	-10.0786
▁எதிரி	-10.0786
▁எதிர்க்கட்சி	-10.0786
▁எதிர்க்கட்சிகளின்	-10.0786
▁எதிர்பார்ப்பு	-10.0786
▁எதிர்ப்பது	-10.0786
▁எந்தத்	-10.0786
▁என்னதான்	-10.0786
▁என்னாது	-10.0786
▁என்பதுதான்	-10.0786
▁எம்எல்ஏக்களின்	-10.0786
▁எம்எல்சி	-10.0786
▁எம்ஜிஆரின்	-10.0786
▁எம்பிபிஎஸ்	-10.0786
▁எரித்த	-10.0786
▁எரிபொருள்	-10.0786
▁எலும்பு	-10.0786
▁எழுதிவிட்டு	-10.0786
▁ஏசி	-10.0786
▁ஏராளமான	-10.0786
▁ஏற்படுத்த	-10.0786
▁ஏற்ற	-10.0786
▁ஏற்றி	-10.0786
▁ஏழை	-10.0786
▁ஐக்கிய	-10.0786
▁ஐநாவின்	-10.0786
▁ஐபிஎல்லில்	-10.0786
▁ஒடுக்க	-10.0786
▁ஒருதலைக்	-10.0786
▁ஒளிந்திருக்கும்	-10.0786
▁ஓகே	-10.0786
▁ஓட்டுனர்	-10.0786
▁ஓராண்டு	-10.0786
▁கங்கை	-10.0786
▁கசிந்த	-10.0786
▁கடக்கும்	-10.0786
▁கடத்திய	-10.0786
▁கடலுக்குள்	-10.0786
▁கடலூர்	-10.0786
▁கடைசிப்	-10.0786
▁கடையில்	-10.0786
▁கட்சிகளின்	-10.0786
▁கட்டட	-10.0786
▁கட்டாயமாகிறது	-10.0786
▁கட்டுப்பாட்டில்	-10.0786
▁கட்டுவது	-10.0786
▁கண்ணகி	-10.0786
▁கதையை	-10.0786
▁கன்னியாஸ்திரிகள்	-10.0786
▁கமலை	-10.0786
▁கமல்ஹாசனுக்கு	-10.0786
▁கமிஷனர்	-10.0786
▁கரு	-10.0786
▁கருண்	-10.0786
▁கருப்புப்	-10.0786
▁கரையோர	-10.0786
▁கற்றுக்	-10.0786
▁கலந்து	-10.0786
▁கலவர	-10.0786
▁கலாய்க்கும்	-10.0786
▁கலைத்த	-10.0786
▁கழிவறையில்	-10.0786
▁கழிவுகளை	-10.0786
▁கவனத்தை	-10.0786
▁கவலையில்	-10.0786
▁கவிஞர்	-10.0786
▁கவிழ்ந்தது	-10.0786
▁காக்கும்	-10.0786
▁காசு	-10.0786
▁காஞ்சி	-10.0786
▁காட்சியளிக்கும்	-10.0786
▁காட்டுகிறது	-10.0786
▁காட்டெருமை	-10.0786
▁காணிக்கை	-10.0786
▁காதலரின்	-10.0786
▁காதலர்களை	-10.0786
▁காதலை	-10.0786
▁காப்பகத்தில்	-10.0786
▁காமன்வெல்த்	-10.0786
▁காமெடியை	-10.0786
▁காயத்தால்	-10.0786
▁காரசார	-10.0786
▁கார்கில்	-10.0786
▁காற்றின்	-10.0786
▁காலாவை	-10.0786
▁காவல்நிலைய	-10.0786
▁கிடைக்குமா	-10.0786
▁கிராமங்களுக்கு	-10.0786
▁கிரிஜா	-10.0786
▁கிருஷ்ணசாமி	-10.0786
▁கிருஷ்ணன்	-10.0786
▁கிருஷ்ணா	-10.0786
▁கிளப்	-10.0786
▁கிளார்க்	-10.0786
▁கிளி	-10.0786
▁கீதத்தை	-10.0786
▁கீதம்	-10.0786
▁கீழ்ப்பாக்கம்	-10.0786
▁குகை	-10.0786
▁குடும்பத்துடன்	-10.0786
▁குட்டிகள்	-10.0786
▁குதித்தார்	-10.0786
▁குப்பைத்	-10.0786
▁குருமூர்த்தி	-10.0786
▁குரூப்	-10.0786
▁குரேஷி	-10.0786
▁குறைந்த	-10.0786
▁குறைவாக	-10.0786
▁குற்றச்சாட்டுக்கு	-10.0786
▁குல்பூஷண்	-10.0786
▁குளியல்	-10.0786
▁குழந்தைக்	-10.0786
▁குழந்தையின்	-10.0786
▁கூட்டு	-10.0786
▁கூறுவது	-10.0786
▁கூவத்தூரில்	-10.0786
▁கெட்	-10.0786
▁கேஎல்ராகுலுக்கு	-10.0786
▁கேட்ச்	-10.0786
▁கேட்டது	-10.0786
▁கேட்பது	-10.0786
▁கேப்டனா	-10.0786
▁கேரளாவிற்கு	-10.0786
▁கைகோர்க்கும்	-10.0786
▁கைதிகள்	-10.0786
▁கைப்பற்றிய	-10.0786
▁கொசு	-10.0786
▁கொச்சி	-10.0786
▁கொடியை	-10.0786
▁கொடுக்காததால்	-10.0786
▁கொடுத்தவர்	-10.0786
▁கொடுப்பது	-10.0786
▁கொடூரமாக	-10.0786
▁கொதிக்கும்	-10.0786
▁கொலைக்கு	-10.0786
▁கொள்ள	-10.0786
▁கோக்	-10.0786
▁கோடிகளில்	-10.0786
▁கோலியா	-10.0786
▁சகோதரர்களுக்கு	-10.0786
▁சங்கத்துக்கு	-10.0786
▁சங்கமித்ரா	-10.0786
▁சங்கிலி	-10.0786
▁சசி	-10.0786
▁சட்டப்பேரவைக்	-10.0786
▁சட்டப்பேரவையில்	-10.0786
▁சதத்தால்	-10.0786
▁சந்திக்கும்	-10.0786
▁சந்திராவுக்கு	-10.0786
▁சந்தீப்	-10.0786
▁சப்இன்ஸ்பெக்டர்	-10.0786
▁சம்பாதிக்கும்	-10.0786
▁சரணடைய	-10.0786
▁சர்ச்சைக்குரிய	-10.0786
▁சர்ச்சையை	-10.0786
▁சர்வாதிகார	-10.0786
▁சவாலாக	-10.0786
▁சஸ்பென்ஸ்	-10.0786
▁சாக்லேட்	-10.0786
▁சாதகமான	-10.0786
▁சாதனைக்கு	-10.0786
▁சாதனையாளர்	-10.0786
▁சாம்பியன்ஸ்	-10.0786
▁சிகிச்சைக்கு	-10.0786
▁சிங்கப்பூரில்	-10.0786
▁சிசிடிவியில்	-10.0786
▁சினிமாவாகிறது	-10.0786
▁சினிமாவில்	-10.0786
▁சின்ஹா	-10.0786
▁சிறுவனுக்கு	-10.0786
▁சிறுவனை	-10.0786
▁சிறைபிடித்த	-10.0786
▁சிறைபிடிப்பு	-10.0786
▁சிலி	-10.0786
▁சிலிர்க்கிறார்	-10.0786
▁சிவகார்த்திகேயனின்	-10.0786
▁சிவிசண்முகம்	-10.0786
▁சீக்ரெட்	-10.0786
▁சீதக்காதி	-10.0786
▁சுகாதாரத்துறை	-10.0786
▁சுகாதாரப்	-10.0786
▁சுனாமிக்கு	-10.0786
▁சுற்று	-10.0786
▁சுற்றுச்சூழல்	-10.0786
▁சுவராஜ்	-10.0786
▁சூட்டிற்கு	-10.0786
▁சூர்யாவின்	-10.0786
▁செஞ்சுரி	-10.0786
▁சென்	-10.0786
▁செப்டம்பர்	-10.0786
▁செயலகத்தில்	-10.0786
▁செயலாளர்கள்	-10.0786
▁செய்கிறது	-10.0786
▁செய்தும்	-10.0786
▁செய்துவிட்டு	-10.0786
▁செல்	-10.0786
▁செல்போன்கள்	-10.0786
▁சேதப்படுத்திய	-10.0786
▁சேர	-10.0786
▁சேர்த்து	-10.0786
▁சேவைக்கு	-10.0786
▁சொத்துகள்	-10.0786
▁சொல்லி	-10.0786
▁சொல்லு	-10.0786
▁சொல்வார்கள்	-10.0786
▁சோனாக்ஷி	-10.0786
▁சோபியா	-10.0786
▁ஜனநாயகம்	-10.0786
▁ஜவடேகர்	-10.0786
▁ஜில்	-10.0786
▁ஜூனியர்	-10.0786
▁ஜெயிக்கும்	-10.0786
▁ஜேபிநட்டா	-10.0786
▁ஜோதிடர்	-10.0786
▁டாப்ஸி	-10.0786
▁டிஆர்எஸ்	-10.0786
▁டிஎஸ்பி	-10.0786
▁டிடி	-10.0786
▁டிரம்பை	-10.0786
▁டிராவிட்	-10.0786
▁டிராவிட்டின்	-10.0786
▁டிராவில்	-10.0786
▁டிவிஎஸ்	-10.0786
▁டெண்டர்	-10.0786
▁டெல்லிக்கு	-10.0786
▁ட்ரெண்டிங்	-10.0786
▁த	-10.0786
▁தகவலை	-10.0786
▁தகுதிச்	-10.0786
▁தங்கத்தை	-10.0786
▁தங்கும்	-10.0786
▁தடயவியல்	-10.0786
▁தடுமாறும்	-10.0786
▁தடைகளை	-10.0786
▁தத்	-10.0786
▁தத்தளிக்கும்	-10.0786
▁தந்திரி	-10.0786
▁தனது	-10.0786
▁தனித்	-10.0786
▁தனுஷுடன்	-10.0786
▁தன்பாலின	-10.0786
▁தபால்	-10.0786
▁தப்பு	-10.0786
▁தமிழகமும்	-10.0786
▁தமிழர்களுக்கு	-10.0786
▁தமிழர்களை	-10.0786
▁தமிழா	-10.0786
▁தமிழ்த்தாய்	-10.0786
▁தம்பி	-10.0786
▁தயாநிதி	-10.0786
▁தரமற்ற	-10.0786
▁தரவரிசை	-10.0786
▁தரவில்லை	-10.0786
▁தருண்	-10.0786
▁தருமபுரியில்	-10.0786
▁தரையில்	-10.0786
▁தர்மபுரி	-10.0786
▁தர்மபுரியில்	-10.0786
▁தற்கொலையில்	-10.0786
▁தற்போது	-10.0786
▁தலைமுடி	-10.0786
▁தலைவருக்கு	-10.0786
▁தளபதி62	-10.0786
▁தவறாகப்	-10.0786
▁தவறில்லை	-10.0786
▁தாய்லாந்தில்	-10.0786
▁திட்ட	-10.0786
▁திரட்டிய	-10.0786
▁திருச்சியில்	-10.0786
▁திருச்செந்தூரில்	-10.0786
▁திருநங்கைகளுக்கு	-10.0786
▁திருப்பூர்	-10.0786
▁திருமலையில்	-10.0786
▁திரையரங்கில்	-10.0786
▁திரையரங்குகளில்	-10.0786
▁திறனாளி	-10.0786
▁திறப்பை	-10.0786
▁தீக்குளித்த	-10.0786
▁தீப்பற்றி	-10.0786
▁தீப்பிடித்த	-10.0786
▁தீர்மானிக்கும்	-10.0786
▁தீவிரப்படுத்தும்	-10.0786
▁தீவிரமடையும்	-10.0786
▁துணைத்	-10.0786
▁துணைத்தலைவர்	-10.0786
▁துண்டிக்கப்படும்	-10.0786
▁துப்பாக்கிச்சூட்டில்	-10.0786
▁துரோகம்	-10.0786
▁துல்கர்	-10.0786
▁தெர்மாகோல்	-10.0786
▁தெலுங்கானா	-10.0786
▁தெலுங்கில்	-10.0786
▁தேனியில்	-10.0786
▁தேமுதிக	-10.0786
▁தேவரகொண்டா	-10.0786
▁தொகை	-10.0786
▁தொங்கிய	-10.0786
▁தொட்ட	-10.0786
▁தொண்டர்களை	-10.0786
▁தொலைபேசியில்	-10.0786
▁தொல்லைக்கு	-10.0786
▁தொழிலாளர்களின்	-10.0786
▁தொழிலாளி	-10.0786
▁தோண்டி	-10.0786
▁தோனிதான்	-10.0786
▁தோனியிடம்	-10.0786
▁தோல்வியை	-10.0786
▁நகைச்சுவை	-10.0786
▁நடத்தியது	-10.0786
▁நடத்துவோம்	-10.0786
▁நடவடிக்கைக்கு	-10.0786
▁நடிகையை	-10.0786
▁நடித்த	-10.0786
▁நடுவர்	-10.0786
▁நடைபெறும்	-10.0786
▁நட்சத்திரங்களுடன்	-10.0786
▁நட்பு	-10.0786
▁நதியில்	-10.0786
▁நபர்கள்	-10.0786
▁நம்பிக்கையை	-10.0786
▁நர்ஸ்	-10.0786
▁நலனில்	-10.0786
▁நல்லது	-10.0786
▁நளினி	-10.0786
▁நவராத்திரி	-10.0786
▁நாங்க	-10.0786
▁நாடுகளுக்கு	-10.0786
▁நாடோடிகள்	-10.0786
▁நான்தான்	-10.0786
▁நாலு	-10.0786
▁நாளைக்குள்	-10.0786
▁நிதியமைச்சகம்	-10.0786
▁நின்ற	-10.0786
▁நிபுணர்	-10.0786
▁நியமனத்தில்	-10.0786
▁நியாயமா	-10.0786
▁நிரந்தரமாக	-10.0786
▁நிரம்பியது	-10.0786
▁நிராகரித்த	-10.0786
▁நிரூபித்த	-10.0786
▁நிர்மலாதேவி	-10.0786
▁நிறுத்த	-10.0786
▁நிறுத்தினார்	-10.0786
▁நிறுவனர்	-10.0786
▁நிற்கிறேன்	-10.0786
▁நிலத்தில்	-10.0786
▁நிலையங்களில்	-10.0786
▁நீதிபதிக்கு	-10.0786
▁நீதிபதியாக	-10.0786
▁நீதிமன்றத்தை	-10.0786
▁நீர்திறப்பு	-10.0786
▁நீலகிரி	-10.0786
▁நீளமான	-10.0786
▁நூலிழையில்	-10.0786
▁நெகிழ்ந்த	-10.0786
▁நெடுஞ்சாலையில்	-10.0786
▁நேபாளம்	-10.0786
▁நேர்மை	-10.0786
▁நோ	-10.0786
▁பகிரங்க	-10.0786
▁பக்தர்களுக்கு	-10.0786
▁பங்கு	-10.0786
▁பங்கேற்க	-10.0786
▁பங்கேற்கிறார்	-10.0786
▁பசிதம்பரத்தை	-10.0786
▁பச்சன்	-10.0786
▁படங்களை	-10.0786
▁படுகோனேவின்	-10.0786
▁பட்டப்பகலில்	-10.0786
▁பணமதிப்பிழப்பை	-10.0786
▁பணயம்	-10.0786
▁பணிகளில்	-10.0786
▁பணிகளுக்கு	-10.0786
▁பணிப்பெண்	-10.0786
▁பணியிட	-10.0786
▁பதக்கத்தை	-10.0786
▁பதவியேற்றார்	-10.0786
▁பதித்த	-10.0786
▁பனி	-10.0786
▁பனிப்பொழிவு	-10.0786
▁பன்றிக்	-10.0786
▁பயங்கரவாதத்தை	-10.0786
▁பயணி	-10.0786
▁பயன்படுத்தக்	-10.0786
▁பயம்	-10.0786
▁பரபர	-10.0786
▁பராமரிக்க	-10.0786
▁பர்த்	-10.0786
▁பறக்கவிட்ட	-10.0786
▁பறிபோகும்	-10.0786
▁பறிபோனது	-10.0786
▁பலசாலி	-10.0786
▁பள்ளத்தில்	-10.0786
▁பழங்குடி	-10.0786
▁பழி	-10.0786
▁பழிவாங்கும்	-10.0786
▁பவுலிங்	-10.0786
▁பாஇரஞ்சித்	-10.0786
▁பாகிஸ்தானை	-10.0786
▁பாடலாசிரியர்	-10.0786
▁பாட்ஷா	-10.0786
▁பாண்டிங்	-10.0786
▁பாதிரியார்களுக்கு	-10.0786
▁பாதுகாக்கப்பட	-10.0786
▁பாதுகாப்பானது	-10.0786
▁பாதுகாப்பில்	-10.0786
▁பாய்ந்த	-10.0786
▁பாராட்டுகள்	-10.0786
▁பார்க்கவில்லை	-10.0786
▁பார்க்கிங்	-10.0786
▁பார்க்கிறேன்	-10.0786
▁பால்கனி	-10.0786
▁பாஸ்கர்	-10.0786
▁பி	-10.0786
▁பின்பும்	-10.0786
▁பிரபாஸின்	-10.0786
▁பிறந்தநாளை	-10.0786
▁பீட்டர்	-10.0786
▁புகழ்கிறார்	-10.0786
▁புகார்களை	-10.0786
▁புகுந்து	-10.0786
▁புதின்	-10.0786
▁புதுசா	-10.0786
▁புதைத்த	-10.0786
▁புறக்கணித்த	-10.0786
▁புலனாய்வு	-10.0786
▁பூட்டுப்	-10.0786
▁பெய்ட்டி	-10.0786
▁பெருமாள்	-10.0786
▁பெறப்பட்ட	-10.0786
▁பெற்றோர்கள்	-10.0786
▁பெல்ஜியம்	-10.0786
▁பேசக்கூடாது	-10.0786
▁பேசியது	-10.0786
▁பேச்சுவார்த்தையில்	-10.0786
▁பேச்சை	-10.0786
▁பேரிடர்	-10.0786
▁பேரு	-10.0786
▁பேருடன்	-10.0786
▁பேருந்தை	-10.0786
▁பைக்குகள்	-10.0786
▁பொதுக்குழு	-10.0786
▁பொறுப்பேற்றார்	-10.0786
▁பொல்லார்ட்	-10.0786
▁போகிறோம்	-10.0786
▁போச்சு	-10.0786
▁போட்டியிடுவேன்	-10.0786
▁போட்டுடைத்த	-10.0786
▁போனது	-10.0786
▁போனஸ்	-10.0786
▁போய்	-10.0786
▁போராடித்	-10.0786
▁ப்ளஸ்	-10.0786
▁மகனின்	-10.0786
▁மகளையே	-10.0786
▁மகிழ்ச்சியில்	-10.0786
▁மகேஷ்பாபுவின்	-10.0786
▁மக்களிடம்	-10.0786
▁மடக்கிப்பிடித்த	-10.0786
▁மட்டுமல்ல	-10.0786
▁மணமகள்	-10.0786
▁மணிநேரத்தில்	-10.0786
▁மண்ணில்	-10.0786
▁மதிமுக	-10.0786
▁மதுக்கடைக்கு	-10.0786
▁மனிதாபிமானமற்ற	-10.0786
▁மனோஜ்	-10.0786
▁மன்சூர்	-10.0786
▁மயங்க்	-10.0786
▁மரத்தில்	-10.0786
▁மறுபடியும்	-10.0786
▁மலரும்	-10.0786
▁மலைப்பாதையில்	-10.0786
▁மலையாள	-10.0786
▁மழையிலும்	-10.0786
▁மாடுகளை	-10.0786
▁மாட்டுக்கு	-10.0786
▁மாணவிகளுக்கு	-10.0786
▁மாதமாக	-10.0786
▁மாநிலத்திற்கு	-10.0786
▁மான்	-10.0786
▁மாமல்லபுரத்தில்	-10.0786
▁மாருதி	-10.0786
▁மார்க்கெட்டில்	-10.0786
▁மாற	-10.0786
▁மாறியது	-10.0786
▁மாலிக்	-10.0786
▁மாளிகையில்	-10.0786
▁மாவோயிஸ்ட்	-10.0786
▁மாஸ்டர்	-10.0786
▁மாஸ்டர்ஸ்	-10.0786
▁மிகப்	-10.0786
▁மிதக்கும்	-10.0786
▁மினி	-10.0786
▁மிரட்ட	-10.0786
▁மிர்சா	-10.0786
▁மிஸ்ராவை	-10.0786
▁மீட்கப்பட்டது	-10.0786
▁மீதும்	-10.0786
▁முக	-10.0786
▁முகத்தில்	-10.0786
▁முடக்கியது	-10.0786
▁முடித்து	-10.0786
▁முதலமைச்சருடன்	-10.0786
▁முதல்முறையாக	-10.0786
▁முதல்வரிடம்	-10.0786
▁முன்னேறிய	-10.0786
▁முயற்சித்த	-10.0786
▁முயற்சியால்	-10.0786
▁முறிவு	-10.0786
▁முற்றுகையிட்ட	-10.0786
▁முலாயம்	-10.0786
▁முஸ்லிம்களுக்கு	-10.0786
▁முஸ்லிம்கள்	-10.0786
▁மூடப்படுகிறது	-10.0786
▁மூட்டைகள்	-10.0786
▁மூழ்கி	-10.0786
▁மூழ்கும்	-10.0786
▁மெல்போர்ன்	-10.0786
▁மேற்பட்டோர்	-10.0786
▁மைக்கேல்	-10.0786
▁மொட்டை	-10.0786
▁மோட்ரிச்	-10.0786
▁யானைகளை	-10.0786
▁ரசாயன	-10.0786
▁ரசிகரை	-10.0786
▁ரஞ்சன்	-10.0786
▁ரபாடா	-10.0786
▁ரமேஷ்	-10.0786
▁ரம்யாவுக்கு	-10.0786
▁ரவிசங்கரின்	-10.0786
▁ராக்கெட்	-10.0786
▁ராம	-10.0786
▁ராயல்டி	-10.0786
▁ராவத்	-10.0786
▁ரிலாக்ஸ்	-10.0786
▁ரூ10000	-10.0786
▁ரூ14	-10.0786
▁ரூ15	-10.0786
▁ரூ250	-10.0786
▁ரூ500	-10.0786
▁ரூ600	-10.0786
▁ரூபாயில்	-10.0786
▁ரெண்டு	-10.0786
▁ரோபோ	-10.0786
▁லட்சத்திற்கு	-10.0786
▁லட்சத்து	-10.0786
▁லதா	-10.0786
▁லாசரஸ்	-10.0786
▁லூகா	-10.0786
▁வகை	-10.0786
▁வங்கிகளில்	-10.0786
▁வங்கியின்	-10.0786
▁வசனம்	-10.0786
▁வடிவேலு	-10.0786
▁வட்டி	-10.0786
▁வண்டலூர்	-10.0786
▁வந்ததால்	-10.0786
▁வந்துட்டேன்னு	-10.0786
▁வனிதா	-10.0786
▁வயலில்	-10.0786
▁வயிற்றில்	-10.0786
▁வரவேற்ற	-10.0786
▁வருடங்கள்	-10.0786
▁வருண்	-10.0786
▁வருத்தத்தில்	-10.0786
▁வளர்ப்பு	-10.0786
▁வழக்காக	-10.0786
▁வழியில்	-10.0786
▁வா	-10.0786
▁வாகனங்கள்	-10.0786
▁வாக்கிங்	-10.0786
▁வாக்குறுதி	-10.0786
▁வாசுதேவ்	-10.0786
▁வாயில்	-10.0786
▁வாயு	-10.0786
▁வாழை	-10.0786
▁வாழ்க்கைக்	-10.0786
▁வாழ்த்துகள்	-10.0786
▁வாழ்நாள்	-10.0786
▁வாழ்ந்த	-10.0786
▁வாழ்வை	-10.0786
▁விக்ரமசிங்கே	-10.0786
▁விஜயகுமார்	-10.0786
▁விஜய்சேதுபதியின்	-10.0786
▁விட்டேன்	-10.0786
▁விண்ணப்பம்	-10.0786
▁விதிக்கப்பட்ட	-10.0786
▁விநியோகம்	-10.0786
▁வினோத	-10.0786
▁விமானக்	-10.0786
▁விம்பிள்டன்	-10.0786
▁விராத்துக்கு	-10.0786
▁விருதுகள்	-10.0786
▁விரும்பும்	-10.0786
▁விற்கப்பட்ட	-10.0786
▁விலையில்	-10.0786
▁விளக்கமளிக்கிறார்	-10.0786
▁விளக்குகிறார்	-10.0786
▁விளிம்பில்	-10.0786
▁விழாவை	-10.0786
▁விழுந்தது	-10.0786
▁விவகாரத்தை	-10.0786
▁விஷாலுக்கு	-10.0786
▁விஹெச்பி	-10.0786
▁வெங்கய்ய	-10.0786
▁வெங்கய்யா	-10.0786
▁வெடிப்பு	-10.0786
▁வெட்டிக்	-10.0786
▁வெதர்மேன்	-10.0786
▁வெயில்	-10.0786
▁வெற்றிக்	-10.0786
▁வெற்றியில்	-10.0786
▁வெல்ல	-10.0786
▁வெளிச்சத்திற்கு	-10.0786
▁வெளியிட	-10.0786
▁வெளியிட்டார்	-10.0786
▁வேட்டை	-10.0786
▁வேட்டையாடிய	-10.0786
▁வேட்புமனு	-10.0786
▁வேண்டியது	-10.0786
▁வேதாரண்யம்	-10.0786
▁வேலைக்கு	-10.0786
▁வேலைவாய்ப்பு	-10.0786
▁வைகோவுக்கு	-10.0786
▁வைக்கம்	-10.0786
▁வைத்தது	-10.0786
▁வையுங்கள்	-10.0786
▁வைர	-10.0786
▁ஷாரூக்கான்	-10.0786
▁ஷில்பா	-10.0786
▁ஷெரிப்	-10.0786
▁ஷேர்	-10.0786
▁ஷோ	-10.0786
▁ஸ்குவாஷ்	-10.0786
▁ஸ்டீபன்	-10.0786
▁ஸ்பைடர்	-10.0786
▁ஸ்ரீதரன்	-10.0786
▁ஸ்ரீதேவியின்	-10.0786
▁ஹனன்	-10.0786
▁ஹனுமனை	-10.0786
▁ஹன்சிகா	-10.0786
▁ஹாஜி	-10.0786
▁ஹாப்	-10.0786
▁ஹிட்லரின்	-10.0786
▁ஹூசைன்	-10.0786
▁ஹெச்ராஜாவுக்கு	-10.0786
▁ஹைட்ரோகார்பன்	-10.0786
▁10000	-10.3018
▁100வது	-10.3018
▁101	-10.3018
▁11ல்	-10.3018
▁125	-10.3018
▁128	-10.3018
▁12ல்	-10.3018
▁2016	-10.3018
▁281	-10.3018
▁3500	-10.3018
▁3ஆவது	-10.3018
▁44	-10.3018
▁47	-10.3018
▁546	-10.3018
▁55	-10.3018
▁57	-10.3018
▁700	-10.3018
▁71	-10.3018
▁72	-10.3018
▁94	-10.3018
▁ஃபிளைட்	-10.3018
▁ஃப்ளிப்கார்ட்	-10.3018
▁அகமதாபாத்	-10.3018
▁அகவிலைப்படி	-10.3018
▁அகஸ்டா	-10.3018
▁அகிலேஷ்மாயாவதி	-10.3018
▁அக்பர்	-10.3018
▁அங்கீகாரம்	-10.3018
▁அசல்	-10.3018
▁அசாம்	-10.3018
▁அஜீத்தின்	-10.3018
▁அடங்கிய	-10.3018
▁அடடா	-10.3018
▁அடிக்க	-10.3018
▁அடியை	-10.3018
▁அடிலெய்ட்	-10.3018
▁அடுத்தப்	-10.3018
▁அணிய	-10.3018
▁அணையிலிருந்து	-10.3018
▁அதிகாரியை	-10.3018
▁அதிர	-10.3018
▁அதிருப்தியில்	-10.3018
▁அந்தஸ்து	-10.3018
▁அனந்த்	-10.3018
▁அனுப்பப்படுகிறது	-10.3018
▁அனுப்பினார்	-10.3018
▁அனுமதியுங்கள்	-10.3018
▁அனைத்தும்	-10.3018
▁அபாரம்	-10.3018
▁அப்துல்	-10.3018
▁அப்படியே	-10.3018
▁அப்பாவுடன்	-10.3018
▁அப்போதே	-10.3018
▁அப்போலோவில்	-10.3018
▁அமமுக	-10.3018
▁அமர்க்களம்	-10.3018
▁அமர்ந்த	-10.3018
▁அமல்	-10.3018
▁அமளியால்	-10.3018
▁அமிதாப்	-10.3018
▁அமெரிக்கர்	-10.3018
▁அமெரிக்காவிலும்	-10.3018
▁அமைதியை	-10.3018
▁அம்மாவின்	-10.3018
▁அயர்லாந்து	-10.3018
▁அரசிதழில்	-10.3018
▁அரசியல்ல	-10.3018
▁அரசிற்கு	-10.3018
▁அரசுகளுக்கு	-10.3018
▁அரசுகள்	-10.3018
▁அரசுடன்	-10.3018
▁அரசே	-10.3018
▁அரவிந்த்சாமி	-10.3018
▁அரிவாளுடன்	-10.3018
▁அரையிறுதிக்கு	-10.3018
▁அறநிலையத்துறை	-10.3018
▁அறிக்கையை	-10.3018
▁அறிய	-10.3018
▁அறுத்த	-10.3018
▁அறுந்து	-10.3018
▁அறையில்	-10.3018
▁அலட்சியத்தால்	-10.3018
▁அலட்சியம்	-10.3018
▁அழகு	-10.3018
▁அவசியமில்லை	-10.3018
▁அவதிப்படும்	-10.3018
▁அவ்ளோதான்	-10.3018
▁ஆகஸ்ட்	-10.3018
▁ஆங்கில	-10.3018
▁ஆசிரியரை	-10.3018
▁ஆசையை	-10.3018
▁ஆச்சரியம்	-10.3018
▁ஆடியோவில்	-10.3018
▁ஆணவக்	-10.3018
▁ஆணவக்கொலை	-10.3018
▁ஆணை	-10.3018
▁ஆணையத்திடம்	-10.3018
▁ஆணையத்தின்	-10.3018
▁ஆணையரிடம்	-10.3018
▁ஆண்கள்	-10.3018
▁ஆண்டனி	-10.3018
▁ஆண்டிற்கு	-10.3018
▁ஆதரவாளர்	-10.3018
▁ஆதரவாளர்களிடையே	-10.3018
▁ஆத்தாடி	-10.3018
▁ஆனா	-10.3018
▁ஆன்	-10.3018
▁ஆபத்தாக	-10.3018
▁ஆப்கானை	-10.3018
▁ஆப்பிரிக்க	-10.3018
▁ஆமிர்கான்	-10.3018
▁ஆயிரக்கணக்கான	-10.3018
▁ஆயோக்	-10.3018
▁ஆய்வாளர்கள்	-10.3018
▁ஆருடம்	-10.3018
▁ஆர்பி	-10.3018
▁ஆர்யா	-10.3018
▁ஆர்வலர்கள்	-10.3018
▁ஆறாவது	-10.3018
▁ஆற்றுக்கு	-10.3018
▁ஆலையின்	-10.3018
▁ஆலோசகர்	-10.3018
▁ஆல்பம்	-10.3018
▁ஆளும்கட்சி	-10.3018
▁ஆஸியுடன்	-10.3018
▁இங்கிலாந்தின்	-10.3018
▁இசைக்கலைஞர்	-10.3018
▁இடமில்லை	-10.3018
▁இடமில்லையா	-10.3018
▁இடைத்தரகர்	-10.3018
▁இடைத்தேர்தலை	-10.3018
▁இடைநிலை	-10.3018
▁இடைநீக்கம்	-10.3018
▁இணைகிறதா	-10.3018
▁இண்டீஸை	-10.3018
▁இதனை	-10.3018
▁இதயம்	-10.3018
▁இதுவே	-10.3018
▁இந்தப்	-10.3018
▁இந்தியாஇங்கிலாந்து	-10.3018
▁இந்தியாவிலும்	-10.3018
▁இந்தியாவுடன்	-10.3018
▁இனிமேல்	-10.3018
▁இனியும்	-10.3018
▁இன்ஜினீயர்	-10.3018
▁இன்னிங்ஸில்	-10.3018
▁இன்ஸ்டாகிராமில்	-10.3018
▁இப்படித்தான்	-10.3018
▁இப்போதும்	-10.3018
▁இயக்கிய	-10.3018
▁இயக்குநராக	-10.3018
▁இயக்குநரின்	-10.3018
▁இயக்குநருடன்	-10.3018
▁இரண்டாம்	-10.3018
▁இருக்கலாம்	-10.3018
▁இருக்கிறேன்	-10.3018
▁இருக்கே	-10.3018
▁இருங்கள்	-10.3018
▁இருப்பதாக	-10.3018
▁இருப்பது	-10.3018
▁இருமுறை	-10.3018
▁இரும்புக்	-10.3018
▁இருவரிடம்	-10.3018
▁இரோம்	-10.3018
▁இறங்கினார்	-10.3018
▁இறப்புக்கு	-10.3018
▁இலங்கையை	-10.3018
▁இலையை	-10.3018
▁இல்லாம	-10.3018
▁இளம்பெண்ணை	-10.3018
▁இளைஞருக்கு	-10.3018
▁இழுத்துச்	-10.3018
▁இவர்	-10.3018
▁உச்சக்கட்ட	-10.3018
▁உடலில்	-10.3018
▁உடல்நிலையில்	-10.3018
▁உணர்வுகளோடு	-10.3018
▁உதவியை	-10.3018
▁உத்தப்பா	-10.3018
▁உத்தரகாண்ட்டில்	-10.3018
▁உத்தரவிட	-10.3018
▁உத்தரவிட்டது	-10.3018
▁உத்தராகண்டில்	-10.3018
▁உயர்ந்த	-10.3018
▁உயர்ந்தது	-10.3018
▁உயிரைக்	-10.3018
▁உயிரோடு	-10.3018
▁உருட்டுக்கட்டையால்	-10.3018
▁உருவம்	-10.3018
▁உருவாக்கிய	-10.3018
▁உரையாற்றுகிறார்	-10.3018
▁உறவினர்களிடம்	-10.3018
▁உறவில்	-10.3018
▁உறுப்பு	-10.3018
▁உறைந்த	-10.3018
▁உற்சாகத்தில்	-10.3018
▁உற்பத்தியாளர்கள்	-10.3018
▁உலகிலேயே	-10.3018
▁உளவு	-10.3018
▁உள்ளனர்	-10.3018
▁உஷார்	-10.3018
▁ஊக்கத்தொகை	-10.3018
▁ஊசி	-10.3018
▁ஊடகங்களில்	-10.3018
▁ஊரு	-10.3018
▁ஊர்	-10.3018
▁எஃப்ஐஆர்	-10.3018
▁எகிப்து	-10.3018
▁எங்கப்பா	-10.3018
▁எங்களுடன்	-10.3018
▁எங்கும்	-10.3018
▁எட்டு	-10.3018
▁எதிரெதிர்	-10.3018
▁எதிரே	-10.3018
▁எதிர்கொள்ள	-10.3018
▁எதிர்த்த	-10.3018
▁எனக்கூறி	-10.3018
▁என்ஐஏ	-10.3018
▁என்கிறார்	-10.3018
▁என்டிஆர்	-10.3018
▁என்பதே	-10.3018
▁எப்போதும்	-10.3018
▁எமிரேட்ஸ்	-10.3018
▁எம்எல்ஏவால்	-10.3018
▁எம்எல்ஏவுக்கு	-10.3018
▁எம்எல்ஏவை	-10.3018
▁எரப்பா	-10.3018
▁எருமை	-10.3018
▁எர்த்	-10.3018
▁எலி	-10.3018
▁எல்கேஜி	-10.3018
▁எழுதி	-10.3018
▁எழுந்து	-10.3018
▁எழும்	-10.3018
▁எழுவர்	-10.3018
▁எவரெஸ்டில்	-10.3018
▁எவ்வித	-10.3018
▁எஸ்விசேகருக்கு	-10.3018
▁எஸ்விசேகர்	-10.3018
▁ஏதும்	-10.3018
▁ஏந்திய	-10.3018
▁ஏர்போர்ட்	-10.3018
▁ஏறுமுகத்தில்	-10.3018
▁ஏலக்காய்	-10.3018
▁ஏழைகளின்	-10.3018
▁ஐஎன்எக்ஸ்	-10.3018
▁ஐநாவில்	-10.3018
▁ஐன்ஸ்டீன்	-10.3018
▁ஐயப்ப	-10.3018
▁ஐவர்	-10.3018
▁ஒதுக்கும்	-10.3018
▁ஒதுங்கும்	-10.3018
▁ஒத்த	-10.3018
▁ஒன்றாக	-10.3018
▁ஒப்பந்த	-10.3018
▁ஒப்பிடலாமா	-10.3018
▁ஒருவருக்கு	-10.3018
▁ஒலித்த	-10.3018
▁ஒழிப்பில்	-10.3018
▁ஒழிப்புத்துறை	-10.3018
▁ஓட்டு	-10.3018
▁ஓபிராவத்	-10.3018
▁ஓம்	-10.3018
▁ஓய்வை	-10.3018
▁ஓரினச்சேர்க்கைக்கு	-10.3018
▁கங்கையில்	-10.3018
▁கச்சா	-10.3018
▁கடத்தல்காரர்கள்	-10.3018
▁கடற்பகுதியில்	-10.3018
▁கடவுளை	-10.3018
▁கடுமையான	-10.3018
▁கடைகளில்	-10.3018
▁கட்சிக்கும்	-10.3018
▁கட்சியிலிருந்து	-10.3018
▁கட்டிடம்	-10.3018
▁கட்டுமானம்	-10.3018
▁கண்கள்	-10.3018
▁கண்காட்சிக்கு	-10.3018
▁கண்டன	-10.3018
▁கண்டுகொள்ளாத	-10.3018
▁கண்டுபிடிக்க	-10.3018
▁கண்ணாடிகள்	-10.3018
▁கண்முன்	-10.3018
▁கதறல்	-10.3018
▁கதறிய	-10.3018
▁கதையும்	-10.3018
▁கத்தியுடன்	-10.3018
▁கபில்	-10.3018
▁கம்பீர்	-10.3018
▁கம்பெனி	-10.3018
▁கரடி	-10.3018
▁கருத்துக்	-10.3018
▁கருத்துக்கு	-10.3018
▁கருபழனியப்பன்	-10.3018
▁கரும்பு	-10.3018
▁கரையைக்	-10.3018
▁கர்ப்பிணியை	-10.3018
▁கறுப்பு	-10.3018
▁கறுப்புப்	-10.3018
▁கற்கும்	-10.3018
▁கலகம்	-10.3018
▁கலக்கிய	-10.3018
▁கலைஞர்கள்	-10.3018
▁கல்ராணி	-10.3018
▁கல்லூரிகளில்	-10.3018
▁கல்லூரிக்கு	-10.3018
▁கல்வீச்சு	-10.3018
▁கழிவறையை	-10.3018
▁கவலையில்லை	-10.3018
▁கவிதை	-10.3018
▁கவின்	-10.3018
▁கஷ்டம்	-10.3018
▁காங்கிரஸில்	-10.3018
▁காசநோய்	-10.3018
▁காஞ்சிபுர	-10.3018
▁காஞ்சிபுரத்தில்	-10.3018
▁காட்சியில்	-10.3018
▁காட்டிக்கொடுத்த	-10.3018
▁காட்டுத்	-10.3018
▁காட்டுத்தீ	-10.3018
▁காணப்படும்	-10.3018
▁காதலனுக்காக	-10.3018
▁காதலனுடன்	-10.3018
▁கான்ஸ்டபிள்	-10.3018
▁காரின்	-10.3018
▁காலங்களில்	-10.3018
▁காலாவதியான	-10.3018
▁காலிஸ்தான்	-10.3018
▁கால்பந்தாட்ட	-10.3018
▁காவலர்களுக்கு	-10.3018
▁காவலில்	-10.3018
▁கிடங்கு	-10.3018
▁கிடுகிடு	-10.3018
▁கிடுக்குப்பிடி	-10.3018
▁கிராமங்கள்	-10.3018
▁கிருஷ்ணகிரி	-10.3018
▁கிரைம்	-10.3018
▁கிளப்பிய	-10.3018
▁கிளீன்	-10.3018
▁கிவீரமணி	-10.3018
▁கீர்த்தி	-10.3018
▁குடிமக்களுக்கு	-10.3018
▁குடியிருப்பில்	-10.3018
▁குடும்பத்துக்கு	-10.3018
▁குத்திய	-10.3018
▁குமாருக்கு	-10.3018
▁கும்பளே	-10.3018
▁கும்ப்ளே	-10.3018
▁குரங்கணி	-10.3018
▁குரங்கு	-10.3018
▁குரோஷியா	-10.3018
▁குறிக்கோள்	-10.3018
▁குறிஞ்சி	-10.3018
▁குறை	-10.3018
▁குறைக்கப்படுகிறது	-10.3018
▁குறைத்த	-10.3018
▁குறைய	-10.3018
▁குறைவான	-10.3018
▁குற்றங்கள்	-10.3018
▁குற்றச்சாட்டில்	-10.3018
▁குற்றச்சாட்டுகளை	-10.3018
▁குற்றமல்ல	-10.3018
▁குல்பூஷன்	-10.3018
▁குழந்தையுடன்	-10.3018
▁குழந்தையைக்	-10.3018
▁குவிகிறது	-10.3018
▁குவித்தது	-10.3018
▁கூடவா	-10.3018
▁கூடிய	-10.3018
▁கூறுங்கள்	-10.3018
▁கெட்டுப்போன	-10.3018
▁கேட்டறிந்தார்	-10.3018
▁கேபிள்	-10.3018
▁கேப்	-10.3018
▁கேலரி	-10.3018
▁கேலி	-10.3018
▁கைகலப்பில்	-10.3018
▁கொடுக்கலாம்	-10.3018
▁கொடுத்தால்	-10.3018
▁கொடுப்பதா	-10.3018
▁கொண்டுவந்த	-10.3018
▁கொன்றார்	-10.3018
▁கொய்ராலா	-10.3018
▁கொலையாளியின்	-10.3018
▁கொள்ளலாம்	-10.3018
▁கொள்ளுங்கள்	-10.3018
▁கொள்ளையடித்த	-10.3018
▁கொள்ளையன்	-10.3018
▁கோகாய்	-10.3018
▁கோடா	-10.3018
▁கோயிலுக்குள்	-10.3018
▁கோரியது	-10.3018
▁சக்கர	-10.3018
▁சக்கரத்தில்	-10.3018
▁சக்திகாந்த	-10.3018
▁சக்தியுடன்	-10.3018
▁சசிகலாவின்	-10.3018
▁சசிகலாவிற்கு	-10.3018
▁சடலங்கள்	-10.3018
▁சட்டப்பேரவைத்	-10.3018
▁சட்டப்பேரவையை	-10.3018
▁சட்டவிரோதமாக	-10.3018
▁சட்டவிரோதம்	-10.3018
▁சதத்தில்	-10.3018
▁சதவிகிதம்	-10.3018
▁சதவிதம்	-10.3018
▁சதுர்வேதி	-10.3018
▁சத்தமின்றி	-10.3018
▁சத்தமில்லாமல்	-10.3018
▁சந்தித்து	-10.3018
▁சந்தித்தேன்	-10.3018
▁சன்னிதானத்தில்	-10.3018
▁சமம்	-10.3018
▁சமயபுரம்	-10.3018
▁சமாளிக்குமா	-10.3018
▁சமைத்து	-10.3018
▁சம்பந்தம்	-10.3018
▁சம்பா	-10.3018
▁சரணடைந்த	-10.3018
▁சரத்	-10.3018
▁சரவணன்	-10.3018
▁சரி	-10.3018
▁சரிந்து	-10.3018
▁சரியல்ல	-10.3018
▁சர்க்கார்	-10.3018
▁சர்ச்சைக்குள்ளான	-10.3018
▁சர்ப்ரைஸ்	-10.3018
▁சர்மாவுக்கு	-10.3018
▁சர்வம்	-10.3018
▁சல்யூட்	-10.3018
▁சவாலை	-10.3018
▁சவுகான்	-10.3018
▁சவுந்தரராஜன்	-10.3018
▁சாதனைகள்	-10.3018
▁சாய்த்த	-10.3018
▁சாலைகளில்	-10.3018
▁சாலைகள்	-10.3018
▁சாலையை	-10.3018
▁சாஹா	-10.3018
▁சிஎன்என்	-10.3018
▁சிஎஸ்கேவில்	-10.3018
▁சிகாகோ	-10.3018
▁சிகிச்சைக்காக	-10.3018
▁சிகிச்சையால்	-10.3018
▁சிகிச்சையில்	-10.3018
▁சிக்கன்	-10.3018
▁சிக்கித்தவித்த	-10.3018
▁சிக்னல்	-10.3018
▁சிங்கங்கள்	-10.3018
▁சிங்கின்	-10.3018
▁சிங்கிள்	-10.3018
▁சித்திரை	-10.3018
▁சித்ரவதை	-10.3018
▁சின்னத்திரை	-10.3018
▁சிறப்பாக	-10.3018
▁சிறப்புப்	-10.3018
▁சிறுத்தை	-10.3018
▁சிலம்பம்	-10.3018
▁சிலிண்டர்	-10.3018
▁சில்லறை	-10.3018
▁சிவகாசி	-10.3018
▁சிவகார்த்திகேயனுக்கு	-10.3018
▁சிவப்பு	-10.3018
▁சிவராஜ்	-10.3018
▁சீக்கிய	-10.3018
▁சீட்டு	-10.3018
▁சீதாராம்	-10.3018
▁சீருடை	-10.3018
▁சுங்கச்சாவடி	-10.3018
▁சுங்கச்சாவடிகளில்	-10.3018
▁சுங்கச்சாவடியில்	-10.3018
▁சுசித்ரா	-10.3018
▁சுடுகாட்டில்	-10.3018
▁சுதந்திரமாக	-10.3018
▁சுதந்திரம்	-10.3018
▁சுமந்து	-10.3018
▁சுயசரிதை	-10.3018
▁சுரீர்	-10.3018
▁சுருளி	-10.3018
▁சுற்றில்	-10.3018
▁சூசக	-10.3018
▁சூரியன்	-10.3018
▁சூறையாடிய	-10.3018
▁சென்னையிலிருந்து	-10.3018
▁செயலாளருக்கு	-10.3018
▁செயல்படுகிறதா	-10.3018
▁செயல்படுகிறார்	-10.3018
▁செய்ததால்	-10.3018
▁செய்தியாளர்	-10.3018
▁செய்துள்ளது	-10.3018
▁செய்யும்போது	-10.3018
▁செய்வாரா	-10.3018
▁செருப்பால்	-10.3018
▁செலுத்திய	-10.3018
▁செலுத்தியவர்	-10.3018
▁செலுத்தும்	-10.3018
▁செல்பி	-10.3018
▁செல்போனுக்காக	-10.3018
▁செல்லப்பட்ட	-10.3018
▁செவிலியர்	-10.3018
▁சேத்ரி	-10.3018
▁சேர்த்த	-10.3018
▁சேர்ந்தார்	-10.3018
▁சேற்றில்	-10.3018
▁சேஹல்	-10.3018
▁சைக்கிளில்	-10.3018
▁சொத்துக்களை	-10.3018
▁சொத்துக்கள்	-10.3018
▁சொந்தமானது	-10.3018
▁சொன்னபடி	-10.3018
▁சொன்னேன்	-10.3018
▁சொன்னோம்	-10.3018
▁சொல்லலாமா	-10.3018
▁சொல்வதா	-10.3018
▁சொல்வது	-10.3018
▁சோதனைக்கு	-10.3018
▁ஜடேஜாவை	-10.3018
▁ஜன1	-10.3018
▁ஜனநாயக	-10.3018
▁ஜனநாயகத்தின்	-10.3018
▁ஜனார்த்தன	-10.3018
▁ஜல்லிக்கட்டை	-10.3018
▁ஜஸ்டின்	-10.3018
▁ஜாகிர்கான்	-10.3018
▁ஜாக்கிரதை	-10.3018
▁ஜாபர்	-10.3018
▁ஜாமீனில்	-10.3018
▁ஜீரோ	-10.3018
▁ஜெகதீசன்	-10.3018
▁ஜெயந்தி	-10.3018
▁ஜெயா	-10.3018
▁ஜெயிலில்	-10.3018
▁ஜெயில்	-10.3018
▁ஜெய்ப்பூரில்	-10.3018
▁ஜொலிக்கும்	-10.3018
▁டயானா	-10.3018
▁டவர்	-10.3018
▁டவுட்	-10.3018
▁டாலர்	-10.3018
▁டிஎம்கிருஷ்ணா	-10.3018
▁டிரெண்டாகும்	-10.3018
▁டு	-10.3018
▁டெங்குவை	-10.3018
▁டென்மார்க்	-10.3018
▁டெய்லர்	-10.3018
▁டெலிவரி	-10.3018
▁டேட்டா	-10.3018
▁டேட்டிங்	-10.3018
▁டொனால்டு	-10.3018
▁ட்ரெண்டாகும்	-10.3018
▁ட்ரெண்டில்	-10.3018
▁ட்விட்டரை	-10.3018
▁தகர்க்க	-10.3018
▁தகுதிநீக்கம்	-10.3018
▁தங்கினார்	-10.3018
▁தங்கிலிஷ்	-10.3018
▁தஞ்சையில்	-10.3018
▁தடயங்கள்	-10.3018
▁தடயம்	-10.3018
▁தடாலடி	-10.3018
▁தடுத்த	-10.3018
▁தடுப்புச்	-10.3018
▁தடுப்பூசி	-10.3018
▁தடைகோரி	-10.3018
▁தண்டவாளத்தில்	-10.3018
▁தண்டிக்க	-10.3018
▁தண்ணீரில்	-10.3018
▁தந்தது	-10.3018
▁தனியாரிடம்	-10.3018
▁தனுஷூக்கு	-10.3018
▁தன்னை	-10.3018
▁தப்பினர்	-10.3018
▁தப்பினார்	-10.3018
▁தப்பிப்பது	-10.3018
▁தமிழகத்தை	-10.3018
▁தமிழ்செல்வன்	-10.3018
▁தம்	-10.3018
▁தம்பதிக்கு	-10.3018
▁தயாரான	-10.3018
▁தயாரிக்க	-10.3018
▁தயாரிக்கும்	-10.3018
▁தயாரிப்பாளர்கள்	-10.3018
▁தரவரிசையில்	-10.3018
▁தருணம்	-10.3018
▁தருமா	-10.3018
▁தற்கொலையை	-10.3018
▁தலைகீழாக	-10.3018
▁தலைமுறையின்	-10.3018
▁தலையில்	-10.3018
▁தலையீடு	-10.3018
▁தலைவருடன்	-10.3018
▁தள்ளிப்போகிறது	-10.3018
▁தள்ளிப்போனது	-10.3018
▁தள்ளுமுள்ளு	-10.3018
▁தவிர்த்த	-10.3018
▁தாக்க	-10.3018
▁தாங்க	-10.3018
▁தானம்	-10.3018
▁தானா	-10.3018
▁தாமரை	-10.3018
▁தாள	-10.3018
▁திகழும்	-10.3018
▁திகழ்கிறது	-10.3018
▁திக்திக்திக்	-10.3018
▁திட்டங்கள்	-10.3018
▁திட்டத்துக்கு	-10.3018
▁திட்டமா	-10.3018
▁திட்டமிட்டு	-10.3018
▁திட்டமில்லை	-10.3018
▁திட்டிய	-10.3018
▁திணறும்	-10.3018
▁திநகரில்	-10.3018
▁தினகரனுடன்	-10.3018
▁தியேட்டரில்	-10.3018
▁திருக்குறள்	-10.3018
▁திருட்டில்	-10.3018
▁திருப்பரங்குன்றம்	-10.3018
▁திருவிதாங்கூர்	-10.3018
▁திரைப்படங்கள்	-10.3018
▁திறக்கும்	-10.3018
▁திறமை	-10.3018
▁தீக்குளிக்க	-10.3018
▁தீபம்	-10.3018
▁தீபாவளியன்று	-10.3018
▁தீராத	-10.3018
▁தீவில்	-10.3018
▁தீவு	-10.3018
▁தீவுக்கு	-10.3018
▁துணி	-10.3018
▁துன்புறுத்தல்	-10.3018
▁துரத்தி	-10.3018
▁துருவ	-10.3018
▁துறைக்கு	-10.3018
▁தெரிகிறதா	-10.3018
▁தெரியாத	-10.3018
▁தெரியாது	-10.3018
▁தெலுங்கானாவில்	-10.3018
▁தேடியே	-10.3018
▁தேடுகிறது	-10.3018
▁தேர்வை	-10.3018
▁தேவஸம்	-10.3018
▁தேவ்	-10.3018
▁தைரியம்	-10.3018
▁தொகுதிகளிலும்	-10.3018
▁தொகுப்பு	-10.3018
▁தொடங்கப்படும்	-10.3018
▁தொடங்கவில்லை	-10.3018
▁தொடங்கினார்	-10.3018
▁தொடர்கிறது	-10.3018
▁தொடர்ச்சியாக	-10.3018
▁தொடர்பில்லை	-10.3018
▁தொண்டர்	-10.3018
▁தொண்டு	-10.3018
▁தொலைக்காட்சி	-10.3018
▁தொலைவில்	-10.3018
▁தொல்திருமாவளவன்	-10.3018
▁தொல்லியல்	-10.3018
▁தொழிலை	-10.3018
▁தோட்டா	-10.3018
▁தோனியே	-10.3018
▁தோற்றது	-10.3018
▁தோல்வியில்	-10.3018
▁த்ரில்	-10.3018
▁நகர்	-10.3018
▁நகைகளை	-10.3018
▁நகைகள்	-10.3018
▁நக்சல்	-10.3018
▁நடக்க	-10.3018
▁நடத்தி	-10.3018
▁நடனம்	-10.3018
▁நடமாடும்	-10.3018
▁நடராஜனுக்கு	-10.3018
▁நடவடிக்கைகளை	-10.3018
▁நடவடிக்கையால்	-10.3018
▁நடிகராக	-10.3018
▁நடிகருக்கு	-10.3018
▁நடிகையின்	-10.3018
▁நடிப்பு	-10.3018
▁நடுவே	-10.3018
▁நட்சத்திரங்கள்	-10.3018
▁நட்சத்திரம்	-10.3018
▁நட்பை	-10.3018
▁நண்பர்	-10.3018
▁நனையும்	-10.3018
▁நம்ப	-10.3018
▁நம்புகிறேன்	-10.3018
▁நயன்தாராவின்	-10.3018
▁நல	-10.3018
▁நலக்	-10.3018
▁நலமாக	-10.3018
▁நவாஸுதீன்	-10.3018
▁நாகர்கோவிலில்	-10.3018
▁நாகாலாந்து	-10.3018
▁நாசம்	-10.3018
▁நாடாக	-10.3018
▁நாடாளுமன்றக்	-10.3018
▁நாடுகளின்	-10.3018
▁நானும்	-10.3018
▁நாமே	-10.3018
▁நாய்களுக்கு	-10.3018
▁நிகழ்ந்த	-10.3018
▁நிகழ்வு	-10.3018
▁நிகிடி	-10.3018
▁நினைக்கிறீர்களா	-10.3018
▁நின்றது	-10.3018
▁நிபந்தனையுடன்	-10.3018
▁நிமிடங்களில்	-10.3018
▁நிமிடங்கள்	-10.3018
▁நிமிடத்தில்	-10.3018
▁நிமிடம்	-10.3018
▁நியமன	-10.3018
▁நியமனத்தை	-10.3018
▁நியமித்தது	-10.3018
▁நியாபகம்	-10.3018
▁நியாயம்	-10.3018
▁நியூயார்க்	-10.3018
▁நிரந்தரத்	-10.3018
▁நிராகரித்தது	-10.3018
▁நிறம்	-10.3018
▁நிறுத்தப்பட்ட	-10.3018
▁நிறைவேற்றுங்கள்	-10.3018
▁நிற்கிறார்	-10.3018
▁நிலானி	-10.3018
▁நிலுவைத்தொகை	-10.3018
▁நிலையங்கள்	-10.3018
▁நிவாரணமாக	-10.3018
▁நிவின்பாலி	-10.3018
▁நீங்களும்	-10.3018
▁நீங்கா	-10.3018
▁நீங்கிய	-10.3018
▁நீச்சல்	-10.3018
▁நீராடிய	-10.3018
▁நீரிழிவு	-10.3018
▁நெகிழ்ச்சியூட்டும்	-10.3018
▁நேசிக்கிறோம்	-10.3018
▁நேர்மையான	-10.3018
▁நேவால்	-10.3018
▁நைட்	-10.3018
▁நோயாளிகளை	-10.3018
▁பகத்	-10.3018
▁பகவான்	-10.3018
▁பகிர்ந்த	-10.3018
▁பக்தி	-10.3018
▁பங்கீட்டில்	-10.3018
▁பங்கேற்கும்	-10.3018
▁பங்க்	-10.3018
▁பங்க்குகளில்	-10.3018
▁பச்சிளம்	-10.3018
▁பஞ்சாயத்து	-10.3018
▁படத்திலிருந்து	-10.3018
▁படிக்கும்	-10.3018
▁படுகோனே	-10.3018
▁படையினர்	-10.3018
▁பட்டதாரி	-10.3018
▁பட்டதாரிகள்	-10.3018
▁பட்டா	-10.3018
▁பட்டாசில்லா	-10.3018
▁பணப்பட்டுவாடாவை	-10.3018
▁பண்டிகையில்	-10.3018
▁பதட்டம்	-10.3018
▁பதாகை	-10.3018
▁பதிவுக்கு	-10.3018
▁பத்திரிகையில்	-10.3018
▁பந்தய	-10.3018
▁பந்துவீச்சு	-10.3018
▁பயங்கரவாதம்	-10.3018
▁பயண	-10.3018
▁பயணத்திற்கு	-10.3018
▁பயணமும்	-10.3018
▁பயணிகளிடம்	-10.3018
▁பயணிகளை	-10.3018
▁பயன்படுத்தப்பட்ட	-10.3018
▁பரப்பும்	-10.3018
▁பரிசோதனை	-10.3018
▁பரீட்சை	-10.3018
▁பருப்பு	-10.3018
▁பறந்து	-10.3018
▁பலம்	-10.3018
▁பலியானோர்	-10.3018
▁பலே	-10.3018
▁பள்ளிகளின்	-10.3018
▁பள்ளிக்கு	-10.3018
▁பழசு	-10.3018
▁பழனிச்சாமி	-10.3018
▁பழனியில்	-10.3018
▁பவார்	-10.3018
▁பா	-10.3018
▁பாகிஸ்தானுடன்	-10.3018
▁பாகுபாடு	-10.3018
▁பாக்கியம்	-10.3018
▁பாட்டிலில்	-10.3018
▁பாதிக்கப்படும்	-10.3018
▁பாதிரியார்கள்	-10.3018
▁பாதுகாக்கும்	-10.3018
▁பாரதியார்	-10.3018
▁பாரத்	-10.3018
▁பாராட்டிய	-10.3018
▁பாரிக்கர்	-10.3018
▁பார்த்ததும்	-10.3018
▁பார்த்தால்	-10.3018
▁பார்வையாளர்களை	-10.3018
▁பார்வையிட	-10.3018
▁பாலின	-10.3018
▁பாலுறவு	-10.3018
▁பாஸ்போர்ட்டை	-10.3018
▁பிஎஃப்	-10.3018
▁பிக்பாஸில்	-10.3018
▁பிடித்தார்	-10.3018
▁பிடிவாதம்	-10.3018
▁பிந்த்ரே	-10.3018
▁பினு	-10.3018
▁பின்னுக்கு	-10.3018
▁பிரச்னையை	-10.3018
▁பிரணாப்	-10.3018
▁பிரபஞ்ச	-10.3018
▁பிரபஞ்சன்	-10.3018
▁பிரியர்கள்	-10.3018
▁பிரைம்	-10.3018
▁பிஷப்	-10.3018
▁பிஷப்பை	-10.3018
▁புகழ்ந்து	-10.3018
▁புகாருக்கு	-10.3018
▁புகைப்படத்தை	-10.3018
▁புதுப்	-10.3018
▁புதுப்பிக்க	-10.3018
▁புதுமண	-10.3018
▁புதுவையில்	-10.3018
▁புதைத்து	-10.3018
▁புத்தாண்டுக்கு	-10.3018
▁புயலாக	-10.3018
▁புயலின்	-10.3018
▁புயலுக்கு	-10.3018
▁புயல்கள்	-10.3018
▁புரண்டு	-10.3018
▁புறக்கணிக்க	-10.3018
▁புறக்கணித்தாரா	-10.3018
▁புலந்த்ஷர்	-10.3018
▁புஷ்கர	-10.3018
▁புஷ்கரம்	-10.3018
▁பூங்காவில்	-10.3018
▁பூஜைக்கு	-10.3018
▁பூபேஷ்	-10.3018
▁பெங்களூருக்கு	-10.3018
▁பெண்களின்	-10.3018
▁பெண்ணும்	-10.3018
▁பெண்மணி	-10.3018
▁பென்	-10.3018
▁பெப்சி	-10.3018
▁பெய்ய	-10.3018
▁பெருமைபடுத்திய	-10.3018
▁பெறப்படும்	-10.3018
▁பெறுவோம்	-10.3018
▁பெஸ்ட்	-10.3018
▁பேத்தியை	-10.3018
▁பேனர்கள்	-10.3018
▁பேப்பர்	-10.3018
▁பேரமைப்பு	-10.3018
▁பேருந்துகளை	-10.3018
▁பேருந்துக்குள்	-10.3018
▁பேரையும்	-10.3018
▁பேஸ்புக்கில்	-10.3018
▁பை	-10.3018
▁பைக்குகளை	-10.3018
▁பைக்கை	-10.3018
▁பொதுச்	-10.3018
▁பொருந்தாது	-10.3018
▁பொறுப்புடன்	-10.3018
▁போ	-10.3018
▁போட	-10.3018
▁போடப்பட்ட	-10.3018
▁போடோ	-10.3018
▁போட்டிகள்	-10.3018
▁போட்டிக்கு	-10.3018
▁போட்டியால்	-10.3018
▁போட்டியிட	-10.3018
▁போட்டியில்லை	-10.3018
▁போதிய	-10.3018
▁போத்ரா	-10.3018
▁போனவருக்கு	-10.3018
▁போராட	-10.3018
▁போராடினால்	-10.3018
▁போராடியவர்கள்	-10.3018
▁போராடுங்கள்	-10.3018
▁போராட்டக்காரர்கள்	-10.3018
▁போராட்டக்குழுவினர்	-10.3018
▁போராட்டத்தால்	-10.3018
▁போர்ட்	-10.3018
▁போற	-10.3018
▁போலீசாரிடம்	-10.3018
▁போலீசை	-10.3018
▁போலீஸ்காரர்	-10.3018
▁போவதில்லை	-10.3018
▁போஸ்	-10.3018
▁ப்ரீத்தி	-10.3018
▁மகனுடன்	-10.3018
▁மகன்கள்	-10.3018
▁மகிழ்ந்த	-10.3018
▁மக்களுடன்	-10.3018
▁மக்களே	-10.3018
▁மங்கை	-10.3018
▁மசாஜ்	-10.3018
▁மசோதாக்கள்	-10.3018
▁மஜத	-10.3018
▁மணமகனுக்கு	-10.3018
▁மண்ணெண்ணெய்	-10.3018
▁மண்ணை	-10.3018
▁மதபோதகர்	-10.3018
▁மதராஸா	-10.3018
▁மதுபானம்	-10.3018
▁மதுரைக்	-10.3018
▁மனிதாபிமானம்	-10.3018
▁மனிஷா	-10.3018
▁மனுத்	-10.3018
▁மன்ற	-10.3018
▁மன்றப்	-10.3018
▁மயக்க	-10.3018
▁மயக்கம்	-10.3018
▁மராத்தா	-10.3018
▁மருத்துவப்	-10.3018
▁மருத்துவம்	-10.3018
▁மருமகனுக்கு	-10.3018
▁மறந்த	-10.3018
▁மறுக்கிறார்	-10.3018
▁மறுபிறவி	-10.3018
▁மறைத்த	-10.3018
▁மறைந்தாலும்	-10.3018
▁மலேசியா	-10.3018
▁மலைப்பாம்பு	-10.3018
▁மல்லையாவின்	-10.3018
▁மாகாணம்	-10.3018
▁மாசுபாட்டால்	-10.3018
▁மாடி	-10.3018
▁மாடியிலிருந்து	-10.3018
▁மாணவருக்கு	-10.3018
▁மாணவர்களிடம்	-10.3018
▁மாணவிகளின்	-10.3018
▁மாதாந்திர	-10.3018
▁மாதுரி	-10.3018
▁மாநிலமாக	-10.3018
▁மானேஜர்	-10.3018
▁மான்கள்	-10.3018
▁மாயமான	-10.3018
▁மார்ஷ்	-10.3018
▁மாற்றத்தை	-10.3018
▁மாற்றலாம்	-10.3018
▁மாற்றி	-10.3018
▁மாற்றியது	-10.3018
▁மாற்றும்	-10.3018
▁மாலத்தீவு	-10.3018
▁மால்	-10.3018
▁மாவட்டங்களிலும்	-10.3018
▁மாவோயிஸ்டுகள்	-10.3018
▁மிகுந்த	-10.3018
▁மிசோரமில்	-10.3018
▁மிஞ்சும்	-10.3018
▁மினிஸ்டர்	-10.3018
▁மின்கோபுரம்	-10.3018
▁மின்னலை	-10.3018
▁மின்வெட்டு	-10.3018
▁மியான்மர்	-10.3018
▁மிளகாய்	-10.3018
▁மீட்கும்	-10.3018
▁மீட்போம்	-10.3018
▁மீம்ஸ்	-10.3018
▁முகவரி	-10.3018
▁முடிகிறது	-10.3018
▁முடிந்து	-10.3018
▁முடியாததால்	-10.3018
▁முடியாதா	-10.3018
▁முடிவும்	-10.3018
▁முடிவே	-10.3018
▁முட்டாள்	-10.3018
▁முதன்	-10.3018
▁முதலமைச்சரே	-10.3018
▁முதலிடத்தில்	-10.3018
▁முதல்வருடன்	-10.3018
▁முனையில்	-10.3018
▁முன்னணி	-10.3018
▁முன்னால்	-10.3018
▁முன்னுரிமை	-10.3018
▁மும்முரம்	-10.3018
▁முயற்சிக்கிறது	-10.3018
▁முறைகேடுகள்	-10.3018
▁முறையை	-10.3018
▁முஸ்லீம்	-10.3018
▁மூட	-10.3018
▁மூடப்பட்டது	-10.3018
▁மூளை	-10.3018
▁மேடையை	-10.3018
▁மேத்யூஸ்	-10.3018
▁மேலாண்மையில்	-10.3018
▁மொத்த	-10.3018
▁மொழிகளில்	-10.3018
▁மொழியை	-10.3018
▁மோதலில்	-10.3018
▁யானையை	-10.3018
▁யாருடைய	-10.3018
▁யுனிவர்சிட்டியில்	-10.3018
▁யூடியூப்	-10.3018
▁யெச்சூரி	-10.3018
▁யோகிக்கு	-10.3018
▁யோகிபாபு	-10.3018
▁ரஜினிகாந்துக்கு	-10.3018
▁ரத்த	-10.3018
▁ரத்னா	-10.3018
▁ரப்பர்	-10.3018
▁ரம்யா	-10.3018
▁ரவிசாஸ்திரி	-10.3018
▁ரவுடிகளை	-10.3018
▁ரஹ்மான்	-10.3018
▁ராஜன்	-10.3018
▁ராஜே	-10.3018
▁ராணி	-10.3018
▁ராதா	-10.3018
▁ராதாகிருஷ்ணன்	-10.3018
▁ராமசாமி	-10.3018
▁ராமஜெயம்	-10.3018
▁ராமேஸ்வரம்	-10.3018
▁ராம்தேவ்	-10.3018
▁ராவின்	-10.3018
▁ரிக்டர்	-10.3018
▁ரூ55	-10.3018
▁ரூ75	-10.3018
▁ரூபா	-10.3018
▁ரூமில்	-10.3018
▁ரேணுகா	-10.3018
▁லட்சமாக	-10.3018
▁லாக்	-10.3018
▁லாலுவின்	-10.3018
▁லீ	-10.3018
▁லீவு	-10.3018
▁லுங்கி	-10.3018
▁லைசன்ஸ்	-10.3018
▁வங்கக்கடலில்	-10.3018
▁வங்கிகளின்	-10.3018
▁வங்கிகளுக்கு	-10.3018
▁வங்கியை	-10.3018
▁வசுந்தரா	-10.3018
▁வடகிழக்குப்	-10.3018
▁வடதமிழகத்தில்	-10.3018
▁வடமாநில	-10.3018
▁வதந்திகளுக்கு	-10.3018
▁வதந்திகளை	-10.3018
▁வந்ததாக	-10.3018
▁வந்தாலும்	-10.3018
▁வந்துவிட்டது	-10.3018
▁வன	-10.3018
▁வன்கொடுமைக்கு	-10.3018
▁வரவேண்டும்	-10.3018
▁வரவேற்கும்	-10.3018
▁வராத	-10.3018
▁வரிகளில்	-10.3018
▁வருகிறதா	-10.3018
▁வருகிறாரா	-10.3018
▁வருதே	-10.3018
▁வருந்தும்	-10.3018
▁வருமானவரி	-10.3018
▁வருவாய்	-10.3018
▁வருவாரா	-10.3018
▁வருவேன்	-10.3018
▁வரைந்து	-10.3018
▁வலுப்படுத்த	-10.3018
▁வளர்த்த	-10.3018
▁வளையத்தில்	-10.3018
▁வழக்குப்பதிய	-10.3018
▁வழங்கினால்	-10.3018
▁வழியாக	-10.3018
▁வாகனங்களை	-10.3018
▁வாக்களியுங்கள்	-10.3018
▁வாக்காளர்	-10.3018
▁வாக்குறுதிகள்	-10.3018
▁வாங்கியது	-10.3018
▁வாசகம்	-10.3018
▁வாசிம்	-10.3018
▁வானில்	-10.3018
▁வாய்	-10.3018
▁வாழ்க்கையில்	-10.3018
▁வாழ்த்துக்கு	-10.3018
▁விக்கெட்டுகளை	-10.3018
▁விக்ரமுடன்	-10.3018
▁விசாரிக்கிறது	-10.3018
▁விஜயின்	-10.3018
▁விஜயேந்திரர்	-10.3018
▁விடுதியின்	-10.3018
▁விடுமுறையில்	-10.3018
▁விட்ட	-10.3018
▁விண்ணப்பிக்க	-10.3018
▁விண்வெளி	-10.3018
▁விதித்தது	-10.3018
▁விதிமுறை	-10.3018
▁வித்யா	-10.3018
▁விபத்தா	-10.3018
▁விமர்சித்து	-10.3018
▁வியந்துபோன	-10.3018
▁விரட்ட	-10.3018
▁விரட்டிப்பிடித்த	-10.3018
▁விருதுநகர்	-10.3018
▁விற்பனையாளர்கள்	-10.3018
▁விற்று	-10.3018
▁விலையை	-10.3018
▁வில்லியம்ஸ்	-10.3018
▁விளக்கமளிக்க	-10.3018
▁விளாசி	-10.3018
▁விளையாடலனா	-10.3018
▁விளையாடலாமா	-10.3018
▁விளையாடாதீர்கள்	-10.3018
▁விளையாட்டாக	-10.3018
▁விளையாட்டால்	-10.3018
▁விழும்	-10.3018
▁விவசாயக்	-10.3018
▁விவசாயம்	-10.3018
▁விவசாயிகளுடன்	-10.3018
▁விஷயத்தில்	-10.3018
▁விஷாலின்	-10.3018
▁விஷ்ணு	-10.3018
▁வீச்சில்	-10.3018
▁வீட்டுக்குள்	-10.3018
▁வீரரை	-10.3018
▁வீரர்களுடன்	-10.3018
▁வுண்டர்பார்	-10.3018
▁வெட்ட	-10.3018
▁வெட்டும்	-10.3018
▁வெயிட்	-10.3018
▁வெறுப்பு	-10.3018
▁வெல்லுமா	-10.3018
▁வெளிநடப்பு	-10.3018
▁வெளிநாட்டில்	-10.3018
▁வெளிவந்த	-10.3018
▁வெளிவர	-10.3018
▁வேகமான	-10.3018
▁வேட்பு	-10.3018
▁வேணும்	-10.3018
▁வேண்டியதில்லை	-10.3018
▁வேண்டுமானால்	-10.3018
▁வேலுமணி	-10.3018
▁வேளாண்	-10.3018
▁வைஃபை	-10.3018
▁வைக்கிறது	-10.3018
▁வைரமுத்துவை	-10.3018
▁ஷாகித்	-10.3018
▁ஷாங்காய்	-10.3018
▁ஷாப்பிங்	-10.3018
▁ஷாலினி	-10.3018
▁ஸீரோ	-10.3018
▁ஸ்டன்ட்	-10.3018
▁ஸ்டம்பிங்	-10.3018
▁ஸ்டாலினை	-10.3018
▁ஸ்பாட்	-10.3018
▁ஸ்பெயின்	-10.3018
▁ஸ்ரீஸ்ரீ	-10.3018
▁ஹவாலா	-10.3018
▁ஹாசன்	-10.3018
▁ஹார்வர்ட்	-10.3018
▁ஹிட்	-10.3018
▁ஹீரோவை	-10.3018
▁ஹெக்டே	-10.3018
▁ஹேக்கர்	-10.3018
▁ஹைதராபாத்துக்கு	-10.3018
▁ஹோட்டலில்	-10.3018
▁ஹோலி	-10.3018
▁100ஐ	-10.5894
▁106	-10.5894
▁10ஆம்	-10.5894
▁10ம்	-10.5894
▁110	-10.5894
▁120	-10.5894
▁140	-10.5894
▁1400	-10.5894
▁150ஆவது	-10.5894
▁157	-10.5894
▁161	-10.5894
▁168	-10.5894
▁174	-10.5894
▁17ல்	-10.5894
▁181	-10.5894
▁18ல்	-10.5894
▁201617	-10.5894
▁20ஆம்	-10.5894
▁20ம்	-10.5894
▁220	-10.5894
▁223	-10.5894
▁22ல்	-10.5894
▁231	-10.5894
▁2320	-10.5894
▁235	-10.5894
▁238	-10.5894
▁24ல்	-10.5894
▁250	-10.5894
▁27ல்	-10.5894
▁292	-10.5894
▁2ஆவது	-10.5894
▁30000	-10.5894
▁30வுக்கு	-10.5894
▁319	-10.5894
▁31வரை	-10.5894
▁3300	-10.5894
▁34	-10.5894
▁353	-10.5894
▁360	-10.5894
▁379வது	-10.5894
▁38	-10.5894
▁384	-10.5894
▁3ல்	-10.5894
▁400க்கும்	-10.5894
▁40க்கும்	-10.5894
▁429	-10.5894
▁471	-10.5894
▁59	-10.5894
▁66	-10.5894
▁76	-10.5894
▁78	-10.5894
▁7வது	-10.5894
▁80வது	-10.5894
▁91	-10.5894
▁95	-10.5894
▁98	-10.5894
▁ஃபாசில்	-10.5894
▁ஃபார்மலின்	-10.5894
▁ஃபிக்ஸிங்	-10.5894
▁ஃபெடரரை	-10.5894
▁ஃபேன்	-10.5894
▁ஃபேஷன்	-10.5894
▁ஃபேஸ்புக்கால்	-10.5894
▁அஃப்ரிடி	-10.5894
▁அகதிகளை	-10.5894
▁அகதியான	-10.5894
▁அகழ்வாராய்ச்சி	-10.5894
▁அக்	-10.5894
▁அக்கா	-10.5894
▁அக்ஷரா	-10.5894
▁அசின்	-10.5894
▁அஜித்திற்கு	-10.5894
▁அடக்கமும்	-10.5894
▁அடங்கியது	-10.5894
▁அடித்ததால்	-10.5894
▁அடித்தார்	-10.5894
▁அடித்துச்	-10.5894
▁அடுக்கடுக்கான	-10.5894
▁அடுக்கும்	-10.5894
▁அடுத்தபடத்தில்	-10.5894
▁அடைக்க	-10.5894
▁அட்டவணை	-10.5894
▁அணிகளும்	-10.5894
▁அணிவதால்	-10.5894
▁அணுகிய	-10.5894
▁அணுசக்தி	-10.5894
▁அண்டார்டிக்காவை	-10.5894
▁அண்டை	-10.5894
▁அதற்குப்	-10.5894
▁அதிகமானதால்	-10.5894
▁அதிகாரப்பூர்வமற்ற	-10.5894
▁அதிகாரப்பூர்வமானது	-10.5894
▁அதிகாரிகளே	-10.5894
▁அதிகாரியிடம்	-10.5894
▁அதிகாலையில்	-10.5894
▁அதிசயம்	-10.5894
▁அதிதீவிர	-10.5894
▁அதிபரை	-10.5894
▁அதிராம்பட்டினத்தில்	-10.5894
▁அதிர்ச்சிதரும்	-10.5894
▁அதிர்ச்சியான	-10.5894
▁அதிர்ந்தது	-10.5894
▁அதிர்ஷ்டம்	-10.5894
▁அதையே	-10.5894
▁அத்துமீறியவர்களை	-10.5894
▁அநாகரிகமானவர்ஆனால்	-10.5894
▁அநீதியை	-10.5894
▁அந்தப்	-10.5894
▁அனுபவங்கள்	-10.5894
▁அனுபவித்த	-10.5894
▁அனுப்பியது	-10.5894
▁அனுஷ்காவுக்கு	-10.5894
▁அனுஷ்காவுடன்	-10.5894
▁அனைத்துக்கட்சி	-10.5894
▁அனைவருக்கும்	-10.5894
▁அன்னபூர்ணா	-10.5894
▁அன்புக்கு	-10.5894
▁அன்புடன்	-10.5894
▁அன்றே	-10.5894
▁அபார்ட்மெண்ட்	-10.5894
▁அபிஷேகம்	-10.5894
▁அபிஷேக்	-10.5894
▁அபுதாபியில்	-10.5894
▁அப்பல்லோவில்	-10.5894
▁அப்ளை	-10.5894
▁அமலானால்	-10.5894
▁அமீர்	-10.5894
▁அமெரிக்கர்கள்	-10.5894
▁அமெரிக்காவுக்கு	-10.5894
▁அமெரிக்காவைக்	-10.5894
▁அமேசானின்	-10.5894
▁அமேசானில்	-10.5894
▁அமைக்கும்	-10.5894
▁அமைச்சரவையில்	-10.5894
▁அமைச்சராக	-10.5894
▁அமைச்சர்தான்	-10.5894
▁அமைதிப்	-10.5894
▁அமைதியான	-10.5894
▁அமைப்போம்	-10.5894
▁அமோகம்	-10.5894
▁அம்பலமான	-10.5894
▁அம்பலமானது	-10.5894
▁அம்பு	-10.5894
▁அம்மன்	-10.5894
▁அம்மானுக்கு	-10.5894
▁அம்மாவில்	-10.5894
▁அம்ரீஷ்	-10.5894
▁அய்யாக்கண்ணு	-10.5894
▁அரசியல்வாதிகளுக்கும்	-10.5894
▁அரபு	-10.5894
▁அரியவகை	-10.5894
▁அருகருகே	-10.5894
▁அருங்காட்சியகம்	-10.5894
▁அருள்நிதிக்கு	-10.5894
▁அரேபியாவில்	-10.5894
▁அறக்கட்டளை	-10.5894
▁அறம்2	-10.5894
▁அறிந்து	-10.5894
▁அறிந்தே	-10.5894
▁அறிமுகமாவது	-10.5894
▁அறிவாலயத்தில்	-10.5894
▁அறிவிக்கிறார்	-10.5894
▁அறிவித்தது	-10.5894
▁அறிவிப்பில்	-10.5894
▁அறிவிப்புகளின்	-10.5894
▁அறுவடை	-10.5894
▁அறையின்	-10.5894
▁அலங்கோலப்படுத்தியதை	-10.5894
▁அலசல்	-10.5894
▁அலிகான்	-10.5894
▁அலுவலகத்தை	-10.5894
▁அல்கய்தா	-10.5894
▁அல்கா	-10.5894
▁அல்லது	-10.5894
▁அல்வா	-10.5894
▁அல்வாவிற்காக	-10.5894
▁அளவிற்கு	-10.5894
▁அளிக்கப்படும்	-10.5894
▁அளிக்கப்பட்டதா	-10.5894
▁அளிக்கப்பட்டால்	-10.5894
▁அளிக்கிறார்	-10.5894
▁அளித்துள்ளது	-10.5894
▁அள்ளிக்	-10.5894
▁அள்ளுவது	-10.5894
▁அழகியாக	-10.5894
▁அழகை	-10.5894
▁அழிவின்	-10.5894
▁அவதியுறும்	-10.5894
▁அவரது	-10.5894
▁அவரு	-10.5894
▁அவர்களே	-10.5894
▁அவர்தான்	-10.5894
▁அவ்வளவுதான்	-10.5894
▁அஷ்வினி	-10.5894
▁ஆஃபருடன்	-10.5894
▁ஆகாது	-10.5894
▁ஆகிறாரே	-10.5894
▁ஆகுமா	-10.5894
▁ஆக்கிய	-10.5894
▁ஆக்கிரமிப்பு	-10.5894
▁ஆக்ராவில்	-10.5894
▁ஆக்ரோஷ	-10.5894
▁ஆங்	-10.5894
▁ஆங்கிலத்தில்	-10.5894
▁ஆசியப்	-10.5894
▁ஆசியாவிலேயே	-10.5894
▁ஆசிரியை	-10.5894
▁ஆசிரியைக்கு	-10.5894
▁ஆடிய	-10.5894
▁ஆட்சியரை	-10.5894
▁ஆட்சியில்	-10.5894
▁ஆட்சியைக்	-10.5894
▁ஆட்டத்தில்	-10.5894
▁ஆட்டுக்கறிக்குத்தான்	-10.5894
▁ஆட்டோவில்	-10.5894
▁ஆணும்	-10.5894
▁ஆணையத்	-10.5894
▁ஆணையத்திற்கான	-10.5894
▁ஆணையத்திற்கு	-10.5894
▁ஆண்களுக்கு	-10.5894
▁ஆண்டர்சன்	-10.5894
▁ஆண்டவரை	-10.5894
▁ஆண்டுகளுக்குப்பிறகு	-10.5894
▁ஆண்டுதோறும்	-10.5894
▁ஆதங்கத்தை	-10.5894
▁ஆதரவும்	-10.5894
▁ஆதாயம்	-10.5894
▁ஆதாரத்தை	-10.5894
▁ஆதாரமற்றது	-10.5894
▁ஆதிக்கத்தை	-10.5894
▁ஆதிக்கம்	-10.5894
▁ஆந்த்ராக்ஸ்	-10.5894
▁ஆனந்திக்கு	-10.5894
▁ஆன்தம்	-10.5894
▁ஆன்மா	-10.5894
▁ஆன்மீக	-10.5894
▁ஆப்கானிஸ்தான்	-10.5894
▁ஆப்சென்டால்	-10.5894
▁ஆப்தே	-10.5894
▁ஆப்பிரிக்கர்	-10.5894
▁ஆப்ரேஷன்	-10.5894
▁ஆம்தே	-10.5894
▁ஆயிரத்தை	-10.5894
▁ஆயுதங்களுடன்	-10.5894
▁ஆயுதம்	-10.5894
▁ஆயுர்வேத	-10.5894
▁ஆயுஷ்மான்	-10.5894
▁ஆய்வுக்காக	-10.5894
▁ஆரம்ப	-10.5894
▁ஆரம்பிச்சுட்டாங்கள்ல	-10.5894
▁ஆர்எஸ்எஸ்ஐ	-10.5894
▁ஆர்டிஐ	-10.5894
▁ஆர்பிசிங்	-10.5894
▁ஆறுமுகம்	-10.5894
▁ஆலையைத்	-10.5894
▁ஆலோசிக்க	-10.5894
▁ஆலோசிப்பேன்	-10.5894
▁ஆல்ரவுண்டர்	-10.5894
▁ஆளான	-10.5894
▁ஆளுநராக	-10.5894
▁ஆளுநரிடம்	-10.5894
▁ஆளுமை	-10.5894
▁ஆளும்	-10.5894
▁ஆழ்துளைக்	-10.5894
▁ஆவதற்காக	-10.5894
▁ஆவேசமடைந்த	-10.5894
▁ஆவ்னி	-10.5894
▁ஆஸியை	-10.5894
▁ஆஸ்தான	-10.5894
▁ஆஸ்திரிய	-10.5894
▁ஆஸ்திரேலியாவில்	-10.5894
▁ஆஹா	-10.5894
▁இங்	-10.5894
▁இங்கிலாந்துக்கு	-10.5894
▁இங்கு	-10.5894
▁இங்கெல்லாம்	-10.5894
▁இங்கே	-10.5894
▁இடம்பிடித்த	-10.5894
▁இடித்துவிட்டு	-10.5894
▁இடைத்தேர்தலில்	-10.5894
▁இடைமறிக்க	-10.5894
▁இடையேயான	-10.5894
▁இடைவெளி	-10.5894
▁இணைந்தனர்	-10.5894
▁இணைப்பை	-10.5894
▁இணையதளங்களை	-10.5894
▁இணையத்தை	-10.5894
▁இண்டர்வியூவ்	-10.5894
▁இதற்குத்தான்	-10.5894
▁இதுக்குதான்	-10.5894
▁இதுக்கெல்லாமா	-10.5894
▁இதுவும்	-10.5894
▁இதையெல்லாம்	-10.5894
▁இதோ	-10.5894
▁இத்தாலி	-10.5894
▁இந்தக்	-10.5894
▁இந்தியருக்கு	-10.5894
▁இந்தியர்களுக்கு	-10.5894
▁இந்தியாக்கு	-10.5894
▁இந்தியாரஷ்யா	-10.5894
▁இந்தியை	-10.5894
▁இந்துக்களின்	-10.5894
▁இந்தூர்	-10.5894
▁இந்தோனிஷியாவை	-10.5894
▁இந்தோனேசிய	-10.5894
▁இந்தோனேசியாவில்	-10.5894
▁இனப்படுகொலை	-10.5894
▁இனம்	-10.5894
▁இன்ஃபோசிஸ்	-10.5894
▁இன்குலாப்	-10.5894
▁இன்சூரன்ஸ்	-10.5894
▁இன்னிங்ஸ்	-10.5894
▁இப்போ	-10.5894
▁இப்போதே	-10.5894
▁இமாம்	-10.5894
▁இம்முறையாவது	-10.5894
▁இயக்கத்திற்கு	-10.5894
▁இயக்கத்துக்கு	-10.5894
▁இயக்கினேன்	-10.5894
▁இயக்குநர்கள்	-10.5894
▁இயங்கத்	-10.5894
▁இயந்திரத்தில்	-10.5894
▁இயற்கையை	-10.5894
▁இரட்டைக்	-10.5894
▁இரவில்	-10.5894
▁இரவுப்	-10.5894
▁இரானி	-10.5894
▁இருக்கக்கூடாது	-10.5894
▁இருக்கமாட்டார்கள்	-10.5894
▁இருக்காதீங்க	-10.5894
▁இருக்காது	-10.5894
▁இருக்கார்	-10.5894
▁இருக்கேன்	-10.5894
▁இருக்கைக்காக	-10.5894
▁இருட்டுக்கடை	-10.5894
▁இருந்ததைப்	-10.5894
▁இருப்பார்	-10.5894
▁இறக்கிய	-10.5894
▁இறங்காதீர்கள்	-10.5894
▁இறந்தவருக்கு	-10.5894
▁இறந்தாள்	-10.5894
▁இறுதிக்	-10.5894
▁இறுதிச்சடங்கு	-10.5894
▁இல	-10.5894
▁இலங்கைக்கு	-10.5894
▁இலவசங்களை	-10.5894
▁இலவசமாக	-10.5894
▁இலையில்	-10.5894
▁இல்லாதது	-10.5894
▁இல்லாதவர்கள்	-10.5894
▁இல்லாதோருக்கு	-10.5894
▁இல்லையே	-10.5894
▁இளவரசிக்கு	-10.5894
▁இளைஞன்	-10.5894
▁இளைஞர்களை	-10.5894
▁இளையராஜாவின்	-10.5894
▁இழக்கக்	-10.5894
▁இழக்கவில்லை	-10.5894
▁இழக்கிறது	-10.5894
▁இழக்கும்	-10.5894
▁இழுபறிக்கு	-10.5894
▁உகந்த	-10.5894
▁உங்களுக்கு	-10.5894
▁உச்சத்திற்கு	-10.5894
▁உச்சவரம்பை	-10.5894
▁உச்சி	-10.5894
▁உச்சியிலும்	-10.5894
▁உடன்பாடு	-10.5894
▁உடற்கல்வி	-10.5894
▁உடையாது	-10.5894
▁உணர்ச்சிமயம்	-10.5894
▁உணர்த்தும்	-10.5894
▁உணர்ந்தால்	-10.5894
▁உணர்வை	-10.5894
▁உணவகத்தை	-10.5894
▁உண்டியல்	-10.5894
▁உண்ணா	-10.5894
▁உண்ணும்	-10.5894
▁உதவியாளர்	-10.5894
▁உதாரணம்	-10.5894
▁உத்தரவிட்ட	-10.5894
▁உன்னாலதான்	-10.5894
▁உபியை	-10.5894
▁உயரப்	-10.5894
▁உயரும்	-10.5894
▁உயர்நிலை	-10.5894
▁உயர்வாக	-10.5894
▁உயர்வுக்கு	-10.5894
▁உயிரிழந்தனரா	-10.5894
▁உயிருடன்	-10.5894
▁உயிரும்	-10.5894
▁உயிர்கள்	-10.5894
▁உயிர்தான்ஆனா	-10.5894
▁உருகிய	-10.5894
▁உருகுகிறார்	-10.5894
▁உருவாகிறது	-10.5894
▁உருவாகும்	-10.5894
▁உருவாக்கப்படும்	-10.5894
▁உறவினரின்	-10.5894
▁உறவினர்	-10.5894
▁உறுதிமொழி	-10.5894
▁உறுதியாகும்	-10.5894
▁உறுதியேற்போம்	-10.5894
▁உறுப்பினரை	-10.5894
▁உறுப்புகள்	-10.5894
▁உறுப்புமாற்றும்	-10.5894
▁உற்சாகமாய்	-10.5894
▁உலகப்போரில்	-10.5894
▁உலகளவில்	-10.5894
▁உள்ளவர்கள்	-10.5894
▁உள்ளூர்	-10.5894
▁உழைப்பு	-10.5894
▁ஊக்குவிக்க	-10.5894
▁ஊடகம்	-10.5894
▁ஊதியத்தில்	-10.5894
▁ஊதியத்தை	-10.5894
▁ஊராட்சி	-10.5894
▁ஊர்மக்கள்	-10.5894
▁ஊர்வலத்தில்	-10.5894
▁ஊர்வலமாக	-10.5894
▁ஊற்றிய	-10.5894
▁எகிப்தில்	-10.5894
▁எடியூரப்பாவுக்கு	-10.5894
▁எடுங்கள்	-10.5894
▁எடுத்தார்	-10.5894
▁எடுத்துக்கொண்ட	-10.5894
▁எட்டுவழிச்சாலை	-10.5894
▁எண்கள்	-10.5894
▁எண்ணப்படும்	-10.5894
▁எண்ணினேன்	-10.5894
▁எண்ணுடன்	-10.5894
▁எண்ணூரில்	-10.5894
▁எண்ணூர்	-10.5894
▁எண்ணை	-10.5894
▁எதனால்	-10.5894
▁எதிரியை	-10.5894
▁எதிர்கட்சிகளுக்கு	-10.5894
▁எதிர்க்க	-10.5894
▁எதிர்த்தது	-10.5894
▁எதிர்த்தால்	-10.5894
▁எதிர்நோக்கும்	-10.5894
▁எதிர்பார்க்கவில்லை	-10.5894
▁எதிர்ப்பும்	-10.5894
▁எத்தனையாவது	-10.5894
▁எந்தக்	-10.5894
▁எனக்	-10.5894
▁எனக்குப்	-10.5894
▁எனக்கே	-10.5894
▁எனத்	-10.5894
▁எனை	-10.5894
▁என்கவுண்டர்	-10.5894
▁என்கவுன்டரில்	-10.5894
▁என்ஜிகே	-10.5894
▁என்னது	-10.5894
▁என்னய்யா	-10.5894
▁என்னிடம்	-10.5894
▁என்னென்ன	-10.5894
▁என்னைப்	-10.5894
▁என்பவர்களுக்கு	-10.5894
▁என்றாலும்	-10.5894
▁எமன்	-10.5894
▁எமன்கள்	-10.5894
▁எமோஜி	-10.5894
▁எம்எஸ்கேபிரசாத்	-10.5894
▁எம்சாண்ட்	-10.5894
▁எம்சிஏ	-10.5894
▁எம்மர்சன்	-10.5894
▁எல்லாமே	-10.5894
▁எல்லாரும்	-10.5894
▁எளிதில்	-10.5894
▁எளிமை	-10.5894
▁எளிமையாக	-10.5894
▁எழுச்சியும்	-10.5894
▁எழுதியவர்களுக்கு	-10.5894
▁எழுத்துத்	-10.5894
▁எவை	-10.5894
▁எஸ்	-10.5894
▁எஸ்அனிதா	-10.5894
▁எஸ்ஏசந்திரசேகர்	-10.5894
▁எஸ்சி	-10.5894
▁எஸ்சிஎஸ்டி	-10.5894
▁எஸ்வி	-10.5894
▁ஏஆர்முருகதாஸுக்கு	-10.5894
▁ஏகே	-10.5894
▁ஏங்கி	-10.5894
▁ஏஜெண்டாக	-10.5894
▁ஏடிஎம்களின்	-10.5894
▁ஏடிபி	-10.5894
▁ஏந்தி	-10.5894
▁ஏமாற்றும்	-10.5894
▁ஏராளமானோர்	-10.5894
▁ஏரிகளில்	-10.5894
▁ஏரிக்கரையில்	-10.5894
▁ஏரியில்	-10.5894
▁ஏர்டெல்	-10.5894
▁ஏற்ப	-10.5894
▁ஏற்படவில்லை	-10.5894
▁ஏற்றம்	-10.5894
▁ஏற்றார்	-10.5894
▁ஏற்றிச்	-10.5894
▁ஏற்றுக்கொள்ள	-10.5894
▁ஏற்றுக்கொள்வேன்	-10.5894
▁ஏற்றுமதி	-10.5894
▁ஏற்றும்	-10.5894
▁ஏலியனின்	-10.5894
▁ஏழைகளுக்கே	-10.5894
▁ஏவுகணையை	-10.5894
▁ஐ	-10.5894
▁ஐதீகம்	-10.5894
▁ஐபிஎல்ஐ	-10.5894
▁ஐயாயிரம்	-10.5894
▁ஐரோப்பிய	-10.5894
▁ஐஸ்வர்யாராய்	-10.5894
▁ஒடிசாவில்	-10.5894
▁ஒடிசாவை	-10.5894
▁ஒடிஷாவில்	-10.5894
▁ஒடுக்குங்கள்	-10.5894
▁ஒதுக்கப்படும்	-10.5894
▁ஒதுக்கினார்	-10.5894
▁ஒதுங்கியது	-10.5894
▁ஒத்தி	-10.5894
▁ஒத்தைக்கு	-10.5894
▁ஒப்பந்தத்தில்	-10.5894
▁ஒப்பந்தமாகினார்	-10.5894
▁ஒப்பிட்ட	-10.5894
▁ஒப்புக்கொண்டார்	-10.5894
▁ஒயின்	-10.5894
▁ஒருபால்	-10.5894
▁ஒருமனதாக	-10.5894
▁ஒருமாத	-10.5894
▁ஒருவனாக	-10.5894
▁ஒருவாரத்தில்	-10.5894
▁ஓஎன்ஜிசிக்கு	-10.5894
▁ஓசி	-10.5894
▁ஓடி	-10.5894
▁ஓடிப்போன	-10.5894
▁ஓட்ட	-10.5894
▁ஓட்டியது	-10.5894
▁ஓட்டியவருக்கு	-10.5894
▁ஓட்டை	-10.5894
▁ஓபிஎஸ்க்கு	-10.5894
▁ஓய்கிறது	-10.5894
▁ஓய்வூதிய	-10.5894
▁ஓரங்கட்டுகிறார்கள்	-10.5894
▁ஓரினத்	-10.5894
▁ஓரிரு	-10.5894
▁ஓவைசி	-10.5894
▁கஅன்பழகன்	-10.5894
▁ககன்	-10.5894
▁கங்கையின்	-10.5894
▁கசியும்	-10.5894
▁கஜாபுயல்	-10.5894
▁கடமைனு	-10.5894
▁கடவுளே	-10.5894
▁கடித	-10.5894
▁கடைகள்	-10.5894
▁கடைக்காரர்	-10.5894
▁கடைக்கு	-10.5894
▁கடைசிக்	-10.5894
▁கட்காரி	-10.5894
▁கட்சிகளுக்கு	-10.5894
▁கட்சிகளும்	-10.5894
▁கட்சித்	-10.5894
▁கட்சியினருடன்	-10.5894
▁கட்சியுடன்	-10.5894
▁கட்டணத்தில்	-10.5894
▁கட்டத்தில்	-10.5894
▁கட்டப்பஞ்சாயத்து	-10.5894
▁கட்டப்படும்	-10.5894
▁கட்டப்பட்ட	-10.5894
▁கட்டிட	-10.5894
▁கட்டினாதான்	-10.5894
▁கட்டினால்	-10.5894
▁கட்டிப்பிடித்ததை	-10.5894
▁கட்டியுள்ளேன்	-10.5894
▁கட்டிவைத்து	-10.5894
▁கட்டுக்குள்	-10.5894
▁கட்டுங்கள்	-10.5894
▁கணக்காளர்	-10.5894
▁கணக்கிற்கு	-10.5894
▁கணக்குகளை	-10.5894
▁கணக்குடன்	-10.5894
▁கணக்குடெல்லி	-10.5894
▁கணக்கை	-10.5894
▁கணவரையும்	-10.5894
▁கணவர்களின்	-10.5894
▁கண்களில்	-10.5894
▁கண்களை	-10.5894
▁கண்காணிப்புக்கு	-10.5894
▁கண்டறியும்	-10.5894
▁கண்டுபிடிச்சு	-10.5894
▁கண்ணா	-10.5894
▁கண்ணான	-10.5894
▁கண்ணீருக்காக	-10.5894
▁கண்ணே	-10.5894
▁கதற	-10.5894
▁கதவுகள்	-10.5894
▁கதவை	-10.5894
▁கதாசிரியர்	-10.5894
▁கதி	-10.5894
▁கதிர்	-10.5894
▁கத்திரி	-10.5894
▁கந்த	-10.5894
▁கந்து	-10.5894
▁கனஅடி	-10.5894
▁கன்ஃபார்ம்	-10.5894
▁கன்னியாகுமரியில்	-10.5894
▁கன்றுகள்	-10.5894
▁கபாலீஸ்வரர்	-10.5894
▁கபிர்	-10.5894
▁கப்சிப்	-10.5894
▁கமலுடன்	-10.5894
▁கமிஷன்	-10.5894
▁கரம்பிடிக்கிறார்	-10.5894
▁கரம்பிடிக்கும்	-10.5894
▁கரம்பிடித்த	-10.5894
▁கருணா	-10.5894
▁கருணாஸூக்கு	-10.5894
▁கருதுகிறது	-10.5894
▁கருத்தால்	-10.5894
▁கரைக்கப்பட்டது	-10.5894
▁கரைந்துவிடும்	-10.5894
▁கரைப்பு	-10.5894
▁கர்ணாவதி	-10.5894
▁கர்நாடகம்	-10.5894
▁கர்நாடகாவுக்கு	-10.5894
▁கர்ப்பிணிப்	-10.5894
▁கறி	-10.5894
▁கறுப்புப்பணத்தை	-10.5894
▁கற்றுக்கொடுக்கும்	-10.5894
▁கற்றுத்	-10.5894
▁கலக்கப்போகும்	-10.5894
▁கலப்பட	-10.5894
▁கலப்படம்	-10.5894
▁கலாமின்	-10.5894
▁கலிபோர்னியா	-10.5894
▁கலிபோர்னியாவில்	-10.5894
▁கலைஞன்	-10.5894
▁கலைஞருக்கு	-10.5894
▁கலைத்தது	-10.5894
▁கலைநிகழ்ச்சி	-10.5894
▁கலைந்ததாக	-10.5894
▁கலைப்புக்கு	-10.5894
▁கல்குவாரியில்	-10.5894
▁கல்பனா	-10.5894
▁கல்யாணி	-10.5894
▁கல்லீரல்	-10.5894
▁கல்லெறியும்	-10.5894
▁கல்வீசி	-10.5894
▁கல்வீச்சில்	-10.5894
▁கள	-10.5894
▁கள்ளச்சாராயம்	-10.5894
▁கழக	-10.5894
▁கழித்து	-10.5894
▁கழிப்பறை	-10.5894
▁கவனக்குறைவுடன்	-10.5894
▁கவரும்	-10.5894
▁கவலைப்படவில்லை	-10.5894
▁கவலைப்படாத	-10.5894
▁கவிழ்த்த	-10.5894
▁கவிழ்ந்த	-10.5894
▁கவுதாரி	-10.5894
▁கவுரி	-10.5894
▁காக்கவே	-10.5894
▁காக்கை	-10.5894
▁காசாளர்	-10.5894
▁காட்சிகளை	-10.5894
▁காட்டாற்று	-10.5894
▁காட்டுகிறோம்	-10.5894
▁காட்டுவைரமுத்து	-10.5894
▁காணாத	-10.5894
▁காணாமல்போன	-10.5894
▁காண்க	-10.5894
▁காண்டு	-10.5894
▁காதுக்குள்	-10.5894
▁காபூலில்	-10.5894
▁காப்பாற்றச்	-10.5894
▁காப்பாற்றும்	-10.5894
▁காப்பாளர்	-10.5894
▁காப்பியடித்தால்	-10.5894
▁காப்பீட்டுத்தொகை	-10.5894
▁காம்பினேஷனில்	-10.5894
▁காயத்துடன்	-10.5894
▁காயமடைந்தவரை	-10.5894
▁காய்ச்சலை	-10.5894
▁காரணங்கள்	-10.5894
▁காரணமல்ல	-10.5894
▁காரா	-10.5894
▁கார்கே	-10.5894
▁கார்டன்	-10.5894
▁கார்டுடன்	-10.5894
▁கார்த்தியின்	-10.5894
▁காற்றுவீசும்	-10.5894
▁காலத்தை	-10.5894
▁காலவரையற்ற	-10.5894
▁காலாவதியானது	-10.5894
▁காலையில்	-10.5894
▁கால்கள்	-10.5894
▁கால்நடை	-10.5894
▁கால்நடைகளுக்கு	-10.5894
▁காளியில்	-10.5894
▁காளை	-10.5894
▁காவிரிக்கு	-10.5894
▁காவ்யா	-10.5894
▁கிங்	-10.5894
▁கிடக்கும்	-10.5894
▁கிடுக்கிப்பிடி	-10.5894
▁கிடைக்கவில்லை	-10.5894
▁கிட்ட	-10.5894
▁கிட்டுமா	-10.5894
▁கிண்டலடித்து	-10.5894
▁கின்னஸுக்காக	-10.5894
▁கிராமங்களிலும்	-10.5894
▁கிராமத்தில்	-10.5894
▁கிரிக்கெட்டுக்கு	-10.5894
▁கிரிமினல்	-10.5894
▁கிருபாகரன்	-10.5894
▁கிருஷ்ண	-10.5894
▁கிறிஸ்தவ	-10.5894
▁கிளின்டன்	-10.5894
▁கிழிப்பு	-10.5894
▁கிஸ்	-10.5894
▁கீ2	-10.5894
▁குங்ஃபூ	-10.5894
▁குஜராத்திலும்	-10.5894
▁குடிகாரக்	-10.5894
▁குடிக்க	-10.5894
▁குடிசை	-10.5894
▁குடித்த	-10.5894
▁குடித்து	-10.5894
▁குடிமகனை	-10.5894
▁குடியிருப்பவரா	-10.5894
▁குடியேற்றம்	-10.5894
▁குடும்பச்	-10.5894
▁குடும்பத்தினருக்கு	-10.5894
▁குடும்பத்தினருடன்	-10.5894
▁குடும்பத்தைச்	-10.5894
▁குடை	-10.5894
▁குட்	-10.5894
▁குட்டிகளை	-10.5894
▁குணப்படுத்த	-10.5894
▁குண்டுகள்	-10.5894
▁குதறிய	-10.5894
▁குதித்து	-10.5894
▁குத்தமா	-10.5894
▁குத்தி	-10.5894
▁குத்திக்கொலை	-10.5894
▁குத்துச்	-10.5894
▁குப்தா	-10.5894
▁குப்பைக்	-10.5894
▁குமரி	-10.5894
▁குமரியில்	-10.5894
▁குமுறல்	-10.5894
▁கும்பகோணத்தில்	-10.5894
▁கும்பலால்	-10.5894
▁குரங்குகள்	-10.5894
▁குரூப்2	-10.5894
▁குரேஷியா	-10.5894
▁குரோஷிய	-10.5894
▁குர்தா	-10.5894
▁குறி	-10.5894
▁குறிப்பு	-10.5894
▁குறு	-10.5894
▁குறுக்கே	-10.5894
▁குறைபாடு	-10.5894
▁குற்றத்திற்காக	-10.5894
▁குற்றத்தை	-10.5894
▁குற்றம்சாட்டும்	-10.5894
▁குற்றாலத்தில்	-10.5894
▁குளத்தில்	-10.5894
▁குளத்தை	-10.5894
▁குளித்த	-10.5894
▁குழந்தைகளைக்	-10.5894
▁குழந்தையையும்	-10.5894
▁குழப்பத்தால்	-10.5894
▁குழப்பத்தில்	-10.5894
▁குழப்பும்	-10.5894
▁குழி	-10.5894
▁குழுமத்	-10.5894
▁குழுவில்	-10.5894
▁குவாரிகளுக்கு	-10.5894
▁குவிப்பில்	-10.5894
▁குஷி	-10.5894
▁கூடங்குளம்	-10.5894
▁கூட்டத்தை	-10.5894
▁கூட்டமாக	-10.5894
▁கூட்டாளி	-10.5894
▁கூட்டுப்	-10.5894
▁கூண்டோடு	-10.5894
▁கூந்தலை	-10.5894
▁கூறிவிட்டு	-10.5894
▁கூறுகிறார்	-10.5894
▁கூலித்	-10.5894
▁கூலிப்படை	-10.5894
▁கெஜ்ரிவாலை	-10.5894
▁கெயில்	-10.5894
▁கெளதம்	-10.5894
▁கேஎல்ராகுலை	-10.5894
▁கேக்குடன்	-10.5894
▁கேசிவீரமணி	-10.5894
▁கேட்டால்	-10.5894
▁கேட்டும்	-10.5894
▁கேட்பாரற்று	-10.5894
▁கேன்சரால்	-10.5894
▁கேன்சரில்	-10.5894
▁கேபாக்யராஜ்	-10.5894
▁கேப்டன்களை	-10.5894
▁கேப்டன்ஷிப்பில்	-10.5894
▁கேரக்டருக்கு	-10.5894
▁கேரளப்	-10.5894
▁கேரளாஇன்று	-10.5894
▁கேரளாவை	-10.5894
▁கேல்	-10.5894
▁கேளுங்கள்	-10.5894
▁கேள்விகள்	-10.5894
▁கைகலப்பு	-10.5894
▁கைகளில்	-10.5894
▁கைகொடுக்குமா	-10.5894
▁கைதிகளுக்கு	-10.5894
▁கைப்பற்ற	-10.5894
▁கைப்பற்றியது	-10.5894
▁கைப்பற்றுமா	-10.5894
▁கைப்பேசியைத்	-10.5894
▁கைமாறியது	-10.5894
▁கையகப்படுத்தும்	-10.5894
▁கைவிட	-10.5894
▁கைவிடப்பட்டது	-10.5894
▁கைவிடாத	-10.5894
▁கைவிரிப்பு	-10.5894
▁கைவிலங்கு	-10.5894
▁கொசுக்கள்	-10.5894
▁கொஞ்சி	-10.5894
▁கொடியேற்றம்	-10.5894
▁கொடுக்கவில்லை	-10.5894
▁கொடுக்குமா	-10.5894
▁கொடுக்குற	-10.5894
▁கொடுங்க	-10.5894
▁கொடுங்கையூர்	-10.5894
▁கொடுத்ததாக	-10.5894
▁கொடுத்துடாதீங்க	-10.5894
▁கொடுத்தோம்	-10.5894
▁கொடூரன்	-10.5894
▁கொட்டித்தீர்த்த	-10.5894
▁கொண்டாடியபோது	-10.5894
▁கொண்டுவர	-10.5894
▁கொண்டுவரப்படும்	-10.5894
▁கொண்டே	-10.5894
▁கொதித்தெழுந்த	-10.5894
▁கொன்றவரை	-10.5894
▁கொன்றுவிடுவார்கள்	-10.5894
▁கொம்புவச்ச	-10.5894
▁கொரில்லா	-10.5894
▁கொல	-10.5894
▁கொலமாஸ்	-10.5894
▁கொலைமிரட்டல்	-10.5894
▁கொலைவெறி	-10.5894
▁கொல்கத்தாவுக்கு	-10.5894
▁கொல்கத்தாவை	-10.5894
▁கொல்லப்படுகின்றனவா	-10.5894
▁கொள்ளவில்லை	-10.5894
▁கொள்ளையடிக்க	-10.5894
▁கொள்ளையர்களை	-10.5894
▁கோஃபின்	-10.5894
▁கோச்	-10.5894
▁கோடிக்	-10.5894
▁கோடியாம்	-10.5894
▁கோடியே	-10.5894
▁கோப்பையில்	-10.5894
▁கோப்பையுடன்	-10.5894
▁கோமியத்தால்	-10.5894
▁கோயிலை	-10.5894
▁கோரிக்கைகளை	-10.5894
▁கோரியவருக்கு	-10.5894
▁கோலிக்காக	-10.5894
▁கோலியிடம்	-10.5894
▁கோல்டன்	-10.5894
▁க்ரைம்	-10.5894
▁க்ளாமர்	-10.5894
▁சகிக்க	-10.5894
▁சகோதரி	-10.5894
▁சக்க	-10.5894
▁சக்சேனா	-10.5894
▁சக்திவாய்ந்த	-10.5894
▁சங்கங்களின்	-10.5894
▁சங்கங்கள்	-10.5894
▁சங்கத்திற்கு	-10.5894
▁சங்கமம்	-10.5894
▁சச்சினுக்கு	-10.5894
▁சடங்கிற்கு	-10.5894
▁சடங்கு	-10.5894
▁சடங்குகள்	-10.5894
▁சடலம்	-10.5894
▁சட்டக்கல்லூரி	-10.5894
▁சட்டத்துக்கு	-10.5894
▁சட்டமன்றத்தில்	-10.5894
▁சட்டமா	-10.5894
▁சண்டையாக	-10.5894
▁சண்டையில்	-10.5894
▁சதிசெய்து	-10.5894
▁சத்தியமங்கலம்	-10.5894
▁சந்திப்பதில்	-10.5894
▁சந்திப்புகள்	-10.5894
▁சந்தோஷம்	-10.5894
▁சபா	-10.5894
▁சபைக்	-10.5894
▁சமந்தாநாகசைதன்யா	-10.5894
▁சமந்தாவை	-10.5894
▁சமரசமும்	-10.5894
▁சமஸ்கிருதத்தை	-10.5894
▁சமஸ்கிருதப்	-10.5894
▁சமுத்திரக்கனி	-10.5894
▁சமூகத்தை	-10.5894
▁சம்பத்தை	-10.5894
▁சம்பந்தப்பட்ட	-10.5894
▁சம்பளத்தையும்	-10.5894
▁சம்பளமா	-10.5894
▁சம்பவத்துக்கு	-10.5894
▁சம்மேளனத்தின்	-10.5894
▁சரத்குமாருக்கு	-10.5894
▁சரிசெய்த	-10.5894
▁சரிதான்	-10.5894
▁சரித்திர	-10.5894
▁சரியா	-10.5894
▁சரியானதே	-10.5894
▁சரிவதை	-10.5894
▁சரோஜா	-10.5894
▁சர்ச்சைகள்	-10.5894
▁சர்ச்சையான	-10.5894
▁சலுகைகள்	-10.5894
▁சல்மானுக்கு	-10.5894
▁சவாரி	-10.5894
▁சஹா	-10.5894
▁சாகப்	-10.5894
▁சாடும்	-10.5894
▁சாதகமாக	-10.5894
▁சாதனைகளை	-10.5894
▁சாதனைப்	-10.5894
▁சாதாரண	-10.5894
▁சாதாரணமாக	-10.5894
▁சாதிக்க	-10.5894
▁சாதிக்கும்	-10.5894
▁சாதித்த	-10.5894
▁சாத்தனூர்	-10.5894
▁சாத்தான்	-10.5894
▁சாத்தியம்	-10.5894
▁சாந்தா	-10.5894
▁சான்	-10.5894
▁சாப்ட்வேர்	-10.5894
▁சாப்பிட	-10.5894
▁சாப்பிடும்	-10.5894
▁சாமர்த்தியமாக	-10.5894
▁சாமானியர்களின்	-10.5894
▁சாமானியர்கள்	-10.5894
▁சாம்	-10.5894
▁சாம்பியனாகுமா	-10.5894
▁சாம்ராஜ்யம்	-10.5894
▁சாராயம்	-10.5894
▁சாலையாக	-10.5894
▁சாவந்துக்கு	-10.5894
▁சாவா	-10.5894
▁சிஆர்சரஸ்வதி	-10.5894
▁சிஇஓ	-10.5894
▁சிஐஏ	-10.5894
▁சிகிச்சையின்போது	-10.5894
▁சிக்கலுக்கு	-10.5894
▁சிக்காமல்	-10.5894
▁சிக்கிமில்	-10.5894
▁சிக்னல்களை	-10.5894
▁சிக்ஸர்கள்	-10.5894
▁சிங்கத்தை	-10.5894
▁சிங்கம்டா	-10.5894
▁சிங்கம்போல	-10.5894
▁சிட்டியை	-10.5894
▁சிட்னி	-10.5894
▁சிதறி	-10.5894
▁சிதறியது	-10.5894
▁சித்துவை	-10.5894
▁சித்ராவுக்கு	-10.5894
▁சினிமாவுக்கு	-10.5894
▁சினிமாவை	-10.5894
▁சின்மயிக்கு	-10.5894
▁சிபிஎஸ்இக்கு	-10.5894
▁சிபிசிஐடிக்கு	-10.5894
▁சிம்புவுக்கு	-10.5894
▁சிராஜ்	-10.5894
▁சிரிக்கிறார்கள்	-10.5894
▁சிரிண்டா	-10.5894
▁சிரிப்பாய்	-10.5894
▁சிறப்பானது	-10.5894
▁சிறப்புக்	-10.5894
▁சிறிது	-10.5894
▁சிறு	-10.5894
▁சிறுமிகளுக்கு	-10.5894
▁சிறுமிகளை	-10.5894
▁சிறுவயதில்	-10.5894
▁சிறுவர்களுக்கு	-10.5894
▁சிறைத்	-10.5894
▁சிறையால்	-10.5894
▁சிலரின்	-10.5894
▁சிலருக்கு	-10.5894
▁சிலர்	-10.5894
▁சிலிர்க்கும்	-10.5894
▁சிலிர்ப்பு	-10.5894
▁சிலையா	-10.5894
▁சிவகார்த்திகேயனுடன்	-10.5894
▁சிவனடியார்	-10.5894
▁சிவபெருமான்	-10.5894
▁சீசரின்	-10.5894
▁சீண்டும்	-10.5894
▁சீனு	-10.5894
▁சீரமைப்பு	-10.5894
▁சீரியஸான	-10.5894
▁சீர்	-10.5894
▁சுகாதார	-10.5894
▁சுகேஷ்	-10.5894
▁சுங்கக்	-10.5894
▁சுசுவாமி	-10.5894
▁சுஜா	-10.5894
▁சுஜாதா	-10.5894
▁சுடச்சுட	-10.5894
▁சுட்டது	-10.5894
▁சுட்டனர்	-10.5894
▁சுட்டுக்கொன்ற	-10.5894
▁சுட்டுப்	-10.5894
▁சுதாகர்	-10.5894
▁சுத்தப்படுத்திய	-10.5894
▁சுமித்ரா	-10.5894
▁சுயமரியாதை	-10.5894
▁சுரண்டல்கள்	-10.5894
▁சுருளும்	-10.5894
▁சுற்றித்திரிந்த	-10.5894
▁சுற்றுகளில்	-10.5894
▁சுற்றுச்சுவரை	-10.5894
▁சுற்றுப்பயணம்	-10.5894
▁சுற்றுலாவிற்கு	-10.5894
▁சுவாமியின்	-10.5894
▁சுவாரஸ்யங்களும்	-10.5894
▁சூட்டு	-10.5894
▁சூதாட்டப்	-10.5894
▁சூரசம்ஹார	-10.5894
▁சூரப்பா	-10.5894
▁சூறை	-10.5894
▁சூளுரை	-10.5894
▁சூழ்ந்த	-10.5894
▁செகண்ட்தான்	-10.5894
▁செக்க	-10.5894
▁செக்கச்	-10.5894
▁செங்கலால்	-10.5894
▁செங்கல்பட்டு	-10.5894
▁சென்டாக்	-10.5894
▁சென்னைப்	-10.5894
▁சென்றவர்களில்	-10.5894
▁சென்றவர்கள்	-10.5894
▁செபாஸ்டியன்	-10.5894
▁செப்	-10.5894
▁செப்டம்பரில்	-10.5894
▁செம்மரம்	-10.5894
▁செம்மொழி	-10.5894
▁செயற்குழுக்	-10.5894
▁செயற்பாட்டாளர்கள்	-10.5894
▁செயலக	-10.5894
▁செயலர்	-10.5894
▁செயின்	-10.5894
▁செய்கிறாரா	-10.5894
▁செய்ததாக	-10.5894
▁செய்துகொண்ட	-10.5894
▁செய்யக்கூடாது	-10.5894
▁செய்யப்படவில்லை	-10.5894
▁செய்யமாட்டோம்	-10.5894
▁செய்யலாமா	-10.5894
▁செய்யவே	-10.5894
▁செய்யவேண்டும்	-10.5894
▁செய்யாதது	-10.5894
▁செய்வதா	-10.5894
▁செருப்படி	-10.5894
▁செலுத்தத்	-10.5894
▁செலுத்தவில்லை	-10.5894
▁செல்லாததுதான்	-10.5894
▁செல்லாமல்	-10.5894
▁செல்லுங்கள்	-10.5894
▁செல்வதாக	-10.5894
▁செல்வது	-10.5894
▁செல்வதை	-10.5894
▁செல்வராஜ்	-10.5894
▁சேகர்ரெட்டி	-10.5894
▁சேட்டன்	-10.5894
▁சேதத்துக்கு	-10.5894
▁சேப்பாக்கத்தில்	-10.5894
▁சேமிப்பை	-10.5894
▁சேர்க்கைக்கு	-10.5894
▁சேவைகள்	-10.5894
▁சேவையாற்ற	-10.5894
▁சேஸூம்	-10.5894
▁சைக்கோ	-10.5894
▁சைனாமேன்	-10.5894
▁சொராபுதீன்	-10.5894
▁சொர்க்கம்	-10.5894
▁சொர்க்கவாசல்	-10.5894
▁சொல்கிறார்கள்	-10.5894
▁சொல்கிறேன்	-10.5894
▁சொல்றீங்க	-10.5894
▁சொல்லிட்டு	-10.5894
▁சொல்வதே	-10.5894
▁சொல்வேன்	-10.5894
▁சோங்கா	-10.5894
▁சோடா	-10.5894
▁சோதனையை	-10.5894
▁சோனியாவுடன்	-10.5894
▁சோப்ரா	-10.5894
▁சோலார்	-10.5894
▁சோளம்	-10.5894
▁ஜன25ல்	-10.5894
▁ஜமைக்கா	-10.5894
▁ஜலராஜா	-10.5894
▁ஜல்லிக்கட்டுக்காக	-10.5894
▁ஜாக்டோஜியோ	-10.5894
▁ஜாமீனை	-10.5894
▁ஜிஎஸ்டிக்கு	-10.5894
▁ஜிஎஸ்டியால்	-10.5894
▁ஜிகாத்	-10.5894
▁ஜிகேவாசன்	-10.5894
▁ஜிக்னேஷ்	-10.5894
▁ஜிப்மர்	-10.5894
▁ஜீயரின்	-10.5894
▁ஜீவிபிரகாஷ்	-10.5894
▁ஜூனில்	-10.5894
▁ஜெயசூர்யா	-10.5894
▁ஜெயராமனுக்கு	-10.5894
▁ஜெயராம்	-10.5894
▁ஜெயலலிதாவாக	-10.5894
▁ஜெயிக்க	-10.5894
▁ஜெயித்தால்	-10.5894
▁ஜெயேந்திரரின்	-10.5894
▁ஜெய்	-10.5894
▁ஜெவுக்கு	-10.5894
▁ஜோடிகளுக்கு	-10.5894
▁ஜோடியாகிறார்	-10.5894
▁ஜோதிடரின்	-10.5894
▁டக்	-10.5894
▁டப்பிங்	-10.5894
▁டயர்	-10.5894
▁டவுன்	-10.5894
▁டாக்ஸி	-10.5894
▁டார்ஜிலிங்கில்	-10.5894
▁டாஸ்மாக்கை	-10.5894
▁டிஐஜி	-10.5894
▁டிச	-10.5894
▁டிச17ல்	-10.5894
▁டிசைனர்	-10.5894
▁டிஜிபியை	-10.5894
▁டிட்லி	-10.5894
▁டிம்	-10.5894
▁டிரா	-10.5894
▁டிராபிக்	-10.5894
▁டிரெய்லர்	-10.5894
▁டிரெஸ்சிங்	-10.5894
▁டிவிட்டரில்	-10.5894
▁டீக்கடை	-10.5894
▁டீசரில்	-10.5894
▁டீலக்ஸ்	-10.5894
▁டீல்	-10.5894
▁டுவிட்டரில்	-10.5894
▁டூடுல்	-10.5894
▁டூடுளில்	-10.5894
▁டூயட்	-10.5894
▁டூர்	-10.5894
▁டெண்டர்கள்	-10.5894
▁டெண்டுல்கர்	-10.5894
▁டெல்லியைக்	-10.5894
▁டேங்கர்	-10.5894
▁டைட்டில்	-10.5894
▁டைரக்டர்	-10.5894
▁டைவர்ஸ்	-10.5894
▁டோக்கியோவில்	-10.5894
▁ட்ரூஜெட்	-10.5894
▁ட்ரூடோவின்	-10.5894
▁ட்ரெக்கிங்	-10.5894
▁ட்ரெய்லரும்	-10.5894
▁ட்விட்கள்	-10.5894
▁தகுதித்	-10.5894
▁தகுதியும்	-10.5894
▁தங்கத்	-10.5894
▁தங்கத்தமிழ்செல்வன்	-10.5894
▁தங்கப்	-10.5894
▁தங்கப்பதக்கம்	-10.5894
▁தங்களை	-10.5894
▁தங்கியிருந்த	-10.5894
▁தடம்	-10.5894
▁தடார்	-10.5894
▁தடுக்கவே	-10.5894
▁தடுத்தால்	-10.5894
▁தடுமாறுவது	-10.5894
▁தடைவிதிக்க	-10.5894
▁தட்டி	-10.5894
▁தட்டு	-10.5894
▁தட்டுப்பாட்டால்	-10.5894
▁தட்டுவார்	-10.5894
▁தத்தா	-10.5894
▁தத்தின்	-10.5894
▁தத்தெடுத்த	-10.5894
▁தந்தைக்கு	-10.5894
▁தந்தையைப்	-10.5894
▁தனபாலை	-10.5894
▁தனியாக	-10.5894
▁தனியாருக்கு	-10.5894
▁தனியே	-10.5894
▁தன்னம்பிக்கையை	-10.5894
▁தன்னார்வலர்கள்	-10.5894
▁தன்மானம்	-10.5894
▁தன்ஷிகா	-10.5894
▁தபால்கள்	-10.5894
▁தப்பா	-10.5894
▁தப்பியோடிய	-10.5894
▁தப்பியோட்டம்	-10.5894
▁தமிழகத்துக்கும்	-10.5894
▁தமிழகத்தைக்	-10.5894
▁தமிழனாக	-10.5894
▁தமிழ்தான்	-10.5894
▁தமிழ்த்	-10.5894
▁தமிழ்ப்பெண்	-10.5894
▁தம்பதிகள்	-10.5894
▁தம்பதியை	-10.5894
▁தம்பிதுரையுடன்	-10.5894
▁தம்பியை	-10.5894
▁தயக்கம்	-10.5894
▁தயாராகிறார்	-10.5894
▁தயாரிப்பு	-10.5894
▁தரத்தில்	-10.5894
▁தரமணி	-10.5894
▁தரமாட்டேன்	-10.5894
▁தரவரிசைப்	-10.5894
▁தரவேண்டும்	-10.5894
▁தரிசிக்க	-10.5894
▁தருணங்கள்	-10.5894
▁தரைதட்டியது	-10.5894
▁தரையிறக்கப்பட்ட	-10.5894
▁தர்மேந்திர	-10.5894
▁தற்கொலைப்	-10.5894
▁தற்கொலையே	-10.5894
▁தற்போதைய	-10.5894
▁தலாக்	-10.5894
▁தலைக்குள்	-10.5894
▁தலைதுண்டித்து	-10.5894
▁தலைமறைவு	-10.5894
▁தலைமுடியை	-10.5894
▁தலைமைக்	-10.5894
▁தலைமையிலான	-10.5894
▁தலையிடுவதா	-10.5894
▁தலையிட்டிருக்கலாம்	-10.5894
▁தலையை	-10.5894
▁தள்	-10.5894
▁தள்லே	-10.5894
▁தள்ளிப்போகும்	-10.5894
▁தள்ளிவைத்துவிட்டு	-10.5894
▁தழுவிய	-10.5894
▁தவறானத்	-10.5894
▁தவறுக்கு	-10.5894
▁தாகம்	-10.5894
▁தாகூருக்கு	-10.5894
▁தாக்கத்தை	-10.5894
▁தாக்கப்படும்	-10.5894
▁தாக்கியதா	-10.5894
▁தாக்கியதாக	-10.5894
▁தாக்கியதால்	-10.5894
▁தாக்கியது	-10.5894
▁தாக்குகிறதா	-10.5894
▁தாங்கிப்பிடிக்கும்	-10.5894
▁தாங்கும்	-10.5894
▁தாஜ்மஹாலை	-10.5894
▁தாண்டி	-10.5894
▁தாண்டியது	-10.5894
▁தாதாவின்	-10.5894
▁தானும்	-10.5894
▁தாமதமாக	-10.5894
▁தாமிரபரணியில்	-10.5894
▁தாய்க்கு	-10.5894
▁தாற்காலிகமாக	-10.5894
▁திகார்	-10.5894
▁திக்திக்	-10.5894
▁திசை	-10.5894
▁திட்டமிடும்	-10.5894
▁திணறிய	-10.5894
▁திமுகவை	-10.5894
▁திரவம்	-10.5894
▁திரிபதி	-10.5894
▁திரிபுராவில்	-10.5894
▁திரில்லர்	-10.5894
▁திரிஷா	-10.5894
▁திருச்செந்தூர்	-10.5894
▁திருடியே	-10.5894
▁திருநங்கைகளுக்காக	-10.5894
▁திருநங்கையை	-10.5894
▁திருநாவுக்கரசு	-10.5894
▁திருப்பிக்	-10.5894
▁திருப்பிச்	-10.5894
▁திருப்பும்	-10.5894
▁திருமணமா	-10.5894
▁திருமாவளவனை	-10.5894
▁திரும்புகிறார்	-10.5894
▁திரும்புவார்	-10.5894
▁திரைக்கு	-10.5894
▁திரைப்	-10.5894
▁திரையிடப்படும்	-10.5894
▁திறக்கக்	-10.5894
▁திறக்கப்பட்ட	-10.5894
▁திறக்கிறார்	-10.5894
▁திறந்துவைத்தார்	-10.5894
▁திறமையை	-10.5894
▁திலீப்காவ்யா	-10.5894
▁தில்	-10.5894
▁தில்லாலே	-10.5894
▁திவாரி	-10.5894
▁திவ்யா	-10.5894
▁திஷா	-10.5894
▁தீபாவிற்கு	-10.5894
▁தீயாய்	-10.5894
▁தீயில்	-10.5894
▁தீர்க்க	-10.5894
▁தீர்க்கும்	-10.5894
▁தீர்ப்பாயம்	-10.5894
▁தீர்ப்புகள்	-10.5894
▁தீர்மானங்கள்	-10.5894
▁தீர்மானத்தை	-10.5894
▁தீர்வை	-10.5894
▁தீவிரவாதியா	-10.5894
▁துக்கம்	-10.5894
▁துடிக்கிறது	-10.5894
▁துடிதுடித்த	-10.5894
▁துடித்தேன்	-10.5894
▁துணிச்சலாக	-10.5894
▁துண்டாக	-10.5894
▁துன்புறுத்தாதீர்கள்	-10.5894
▁துப்பாக்கிகள்	-10.5894
▁துப்பாக்கிச்சூட்டிற்கு	-10.5894
▁துயரமே	-10.5894
▁துயரம்	-10.5894
▁துரோகி	-10.5894
▁துறந்தேன்	-10.5894
▁துறையில்	-10.5894
▁துல்கரை	-10.5894
▁தூக்கிச்சென்ற	-10.5894
▁தூதரகத்தில்	-10.5894
▁தூதராக	-10.5894
▁தூய்மை	-10.5894
▁தூய்மைக்காக	-10.5894
▁தூர்வாரிய	-10.5894
▁தூவி	-10.5894
▁தென்கொரியாவுக்குள்	-10.5894
▁தென்னக	-10.5894
▁தென்னிந்திய	-10.5894
▁தென்மாநில	-10.5894
▁தெரசா	-10.5894
▁தெரிந்தது	-10.5894
▁தெரிந்தே	-10.5894
▁தெரியப்படுத்தாமல்	-10.5894
▁தெரியல	-10.5894
▁தெரியாதவர்	-10.5894
▁தெரிவிக்க	-10.5894
▁தெருவில்	-10.5894
▁தெறிக்கவிட்ட	-10.5894
▁தேக்கடி	-10.5894
▁தேசத்தின்	-10.5894
▁தேசத்திற்காக	-10.5894
▁தேசத்திற்கு	-10.5894
▁தேசப்பிதா	-10.5894
▁தேசியத்	-10.5894
▁தேடப்படும்	-10.5894
▁தேடுதல்	-10.5894
▁தேடுவதா	-10.5894
▁தேனி	-10.5894
▁தேம்பித்தேம்பி	-10.5894
▁தேர்ச்சிக்காக	-10.5894
▁தேர்தலையொட்டி	-10.5894
▁தேர்தல்கள்	-10.5894
▁தேர்வா	-10.5894
▁தேர்வாளர்கள்	-10.5894
▁தேர்விலிருந்து	-10.5894
▁தேவகவுடா	-10.5894
▁தேவகவுடாவை	-10.5894
▁தேவாரம்	-10.5894
▁தேவியின்	-10.5894
▁தேவையான	-10.5894
▁தைவான்	-10.5894
▁தொகுதிகளுக்கு	-10.5894
▁தொடங்கின	-10.5894
▁தொடங்கிவிட்டது	-10.5894
▁தொடங்குவது	-10.5894
▁தொடரட்டும்	-10.5894
▁தொடுவது	-10.5894
▁தொட்டில்	-10.5894
▁தொன்மையான	-10.5894
▁தொற்றுநோய்	-10.5894
▁தொழிற்சங்கங்கள்	-10.5894
▁தொழிலதிபரிடம்	-10.5894
▁தொழிலதிபரை	-10.5894
▁தொழிலாளர்களுக்கு	-10.5894
▁தொழிலாளர்களுடன்	-10.5894
▁தொழிலாளியின்	-10.5894
▁தொழில்களுக்கு	-10.5894
▁தொழில்நுட்ப	-10.5894
▁தோற்கடிப்போம்	-10.5894
▁தோல்விக்குப்	-10.5894
▁தோழர்	-10.5894
▁த்ரில்லாக	-10.5894
▁நகல்	-10.5894
▁நகைக்கடை	-10.5894
▁நக்கீரனின்	-10.5894
▁நக்சலைட்டுகள்	-10.5894
▁நசீருதின்	-10.5894
▁நடக்கவிருந்த	-10.5894
▁நடக்கவில்லை	-10.5894
▁நடக்காது	-10.5894
▁நடத்தக்கூடாது	-10.5894
▁நடத்தப்படும்	-10.5894
▁நடத்தவில்லை	-10.5894
▁நடத்துநர்	-10.5894
▁நடத்துவதில்	-10.5894
▁நடந்தாலும்	-10.5894
▁நடந்தால்	-10.5894
▁நடன	-10.5894
▁நடனமாடுவாரா	-10.5894
▁நடமாட்டம்	-10.5894
▁நடவடிக்கைகள்	-10.5894
▁நடாலுடன்	-10.5894
▁நடிகைகளுக்கு	-10.5894
▁நடிக்கவில்லையா	-10.5894
▁நடிப்பை	-10.5894
▁நடும்	-10.5894
▁நடைதிறப்பு	-10.5894
▁நடைபெற்ற	-10.5894
▁நட்சத்திரத்தில்	-10.5894
▁நந்தினி	-10.5894
▁நந்தீஷ்	-10.5894
▁நன்கொடையாக	-10.5894
▁நன்மைக்காக	-10.5894
▁நமீதா	-10.5894
▁நம்ம	-10.5894
▁நம்மை	-10.5894
▁நயவஞ்சகத்துடன்	-10.5894
▁நய்யார்	-10.5894
▁நரபலி	-10.5894
▁நலத்திட்டங்களை	-10.5894
▁நலமுடன்	-10.5894
▁நல்லா	-10.5894
▁நழுவிய	-10.5894
▁நவீன்	-10.5894
▁நாகேஸ்வர்	-10.5894
▁நாசர்	-10.5894
▁நாசா	-10.5894
▁நாடகமா	-10.5894
▁நாடா	-10.5894
▁நாடாளுமன்றத்துக்கு	-10.5894
▁நாடாளுமன்றத்தை	-10.5894
▁நாடுகளில்	-10.5894
▁நாடே	-10.5894
▁நாட்டிய	-10.5894
▁நாட்டுக்கு	-10.5894
▁நாட்டைப்	-10.5894
▁நாணயங்களை	-10.5894
▁நாணயம்	-10.5894
▁நாதஸ்வரம்	-10.5894
▁நாப்கின்கள்	-10.5894
▁நாயகிகள்	-10.5894
▁நாயை	-10.5894
▁நாய்களை	-10.5894
▁நாய்க்கறியா	-10.5894
▁நாளன்று	-10.5894
▁நிகழ்ச்சிகள்	-10.5894
▁நிகோலஸ்	-10.5894
▁நிஜமாக்கிய	-10.5894
▁நிதியைப்	-10.5894
▁நிதிஷ்குமாரை	-10.5894
▁நினைக்கிறார்	-10.5894
▁நினைக்கிறார்கள்	-10.5894
▁நினைத்தேன்	-10.5894
▁நினைவகம்	-10.5894
▁நினைவுச்	-10.5894
▁நினைவேந்தல்	-10.5894
▁நின்று	-10.5894
▁நிபாவைரஸ்	-10.5894
▁நியமிக்க	-10.5894
▁நியாயவிலைக்	-10.5894
▁நிரபராதின்னு	-10.5894
▁நிரூபிக்கும்	-10.5894
▁நிர்ணயம்	-10.5894
▁நிர்ணயித்தது	-10.5894
▁நிர்பயா	-10.5894
▁நிர்வாகத்தை	-10.5894
▁நிர்வாகிகள்	-10.5894
▁நிர்வாணத்துடன்	-10.5894
▁நிர்வாணப்படுத்தி	-10.5894
▁நிறத்துக்கு	-10.5894
▁நிறுத்தப்போராட்டம்	-10.5894
▁நிறுவனங்கள்	-10.5894
▁நிறுவனத்தை	-10.5894
▁நிறைமாத	-10.5894
▁நிறைவேற்றிக்	-10.5894
▁நிறைவேற்றிய	-10.5894
▁நிலங்களில்	-10.5894
▁நிலத்தடி	-10.5894
▁நிலவு	-10.5894
▁நிலவேம்பு	-10.5894
▁நிலைப்பாடு	-10.5894
▁நிலையங்களிலும்	-10.5894
▁நிலையத்திற்குள்	-10.5894
▁நிலையத்துக்கு	-10.5894
▁நிலையான	-10.5894
▁நிவாரணத்திற்காக	-10.5894
▁நிவின்	-10.5894
▁நீக்கக்	-10.5894
▁நீக்கத்திற்கு	-10.5894
▁நீக்கப்பட்டது	-10.5894
▁நீடிக்க	-10.5894
▁நீடிப்பார்	-10.5894
▁நீட்டிக்கக்	-10.5894
▁நீர்வரத்து	-10.5894
▁நீர்வளத்துறை	-10.5894
▁நீலு	-10.5894
▁நுழைந்தால்	-10.5894
▁நுழைவாயில்	-10.5894
▁நெகிழ்ச்சியான	-10.5894
▁நெஞ்சு	-10.5894
▁நெடுமாறன்	-10.5894
▁நெரித்த	-10.5894
▁நெருக்கமான	-10.5894
▁நெருங்கிய	-10.5894
▁நெல்லித்தோப்பு	-10.5894
▁நேசம்	-10.5894
▁நேசிப்பதுதானே	-10.5894
▁நேபாள	-10.5894
▁நேரத்திற்கு	-10.5894
▁நேரத்தை	-10.5894
▁நேரலையில்	-10.5894
▁நேரும்	-10.5894
▁நேருவின்	-10.5894
▁நேர்மையாக	-10.5894
▁நைபால்	-10.5894
▁நொடியிலும்	-10.5894
▁நோக்கமில்லை	-10.5894
▁நோட்டாவிடம்	-10.5894
▁நோட்டை	-10.5894
▁நோயால்	-10.5894
▁நோயாளிகளைப்	-10.5894
▁நோயினால்	-10.5894
▁நோயில்லாமல்	-10.5894
▁பக்கம்	-10.5894
▁பக்தர்	-10.5894
▁பக்தர்களுடன்	-10.5894
▁பங்கேற்கவில்லை	-10.5894
▁பசுக்களை	-10.5894
▁பசுவை	-10.5894
▁பச்சைத்	-10.5894
▁பஞ்சம்	-10.5894
▁பஞ்சாபில்	-10.5894
▁படக்குழுவுக்கு	-10.5894
▁படங்களுக்கு	-10.5894
▁படமாகிறது	-10.5894
▁படமாக்க	-10.5894
▁படிக்கத்	-10.5894
▁படுக	-10.5894
▁படுகொலையில்	-10.5894
▁படுகோன்	-10.5894
▁படுத்திருந்த	-10.5894
▁படைத்தவர்	-10.5894
▁படையல்	-10.5894
▁படையினருக்கு	-10.5894
▁படையெடுக்கும்	-10.5894
▁பட்ஜெட்டுக்கு	-10.5894
▁பட்டியலிட்டு	-10.5894
▁பணப்	-10.5894
▁பணமதிப்பு	-10.5894
▁பணிந்தது	-10.5894
▁பணிபுரிவதை	-10.5894
▁பணிப்	-10.5894
▁பணியமர்த்த	-10.5894
▁பணியாற்ற	-10.5894
▁பணியிடமாற்றம்	-10.5894
▁பண்ணியிருக்காங்க	-10.5894
▁பண்ணுங்க	-10.5894
▁பதட்டமாக	-10.5894
▁பதறவைத்த	-10.5894
▁பதவிக்காலத்தை	-10.5894
▁பதானி	-10.5894
▁பதிலளித்து	-10.5894
▁பதிலுக்கு	-10.5894
▁பதிவேடு	-10.5894
▁பதிவேற்ற	-10.5894
▁பத்திரப்பதிவு	-10.5894
▁பத்திரிகையாளர்களுக்கு	-10.5894
▁பத்து	-10.5894
▁பந்தன்	-10.5894
▁பந்தயத்தில்	-10.5894
▁பந்தளம்	-10.5894
▁பந்தாடிய	-10.5894
▁பந்துவீச்சாளர்	-10.5894
▁பந்துவீச்சாளர்களை	-10.5894
▁பனிப்பொழிவின்	-10.5894
▁பனிப்போர்	-10.5894
▁பன்ட்	-10.5894
▁பன்னாட்டு	-10.5894
▁பன்னீர்செல்வத்தின்	-10.5894
▁பன்றி	-10.5894
▁பன்றிக்காய்ச்சலுக்கு	-10.5894
▁பபாண்டியின்	-10.5894
▁பயங்கரவாதிகளின்	-10.5894
▁பயணச்செலவு	-10.5894
▁பயணத்திற்கான	-10.5894
▁பயணிகளுக்காக	-10.5894
▁பயணிக்கு	-10.5894
▁பயணியை	-10.5894
▁பயன்படுத்தலாம்	-10.5894
▁பயன்படுத்தி	-10.5894
▁பயன்படுத்திக்	-10.5894
▁பயன்படுத்திய	-10.5894
▁பயன்படுத்துவோருக்கு	-10.5894
▁பயன்பாட்டிற்கு	-10.5894
▁பயப்பட	-10.5894
▁பயப்படவில்லை	-10.5894
▁பயிர்கள்	-10.5894
▁பயிர்க்காப்பீடு	-10.5894
▁பயிற்சியில்	-10.5894
▁பயோபிக்குக்கு	-10.5894
▁பரதம்	-10.5894
▁பரபரக்கும்	-10.5894
▁பரபரப்பை	-10.5894
▁பரப்ப	-10.5894
▁பரப்புரையை	-10.5894
▁பரவ	-10.5894
▁பரவசம்	-10.5894
▁பரவலாக	-10.5894
▁பரிசளித்த	-10.5894
▁பரிசீலனை	-10.5894
▁பரிசுடன்	-10.5894
▁பரிமாற்றம்	-10.5894
▁பரியேறும்	-10.5894
▁பருத்தி	-10.5894
▁பருவநிலை	-10.5894
▁பரோலில்	-10.5894
▁பர்மன்	-10.5894
▁பறவைகள்	-10.5894
▁பறிபோனதால்	-10.5894
▁பலவீனமடையக்	-10.5894
▁பலூன்	-10.5894
▁பல்டி	-10.5894
▁பளீச்	-10.5894
▁பள்ளம்	-10.5894
▁பள்ளியிலிருந்து	-10.5894
▁பழ	-10.5894
▁பழங்குடியினர்	-10.5894
▁பழனி	-10.5894
▁பழனிசாமிக்கு	-10.5894
▁பழனிசாமியின்	-10.5894
▁பழனிசாமியை	-10.5894
▁பழமையானது	-10.5894
▁பழிவாங்கிய	-10.5894
▁பழுது	-10.5894
▁பவர்ஸ்டார்	-10.5894
▁பாகங்கள்	-10.5894
▁பாகமாக	-10.5894
▁பாகவத்	-10.5894
▁பாகுபலியில்	-10.5894
▁பாகுபாடா	-10.5894
▁பாக்கி	-10.5894
▁பாக்கேப்டன்	-10.5894
▁பாக்கொடுத்த	-10.5894
▁பாசப்போர்	-10.5894
▁பாசு	-10.5894
▁பாஜகவிற்கு	-10.5894
▁பாஜகவிலிருந்து	-10.5894
▁பாடத்திட்டம்	-10.5894
▁பாடலா	-10.5894
▁பாட்டில்தான்	-10.5894
▁பாண்ட்யாவுக்கு	-10.5894
▁பாதிக்கப்பட்டவர்களுக்கு	-10.5894
▁பாதிக்கப்பட்டுள்ள	-10.5894
▁பாதிப்பிற்கு	-10.5894
▁பாதிப்புகளை	-10.5894
▁பாதிப்புகள்	-10.5894
▁பாதிப்புக்குள்ளான	-10.5894
▁பாதியில்	-10.5894
▁பாதிரியாருக்கு	-10.5894
▁பாதுகாப்புக்கு	-10.5894
▁பாதுகாப்பும்	-10.5894
▁பாதைக்கு	-10.5894
▁பாத்திமாவுக்கு	-10.5894
▁பானங்களை	-10.5894
▁பாபர்	-10.5894
▁பாம்புகள்	-10.5894
▁பாய்	-10.5894
▁பாரபட்சம்	-10.5894
▁பாராட்டும்	-10.5894
▁பாரிஸில்	-10.5894
▁பார்	-10.5894
▁பார்களை	-10.5894
▁பார்க்காத	-10.5894
▁பார்க்கும்	-10.5894
▁பார்சல்	-10.5894
▁பார்ட்டி	-10.5894
▁பார்த்தவர்கள்	-10.5894
▁பார்த்தாயா	-10.5894
▁பார்றா	-10.5894
▁பார்லரில்	-10.5894
▁பார்வைக்காக	-10.5894
▁பார்வையற்ற	-10.5894
▁பாலன்	-10.5894
▁பாலபாஸ்கர்	-10.5894
▁பாலில்	-10.5894
▁பாலிவுட்டின்	-10.5894
▁பாலூட்டும்போது	-10.5894
▁பாலை	-10.5894
▁பாஸ்ம்	-10.5894
▁பிஎஸ்எல்வி	-10.5894
▁பிக்	-10.5894
▁பிக்சிங்	-10.5894
▁பிசினஸ்	-10.5894
▁பிடிக்கப்பட்டார்	-10.5894
▁பிடிக்கவில்லை	-10.5894
▁பிடிக்காதது	-10.5894
▁பிடிக்கிறார்	-10.5894
▁பிடித்தவர்	-10.5894
▁பிடிபி	-10.5894
▁பிதுங்கிய	-10.5894
▁பின்தொடர்ந்த	-10.5894
▁பின்னணியில்	-10.5894
▁பின்னுக்குத்	-10.5894
▁பின்னும்	-10.5894
▁பிப்	-10.5894
▁பிப்5ம்	-10.5894
▁பியூட்டி	-10.5894
▁பிரகாஷ்ராஜ்	-10.5894
▁பிரசவத்தில்	-10.5894
▁பிரசாதம்	-10.5894
▁பிரதான்	-10.5894
▁பிரமாண்டத்தில்	-10.5894
▁பிரம்மாண்டமான	-10.5894
▁பிரவீன்	-10.5894
▁பிரஷர்	-10.5894
▁பிரான்ஸை	-10.5894
▁பிராமணர்	-10.5894
▁பிரித்திகா	-10.5894
▁பிரித்து	-10.5894
▁பிரிவில்	-10.5894
▁பிரேமலதா	-10.5894
▁பிறக்கும்	-10.5894
▁பிறந்தது	-10.5894
▁பிறந்து	-10.5894
▁பில்லிங்ஸ்	-10.5894
▁பிளாக்	-10.5894
▁பிளைட்டில்	-10.5894
▁பிவிசிந்துவுக்கு	-10.5894
▁புகழ்பெற்ற	-10.5894
▁புகாரளித்தார்	-10.5894
▁புக்	-10.5894
▁புக்கட்	-10.5894
▁புக்கிகள்	-10.5894
▁புதுக்	-10.5894
▁புதுக்கோட்டையில்	-10.5894
▁புதுசுபிளாஸ்டிக்	-10.5894
▁புதுச்சேரிக்கு	-10.5894
▁புதுமணப்	-10.5894
▁புதுவை	-10.5894
▁புதைந்த	-10.5894
▁புத்தக	-10.5894
▁புத்தகங்கள்	-10.5894
▁புத்தகமாக்கினார்	-10.5894
▁புயலைப்	-10.5894
▁புரட்சி	-10.5894
▁புரமோஷன்	-10.5894
▁புரிந்த	-10.5894
▁புரிந்துகொள்ளட்டும்	-10.5894
▁புரியவில்லை	-10.5894
▁புரியாமல்	-10.5894
▁புறக்கணித்தார்	-10.5894
▁புறநகர்ப்	-10.5894
▁புறப்பட்ட	-10.5894
▁புலியை	-10.5894
▁புல்	-10.5894
▁புல்கூடு	-10.5894
▁புள்ளி	-10.5894
▁புள்ளிசுறா	-10.5894
▁புள்ளையா	-10.5894
▁பூக்குட்டி	-10.5894
▁பூஜைக்காக	-10.5894
▁பூட்டி	-10.5894
▁பூனை	-10.5894
▁பூர்வகுடிகளின்	-10.5894
▁பெங்களூரில்	-10.5894
▁பெடரர்	-10.5894
▁பெட்ரோலும்	-10.5894
▁பெட்ரோலை	-10.5894
▁பெண்களுக்காக	-10.5894
▁பெண்களுக்கும்	-10.5894
▁பெண்களும்	-10.5894
▁பெண்களையும்	-10.5894
▁பெண்ணாக	-10.5894
▁பெண்ணுடன்	-10.5894
▁பெத்த	-10.5894
▁பென்ஸ்	-10.5894
▁பெயர்ப்பலகையில்	-10.5894
▁பெயிட்டி	-10.5894
▁பெய்ன்	-10.5894
▁பெய்யலாம்	-10.5894
▁பெருங்கடலில்	-10.5894
▁பெருந்தன்மை	-10.5894
▁பெருவை	-10.5894
▁பெர்ரி	-10.5894
▁பெறட்டுமா	-10.5894
▁பெறுக	-10.5894
▁பெறுமா	-10.5894
▁பெறுவது	-10.5894
▁பெற்றுக்கொண்டால்	-10.5894
▁பெற்றோருக்கு	-10.5894
▁பேக்ஸ்	-10.5894
▁பேசவில்லை	-10.5894
▁பேசினேனா	-10.5894
▁பேசுனாரோ	-10.5894
▁பேச்சாளர்கள்	-10.5894
▁பேச்சுவார்த்தையை	-10.5894
▁பேச்சுவிளக்கம்	-10.5894
▁பேட்மின்டன்	-10.5894
▁பேட்ஸ்மேன்களை	-10.5894
▁பேனருக்கு	-10.5894
▁பேர	-10.5894
▁பேரணிஸ்தம்பித்த	-10.5894
▁பேரவை	-10.5894
▁பேரவைகளுக்கு	-10.5894
▁பேரவைக்குள்	-10.5894
▁பேராசிரியைக்கு	-10.5894
▁பேரியம்	-10.5894
▁பேரிழப்பு	-10.5894
▁பேருந்தின்	-10.5894
▁பேருந்துகளின்	-10.5894
▁பேருந்துகளுக்கு	-10.5894
▁பேரைச்	-10.5894
▁பேஷன்	-10.5894
▁பைஃன்	-10.5894
▁பைகளுக்கு	-10.5894
▁பொண்ணு	-10.5894
▁பொதுச்செயலாளராக	-10.5894
▁பொதுப்	-10.5894
▁பொதுமன்னிப்புக்கு	-10.5894
▁பொன்னான	-10.5894
▁பொருட்களில்	-10.5894
▁பொருட்களுக்கு	-10.5894
▁பொருளாதாரத்தில்	-10.5894
▁பொருள்கள்	-10.5894
▁பொறி	-10.5894
▁பொறியாளர்	-10.5894
▁பொறுப்பாளர்கள்	-10.5894
▁பொறுப்பேற்க	-10.5894
▁பொழிவு	-10.5894
▁போகலாம்	-10.5894
▁போகாததால்	-10.5894
▁போகுது	-10.5894
▁போக்குவரத்தை	-10.5894
▁போச்சே	-10.5894
▁போடுவீர்களா	-10.5894
▁போட்டா	-10.5894
▁போட்டியாக	-10.5894
▁போட்டியிடவுள்ள	-10.5894
▁போட்டியிடுகிறாரா	-10.5894
▁போட்டுள்ளார்	-10.5894
▁போதகர்	-10.5894
▁போதுமா	-10.5894
▁போதைப்	-10.5894
▁போதைப்பொருள்	-10.5894
▁போத்ராவிற்கு	-10.5894
▁போன்சி	-10.5894
▁போர்க்கப்பல்	-10.5894
▁போர்க்குணம்	-10.5894
▁போர்ப்ஸ்	-10.5894
▁போலியாக	-10.5894
▁போலீசுக்கு	-10.5894
▁போவதாக	-10.5894
▁போவது	-10.5894
▁போஸ்டரில்	-10.5894
▁மகத்துவம்	-10.5894
▁மகனைக்	-10.5894
▁மகர	-10.5894
▁மகராஜின்	-10.5894
▁மகாஜன்	-10.5894
▁மகாத்மாவின்	-10.5894
▁மகாராஷ்டிராவில்	-10.5894
▁மகிழ்ச்சியோடு	-10.5894
▁மகேந்திர	-10.5894
▁மக்களவைத்	-10.5894
▁மக்களுக்காக	-10.5894
▁மங்கலதேவி	-10.5894
▁மசூதிகளில்	-10.5894
▁மசோதாவுக்கு	-10.5894
▁மச்சான்	-10.5894
▁மஞ்சள்	-10.5894
▁மஞ்சு	-10.5894
▁மடக்கி	-10.5894
▁மடியில்	-10.5894
▁மட்டும்தானா	-10.5894
▁மணிப்பூர்	-10.5894
▁மணிமண்டபம்	-10.5894
▁மணிரத்னத்தின்	-10.5894
▁மணீஷ்	-10.5894
▁மண்டல	-10.5894
▁மண்டை	-10.5894
▁மண்ணுக்குள்	-10.5894
▁மதச்சார்பற்ற	-10.5894
▁மதத்தில்	-10.5894
▁மதிக்காத	-10.5894
▁மதிப்பவன்	-10.5894
▁மதிப்பில்	-10.5894
▁மதிப்பீடு	-10.5894
▁மதிப்புள்ள	-10.5894
▁மதிப்பெண்கள்	-10.5894
▁மதுக்கடை	-10.5894
▁மதுக்கடைகள்	-10.5894
▁மதுவால்	-10.5894
▁மத்தியக்குழு	-10.5894
▁மத்தியப்பிரதேச	-10.5894
▁மனசு	-10.5894
▁மனதுக்கு	-10.5894
▁மனநலம்	-10.5894
▁மனநிலை	-10.5894
▁மனநிலையை	-10.5894
▁மனிதன்	-10.5894
▁மனிதி	-10.5894
▁மனுவை	-10.5894
▁மனைவிகளால்	-10.5894
▁மனைவிகளுக்கும்	-10.5894
▁மனைவிகள்	-10.5894
▁மனைவியிடம்	-10.5894
▁மனைவியைக்	-10.5894
▁மனைவியையும்	-10.5894
▁மன்	-10.5894
▁மன்னராட்சி	-10.5894
▁மன்னிக்க	-10.5894
▁மன்னிச்சிடுங்க	-10.5894
▁மன்னித்த	-10.5894
▁மபியில்	-10.5894
▁மயங்கி	-10.5894
▁மயம்	-10.5894
▁மரங்களெல்லாம்	-10.5894
▁மரியா	-10.5894
▁மருத்துவக்குழு	-10.5894
▁மருத்துவமனைகளில்	-10.5894
▁மருத்துவரின்	-10.5894
▁மருத்துவருக்கு	-10.5894
▁மருத்துவரை	-10.5894
▁மறக்காமல்	-10.5894
▁மறுபரிசோதனை	-10.5894
▁மறுமணம்	-10.5894
▁மறுவாழ்வு	-10.5894
▁மறைத்து	-10.5894
▁மலர	-10.5894
▁மலர்க்	-10.5894
▁மலிவான	-10.5894
▁மலையாளத்தில்	-10.5894
▁மலையே	-10.5894
▁மலைவாழ்	-10.5894
▁மல்லிகார்ஜுன	-10.5894
▁மல்லையாவுக்கான	-10.5894
▁மழலைகள்	-10.5894
▁மழலையின்	-10.5894
▁மழையா	-10.5894
▁மவுன	-10.5894
▁மாடு	-10.5894
▁மாடுபிடி	-10.5894
▁மாட்ச்	-10.5894
▁மாட்டாரா	-10.5894
▁மாணவரின்	-10.5894
▁மாணவரை	-10.5894
▁மாணவர்களும்	-10.5894
▁மாணவிகளுக்காக	-10.5894
▁மாணவியாக	-10.5894
▁மாணிக்கவேல்	-10.5894
▁மாதங்கள்	-10.5894
▁மாநாட்டை	-10.5894
▁மாநிலங்கள்	-10.5894
▁மாமனார்	-10.5894
▁மார்க்கெட்	-10.5894
▁மாறி	-10.5894
▁மாறியிருக்கிறார்	-10.5894
▁மாறிவிட்டது	-10.5894
▁மாறிவிட்டேன்	-10.5894
▁மாறுகிறது	-10.5894
▁மாற்றப்படுகிறாரா	-10.5894
▁மாற்றமில்லை	-10.5894
▁மாற்றுத்திறனாளிகளுக்கு	-10.5894
▁மாற்றுப்	-10.5894
▁மாற்றுவதை	-10.5894
▁மாலையில்	-10.5894
▁மாளவிகா	-10.5894
▁மாஸூம்	-10.5894
▁மாஸ்	-10.5894
▁மிக்க	-10.5894
▁மிஞ்சியது	-10.5894
▁மிடில்	-10.5894
▁மிதாலிராஜ்	-10.5894
▁மினரல்ஸ்	-10.5894
▁மின்கசிவு	-10.5894
▁மின்சக்தி	-10.5894
▁மின்வசதி	-10.5894
▁மின்விநியோகம்	-10.5894
▁மிருணாள்	-10.5894
▁மிர்சாவுக்கு	-10.5894
▁மில்கா	-10.5894
▁மிஷ்கினுக்கு	-10.5894
▁மீடியா	-10.5894
▁மீடூவில்	-10.5894
▁மீட்புப்	-10.5894
▁மீண்ட	-10.5894
▁மீனவர்களுக்காக	-10.5894
▁மீன்கள்	-10.5894
▁மீன்விற்க	-10.5894
▁மீம்	-10.5894
▁மீறப்பட்டால்	-10.5894
▁மீள்வாரா	-10.5894
▁முகங்கள்	-10.5894
▁முகமத்	-10.5894
▁முகமும்	-10.5894
▁முகஸ்டாலினுடன்	-10.5894
▁முகாமுக்கு	-10.5894
▁முடங்கும்	-10.5894
▁முடிந்தும்	-10.5894
▁முடிவால்	-10.5894
▁முடிவுக்குக்	-10.5894
▁முடிவெடுக்க	-10.5894
▁முட்புதரில்	-10.5894
▁முண்டாசுப்பட்டி	-10.5894
▁முதலமைச்சர்களுக்கு	-10.5894
▁முதலமைச்சர்கள்	-10.5894
▁முதலை	-10.5894
▁முதல்கட்ட	-10.5894
▁முதல்முறை	-10.5894
▁முதல்வரை	-10.5894
▁முதல்வர்கள்	-10.5894
▁முதியவரிடம்	-10.5894
▁முத்தமிடும்	-10.5894
▁முத்தம்	-10.5894
▁முத்தலாக்கை	-10.5894
▁முந்தைய	-10.5894
▁முன்தான்	-10.5894
▁முன்னே	-10.5894
▁முன்னேற்றத்தைக்	-10.5894
▁முன்னோடி	-10.5894
▁முன்பாக	-10.5894
▁முன்வடிவு	-10.5894
▁மும்பையின்	-10.5894
▁முரசொலி	-10.5894
▁முரட்டுத்தனமாக	-10.5894
▁முரளிதரன்	-10.5894
▁முறிந்தது	-10.5894
▁முறியடித்தது	-10.5894
▁முறையிட்ட	-10.5894
▁முற்றுப்	-10.5894
▁முலாயம்சிங்	-10.5894
▁முல்லைப்பெரியார்	-10.5894
▁முல்லைப்பெரியாறில்	-10.5894
▁முழக்கம்	-10.5894
▁முழங்க	-10.5894
▁முழுபொறுப்பேற்கிறேன்	-10.5894
▁முழுமையாக	-10.5894
▁முழுமையான	-10.5894
▁முழுவதையும்	-10.5894
▁மூடிவிடுங்கள்	-10.5894
▁மூடிவிடுவோம்	-10.5894
▁மூன்றாம்	-10.5894
▁மூவர்ண	-10.5894
▁மெடிக்கல்	-10.5894
▁மெதுவாகச்	-10.5894
▁மெரினாவை	-10.5894
▁மெழுகுச்சிலை	-10.5894
▁மெஷின்	-10.5894
▁மெஸ்ஸி	-10.5894
▁மெஸ்ஸியின்	-10.5894
▁மே1க்குள்	-10.5894
▁மேகாலயாவில்	-10.5894
▁மேஜர்	-10.5894
▁மேடை	-10.5894
▁மேட்டூரில்	-10.5894
▁மேம்பாலம்	-10.5894
▁மேரிகோம்	-10.5894
▁மேலாக	-10.5894
▁மேலாடையின்றி	-10.5894
▁மேலாளர்	-10.5894
▁மேல்முறையீட்டு	-10.5894
▁மைக்	-10.5894
▁மைதானத்திற்குள்	-10.5894
▁மைதானத்தை	-10.5894
▁மைதானம்	-10.5894
▁மைத்துனருக்கு	-10.5894
▁மைனாரிட்டி	-10.5894
▁மைய	-10.5894
▁மைல்கல்கள்	-10.5894
▁மோகன்லாலின்	-10.5894
▁மோசமானது	-10.5894
▁மோசம்	-10.5894
▁மோடியிடம்	-10.5894
▁மோத	-10.5894
▁மோதலால்	-10.5894
▁மோதிக்கொண்டது	-10.5894
▁மோர்கன்	-10.5894
▁மோஹி	-10.5894
▁யத்திஷ்	-10.5894
▁யமஹா	-10.5894
▁யாகம்	-10.5894
▁யானைகளுக்கு	-10.5894
▁யானையின்	-10.5894
▁யாருக்காகவும்	-10.5894
▁யாருக்குச்	-10.5894
▁யாருக்குத்தான்	-10.5894
▁யாருடன்	-10.5894
▁யுஏ	-10.5894
▁யுடியூப்பில்	-10.5894
▁யூசூஃப்	-10.5894
▁யூனியன்	-10.5894
▁ரகம்	-10.5894
▁ரகுல்	-10.5894
▁ரக்ஷா	-10.5894
▁ரசகுல்லாவுக்கு	-10.5894
▁ரசிகருக்கு	-10.5894
▁ரசிகர்களால்தான்	-10.5894
▁ரசிகர்களே	-10.5894
▁ரசிக்கலாம்	-10.5894
▁ரசூல்	-10.5894
▁ரஞ்சிக்	-10.5894
▁ரத்தத்தில்	-10.5894
▁ரத்தத்தை	-10.5894
▁ரத்திற்கு	-10.5894
▁ரமன்	-10.5894
▁ரம்பா	-10.5894
▁ரயிலின்	-10.5894
▁ரயிலுக்கு	-10.5894
▁ரயில்களில்	-10.5894
▁ரயில்களுக்கு	-10.5894
▁ரஷ்யாவில்	-10.5894
▁ரஹீம்	-10.5894
▁ராகுலின்	-10.5894
▁ராகுல்தான்	-10.5894
▁ராஜமவுலியிடம்	-10.5894
▁ராஜாவின்	-10.5894
▁ராஜேந்திரன்	-10.5894
▁ராட்சத	-10.5894
▁ராணாவுக்கு	-10.5894
▁ராணுவக்	-10.5894
▁ராணுவத்	-10.5894
▁ராமாயண	-10.5894
▁ராமாயணம்	-10.5894
▁ராமேஸ்வரத்தில்	-10.5894
▁ராயல்	-10.5894
▁ராவணன்	-10.5894
▁ராவுக்கு	-10.5894
▁ரிக்கி	-10.5894
▁ரிமோட்	-10.5894
▁ரியாமிகா	-10.5894
▁ரிவர்ஸ்	-10.5894
▁ரீடிவிட்	-10.5894
▁ரீதியாக	-10.5894
▁ரீதியிலான	-10.5894
▁ரூ16	-10.5894
▁ரூ17	-10.5894
▁ரூ2021	-10.5894
▁ரூ28	-10.5894
▁ரூ30	-10.5894
▁ரூ300	-10.5894
▁ரூ50000	-10.5894
▁ரூ58	-10.5894
▁ரூ59ஆயிரம்	-10.5894
▁ரூ6000	-10.5894
▁ரூ700	-10.5894
▁ரூபாயும்	-10.5894
▁ரூபாயை	-10.5894
▁ரெடியா	-10.5894
▁ரேபிஸ்	-10.5894
▁ரேவதி	-10.5894
▁ரைமிங்	-10.5894
▁ரொமான்ஸ்	-10.5894
▁ரோஜர்	-10.5894
▁ரோட்ல	-10.5894
▁ரோமன்	-10.5894
▁லக்கானி	-10.5894
▁லட்சத்துக்கு	-10.5894
▁லட்சியம்	-10.5894
▁லட்சுமிக்கு	-10.5894
▁லம்பா	-10.5894
▁லவ்	-10.5894
▁லஷ்கர்	-10.5894
▁லஷ்மண்	-10.5894
▁லாக்கர்	-10.5894
▁லாட்டரியில்	-10.5894
▁லார்ட்ஸில்	-10.5894
▁லெவன்	-10.5894
▁லைசென்ஸ்	-10.5894
▁லைவ்வாக	-10.5894
▁லோன்	-10.5894
▁ல்	-10.5894
▁வகுப்புகள்	-10.5894
▁வக்கீலிடம்	-10.5894
▁வங்கதேசத்தில்	-10.5894
▁வங்கிகளை	-10.5894
▁வங்கிக்கு	-10.5894
▁வசதியானவர்களை	-10.5894
▁வசதியுடன்	-10.5894
▁வசிய	-10.5894
▁வசூலிப்பது	-10.5894
▁வசைபாடிய	-10.5894
▁வஞ்சிக்கப்படுகிறது	-10.5894
▁வடகொரியாவுடன்	-10.5894
▁வடக்கு	-10.5894
▁வடேகர்	-10.5894
▁வட்டியால்	-10.5894
▁வட்டியுடன்	-10.5894
▁வணங்கிய	-10.5894
▁வணங்கும்	-10.5894
▁வண்டலூரில்	-10.5894
▁வத்தல்	-10.5894
▁வந்ததே	-10.5894
