<pad>	0
<s>	0
</s>	0
<unk>	0
்க	-0
்த	-1
ல்	-2
▁ப	-3
ம்	-4
▁க	-5
க்க	-6
▁வ	-7
▁ம	-8
ன்	-9
ர்	-10
▁த	-11
்ட	-12
ிய	-13
▁ச	-14
த்த	-15
ப்	-16
▁அ	-17
ில்	-18
ப்ப	-19
ட்ட	-20
▁ந	-21
ிர	-22
ள்	-23
க்கு	-24
ந்த	-25
▁இ	-26
்ச	-27
து	-28
டி	-29
தி	-30
ங்க	-31
▁வி	-32
ரு	-33
ைய	-34
ும்	-35
▁ஆ	-36
▁எ	-37
▁ர	-38
ிற	-39
ார	-40
லை	-41
ாக	-42
▁உ	-43
வி	-44
டு	-45
▁மு	-46
ப்பு	-47
ண்ட	-48
ச்ச	-49
வு	-50
ரி	-51
ார்	-52
ஸ்	-53
ின்	-54
ான	-55
த்து	-56
ிக	-57
ற்	-58
ட்	-59
ர்க	-60
▁கா	-61
▁கு	-62
▁செ	-63
று	-64
ய்	-65
▁போ	-66
▁பா	-67
ுக	-68
மி	-69
லி	-70
லா	-71
ுக்கு	-72
னை	-73
▁மா	-74
ரா	-75
றி	-76
ளை	-77
▁பே	-78
த்	-79
மை	-80
▁கொ	-81
த்தில்	-82
மா	-83
டிய	-84
ம்ப	-85
▁வெ	-86
ன்ற	-87
ிரு	-88
▁மீ	-89
▁கோ	-90
▁பெ	-91
ின	-92
ண்	-93
ன்ன	-94
ர்கள்	-95
▁ஜ	-96
ிக்க	-97
▁நா	-98
ற்ற	-99
க்	-100
தா	-101
ரச	-102
▁பு	-103
ையில்	-104
டை	-105
▁வீ	-106
ட்டு	-107
▁பிர	-108
ந்து	-109
▁ட	-110
ஸ்ட	-111
▁ஒ	-112
ியா	-113
▁வா	-114
பா	-115
வில்	-116
ில	-117
வா	-118
மிழ	-119
▁அரச	-120
▁வே	-121
▁தமிழ	-122
தல்	-123
ள்ள	-124
▁கே	-125
▁தொ	-126
▁இந்த	-127
ட்ச	-128
▁நீ	-129
▁தே	-130
வர்	-131
வை	-132
▁அதி	-133
▁சி	-134
ணி	-135
▁ஏ	-136
திய	-137
▁1	-138
பி	-139
▁வழ	-140
ல்ல	-141
▁தா	-142
▁உய	-143
▁2	-144
னி	-145
ளுக்கு	-146
றை	-147
▁மோ	-148
டன்	-149
ால்	-150
ரை	-151
▁ரா	-152
ட்டம்	-153
கள்	-154
மன்ற	-155
▁திரு	-156
மைச்ச	-157
சி	-158
▁தி	-159
கா	-160
மான	-161
▁நி	-162
்கு	-163
ட்டி	-164
▁ஹ	-165
▁சு	-166
னு	-167
▁விவ	-168
▁சா	-169
்த்த	-170
சா	-171
ப்பா	-172
கார	-173
▁இரு	-174
▁தீ	-175
க்கும்	-176
ியில்	-177
ுவ	-178
திமன்ற	-179
ன்று	-180
ளி	-181
▁நடி	-182
ணை	-183
ஷ்	-184
திர	-185
▁கை	-186
▁தமிழக	-187
ால	-188
க்கம்	-189
நா	-190
த்திய	-191
ங்கள்	-192
▁வை	-193
ிரி	-194
▁சிற	-195
▁ஓ	-196
ண்டும்	-197
டும்	-198
▁ல	-199
க்கை	-200
▁கூ	-201
ளில்	-202
ழு	-203
்கள்	-204
த்தை	-205
டம்	-206
00	-207
மு	-208
ையா	-209
▁செய	-210
ணம்	-211
▁அரசு	-212
மைச்சர்	-213
பு	-214
▁முதல்	-215
லிய	-216
▁ய	-217
ிகள்	-218
▁நடிக	-219
▁புக	-220
டுத்த	-221
▁தொட	-222
வே	-223
▁ரூ	-224
▁ஸ்ட	-225
தம்	-226
ையை	-227
மர்	-228
▁து	-229
▁நட	-230
▁பய	-231
ச்	-232
▁பொ	-233
▁டி	-234
வுக்கு	-235
ண்ண	-236
ற்க	-237
கு	-238
▁அறி	-239
▁மீது	-240
ான்	-241
ிற்கு	-242
ெட்	-243
நீ	-244
தல	-245
▁விள	-246
முக	-247
ய்ய	-248
க்கள்	-249
னா	-250
▁டெ	-251
▁பிரத	-252
▁இந்திய	-253
▁பேர்	-254
▁இன்று	-255
ிறது	-256
திமன்றம்	-257
▁வழக்கு	-258
ரில்	-259
▁கைது	-260
ர்த	-261
ளு	-262
ருக்கு	-263
▁போரா	-264
ப்பட்ட	-265
▁பி	-266
ழை	-267
▁தலை	-268
▁மாண	-269
▁சே	-270
▁ஐ	-271
ஞ்ச	-272
ரம்	-273
▁ஜெ	-274
▁வரு	-275
▁விஜ	-276
▁மே	-277
▁கரு	-278
▁3	-279
▁வீர	-280
▁ஒரு	-281
ிரா	-282
மல்	-283
ளிய	-284
ழந்த	-285
லக	-286
டா	-287
▁கட	-288
கி	-289
ிறார்	-290
▁தோ	-291
க்கி	-292
ண்டு	-293
ர்ச்ச	-294
ியை	-295
▁காவ	-296
▁பட	-297
ஜின	-298
னம்	-299
ங்	-300
▁மத்திய	-301
யா	-302
சார	-303
▁சந்த	-304
▁சொ	-305
ீர்	-306
ரவு	-307
ல்லை	-308
வின்	-309
எல்	-310
ற்று	-311
ஜா	-312
▁அம	-313
▁செய்ய	-314
ெரி	-315
▁வெளிய	-316
ரோ	-317
ாரா	-318
▁செய்த	-319
க்கா	-320
ஸ்த	-321
ற்றி	-322
▁மோடி	-323
சிக	-324
▁ட்	-325
▁பத	-326
ாலின்	-327
▁உயர்	-328
▁எதிர	-329
▁இந்தியா	-330
லீ	-331
வ்	-332
ளர்	-333
▁நிற	-334
்சி	-335
மாக	-336
▁தக	-337
▁புதிய	-338
▁விவகார	-339
▁5	-340
வது	-341
தை	-342
ரிய	-343
ட்டிய	-344
த்திற்கு	-345
▁முதல	-346
▁அனு	-347
ஜ்	-348
ும்ப	-349
▁ஜெய	-350
▁பிரதமர்	-351
ளா	-352
ிக்	-353
▁கி	-354
எஸ்	-355
▁நோ	-356
ப்பி	-357
வர்கள்	-358
ழி	-359
▁சீ	-360
லில்	-361
▁உத்த	-362
▁போலீ	-363
▁முடி	-364
▁இய	-365
▁பெண்	-366
▁ஊ	-367
ல்க	-368
▁ரஜின	-369
▁உயிரி	-370
தனை	-371
ிரை	-372
▁தேர்த	-373
▁அமைச்சர்	-374
▁புகார்	-375
ேன்	-376
நீதிமன்றம்	-377
▁ஆத	-378
▁4	-379
சு	-380
ஜக	-381
ன்னை	-382
▁தின	-383
ாக்	-384
▁மூ	-385
▁பாஜக	-386
▁என்ன	-387
▁தகவ	-388
▁விசார	-389
போ	-390
▁தடை	-391
ணைய	-392
▁எம்	-393
ஜி	-394
▁கண	-395
லம்	-396
ங்கி	-397
▁நே	-398
▁அறிவி	-399
சிய	-400
கம்	-401
▁குழந்த	-402
▁ஷ	-403
ப்போ	-404
▁மீண்டும்	-405
ரே	-406
▁தெ	-407
▁மரு	-408
ங்கிய	-409
▁பாலிய	-410
▁பாலியல்	-411
▁ஸ்	-412
ொலை	-413
யில்	-414
க்கிய	-415
சை	-416
▁சோ	-417
ஸ்ட்	-418
▁வேண்டும்	-419
ாகு	-420
▁மக	-421
▁கார	-422
ழப்பு	-423
▁கோடி	-424
ூர்	-425
ண்டா	-426
்க்க	-427
▁நடிகர்	-428
▁அணி	-429
ரிக்கை	-430
ஸ்க	-431
ட்க	-432
▁கிர	-433
▁நாளை	-434
ரன்	-435
டியோ	-436
ளின்	-437
த்துவ	-438
▁ஸ்டாலின்	-439
ட்டா	-440
ட்டில்	-441
▁விவகாரம்	-442
ல்லா	-443
த்துக்கு	-444
பதி	-445
▁வாழ	-446
▁விப	-447
▁இல்லை	-448
▁உத்தரவு	-449
ரும்	-450
டித்த	-451
▁மக்கள்	-452
கர்	-453
▁பார	-454
▁விடு	-455
யம்	-456
▁அவ	-457
ப்பை	-458
▁லட்ச	-459
வில்லை	-460
▁தகவல்	-461
▁போராட்டம்	-462
ணா	-463
▁கேர	-464
ளைஞ	-465
▁என	-466
▁இளைஞ	-467
▁விளக்கம்	-468
சாய	-469
மதி	-470
▁அதிகார	-471
▁வீடியோ	-472
▁இல	-473
▁உயிரிழப்பு	-474
விட்ட	-475
▁தற்க	-476
றிய	-477
▁நில	-478
▁விமான	-479
ர்ப்பு	-480
▁பழ	-481
▁புய	-482
▁முடிய	-483
▁விவசாய	-484
▁முதலமைச்சர்	-485
டுக	-486
ற்ப	-487
▁அறிவிப்பு	-488
விய	-489
லு	-490
ட்சி	-491
▁நடிகை	-492
▁உச்ச	-493
ராக	-494
ரிம	-495
தே	-496
▁தூ	-497
ச்சு	-498
▁தேர்தல்	-499
ாரி	-500
▁குழந்தை	-501
ட்டை	-502
▁பண	-503
▁அமெரி	-504
▁திரும	-505
▁எம்எல்	-506
ீடு	-507
▁பலி	-508
ற்றம்	-509
ரின்	-510
ுகள்	-511
▁உலக	-512
▁மர	-513
ரீ	-514
▁மறு	-515
▁எம்எல்ஏ	-516
▁கர்	-517
▁பாதி	-518
▁அரசிய	-519
▁நெ	-520
▁பரி	-521
▁கேள்	-522
மீ	-523
▁கிரிக்க	-524
ங்கை	-525
ர்களுக்கு	-526
மார்	-527
▁விசாரணை	-528
▁கேள்வி	-529
டல்	-530
பர்	-531
ள்ளி	-532
▁கமல்	-533
த்தி	-534
▁முன்ன	-535
▁விஜய்	-536
ுடன்	-537
வன்	-538
துகா	-539
▁திற	-540
களை	-541
▁வர	-542
த்தல்	-543
▁லட்சம்	-544
▁சென்னை	-545
▁பாதுகா	-546
▁சூ	-547
▁குற்ற	-548
▁தய	-549
▁வந்த	-550
ர்ம	-551
▁வைர	-552
ல்லி	-553
▁ஏன்	-554
க்காக	-555
▁வெற்றி	-556
டக	-557
தாக	-558
▁கோலி	-559
▁அதிர	-560
▁சிக்க	-561
சன்	-562
சாமி	-563
▁மருத்துவ	-564
▁முதல்வர்	-565
வடி	-566
▁7	-567
▁மனை	-568
▁சென்ன	-569
ன்ப	-570
டிவி	-571
நி	-572
நர்	-573
▁விஜய	-574
லையில்	-575
▁போலீஸ்	-576
▁இருந்து	-577
மே	-578
▁வாய்	-579
▁தற்கொலை	-580
ாத	-581
▁6	-582
▁அண	-583
ியின்	-584
தால்	-585
▁ஆய	-586
▁கட்ட	-587
▁கண்ட	-588
▁அதிமுக	-589
ருக	-590
ிரம்	-591
▁தேர்	-592
▁ரசிக	-593
ழ்ச	-594
வார	-595
▁சப	-596
▁விரா	-597
த்தின்	-598
▁போட்ட	-599
வாக	-600
▁வய	-601
வீ	-602
ச்சா	-603
▁ஆய்	-604
▁கொலை	-605
▁தினக	-606
ிகா	-607
▁திமுக	-608
▁அனுமதி	-609
ப்ட	-610
ந்த்	-611
▁மிர	-612
த்தம்	-613
▁ஆண்ட	-614
▁புது	-615
ழ்	-616
▁குறி	-617
▁விபத்து	-618
ம்பி	-619
டுக்க	-620
்த்து	-621
ங்களில்	-622
▁தாக்கு	-623
▁அதிர்ச்ச	-624
ன்க	-625
றுதி	-626
▁ராஜ	-627
▁நடவடி	-628
▁உயர்நீதிமன்றம்	-629
கோ	-630
னர்	-631
▁20	-632
லாம்	-633
▁பதி	-634
▁பிற	-635
▁பெண	-636
▁ஆணைய	-637
வம்	-638
▁இது	-639
▁மனு	-640
ந்தது	-641
▁பின்	-642
லுக்கு	-643
▁கிரிக்கெட்	-644
ஹா	-645
ோம்	-646
பாய்	-647
▁எதி	-648
ர்களை	-649
▁நீதி	-650
▁பேரு	-651
ழா	-652
சம்	-653
ல்ப	-654
▁பர	-655
நில	-656
தான்	-657
பிஎஸ்	-658
▁ரஜினி	-659
முறை	-660
ிஸ்த	-661
▁திர	-662
▁சபரிம	-663
▁நடவடிக்கை	-664
▁இர	-665
▁வாக்கு	-666
பெ	-667
லலி	-668
லலிதா	-669
▁இள	-670
▁அடி	-671
ந்திர	-672
ப்படி	-673
▁காவல	-674
▁ஜெயலலிதா	-675
வர	-676
ியர்	-677
▁எச்ச	-678
▁தங்க	-679
▁புயல்	-680
றைய	-681
த்தா	-682
▁சந்தி	-683
▁முடிவு	-684
▁கன	-685
▁முக	-686
▁ராகு	-687
▁நோட்ட	-688
▁ஊழ	-689
▁முய	-690
▁கஜா	-691
▁கடி	-692
▁தோனி	-693
▁கருணா	-694
▁அதிரடி	-695
▁சென்னையில்	-696
▁ஃ	-697
ங்கு	-698
ாகும்	-699
▁டீ	-700
ட்டும்	-701
தான	-702
▁சம்ப	-703
▁அரசியல்	-704
▁சிறு	-705
▁மது	-706
▁வீரர்	-707
▁நீதிமன்றம்	-708
▁ஹெ	-709
ந்தி	-710
▁சட்ட	-711
▁கூட்ட	-712
▁ரயில்	-713
▁கொடுத்த	-714
▁ஆளு	-715
ங்களை	-716
ங்கிர	-717
▁சசிக	-718
▁வாய்ப்பு	-719
▁காங்கிர	-720
▁எச்சரிக்கை	-721
ாது	-722
கை	-723
▁இட	-724
▁அமை	-725
▁பாக	-726
மூ	-727
லோ	-728
▁10	-729
▁மீன	-730
ப்படும்	-731
▁யார்	-732
க்கில்	-733
▁மாணவி	-734
▁இயக்கு	-735
▁மெ	-736
குதி	-737
ன்னி	-738
▁கார்	-739
▁சாதனை	-740
விர	-741
தில்	-742
▁சர்ச்ச	-743
▁தினகரன்	-744
க்கப்பட்ட	-745
த்திர	-746
▁8	-747
▁மி	-748
▁கால	-749
க்கல்	-750
▁இருக்க	-751
▁பூ	-752
ப்பட	-753
ரியா	-754
ானி	-755
ீஸ்	-756
▁திட	-757
டும்ப	-758
▁அதிர்ச்சி	-759
▁தர	-760
▁இளைஞர்	-761
▁கொண்டா	-762
▁துப்பா	-763
▁பேட்டி	-764
▁திட்டம்	-765
▁உச்சநீதிமன்றம்	-766
தன	-767
▁அப	-768
ளர்கள்	-769
▁இலங்கை	-770
▁சசிகலா	-771
▁குடும்ப	-772
▁மழை	-773
▁அதிக	-774
டுத்து	-775
ப்பில்	-776
ம்பிக்க	-777
சிர	-778
▁அச	-779
▁உரு	-780
டைத்த	-781
▁கர்நா	-782
▁தொடர்	-783
▁பெற்ற	-784
▁அமெரிக்கா	-785
▁பாதுகாப்பு	-786
▁இணை	-787
▁என்	-788
▁ஒரே	-789
▁குறை	-790
▁சங்க	-791
▁நான்	-792
▁விளையா	-793
▁நீதிபதி	-794
▁தாக்குதல்	-795
▁அல	-796
▁ஆர்	-797
▁டிடிவி	-798
▁தலைவர்	-799
வுட்	-800
▁சிலை	-801
▁மக்க	-802
ழ்ச்சி	-803
▁சென்ற	-804
▁தேர்வு	-805
▁போட்டி	-806
▁கருத்து	-807
செ	-808
ப்பதி	-809
ையும்	-810
▁கடிதம்	-811
▁திடீர்	-812
▁குறித்து	-813
▁கடை	-814
▁நிதி	-815
▁விழா	-816
களுக்கு	-817
▁மருத்துவம	-818
▁உத	-819
▁ஹா	-820
களில்	-821
பே	-822
▁இற	-823
▁ரெ	-824
னுக்கு	-825
▁செல்ல	-826
▁ரூபாய்	-827
னில்	-828
பிஐ	-829
்து	-830
ங்கா	-831
▁பழனி	-832
▁ரத்து	-833
ிகளுக்கு	-834
▁விவசாயிகள்	-835
மன்	-836
▁ரோ	-837
வும்	-838
▁நிய	-839
ளிக்க	-840
்தான்	-841
▁விரு	-842
▁பாகிஸ்த	-843
▁வீரர்கள்	-844
▁தவ	-845
▁எழு	-846
▁நிர	-847
ினார்	-848
▁கேரள	-849
▁கேரளா	-850
▁வைத்த	-851
ஷா	-852
▁15	-853
ங்கள	-854
▁வரி	-855
▁காங்கிரஸ்	-856
யி	-857
ுக்	-858
▁மண	-859
▁சர்ச்சை	-860
ம்பு	-861
கிறது	-862
ளுடன்	-863
▁பங்க	-864
▁சிறுவ	-865
▁எதிர்ப்பு	-866
ண்ட்	-867
▁மாவ	-868
▁தந்த	-869
▁வங்க	-870
▁பிரதம	-871
▁திருமண	-872
▁கருணாநி	-873
▁பாதிப்பு	-874
சூ	-875
ையே	-876
ற்பு	-877
▁நாய	-878
ளித்த	-879
▁பொது	-880
▁9	-881
ன்கொ	-882
▁கோரிக்கை	-883
▁துப்பாக்கி	-884
டாது	-885
றும்	-886
▁உள்ள	-887
தியில்	-888
▁மரணம்	-889
▁வென்ற	-890
▁ரசிகர்கள்	-891
வள	-892
ஆர்	-893
சல்	-894
ம்மா	-895
▁பறி	-896
▁விர	-897
▁பொரு	-898
▁விலை	-899
▁வேலை	-900
▁டெஸ்ட்	-901
▁சபரிமலை	-902
மழை	-903
▁அக	-904
டுமை	-905
லால்	-906
▁சர்	-907
▁ட்ர	-908
▁மணி	-909
▁விஷ	-910
▁திட்ட	-911
▁எதிராக	-912
▁ஓபிஎஸ்	-913
000	-914
கன்	-915
▁பல	-916
ட்ரோ	-917
ானது	-918
ட்டல்	-919
ஹாசன்	-920
▁பள்ள	-921
ார்கள்	-922
▁இல்லா	-923
▁கண்டனம்	-924
▁முடியாது	-925
ன்ஸ்	-926
மில்	-927
ற்றிய	-928
▁நினை	-929
லாந்து	-930
▁தமிழ்	-931
▁தமிழகத்தில்	-932
ணுவ	-933
ச்சி	-934
▁அழை	-935
▁பெய	-936
▁நாள்	-937
▁பேச்சு	-938
▁வாழ்த்து	-939
க்த	-940
க்கொ	-941
ர்த்த	-942
▁முன்	-943
ங்கும்	-944
▁எப்படி	-945
ினி	-946
▁பயண	-947
▁நிறுவ	-948
▁மனைவி	-949
▁அமைச்ச	-950
▁இருந்த	-951
கே	-952
▁சர	-953
ச்சை	-954
டிக்க	-955
▁ஆட்ச	-956
▁மின்	-957
▁முயற	-958
▁ஆளுநர்	-959
▁தொடரும்	-960
▁மறுப்பு	-961
▁பழனிசாமி	-962
▁பேர	-963
▁செல்	-964
▁ஆய்வு	-965
▁இங்கி	-966
▁குடிய	-967
▁சிபிஐ	-968
▁மும்ப	-969
▁ராணுவ	-970
▁விமர்	-971
▁வெள்ள	-972
▁போராட்ட	-973
▁குற்றச்சா	-974
சே	-975
▁ஆக	-976
▁ஜி	-977
லும்	-978
ல்வி	-979
▁தீபா	-980
▁பிரப	-981
▁வைரல	-982
டியில்	-983
த்தால்	-984
றுத்தல்	-985
▁திருமணம்	-986
யில	-987
ரவா	-988
ீரோ	-989
்கா	-990
▁ஆன	-991
தும்	-992
▁மனி	-993
▁மாத	-994
▁மோச	-995
▁வயது	-996
▁விதி	-997
▁விழு	-998
டிப்பு	-999
னே	-1000
வரை	-1001
ானா	-1002
ூரி	-1003
▁உற	-1004
▁கல	-1005
▁கெ	-1006
ிருஷ்	-1007
▁மகன்	-1008
▁முறை	-1009
க்கெட்	-1010
▁டெல்ல	-1011
ாள்	-1012
ட்பு	-1013
வால்	-1014
ிற்க	-1015
▁இணைய	-1016
▁உடல்	-1017
▁காதல	-1018
த்துறை	-1019
▁மாவட்ட	-1020
பர	-1021
ணன்	-1022
▁சிவ	-1023
க்கான	-1024
▁ஆசிர	-1025
▁கடும்	-1026
▁ட்ரம்	-1027
▁மாநில	-1028
வியை	-1029
▁வரை	-1030
ப்பிய	-1031
▁ஸ்ரீ	-1032
னையில்	-1033
▁பள்ளி	-1034
▁வேண்ட	-1035
நீதிமன்ற	-1036
▁பெண்கள்	-1037
டுவ	-1038
ிசை	-1039
▁ஆப	-1040
னின்	-1041
▁சிக	-1042
ஸ்கர்	-1043
▁தீர்	-1044
▁விரை	-1045
▁சோதனை	-1046
▁தாக்கல்	-1047
20	-1048
▁ஐபி	-1049
ியால்	-1050
▁காவல்	-1051
ப்பதிவு	-1052
▁நீதிமன்ற	-1053
▁வெளியீடு	-1054
▁மாணவர்கள்	-1055
▁மீனவர்கள்	-1056
ேய	-1057
▁பை	-1058
ண்ணா	-1059
ன்றி	-1060
▁தனு	-1061
ங்கியது	-1062
▁ஆயிரம்	-1063
▁அதிகாரி	-1064
▁தமிழிசை	-1065
▁அமெரிக்க	-1066
மைய	-1067
ளம்	-1068
▁ரி	-1069
மான்	-1070
ர்கே	-1071
▁வார	-1072
ர்க்க	-1073
▁உறுதி	-1074
▁கனமழை	-1075
▁தயாரி	-1076
▁உயர்வு	-1077
▁ட்ரம்ப்	-1078
▁முன்னாள்	-1079
வெ	-1080
▁ஜா	-1081
▁டா	-1082
▁எஸ்	-1083
▁எண்ண	-1084
▁சிங்	-1085
▁நிறு	-1086
▁ஹீரோ	-1087
▁காவிரி	-1088
▁முகஸ்ட	-1089
▁விராத்	-1090
தீ	-1091
▁உண	-1092
▁ஜோ	-1093
ராஜா	-1094
ராஜ்	-1095
ிகளை	-1096
▁தாய்	-1097
▁வெளி	-1098
ண்டாம்	-1099
▁ஆர்கே	-1100
கிழ்ச்சி	-1101
▁சிறப்பு	-1102
▁எம்எல்ஏக்கள்	-1103
சர்	-1104
னிய	-1105
படி	-1106
ரசு	-1107
▁ஷா	-1108
லைட்	-1109
▁ஆலோ	-1110
ூரில்	-1111
▁சிறை	-1112
▁துணை	-1113
▁கேப்ட	-1114
ர்களின்	-1115
▁ஐபிஎல்	-1116
▁பிறந்த	-1117
▁திரும்ப	-1118
▁சந்திக்க	-1119
▁தீர்ப்பு	-1120
▁கமல்ஹாசன்	-1121
▁இனி	-1122
ர்ந்த	-1123
ிலும்	-1124
▁சொன்ன	-1125
▁வன்கொ	-1126
▁ராகுல்	-1127
▁முயற்சி	-1128
ஸி	-1129
தலை	-1130
ியோ	-1131
ெர்	-1132
▁ஓப	-1133
▁யா	-1134
டியை	-1135
ையின்	-1136
▁ஆதரவு	-1137
▁கட்டு	-1138
▁ஜல்லி	-1139
▁நிலைய	-1140
▁மோதல்	-1141
ிருந்து	-1142
▁ஆர்கேந	-1143
ங்களுக்கு	-1144
▁ஜல்லிக்க	-1145
ளே	-1146
நாய	-1147
▁வள	-1148
ற்கு	-1149
ல்கள்	-1150
▁ஆலோச	-1151
▁ஊழிய	-1152
▁குவி	-1153
▁நிர்	-1154
▁நிறை	-1155
வையில்	-1156
▁பயங்க	-1157
▁டெல்லி	-1158
▁பெட்ரோ	-1159
▁விராட்	-1160
வரி	-1161
ுமா	-1162
▁18	-1163
▁அட	-1164
ரங்க	-1165
▁நிக	-1166
▁மதி	-1167
ருடன்	-1168
▁குழு	-1169
▁கால்ப	-1170
▁ஸ்டெர்	-1171
ட்டுக்கு	-1172
▁முகஸ்டாலின்	-1173
தார	-1174
ஷன்	-1175
ிறு	-1176
▁கவ	-1177
ப்பெ	-1178
்துறை	-1179
▁கல்ல	-1180
▁பாக்	-1181
▁மாணவ	-1182
▁கொன்ற	-1183
▁சிக்கிய	-1184
▁நீக்கம்	-1185
▁வன்கொடுமை	-1186
▁குற்றச்சாட்டு	-1187
▁யோ	-1188
ினர்	-1189
▁நேர	-1190
▁பாட	-1191
▁அம்மா	-1192
▁எம்பி	-1193
▁தலைமை	-1194
▁அடுத்த	-1195
▁அதிகரி	-1196
▁வைரலாகும்	-1197
▁போட்டியில்	-1198
தாப	-1199
ானை	-1200
▁மன	-1201
க்கோ	-1202
செல்	-1203
ார்க	-1204
▁சேவை	-1205
ட்சிகள்	-1206
▁நம்பிக்க	-1207
▁வழக்கில்	-1208
ஜன்	-1209
மித்	-1210
லையா	-1211
ள்ளை	-1212
்ச்ச	-1213
▁காய	-1214
▁ஏற்ப	-1215
▁திரை	-1216
▁தீபாவ	-1217
▁பிரச்	-1218
▁ஆணையம்	-1219
▁மிரட்டல்	-1220
▁கருணாநிதி	-1221
▁ஸ்டெர்லைட்	-1222
லர்	-1223
▁ரே	-1224
ள்ளு	-1225
ானில்	-1226
▁கிரா	-1227
▁பதில	-1228
▁பரபர	-1229
▁பார்	-1230
▁நிவார	-1231
▁பதில்	-1232
▁குடியரசு	-1233
▁பேருந்து	-1234
▁விடுமுறை	-1235
▁டெல்லியில்	-1236
தவி	-1237
சனம்	-1238
நாள்	-1239
ப்பே	-1240
▁அஜி	-1241
▁மைய	-1242
▁வழி	-1243
▁ஒப்ப	-1244
▁நாடா	-1245
த்தார்	-1246
ப்பாளர்	-1247
▁கால்பந்து	-1248
▁இங்கிலாந்து	-1249
▁தொழ	-1250
▁பணம்	-1251
▁பதவி	-1252
▁பாரா	-1253
▁பெண்க	-1254
▁பரிதாப	-1255
▁வெளியே	-1256
ப்படுத்த	-1257
ஷி	-1258
ந்தா	-1259
மும்	-1260
▁தவி	-1261
ட்கள்	-1262
▁சின்	-1263
▁தண்ட	-1264
▁பயிற	-1265
▁வைகோ	-1266
ளுமன்ற	-1267
▁நாட்க	-1268
▁விற்ப	-1269
▁காரணம்	-1270
▁தோல்வி	-1271
▁பெட்ரோல்	-1272
▁வீட்டில்	-1273
சோ	-1274
ோர்	-1275
▁உட	-1276
▁பற	-1277
▁மை	-1278
▁தனி	-1279
▁பணி	-1280
த்தது	-1281
▁காஷ்	-1282
▁பெரு	-1283
▁மனித	-1284
ண்ணீர்	-1285
▁சிங்க	-1286
▁பிரபல	-1287
▁பேச்ச	-1288
▁மீதான	-1289
▁அரசின்	-1290
▁ஆண்டுக	-1291
▁மீட்பு	-1292
▁மாற்றம்	-1293
▁வேண்டாம்	-1294
▁சந்திப்பு	-1295
ொழி	-1296
▁கத	-1297
ண்மை	-1298
ியன்	-1299
டைந்த	-1300
ிறேன்	-1301
▁அந்த	-1302
▁சர்க	-1303
▁பிரி	-1304
▁ஆதார்	-1305
▁கிராம	-1306
▁கேட்க	-1307
▁கேட்ட	-1308
▁கொல்ல	-1309
▁நடத்த	-1310
▁மாட்ட	-1311
▁விருது	-1312
▁கர்நாடக	-1313
▁பேருந்த	-1314
▁முக்கிய	-1315
ிகை	-1316
▁அழ	-1317
▁கள	-1318
லியு	-1319
▁எரி	-1320
▁புகை	-1321
கிறார்	-1322
▁தேசிய	-1323
▁சுற்று	-1324
▁நிறுவன	-1325
▁மும்பை	-1326
த்ய	-1327
▁11	-1328
▁கலை	-1329
▁தேதி	-1330
▁பொன்	-1331
▁ராஜ்	-1332
▁அறிவு	-1333
▁தந்தை	-1334
வருக்கு	-1335
▁ஆலோசனை	-1336
▁அறிக்கை	-1337
▁சர்கார்	-1338
▁ரஜினிகா	-1339
▁நாடாளுமன்ற	-1340
கள	-1341
▁ப்	-1342
▁100	-1343
▁அணை	-1344
▁இஸ்	-1345
▁சிகி	-1346
▁பாகு	-1347
▁இறுதி	-1348
▁கட்டா	-1349
▁பயன்ப	-1350
▁பற்றி	-1351
▁வலியு	-1352
▁கல்லூரி	-1353
▁திறப்பு	-1354
▁அரசுக்கு	-1355
டூ	-1356
▁நூ	-1357
▁பேச	-1358
முறைய	-1359
▁நியம	-1360
▁விலக	-1361
▁விவே	-1362
▁ஹெச்	-1363
ன்னீர்	-1364
▁கண்டு	-1365
▁கும்ப	-1366
▁கொள்ள	-1367
▁பங்கே	-1368
▁மன்னி	-1369
▁வரும்	-1370
த்திற்க	-1371
▁காந்தி	-1372
▁சிறுமி	-1373
▁அடித்து	-1374
▁உயிரிழந்த	-1375
▁அதிகாரிகள்	-1376
▁தூத்துக்கு	-1377
மணி	-1378
▁பீ	-1379
க்கெ	-1380
ண்டி	-1381
நாடு	-1382
ய்வு	-1383
▁காண	-1384
▁மறை	-1385
▁குடி	-1386
▁கொடு	-1387
▁தீவிர	-1388
▁பட்டா	-1389
▁அதிபர்	-1390
▁வைத்து	-1391
▁கூட்டம்	-1392
▁தீபாவளி	-1393
ன்னீர்செல்	-1394
▁மருத்துவமனையில்	-1395
▁25	-1396
▁சம	-1397
▁வட	-1398
நாத்	-1399
னால்	-1400
▁அனை	-1401
▁முட	-1402
▁வாக	-1403
ன்கள்	-1404
முதல்	-1405
ாலும்	-1406
▁இல்ல	-1407
▁வங்கி	-1408
▁வழங்க	-1409
க்குமார்	-1410
▁விரைவில்	-1411
▁விவகாரத்தில்	-1412
ட்ஜ	-1413
தலி	-1414
ளாக	-1415
▁அர	-1416
▁கீ	-1417
ச்செ	-1418
ஞ்சி	-1419
ரிமை	-1420
வாதி	-1421
ாக்ட	-1422
ிடம்	-1423
ங்கல்	-1424
ம்பர்	-1425
▁அருக	-1426
▁சதம்	-1427
▁படம்	-1428
விற்கு	-1429
▁ஒப்பு	-1430
▁நிதிய	-1431
▁போலீச	-1432
▁இல்லாத	-1433
▁விடுதலை	-1434
லே	-1435
ட்ப	-1436
தேச	-1437
லைய	-1438
▁ஆஜ	-1439
கித்	-1440
டியா	-1441
போர்	-1442
ழப்ப	-1443
▁சில	-1444
▁பெற	-1445
ண்டிய	-1446
ப்படு	-1447
ினிமா	-1448
▁அபரா	-1449
▁நீட்	-1450
▁மேல்	-1451
ற்றும்	-1452
▁தெரிய	-1453
▁மோசடி	-1454
▁எடுக்க	-1455
▁நிவாரண	-1456
▁கார்த்த	-1457
▁சிறுவன்	-1458
▁ட்விட்ட	-1459
▁தாக்கிய	-1460
▁நோட்டுகள்	-1461
▁பாகிஸ்தான்	-1462
▁ஜெயக்குமார்	-1463
▁ரஜினிகாந்த்	-1464
ரவை	-1465
க்கே	-1466
சிசி	-1467
▁கதை	-1468
▁போன	-1469
ப்பர்	-1470
▁ட்ரெ	-1471
▁வீடு	-1472
ப்போது	-1473
▁தகுதி	-1474
▁பயணம்	-1475
▁பொதும	-1476
▁எடுத்த	-1477
▁சினிமா	-1478
▁வருமான	-1479
▁கேப்டன்	-1480
ஜரா	-1481
ொரு	-1482
▁ஒலி	-1483
▁கவு	-1484
▁நாக	-1485
ந்தர்	-1486
ப்பது	-1487
ரிடம்	-1488
ழ்த்த	-1489
ானிலை	-1490
▁காரண	-1491
▁தொழி	-1492
டித்து	-1493
▁ஒத்தி	-1494
▁குஜரா	-1495
▁பெண்ண	-1496
▁நடிக்க	-1497
▁முறைகே	-1498
▁வானிலை	-1499
▁வெளியி	-1500
▁பார்க்க	-1501
▁நோட்டீஸ்	-1502
▁இளைஞர்கள்	-1503
▁காவல்துறை	-1504
▁நம்பிக்கை	-1505
▁ஜல்லிக்கட்டு	-1506
▁வலியுறுத்தல்	-1507
▁12	-1508
வராக	-1509
▁கவி	-1510
▁தவற	-1511
▁ரஷ்	-1512
ிக்கை	-1513
▁அலுவ	-1514
லிவுட்	-1515
▁கொண்ட	-1516
▁பாகுப	-1517
▁முத்த	-1518
கத்தில்	-1519
▁எதிரான	-1520
▁சுட்டு	-1521
▁ரோகித்	-1522
டர்	-1523
வாள	-1524
▁13	-1525
▁லா	-1526
காஷ்	-1527
ஜினா	-1528
ியம்	-1529
டைக்க	-1530
வுடன்	-1531
▁கோரி	-1532
▁தெரி	-1533
▁படுக	-1534
▁போல்	-1535
▁யானை	-1536
▁ராவ்	-1537
ட்டின்	-1538
ல்லாம்	-1539
ார்த்த	-1540
▁அருகே	-1541
▁கட்சி	-1542
▁பதவிய	-1543
த்துடன்	-1544
▁ஒருவர்	-1545
▁காப்பா	-1546
▁கூடாது	-1547
டிக்கும்	-1548
▁கூட்டணி	-1549
▁தமிழகம்	-1550
▁நிர்வாக	-1551
ிலிருந்து	-1552
▁பயங்கரவா	-1553
▁தொடங்கியது	-1554
▁உச்சநீதிமன்ற	-1555
கோத	-1556
விட	-1557
ுகோ	-1558
▁மத	-1559
பாடு	-1560
▁இசை	-1561
ர்மலா	-1562
ுகோள்	-1563
▁அஞ்ச	-1564
▁எங்க	-1565
▁சகோத	-1566
ுங்கள்	-1567
▁என்னை	-1568
▁கணவர்	-1569
▁வேதனை	-1570
பாஸ்கர்	-1571
▁கர்நாட	-1572
▁ஒத்திவை	-1573
▁நிர்மலா	-1574
▁பார்த்த	-1575
▁பிரச்னை	-1576
▁மட்டும்	-1577
▁மகிழ்ச்சி	-1578
▁மன்னிப்பு	-1579
▁முதலமைச்ச	-1580
▁வேண்டுகோள்	-1581
மோ	-1582
க்ச	-1583
மிய	-1584
▁சை	-1585
▁ஜன	-1586
ச்சே	-1587
வ்வள	-1588
ஸில்	-1589
▁ஆன்	-1590
முருக	-1591
▁தம்ப	-1592
ஜினாமா	-1593
மானார்	-1594
▁பரிசு	-1595
▁மையம்	-1596
▁சந்திர	-1597
▁தொழிலா	-1598
ிருஷ்ணன்	-1599
▁அமைப்பு	-1600
▁வாழ்க்க	-1601
▁ராஜினாமா	-1602
▁காலமானார்	-1603
டைய	-1604
ருவ	-1605
ேயே	-1606
▁14	-1607
▁மொ	-1608
டுகா	-1609
ட்ஸ்	-1610
தம்ப	-1611
ாரம்	-1612
ட்டர்	-1613
▁அம்ப	-1614
▁கட்ச	-1615
▁தான்	-1616
▁பட்ஜ	-1617
▁மகள்	-1618
▁ரயில	-1619
டைப்பு	-1620
ந்தார்	-1621
ிருக்க	-1622
▁கடைசி	-1623
▁திருந	-1624
▁பதிவு	-1625
டுகிறது	-1626
▁இயக்குநர்	-1627
▁கொண்டாட்டம்	-1628
ஃப்	-1629
என்	-1630
தன்	-1631
▁த்	-1632
▁பக	-1633
க்கூ	-1634
ஞ்சா	-1635
ன்னா	-1636
▁கிட	-1637
▁சரி	-1638
▁ஸ்க	-1639
ப்பிர	-1640
ளிடம்	-1641
▁இண்ட	-1642
▁சிசி	-1643
ிகளில்	-1644
▁அவுட்	-1645
▁சொல்க	-1646
▁உலகின்	-1647
▁சொத்து	-1648
▁விஷால்	-1649
▁அபராதம்	-1650
▁கர்நாடகா	-1651
▁டிக்கெட்	-1652
▁விமர்சனம்	-1653
மெ	-1654
எம்	-1655
மூக	-1656
வதி	-1657
▁நய	-1658
ங்கோ	-1659
▁201	-1660
▁ஆஸி	-1661
▁கல்	-1662
▁தடு	-1663
▁உரிம	-1664
▁சாதி	-1665
▁செய்	-1666
▁பட்ட	-1667
▁வரவே	-1668
த்தும்	-1669
விட்டு	-1670
வ்வளவு	-1671
▁பட்டிய	-1672
▁சிகிச்சை	-1673
▁பரபரப்பு	-1674
▁முறைகேடு	-1675
▁ஆர்கேநகர்	-1676
▁பொதுமக்கள்	-1677
▁மருத்துவமனை	-1678
ன்னீர்செல்வம்	-1679
கிற	-1680
ட்பா	-1681
ம்பெ	-1682
▁முழ	-1683
▁விட	-1684
ழ்ச்ச	-1685
ெரினா	-1686
ையால்	-1687
▁என்ப	-1688
▁விஸ்	-1689
க்குள்	-1690
தியின்	-1691
ப்படம்	-1692
ிருந்த	-1693
ையாளர்	-1694
▁உரிமை	-1695
▁சிறும	-1696
▁தனுஷ்	-1697
▁தள்ளு	-1698
க்கிறது	-1699
▁நிறைவே	-1700
▁பதவியே	-1701
▁போக்கு	-1702
▁மாணவர்	-1703
▁பாகுபலி	-1704
▁பிடித்த	-1705
▁வீழ்த்த	-1706
▁படத்தில்	-1707
▁ஒத்திவைப்பு	-1708
▁சபரிமலையில்	-1709
▁தூத்துக்குடி	-1710
ன்த	-1711
ச்சூ	-1712
னியா	-1713
போன்	-1714
யின்	-1715
ுகளை	-1716
▁500	-1717
▁அர்	-1718
▁உறு	-1719
▁ஏமா	-1720
▁ஏர்	-1721
▁டிச	-1722
▁தீப	-1723
▁வசூ	-1724
▁வடக	-1725
தற்கு	-1726
துபதி	-1727
ஸ்திர	-1728
▁அல்ல	-1729
▁கொடூ	-1730
▁சீனா	-1731
▁பழைய	-1732
▁போர்	-1733
▁வில்	-1734
▁உண்மை	-1735
▁எதிர்	-1736
▁புத்த	-1737
▁அளித்த	-1738
▁இரட்டை	-1739
▁எனக்கு	-1740
▁கோயில்	-1741
▁தொல்லை	-1742
▁கடத்தல்	-1743
▁திருப்ப	-1744
▁நியமனம்	-1745
▁மருத்து	-1746
▁எதிர்க்க	-1747
▁குழந்தைகள்	-1748
▁தயாரிப்பாளர்	-1749
▁அஸ்	-1750
▁ஆறு	-1751
▁கலா	-1752
▁சவு	-1753
▁மிக	-1754
▁ரவி	-1755
க்காத	-1756
▁என்ற	-1757
▁நிலை	-1758
▁பொறு	-1759
▁போலி	-1760
தையில்	-1761
ந்தில்	-1762
▁சொந்த	-1763
▁பந்து	-1764
▁அலுவலக	-1765
▁மெரினா	-1766
▁கட்டணம்	-1767
▁வருகிறது	-1768
சர	-1769
மண	-1770
ஞர்	-1771
லாக	-1772
ஷ்ட	-1773
ேஷ்	-1774
ண்டை	-1775
வான்	-1776
ின்ற	-1777
▁ஆயு	-1778
க்கார	-1779
மானம்	-1780
▁முழு	-1781
▁வடகொ	-1782
ப்பாடு	-1783
▁ஆட்சி	-1784
▁ஆண்டு	-1785
▁மோகன்	-1786
▁கேட்டு	-1787
▁கோப்பை	-1788
▁முயன்ற	-1789
▁வேட்பா	-1790
ுவார்த்த	-1791
▁கர்ப்பி	-1792
▁பட்டாசு	-1793
▁மனைவியை	-1794
▁விற்பனை	-1795
▁பறிமுதல்	-1796
▁பாராட்டு	-1797
▁எண்ணிக்கை	-1798
▁திருநங்கை	-1799
▁பேச்சுவார்த்த	-1800
யு	-1801
ீப்	-1802
ோனே	-1803
▁சட	-1804
▁ஹே	-1805
எஸ்ட	-1806
தியை	-1807
ர்ஸ்	-1808
ியாக	-1809
ஞ்சம்	-1810
ராஜன்	-1811
▁அர்ஜ	-1812
▁ஆட்ட	-1813
▁இளம்	-1814
▁கன்ன	-1815
▁கோவி	-1816
▁சமூக	-1817
▁தேவை	-1818
▁வரலா	-1819
▁வாகன	-1820
▁விக்	-1821
▁வீரா	-1822
க்குமா	-1823
▁சொல்ல	-1824
▁படுகா	-1825
▁பாடல்	-1826
▁வைரல்	-1827
▁இடைத்த	-1828
▁செயல்ப	-1829
▁ஒப்பந்த	-1830
▁பயணிகள்	-1831
▁விழுந்த	-1832
▁தொடக்கம்	-1833
▁ரஜினியின்	-1834
▁விளையாட்டு	-1835
▁அமெரிக்காவில்	-1836
தரா	-1837
ம்த	-1838
▁50	-1839
த்தீ	-1840
லங்க	-1841
▁ஒது	-1842
▁மேக	-1843
ண்டர்	-1844
▁எந்த	-1845
▁நீர்	-1846
▁பக்த	-1847
▁மல்ல	-1848
ணியில்	-1849
வியும்	-1850
▁ஓட்டு	-1851
▁கோலிய	-1852
▁நேரம்	-1853
▁பெயர்	-1854
▁மாறிய	-1855
▁மூலம்	-1856
▁திருமா	-1857
▁தொடங்க	-1858
▁பத்திர	-1859
▁மாற்று	-1860
▁தண்ணீர்	-1861
▁வீராங்க	-1862
த்திற்காக	-1863
▁தேர்தலில்	-1864
▁நாட்களில்	-1865
▁குடியரசுத்	-1866
▁விஜயபாஸ்கர்	-1867
ஆம்	-1868
க்ட	-1869
வதை	-1870
ொலி	-1871
▁எட	-1872
▁தட	-1873
தாது	-1874
ளும்	-1875
▁அக்	-1876
▁அரு	-1877
▁கழி	-1878
▁புற	-1879
▁இன்ன	-1880
▁காலா	-1881
▁ஜாமீ	-1882
▁நல்ல	-1883
▁பல்க	-1884
க்கொலை	-1885
ன்தாரா	-1886
ரியில்	-1887
வரத்து	-1888
▁நீக்க	-1889
▁மாற்ற	-1890
▁வாங்க	-1891
▁அடித்த	-1892
▁ஆஸ்திர	-1893
▁காஷ்மீ	-1894
▁தண்டனை	-1895
▁அழைப்பு	-1896
▁ஆட்சியர்	-1897
▁தள்ளுபடி	-1898
▁நயன்தாரா	-1899
▁ஹெச்ராஜா	-1900
▁விசாரிக்க	-1901
▁பயன்படுத்த	-1902
▁ஆண்டுகளுக்கு	-1903
▁வழக்குப்பதிவு	-1904
பஸ்	-1905
ஸ்ப	-1906
▁17	-1907
▁30	-1908
▁கர	-1909
▁வச	-1910
சோதா	-1911
மின்	-1912
ையன்	-1913
▁சீத	-1914
▁ரன்	-1915
▁ஹெல	-1916
டியாக	-1917
தராபா	-1918
▁சச்ச	-1919
நாயகர்	-1920
மில்லை	-1921
▁கடத்த	-1922
▁காதல்	-1923
▁பிறகு	-1924
▁பெரிய	-1925
▁மசோதா	-1926
▁மட்டு	-1927
▁வழக்க	-1928
ியாவில்	-1929
▁கொள்ளை	-1930
▁ஜிஎஸ்ட	-1931
▁கண்டுபி	-1932
▁காட்டம்	-1933
▁சம்பவம்	-1934
▁விரும்ப	-1935
▁சிசிடிவி	-1936
▁சிறையில்	-1937
▁படுகாயம்	-1938
▁இயக்குனர்	-1939
▁கர்ப்பிணி	-1940
▁கேரளாவில்	-1941
டே	-1942
நோ	-1943
ிட	-1944
னல்	-1945
றல்	-1946
ிலோ	-1947
▁சத	-1948
▁நு	-1949
▁யு	-1950
பால்	-1951
ேர்த	-1952
▁ஃபே	-1953
வரின்	-1954
▁ஆப்க	-1955
▁தயார	-1956
▁புகழ	-1957
▁மெட்	-1958
க்குழு	-1959
த்தான்	-1960
றையில்	-1961
▁இயக்க	-1962
▁இறந்த	-1963
▁ஓய்வு	-1964
▁சோகம்	-1965
▁தயார்	-1966
▁தினம்	-1967
▁நன்றி	-1968
ெட்டில்	-1969
▁அஞ்சலி	-1970
▁எடப்பா	-1971
▁கட்டாய	-1972
▁செய்து	-1973
▁தூக்கி	-1974
▁வெஸ்ட்	-1975
▁எப்போது	-1976
▁சூப்பர்	-1977
▁திருட்டு	-1978
▁புதுச்சே	-1979
▁காட்சிகள்	-1980
▁இடைத்தேர்த	-1981
▁துப்பாக்கிச்சூ	-1982
பை	-1983
▁அய	-1984
▁ஆவ	-1985
▁டூ	-1986
▁மழ	-1987
க்ஸ்	-1988
பாபு	-1989
லாக்	-1990
ொள்ள	-1991
▁ஆதர	-1992
▁வன்	-1993
▁வலை	-1994
ண்டன்	-1995
ராதாக	-1996
வாதம்	-1997
▁உதவி	-1998
▁கவலை	-1999
▁டிரை	-2000
▁வருட	-2001
ற்றில்	-2002
▁அமித்	-2003
▁கண்கா	-2004
▁வாபஸ்	-2005
▁வெற்ற	-2006
▁ஆசிரிய	-2007
▁காவலர்	-2008
▁சிக்கி	-2009
▁சிறந்த	-2010
▁அணிக்கு	-2011
▁ஆஸ்திரே	-2012
▁கும்பல்	-2013
▁பட்ஜெட்	-2014
▁பயிற்சி	-2015
▁மேகதாது	-2016
▁ஒப்புதல்	-2017
▁ஊழியர்கள்	-2018
▁துப்பாக்கிச்	-2019
▁வாக்குப்பதிவு	-2020
▁நீதிமன்றத்தில்	-2021
வான	-2022
ானே	-2023
▁நொ	-2024
▁ரீ	-2025
▁மரண	-2026
▁ஆதார	-2027
▁விளா	-2028
ப்போம்	-2029
ஸ்தான்	-2030
ையுடன்	-2031
▁அஜித்	-2032
▁பேட்ட	-2033
தம்பரம்	-2034
ப்பட்டு	-2035
ுக்கும்	-2036
▁மெட்ரோ	-2037
▁மேலும்	-2038
▁சேர்ந்த	-2039
▁புயலால்	-2040
▁விமானம்	-2041
▁ஆண்டுகள்	-2042
▁உருக்கம்	-2043
▁எடப்பாடி	-2044
▁குவியும்	-2045
▁குழந்தையை	-2046
▁வீராங்கனை	-2047
▁வெளியானது	-2048
▁காஷ்மீரில்	-2049
▁சந்திக்கிறார்	-2050
ஐவி	-2051
வின	-2052
ையெ	-2053
▁உப	-2054
▁கிற	-2055
▁பஸ்	-2056
▁முர	-2057
▁ரில	-2058
சிசிஐ	-2059
மானது	-2060
்க்கு	-2061
▁இப்ப	-2062
▁உணவு	-2063
▁உற்ச	-2064
▁சாதன	-2065
▁சுரு	-2066
▁பிடி	-2067
▁யோகி	-2068
ம்பிக்	-2069
ழிப்பு	-2070
▁காயம்	-2071
▁சகோதர	-2072
▁தொழில	-2073
▁நிற்க	-2074
ளுக்காக	-2075
▁அளிக்க	-2076
▁இளம்பெ	-2077
▁குமார்	-2078
▁சட்டம்	-2079
▁தம்பதி	-2080
▁படப்பி	-2081
▁முன்னே	-2082
▁வயதில்	-2083
ிறார்கள்	-2084
▁பிசிசிஐ	-2085
▁பிரகாஷ்	-2086
▁போட்டிய	-2087
▁தெரியுமா	-2088
▁ஒலிம்பிக்	-2089
▁நேரத்தில்	-2090
▁பொன்ராதாக	-2091
▁மாவட்டங்களில்	-2092
▁பேச்சுவார்த்தை	-2093
ேச	-2094
பம்	-2095
▁டே	-2096
▁ஹி	-2097
ட்ச்	-2098
நிலை	-2099
மொழி	-2100
லின்	-2101
ுதவி	-2102
▁அப்	-2103
▁தாம	-2104
▁நடை	-2105
சர்வ்	-2106
வளவன்	-2107
▁ஆசிய	-2108
▁கிலோ	-2109
▁த்ரி	-2110
ப்பால்	-2111
வர்களை	-2112
ிகாப்ட	-2113
▁இழந்த	-2114
▁சாம்ப	-2115
▁தள்ளி	-2116
▁பகுதி	-2117
▁பேசிய	-2118
▁விற்க	-2119
▁இரண்டு	-2120
▁உற்சாக	-2121
▁திறக்க	-2122
▁ஜிஎஸ்டி	-2123
▁ரிசர்வ்	-2124
▁போலீசார்	-2125
▁மோடிக்கு	-2126
▁வாக்குமூ	-2127
▁கனமழைக்கு	-2128
▁மேல்முறைய	-2129
▁ஹெலிகாப்ட	-2130
▁போக்குவரத்து	-2131
பன்	-2132
பார	-2133
ராம	-2134
ேட்	-2135
▁16	-2136
▁இத	-2137
க்தி	-2138
லையை	-2139
ல்கா	-2140
ாகரி	-2141
▁ஆதி	-2142
▁ஆம்	-2143
▁ஏடி	-2144
▁கிள	-2145
▁பனி	-2146
சித்த	-2147
ப்படை	-2148
ினால்	-2149
ிலேயே	-2150
ையாது	-2151
▁இடம்	-2152
▁உயிர	-2153
▁ஓபன்	-2154
▁காங்	-2155
▁சூடு	-2156
▁செலு	-2157
▁சொல்	-2158
▁தனிய	-2159
▁நெரு	-2160
▁வாழ்	-2161
▁வெடி	-2162
ஸ்புக்	-2163
▁ஆய்வா	-2164
▁எம்ஜி	-2165
▁செயலா	-2166
▁ஜாமீன்	-2167
▁த்ரிஷா	-2168
▁நேரில்	-2169
ப்புக்கு	-2170
▁கொள்ளைய	-2171
▁வெளியாக	-2172
▁சட்டப்பே	-2173
▁கேரளாவுக்கு	-2174
▁பிரதமருக்கு	-2175
டோ	-2176
டுப	-2177
ப்த	-2178
ல்த	-2179
▁ஆண	-2180
▁ஹை	-2181
னார்	-2182
பில்	-2183
ர்வு	-2184
வதேச	-2185
▁சிர	-2186
▁சீன	-2187
▁சுத	-2188
▁தரு	-2189
▁நகை	-2190
▁பசி	-2191
▁பூஜ	-2192
கரில்	-2193
ணிக்க	-2194
ய்த்த	-2195
வாசம்	-2196
விக்க	-2197
▁கான்	-2198
▁டிரா	-2199
▁பாஸ்	-2200
▁பேரா	-2201
▁முகா	-2202
ிகளின்	-2203
ேந்திர	-2204
▁உத்தர	-2205
▁உள்ளி	-2206
▁கோயில	-2207
▁டாக்ட	-2208
▁தினகர	-2209
▁பின்ன	-2210
▁மீட்க	-2211
▁மோடிய	-2212
▁வந்து	-2213
முருகன்	-2214
விட்டது	-2215
▁சீதாரா	-2216
▁பல்கலை	-2217
▁அசத்தல்	-2218
▁கொடுக்க	-2219
▁சச்சின்	-2220
▁சர்வதேச	-2221
▁ஆசிரியர்	-2222
▁உள்ளிட்ட	-2223
▁வருத்தம்	-2224
வர்களுக்கு	-2225
▁நிதியுதவி	-2226
▁அதிகரிப்பு	-2227
▁வாக்குமூலம்	-2228
10	-2229
மார	-2230
ாலி	-2231
ோடு	-2232
▁தள	-2233
▁நல	-2234
ட்ரி	-2235
மையை	-2236
ஷ்கா	-2237
ஸ்கே	-2238
ஸ்சி	-2239
▁ஆப்	-2240
▁இலவ	-2241
▁கனி	-2242
▁மகா	-2243
▁வகு	-2244
ங்கர்	-2245
டுதல்	-2246
மையான	-2247
ஸ்டர்	-2248
▁ஏஆர்	-2249
▁கூகு	-2250
▁சார்	-2251
▁சாலை	-2252
▁டாஸ்	-2253
▁டிவி	-2254
▁நாடு	-2255
▁மோதி	-2256
▁லாரி	-2257
ப்பான்	-2258
ியாளர்	-2259
▁அப்போ	-2260
▁அவலம்	-2261
▁ஆன்லை	-2262
▁இந்து	-2263
▁கடற்ப	-2264
▁கட்டி	-2265
▁கவிழ்	-2266
▁செல்க	-2267
▁பலத்த	-2268
▁முழுவ	-2269
▁விண்ண	-2270
▁செல்லா	-2271
▁தொகுதி	-2272
▁நாளில்	-2273
▁நீட்டி	-2274
▁பெங்கள	-2275
▁பெண்ணை	-2276
▁பொருளா	-2277
▁ஹாக்கி	-2278
▁அணியில்	-2279
▁அனைத்து	-2280
▁காய்ச்ச	-2281
▁குஜராத்	-2282
▁சிக்கல்	-2283
▁மல்லையா	-2284
▁வளர்ச்ச	-2285
▁படத்தின்	-2286
▁வெளியிட்ட	-2287
▁மக்களுக்கு	-2288
▁மெரினாவில்	-2289
▁பேருந்துகள்	-2290
தள	-2291
ஃபா	-2292
மது	-2293
ழ்க	-2294
ுடு	-2295
கும்	-2296
டியூ	-2297
னாமி	-2298
▁சடல	-2299
▁தோன	-2300
▁பால	-2301
▁மார	-2302
நிலைய	-2303
னுடன்	-2304
ியும்	-2305
ிருத்	-2306
▁ஆளுந	-2307
▁ஜோடி	-2308
▁தலைம	-2309
▁மணல்	-2310
ர்த்தி	-2311
▁அப்பா	-2312
▁உண்ணா	-2313
▁காதலி	-2314
▁முறைய	-2315
▁வைக்க	-2316
▁சுனாமி	-2317
▁டென்னி	-2318
▁நாயுடு	-2319
▁பதிலடி	-2320
க்கூடாது	-2321
ர்களுடன்	-2322
ல்காந்தி	-2323
▁அறிவுரை	-2324
▁பந்துவீ	-2325
▁வென்றது	-2326
▁இளம்பெண்	-2327
▁எம்பிக்க	-2328
▁திரைப்பட	-2329
▁மிரட்டிய	-2330
▁வாழ்க்கை	-2331
▁விக்கெட்	-2332
▁கொண்டாடிய	-2333
▁தலைவர்கள்	-2334
▁தவிக்கும்	-2335
▁முத்தலாக்	-2336
▁திருமாவளவன்	-2337
▁உயர்நீதிமன்ற	-2338
▁மேல்முறையீடு	-2339
▁ராகுல்காந்தி	-2340
▁வீரர்களுக்கு	-2341
ரெ	-2342
பிர	-2343
ம்க	-2344
வத்	-2345
்சே	-2346
▁ரக	-2347
தேவி	-2348
ன்பு	-2349
பாஸ்	-2350
ய்னா	-2351
ருதி	-2352
லாஜி	-2353
வேன்	-2354
வோம்	-2355
ியது	-2356
▁அழு	-2357
▁ஆசை	-2358
▁குர	-2359
▁பசு	-2360
▁ப்ள	-2361
▁மலை	-2362
மாட்ட	-2363
ிரைக்	-2364
ூர்யா	-2365
▁அச்ச	-2366
▁ஏலம்	-2367
▁ஓட்ட	-2368
▁நொறு	-2369
▁பூஜை	-2370
▁பேட்	-2371
▁மர்ம	-2372
▁மாலை	-2373
▁வாஜ்	-2374
▁வேறு	-2375
டுக்கி	-2376
ணிப்பு	-2377
▁ஆஜராக	-2378
▁கல்யா	-2379
▁சர்மா	-2380
கார்த்த	-2381
▁கூகுள்	-2382
▁சிம்பு	-2383
▁சோனியா	-2384
▁விவேக்	-2385
▁வெளிநா	-2386
▁எதிரொலி	-2387
▁சாதனையை	-2388
▁ஜப்பான்	-2389
▁நடத்திய	-2390
▁விஜய்சே	-2391
▁ஆய்வாளர்	-2392
▁வடகொரியா	-2393
▁நிறுத்தம்	-2394
▁நீதிபதிகள்	-2395
▁செய்யப்பட்ட	-2396
▁இடைத்தேர்தல்	-2397
▁ஜெயலலிதாவின்	-2398
றா	-2399
பான	-2400
ிர்	-2401
▁24	-2402
▁அள	-2403
▁மற	-2404
▁லீ	-2405
▁லை	-2406
டியே	-2407
நிறு	-2408
ம்ஸ்	-2409
லாமா	-2410
ளிர்	-2411
வேல்	-2412
ையாள	-2413
▁அயோ	-2414
▁எடு	-2415
▁தேவ	-2416
▁மான	-2417
▁மாற	-2418
▁மாள	-2419
ண்டது	-2420
திகள்	-2421
த்தனை	-2422
றுத்த	-2423
விடம்	-2424
▁அவதி	-2425
▁ஊழல்	-2426
▁கால்	-2427
▁ட்வீ	-2428
▁தவறு	-2429
முத்து	-2430
▁ஆட்டோ	-2431
▁டீசல்	-2432
▁திரைய	-2433
▁நடந்த	-2434
▁பஞ்சா	-2435
▁வசூல்	-2436
ரத்தில்	-2437
▁அரசுப்	-2438
▁ஒதுக்க	-2439
▁சங்கம்	-2440
▁செங்கோ	-2441
▁ட்ரம்ப	-2442
▁பெற்றோ	-2443
▁அனுஷ்கா	-2444
▁நடந்தது	-2445
▁முடியாத	-2446
▁வாங்கிய	-2447
▁விளையாட	-2448
▁சுதந்திர	-2449
▁டிசம்பர்	-2450
▁வேலைநிறு	-2451
▁அறிவுறுத்தல்	-2452
▁பாதிக்கப்பட்ட	-2453
ஸை	-2454
பாய	-2455
வில	-2456
ியூ	-2457
▁கம	-2458
ர்ட்	-2459
ிகேய	-2460
்களை	-2461
▁ஆவண	-2462
▁குள	-2463
▁தீவ	-2464
காசம்	-2465
ும்ரா	-2466
▁இன்ற	-2467
▁கிமீ	-2468
▁திரி	-2469
▁தெலு	-2470
▁தொகு	-2471
▁தொலை	-2472
▁நபர்	-2473
▁நியூ	-2474
▁பந்த	-2475
▁பேரை	-2476
▁மீறி	-2477
▁முஸ்	-2478
▁ரஷ்ய	-2479
▁லுக்	-2480
ியுடன்	-2481
▁ஆதரவா	-2482
▁இழப்ப	-2483
▁உள்ளா	-2484
▁சாடல்	-2485
▁சித்த	-2486
▁மதுரை	-2487
▁மார்க	-2488
▁முதிய	-2489
▁மைதான	-2490
டத்தில்	-2491
▁இலக்கு	-2492
▁குண்டு	-2493
▁தங்கம்	-2494
▁தடுக்க	-2495
▁பிரான்	-2496
▁பும்ரா	-2497
▁மறுத்த	-2498
▁முல்லை	-2499
▁மூன்று	-2500
▁வாட்ஸ்	-2501
▁விஜயகா	-2502
▁விட்டு	-2503
▁இண்டீஸ்	-2504
▁இந்தோனே	-2505
▁உபியில்	-2506
▁எவ்வளவு	-2507
▁கருணாஸ்	-2508
▁கூடுதல்	-2509
▁செய்தது	-2510
▁தீவிரம்	-2511
▁தொழிலதி	-2512
▁பொங்கல்	-2513
▁மட்டுமே	-2514
▁மின்சார	-2515
▁வன்முறை	-2516
▁இல்லாமல்	-2517
▁உண்ணாவிர	-2518
▁கிடையாது	-2519
▁டென்னிஸ்	-2520
▁புகைப்பட	-2521
▁மாணவிகள்	-2522
▁முடியும்	-2523
▁ஹாலிவுட்	-2524
▁தமிழர்கள்	-2525
▁தீர்மானம்	-2526
▁பங்கேற்பு	-2527
▁நீட்டிப்பு	-2528
▁புகைப்படம்	-2529
▁அமைச்சர்கள்	-2530
▁இந்தியாவின்	-2531
▁பெண்களுக்கு	-2532
▁கண்டுபிடிப்பு	-2533
னோ	-2534
ஹி	-2535
சாக	-2536
ப்ர	-2537
ுமி	-2538
▁ஜூ	-2539
▁ஹோ	-2540
திரா	-2541
த்தொ	-2542
பார்	-2543
மீர்	-2544
▁இன்	-2545
▁சமா	-2546
▁சம்	-2547
▁சுக	-2548
▁பதற	-2549
▁யுவ	-2550
களின்	-2551
டநாடு	-2552
றியது	-2553
ளாஸ்ட	-2554
ஸ்வர்	-2555
▁அபார	-2556
▁டாப்	-2557
▁துறை	-2558
▁நிரூ	-2559
▁மேலா	-2560
▁லாலு	-2561
குமார்	-2562
சையில்	-2563
ப்பூர்	-2564
ஸ்திரி	-2565
▁என்று	-2566
▁தவான்	-2567
▁நாளாக	-2568
▁பிரசா	-2569
▁பேரணி	-2570
▁மக்கள	-2571
▁ரகசிய	-2572
▁விடிய	-2573
▁விபரீ	-2574
தராபாத்	-2575
ானுக்கு	-2576
▁காட்டு	-2577
▁சூர்யா	-2578
▁தப்பிய	-2579
▁தீபிகா	-2580
▁தெரியா	-2581
▁பயிற்ச	-2582
▁புத்தா	-2583
▁மகளிர்	-2584
▁மோடியை	-2585
ட்டிற்கு	-2586
▁அசத்திய	-2587
▁அவகாசம்	-2588
▁இதுதான்	-2589
▁இன்னும்	-2590
▁ரயில்வே	-2591
▁வகுப்பு	-2592
▁இழப்பீடு	-2593
▁குவிப்பு	-2594
▁சுற்றுலா	-2595
▁செல்லும்	-2596
▁தகவல்கள்	-2597
ப்படுத்திய	-2598
▁ஒப்பந்தம்	-2599
▁பொருட்கள்	-2600
▁முழுவதும்	-2601
கார்த்திகேய	-2602
▁பெண்ணுக்கு	-2603
▁ட்விட்டரில்	-2604
▁விமானத்தில்	-2605
▁பள்ளிகளுக்கு	-2606
▁தமிழகத்திற்கு	-2607
ழக	-2608
ஐடி	-2609
ண்ப	-2610
பிஎ	-2611
யர்	-2612
வரச	-2613
ெல்	-2614
▁19	-2615
▁டை	-2616
▁நவ	-2617
▁ஷூ	-2618
போது	-2619
ம்பா	-2620
ீர்க	-2621
ையாக	-2622
▁ஆவே	-2623
▁உபி	-2624
▁ஊர்	-2625
▁செல	-2626
▁டிர	-2627
▁தாய	-2628
▁பின	-2629
சேகர்	-2630
புரம்	-2631
▁அக்ஷ	-2632
▁ஏற்க	-2633
▁கடன்	-2634
▁ஜெட்	-2635
▁பிரச	-2636
▁பைக்	-2637
▁மூதா	-2638
ட்டிங்	-2639
வியின்	-2640
▁கணவன்	-2641
▁சந்தே	-2642
▁பிரிய	-2643
▁முரளி	-2644
▁அறிமுக	-2645
▁சீமான்	-2646
▁டெங்கு	-2647
▁புத்தக	-2648
▁ஸ்டாலி	-2649
▁அஸ்வின்	-2650
▁கிறிஸ்த	-2651
▁திருவார	-2652
▁நிராகரி	-2653
▁மற்றும்	-2654
ப்பிரிக்க	-2655
▁கோடிக்கு	-2656
▁திருச்சி	-2657
▁விழுந்து	-2658
▁வைக்கும்	-2659
▁உள்ளாட்சி	-2660
▁எதிர்த்து	-2661
▁வைரமுத்து	-2662
▁நெகிழ்ச்சி	-2663
▁விஜயகாந்த்	-2664
▁இந்தியாவுக்கு	-2665
▁வேலைநிறுத்தம்	-2666
▁சிவகார்த்திகேய	-2667
யூ	-2668
மிற	-2669
ழல்	-2670
ிகோ	-2671
ேல்	-2672
▁23	-2673
▁அத	-2674
▁ரொ	-2675
டேஜா	-2676
ந்தர	-2677
லியா	-2678
ஸ்பெ	-2679
ாமல்	-2680
ாலிக	-2681
ியல்	-2682
▁இலை	-2683
▁சபா	-2684
▁ரவு	-2685
ப்பான	-2686
மிட்ட	-2687
ள்ளது	-2688
▁அவசர	-2689
▁இலவச	-2690
▁கண்ண	-2691
▁கப்ப	-2692
▁சென்	-2693
▁டிஜி	-2694
▁தலைய	-2695
மணியன்	-2696
ிருஷ்ண	-2697
▁அத்து	-2698
▁அருண்	-2699
▁இடையே	-2700
▁இஸ்லா	-2701
▁எஸ்பி	-2702
▁கட்டண	-2703
▁கண்டி	-2704
▁காத்த	-2705
▁சம்பள	-2706
▁செய்க	-2707
▁ஜடேஜா	-2708
▁தாக்க	-2709
▁விட்ட	-2710
ப்பிக்க	-2711
்குமார்	-2712
▁ஆதரவாக	-2713
▁கணக்கு	-2714
▁காற்று	-2715
▁சமந்தா	-2716
▁செய்தி	-2717
▁போட்டு	-2718
▁ரன்கள்	-2719
க்கோப்பை	-2720
▁கனிமொழி	-2721
▁குவிந்த	-2722
▁தொடங்கி	-2723
▁நாட்கள்	-2724
▁படுகொலை	-2725
▁சந்தித்த	-2726
▁பத்திரிக	-2727
▁வரவேற்பு	-2728
▁ஸ்டிரைக்	-2729
ப்படுகிறது	-2730
▁சீதாராமன்	-2731
▁செங்கோட்ட	-2732
▁முதல்வராக	-2733
▁ராஜஸ்தான்	-2734
▁விபத்தில்	-2735
▁விஸ்வாசம்	-2736
▁இருக்கிறது	-2737
▁பதவியேற்பு	-2738
▁பாஜகவுக்கு	-2739
▁சட்டப்பேரவை	-2740
▁சுட்டுக்கொலை	-2741
▁கிரிக்கெட்டில்	-2742
50	-2743
ும	-2744
ராஜ	-2745
▁40	-2746
▁மய	-2747
திகா	-2748
நீர்	-2749
னிதா	-2750
பந்த	-2751
பேல்	-2752
ம்போ	-2753
விழா	-2754
ாதவ்	-2755
ாராய	-2756
▁அரி	-2757
▁கூட	-2758
▁சல்	-2759
▁மூட	-2760
▁லார	-2761
▁வான	-2762
▁வேக	-2763
க்கடை	-2764
தியான	-2765
ப்பன்	-2766
ய்ச்ச	-2767
ரப்பா	-2768
▁அட்ட	-2769
▁இளைய	-2770
▁ஊதிய	-2771
▁ஐஎஸ்	-2772
▁கனவு	-2773
▁கூறி	-2774
▁கையெ	-2775
▁ஜியோ	-2776
▁தனுஷ	-2777
▁தர்ம	-2778
▁நட்ச	-2779
▁பணிய	-2780
▁பயணி	-2781
▁பிவி	-2782
▁ரன்ன	-2783
▁ஸ்பெ	-2784
டியும்	-2785
திராஜா	-2786
த்தியா	-2787
மடைந்த	-2788
ரையில்	-2789
▁இளவரச	-2790
▁களமிற	-2791
▁காப்ப	-2792
▁சண்டை	-2793
▁தட்டு	-2794
▁தம்பி	-2795
▁தொண்ட	-2796
▁மூழ்க	-2797
▁ரஷ்யா	-2798
▁வருகை	-2799
ுகிறார்	-2800
▁அனுப்ப	-2801
▁ஆட்டம்	-2802
▁கடலில்	-2803
▁காரணமா	-2804
▁கொன்று	-2805
▁சுரங்க	-2806
▁ட்வீட்	-2807
▁தெரிவி	-2808
▁நிபந்த	-2809
▁நோட்டு	-2810
ட்டியில்	-2811
ப்பட்டது	-2812
ல்லையில்	-2813
▁அத்துமீ	-2814
▁எடுத்து	-2815
▁தமிழில்	-2816
▁பாண்டிய	-2817
▁பிளாஸ்ட	-2818
▁வழக்கறி	-2819
▁விவேகம்	-2820
▁இஸ்லாமிய	-2821
▁எம்ஜிஆர்	-2822
▁கார்த்தி	-2823
▁சாலையில்	-2824
▁பாலிவுட்	-2825
▁முடக்கம்	-2826
▁வாஜ்பாய்	-2827
▁விழாவில்	-2828
▁நிகழ்ச்சி	-2829
▁பாரதிராஜா	-2830
▁பொருளாதார	-2831
▁எம்பிக்கள்	-2832
▁சொல்கிறார்	-2833
▁பிறந்தநாள்	-2834
▁ஆர்கேநகரில்	-2835
▁உலகக்கோப்பை	-2836
▁வெளியாகிறது	-2837
▁ஹெலிகாப்டர்	-2838
▁பாண்டியராஜன்	-2839
▁மருத்துவர்கள்	-2840
▁ஓபன்னீர்செல்வம்	-2841
தழ்	-2842
ய்ட	-2843
வாத	-2844
▁96	-2845
▁இன	-2846
▁லி	-2847
க்கீ	-2848
ஞ்சு	-2849
ட்கா	-2850
மாக்	-2851
லூர்	-2852
வரம்	-2853
விட்	-2854
ீங்க	-2855
▁ஏழை	-2856
▁சாக	-2857
▁தன்	-2858
▁தில	-2859
▁வீச	-2860
எஸ்கே	-2861
க்கிர	-2862
க்டர்	-2863
சிக்க	-2864
ட்சிய	-2865
வரும்	-2866
வினர்	-2867
ிக்கொ	-2868
▁அனுப	-2869
▁அமலா	-2870
▁ஆஜர்	-2871
▁உட்ப	-2872
▁எனது	-2873
▁கிடை	-2874
▁குதி	-2875
▁நோயா	-2876
▁மிதா	-2877
▁ஸ்கூ	-2878
சிந்து	-2879
▁உயிர்	-2880
▁கோரிய	-2881
▁சஸ்பெ	-2882
▁டீசர்	-2883
▁திருவ	-2884
▁முதலி	-2885
க்கொண்ட	-2886
ளுக்கான	-2887
▁ஆணையர்	-2888
▁இருவர்	-2889
▁ஐஸ்வர்	-2890
▁தரப்பு	-2891
▁நிறைவு	-2892
▁மாணவன்	-2893
▁விஜய்ய	-2894
ர்களிடம்	-2895
▁ஆர்ப்பா	-2896
▁காட்டிய	-2897
▁சேதுபதி	-2898
▁தனியார்	-2899
▁திருடன்	-2900
▁நிறுத்த	-2901
▁அனுப்பிய	-2902
▁காஷ்மீர்	-2903
▁தொடங்கிய	-2904
▁நிறுவனம்	-2905
▁புகழாரம்	-2906
▁யாருக்கு	-2907
▁வளர்ச்சி	-2908
▁பக்தர்கள்	-2909
▁மாணவிக்கு	-2910
▁பசிதம்பரம்	-2911
▁பிவிசிந்து	-2912
▁கொல்லப்பட்ட	-2913
ஹ்	-2914
டாத	-2915
னாக	-2916
பாச	-2917
மரா	-2918
ரான	-2919
ெய்	-2920
▁இழ	-2921
▁கப	-2922
க்கட	-2923
தற்க	-2924
நிதி	-2925
ம்தா	-2926
வாய்	-2927
▁அட்	-2928
▁அம்	-2929
▁எது	-2930
▁கடு	-2931
▁சேவ	-2932
▁தரி	-2933
▁படை	-2934
▁பிள	-2935
▁புல	-2936
▁மின	-2937
க்களை	-2938
பெற்ற	-2939
ழ்ந்த	-2940
▁அரசை	-2941
▁ஊர்வ	-2942
▁சுவா	-2943
▁சுஷ்	-2944
▁துரை	-2945
▁நடுவ	-2946
▁நூதன	-2947
▁போது	-2948
டுப்பு	-2949
தில்லை	-2950
ப்பெண்	-2951
ம்தான்	-2952
ழுத்து	-2953
ுகிறது	-2954
▁கொல்க	-2955
▁கோப்ப	-2956
▁சுட்ட	-2957
▁மரியா	-2958
▁முறிய	-2959
▁வெட்ட	-2960
டுங்கள்	-2961
டுத்திய	-2962
டைக்கால	-2963
மாற்றம்	-2964
லத்தில்	-2965
ெல்லாம்	-2966
▁குப்பை	-2967
▁குழப்ப	-2968
▁கொண்டு	-2969
▁பேட்மி	-2970
▁மதிப்ப	-2971
▁ரிலீஸ்	-2972
▁ஆட்சியை	-2973
▁இணையும்	-2974
▁இரங்கல்	-2975
▁கடற்படை	-2976
▁கண்ணீர்	-2977
▁சிங்கம்	-2978
▁பஞ்சாப்	-2979
▁பாதித்த	-2980
▁பெயரில்	-2981
▁வெடித்த	-2982
ிறுதியில்	-2983
▁இடைக்கால	-2984
▁இந்தோனேஷ	-2985
▁செல்போன்	-2986
▁டாஸ்மாக்	-2987
▁பங்கேற்க	-2988
▁பட்டியல்	-2989
▁வெற்றியை	-2990
▁குடும்பம்	-2991
▁கொல்கத்தா	-2992
▁சுருண்டது	-2993
▁நடுவானில்	-2994
▁பயங்கரவாத	-2995
▁வேட்பாளர்	-2996
▁சந்திரபாபு	-2997
▁கட்டுப்பாடு	-2998
▁சந்தித்தார்	-2999
▁படப்பிடிப்பு	-3000
▁போராட்டத்தில்	-3001
▁பன்னீர்செல்வம்	-3002
கால	-3003
கிழ	-3004
தர்	-3005
பல்	-3006
▁31	-3007
▁70	-3008
▁ஓவ	-3009
▁நக	-3010
▁மல	-3011
த்ரா	-3012
ப்தி	-3013
ல்டா	-3014
ாதார	-3015
ிறதா	-3016
ிலான	-3017
ையான	-3018
▁அறு	-3019
▁ஆரா	-3020
▁உயர	-3021
▁எச்	-3022
▁ஐநா	-3023
▁நடு	-3024
▁யார	-3025
▁வது	-3026
களால்	-3027
ங்கம்	-3028
யாவதி	-3029
ல்களை	-3030
ள்ளிர	-3031
ிறோம்	-3032
▁ஆந்த	-3033
▁குரு	-3034
▁தேவி	-3035
▁பருவ	-3036
▁பாய்	-3037
▁மிஸ்	-3038
▁மெர்	-3039
▁வார்	-3040
▁விவர	-3041
▁ஷாக்	-3042
ரியாறு	-3043
▁உட்பட	-3044
▁உலகக்	-3045
▁சின்ன	-3046
▁தளபதி	-3047
▁பாதிர	-3048
▁ராமர்	-3049
▁வில்ல	-3050
லங்கானா	-3051
▁ஆந்திர	-3052
▁ஆவேசம்	-3053
▁உறுப்ப	-3054
▁உள்ளது	-3055
▁என்பது	-3056
▁எழுதிய	-3057
▁காஞ்சி	-3058
▁குட்கா	-3059
▁கொடுமை	-3060
▁டெல்டா	-3061
▁நள்ளிர	-3062
▁பரவும்	-3063
▁ரெட்டி	-3064
▁லஞ்சம்	-3065
▁வேண்டு	-3066
▁ஸ்டார்	-3067
▁அப்போலோ	-3068
▁அமித்ஷா	-3069
▁அழைத்து	-3070
▁ஆப்கான்	-3071
▁கொடூரம்	-3072
▁தங்கமணி	-3073
▁நிரந்தர	-3074
▁பரிந்து	-3075
▁பெங்களூ	-3076
▁மழைக்கு	-3077
▁முன்பதி	-3078
▁வழங்கிய	-3079
▁இளையராஜா	-3080
▁கட்டாயம்	-3081
▁கோலிக்கு	-3082
▁செயலாளர்	-3083
▁செய்யும்	-3084
▁தற்காலிக	-3085
▁நிகழ்ச்ச	-3086
▁பிரதமராக	-3087
▁விநாயகர்	-3088
த்திற்குள்	-3089
ப்படவில்லை	-3090
▁இருக்கும்	-3091
▁கவிழ்ந்து	-3092
▁தெலங்கானா	-3093
▁வருகிறார்	-3094
▁படத்திற்கு	-3095
▁வழக்கறிஞர்	-3096
▁கூட்டத்தில்	-3097
▁பேட்மிண்டன்	-3098
▁ஆர்ப்பாட்டம்	-3099
▁பயிற்சியாளர்	-3100
▁விஜய்சேதுபதி	-3101
▁செங்கோட்டையன்	-3102
ஜீ	-3103
போன	-3104
ர்ப	-3105
ஷ்க	-3106
▁அன	-3107
▁ஆர	-3108
▁சவ	-3109
▁வத	-3110
▁வன	-3111
0000	-3112
ஆவது	-3113
சிட்	-3114
சூதன	-3115
ஜ்ரி	-3116
த்தன	-3117
த்யா	-3118
மற்ற	-3119
ற்றை	-3120
ஸ்பு	-3121
▁ஆலை	-3122
▁சேத	-3123
▁தேச	-3124
▁புர	-3125
▁ராம	-3126
ணர்வு	-3127
ப்பதா	-3128
லன்ஸ்	-3129
ார்ட்	-3130
ிறாரா	-3131
▁1000	-3132
▁ஃபர்	-3133
▁அமர்	-3134
▁அரைய	-3135
▁ஆயுத	-3136
▁என்க	-3137
▁காலி	-3138
▁சரிய	-3139
▁சிவா	-3140
▁தென்	-3141
▁நிமி	-3142
▁பிக்	-3143
▁பிரா	-3144
▁மன்ற	-3145
▁மீன்	-3146
க்கட்ட	-3147
த்தைக்	-3148
றுப்பு	-3149
▁அண்ணா	-3150
▁காட்ட	-3151
▁கிண்ட	-3152
▁கொடூர	-3153
▁செல்ஃ	-3154
▁நிச்ச	-3155
▁பாடம்	-3156
▁மம்தா	-3157
▁மீட்ட	-3158
▁முதன்	-3159
▁முருக	-3160
▁ரவுடி	-3161
▁ரேஷன்	-3162
ருங்கள்	-3163
▁இணையதள	-3164
▁சம்பத்	-3165
▁சுஷ்மா	-3166
▁பங்களா	-3167
▁படைத்த	-3168
▁பிச்சை	-3169
▁முஸ்லி	-3170
▁ரத்தம்	-3171
▁வந்தது	-3172
▁வலைத்த	-3173
▁விசாரி	-3174
▁ஸ்மார்	-3175
▁ஸ்ருதி	-3176
ருக்கும்	-3177
ளிக்கும்	-3178
▁ஆன்லைன்	-3179
▁கிடைத்த	-3180
▁சுகாதார	-3181
▁செலுத்த	-3182
▁டாக்டர்	-3183
▁தலைமுறை	-3184
▁தலைமைச்	-3185
▁நேர்ந்த	-3186
▁பறிப்பு	-3187
▁மதுசூதன	-3188
▁முதலில்	-3189
▁ரயிலில்	-3190
▁வாழ்த்த	-3191
▁விவசாயி	-3192
▁வெள்ளம்	-3193
ப்பிடித்த	-3194
▁ஃபர்ஸ்ட்	-3195
▁அசத்தும்	-3196
▁ஐதராபாத்	-3197
▁ஐஸ்வர்யா	-3198
▁களத்தில்	-3199
▁குற்றவாள	-3200
▁சார்பில்	-3201
▁தேர்வில்	-3202
▁நாட்டின்	-3203
▁நிலையில்	-3204
▁பேட்டிங்	-3205
▁போதையில்	-3206
▁மக்களின்	-3207
▁மோடியின்	-3208
▁ஸ்ரீதேவி	-3209
▁கிறிஸ்தும	-3210
▁திருப்பதி	-3211
▁நட்சத்திர	-3212
▁பதிலளிக்க	-3213
▁இணையத்தில்	-3214
▁எங்களுக்கு	-3215
▁கார்த்திக்	-3216
▁தொழிலதிபர்	-3217
▁பகுதிகளில்	-3218
▁பிளாஸ்டிக்	-3219
▁புதுச்சேரி	-3220
▁முடிவுக்கு	-3221
▁இந்தியர்கள்	-3222
▁நிலையத்தில்	-3223
▁அலுவலகத்தில்	-3224
▁தொழிலாளர்கள்	-3225
▁புகைப்படங்கள்	-3226
துப	-3227
மயி	-3228
ரர்	-3229
வாச	-3230
ிகே	-3231
ிறை	-3232
▁21	-3233
▁சல	-3234
காரா	-3235
நாயக	-3236
ய்யா	-3237
ர்தா	-3238
லட்ச	-3239
வாரா	-3240
ுள்ள	-3241
▁அழக	-3242
▁இடை	-3243
▁உடை	-3244
▁எண்	-3245
▁நான	-3246
▁வரா	-3247
▁வலி	-3248
ச்சர்	-3249
தியாக	-3250
த்திற	-3251
ரிக்க	-3252
▁கடவு	-3253
▁செவி	-3254
▁நாகை	-3255
▁நுழை	-3256
▁நெடு	-3257
▁பண்ட	-3258
▁பாதை	-3259
▁ராஜப	-3260
▁ராம்	-3261
ப்பேன்	-3262
ல்தீப்	-3263
▁அதிரு	-3264
▁அவசிய	-3265
▁இஸ்ரே	-3266
▁எங்கே	-3267
▁கருணை	-3268
▁கிரண்	-3269
▁கேமரா	-3270
▁தற்கொ	-3271
▁தவறான	-3272
▁நாராய	-3273
▁புகார	-3274
▁மாஃபா	-3275
▁மாறன்	-3276
▁மோதிய	-3277
▁வெங்க	-3278
ால்தான்	-3279
்க்கும்	-3280
▁அதிகம்	-3281
▁அமைக்க	-3282
▁அளவில்	-3283
▁இதுவரை	-3284
▁ஊழியர்	-3285
▁எச்ஐவி	-3286
▁எத்தனை	-3287
▁காதலன்	-3288
▁கூட்டு	-3289
▁கெஜ்ரி	-3290
▁சாப்பி	-3291
▁படத்தை	-3292
▁மாறும்	-3293
▁மாளிகை	-3294
▁வெடிகு	-3295
▁ஸ்மித்	-3296
வைக்கும்	-3297
▁ஆய்வில்	-3298
▁இருக்கு	-3299
▁கருப்பு	-3300
▁சின்மயி	-3301
▁தலைவராக	-3302
▁நினைக்க	-3303
▁பெண்களை	-3304
▁பேராசிர	-3305
▁போராடிய	-3306
▁போஸ்டர்	-3307
▁ராணுவம்	-3308
▁வலைத்தள	-3309
ப்பாக்கம்	-3310
▁குல்தீப்	-3311
▁கொலையில்	-3312
▁நிர்வாகி	-3313
▁முதலிடம்	-3314
▁அனுமதிக்க	-3315
▁அரசியலில்	-3316
▁காப்பாற்ற	-3317
▁சாம்பியன்	-3318
▁ட்விட்டர்	-3319
▁தொடர்ந்து	-3320
▁பரிந்துரை	-3321
▁காவல்நிலைய	-3322
▁தூக்கிட்டு	-3323
▁விமர்சித்த	-3324
த்திருக்கும்	-3325
▁காப்பாற்றிய	-3326
▁கிறிஸ்துமஸ்	-3327
▁செய்யுங்கள்	-3328
▁வெள்ளத்தில்	-3329
▁எதிர்க்கட்சிகள்	-3330
ஃப	-3331
ஞ்	-3332
ண்க	-3333
லாத	-3334
ஸர்	-3335
்த்	-3336
▁22	-3337
▁60	-3338
▁உள	-3339
▁ஜீ	-3340
▁ஜே	-3341
▁மட	-3342
▁யூ	-3343
▁ரஃ	-3344
ங்கே	-3345
ணும்	-3346
தமாக	-3347
நோய்	-3348
னையை	-3349
புரி	-3350
ராயி	-3351
ர்மா	-3352
வதாக	-3353
வேலு	-3354
ின்ன	-3355
ியாள	-3356
▁அது	-3357
▁ஆல்	-3358
▁இம்	-3359
▁உதய	-3360
▁கசி	-3361
▁கண்	-3362
▁கரை	-3363
▁சதி	-3364
▁தலா	-3365
▁மகி	-3366
▁மசூ	-3367
▁மலே	-3368
▁வலு	-3369
▁விஹ	-3370
த்தலை	-3371
ப்போன	-3372
ாக்டோ	-3373
▁அப்ப	-3374
▁ஆபாச	-3375
▁உருவ	-3376
▁கம்ப	-3377
▁காணா	-3378
▁கோவை	-3379
▁சோதன	-3380
▁தடிய	-3381
▁தள்ள	-3382
▁பெறு	-3383
▁மணிர	-3384
▁மனம்	-3385
▁ரத்த	-3386
▁ராஜா	-3387
▁ரீமே	-3388
க்கிங்	-3389
ுகளில்	-3390
▁ஆம்பு	-3391
▁உருவா	-3392
▁காக்க	-3393
▁குமார	-3394
▁சுங்க	-3395
▁பகீர்	-3396
▁மகாரா	-3397
ுக்குள்	-3398
▁எங்கள்	-3399
▁கட்டிய	-3400
▁கப்பல்	-3401
▁கொலையா	-3402
▁ஜாக்டோ	-3403
▁திறந்த	-3404
▁தென்னா	-3405
▁புறக்க	-3406
▁பெற்று	-3407
▁போராடி	-3408
▁மனிதர்	-3409
▁மிதாலி	-3410
▁முற்று	-3411
▁ரஃபேல்	-3412
▁வழக்கை	-3413
▁அடைப்பு	-3414
▁ஆந்திரா	-3415
▁எழுத்தா	-3416
▁சிஎஸ்கே	-3417
▁செய்யக்	-3418
▁தமிழ்நா	-3419
▁நினைவிட	-3420
▁பாதிரிய	-3421
▁பினராயி	-3422
▁பிரசாத்	-3423
▁பிரம்மா	-3424
▁வாரியம்	-3425
▁விக்ரம்	-3426
▁விவாதம்	-3427
▁வெளியான	-3428
ையாளர்கள்	-3429
▁ஓட்டுநர்	-3430
▁கடலுக்கு	-3431
▁கேட்கும்	-3432
▁கொடுத்து	-3433
▁சந்தேகம்	-3434
▁நடக்கும்	-3435
▁விழிப்பு	-3436
▁வைத்தார்	-3437
▁காவலர்கள்	-3438
▁திரையரங்க	-3439
▁நடக்கிறது	-3440
▁முன்பதிவு	-3441
▁வரித்துறை	-3442
▁விஜய்யின்	-3443
▁விடுவிக்க	-3444
▁வேகத்தில்	-3445
▁உரிமையாளர்	-3446
▁பட்டியலில்	-3447
▁மருத்துவர்	-3448
▁மும்பையில்	-3449
▁முறியடித்த	-3450
▁ஆஸ்திரேலியா	-3451
▁சந்திரசேகர்	-3452
▁விழிப்புணர்வு	-3453
▁விவசாயிகளுக்கு	-3454
17	-3455
சீ	-3456
ஞ்ஞ	-3457
ஷப்	-3458
ஷம்	-3459
ஹாச	-3460
ாரூ	-3461
ேனா	-3462
ோக்	-3463
▁27	-3464
▁48	-3465
▁ஐய	-3466
▁தல	-3467
டாதீ	-3468
ண்டே	-3469
த்மா	-3470
மல்ல	-3471
ரான்	-3472
ர்ஜி	-3473
ழ்வு	-3474
ஸ்ரீ	-3475
▁இறை	-3476
▁உள்	-3477
▁ஏழு	-3478
▁ஓய்	-3479
▁கூற	-3480
▁திக	-3481
▁திண	-3482
▁துர	-3483
▁பன்	-3484
▁வில	-3485
கிறதா	-3486
ந்திய	-3487
ப்பம்	-3488
மைக்க	-3489
மையாக	-3490
ர்களே	-3491
ள்ளான	-3492
வுக்க	-3493
▁உங்க	-3494
▁எழுத	-3495
▁கண்க	-3496
▁தவிர	-3497
▁நம்ப	-3498
▁நியா	-3499
▁பால்	-3500
▁புதை	-3501
▁மாசு	-3502
▁வசதி	-3503
▁ஷாரூ	-3504
▁ஹர்ப	-3505
ங்கில்	-3506
ஞ்சித்	-3507
ஞ்சில்	-3508
த்தாள்	-3509
ர்தான்	-3510
வரிடம்	-3511
வியில்	-3512
ஸுக்கு	-3513
ஹ்மான்	-3514
ெல்வன்	-3515
▁இலங்க	-3516
▁உயிரை	-3517
▁உறவின	-3518
▁எல்லா	-3519
▁ஐசிசி	-3520
▁கண்ணா	-3521
▁கற்று	-3522
▁குண்ட	-3523
▁கைப்ப	-3524
▁சத்தீ	-3525
▁ஜெர்ம	-3526
▁திருட	-3527
▁நக்கீ	-3528
▁பணமதி	-3529
▁மாதிர	-3530
▁விஞ்ஞ	-3531
▁வெல்ல	-3532
டுகளில்	-3533
முறையாக	-3534
லட்சுமி	-3535
வார்கள்	-3536
வேந்தர்	-3537
ஸ்கரில்	-3538
▁அக்ஷய்	-3539
▁ஆட்சிய	-3540
▁ஆதித்ய	-3541
▁ஏடிஎம்	-3542
▁கோலியை	-3543
▁சம்மன்	-3544
▁சான்றி	-3545
▁சைக்கி	-3546
▁ஜெட்லி	-3547
▁தடியடி	-3548
▁திட்டவ	-3549
▁திரிபு	-3550
▁தீக்கு	-3551
▁நாட்டு	-3552
▁பிரியா	-3553
▁புற்று	-3554
▁போதும்	-3555
▁ரெய்னா	-3556
▁விலகல்	-3557
▁ஹாட்ரி	-3558
ப்பிள்ளை	-3559
ுகளுக்கு	-3560
▁அயோத்தி	-3561
▁என்றால்	-3562
▁கணிப்பு	-3563
▁கிருஷ்ண	-3564
▁சம்பளம்	-3565
▁செவிலிய	-3566
▁தம்பிது	-3567
▁மரியாதை	-3568
▁மாயாவதி	-3569
▁மெர்சல்	-3570
▁ராஜபக்ச	-3571
டியூரப்பா	-3572
▁ஏமாற்றம்	-3573
▁கலக்கும்	-3574
▁கலாய்த்த	-3575
▁குறைப்பு	-3576
▁செய்தார்	-3577
▁திடுக்கி	-3578
▁தொடர்பான	-3579
▁நிபந்தனை	-3580
▁பிரான்ஸ்	-3581
▁பெற்றோர்	-3582
▁போராடும்	-3583
▁மாட்டிறை	-3584
▁முதியவர்	-3585
▁முறையில்	-3586
▁மூதாட்டி	-3587
▁மேலாண்மை	-3588
▁ஸ்மார்ட்	-3589
▁ஹீரோயின்	-3590
▁எல்லையில்	-3591
▁சபாநாயகர்	-3592
▁தயாராகும்	-3593
▁தலைமையில்	-3594
▁மதுசூதனன்	-3595
▁வழக்குகளை	-3596
▁அதிர்ச்சிய	-3597
▁ஆம்புலன்ஸ்	-3598
▁தோல்விக்கு	-3599
▁நீடிக்கும்	-3600
▁பிரம்மாண்ட	-3601
▁துரைமுருகன்	-3602
▁கர்நாடகாவில்	-3603
▁மாணவர்களுக்கு	-3604
▁குடும்பத்திற்கு	-3605
▁தென்னாப்பிரிக்க	-3606
வோ	-3607
சேக	-3608
னன்	-3609
யல்	-3610
▁26	-3611
▁80	-3612
▁ஐஏ	-3613
▁லெ	-3614
சரஸ்	-3615
ராகு	-3616
ற்றா	-3617
ளால்	-3618
ழிவு	-3619
வார்	-3620
ிட்ட	-3621
▁அலை	-3622
▁ஆணவ	-3623
▁உண்	-3624
▁எய்	-3625
▁நடன	-3626
▁பவு	-3627
▁போல	-3628
▁மணம	-3629
▁மன்	-3630
▁ரகு	-3631
▁வடி	-3632
மாநில	-3633
லுடன்	-3634
ாகரன்	-3635
ூக்கு	-3636
▁2000	-3637
▁2019	-3638
▁அணிய	-3639
▁அண்ண	-3640
▁ஏற்ற	-3641
▁காரை	-3642
▁காலை	-3643
▁கிம்	-3644
▁சதவி	-3645
▁ஜெயி	-3646
▁டாக்	-3647
▁நாக்	-3648
▁நாடக	-3649
▁பண்ண	-3650
▁பாரி	-3651
▁புகு	-3652
▁பேரி	-3653
▁ப்ளூ	-3654
▁மொபை	-3655
▁ராஜம	-3656
▁ரியோ	-3657
▁விசா	-3658
▁வீண்	-3659
டுபட்ட	-3660
ண்ட்யா	-3661
ப்பும்	-3662
ராட்சி	-3663
▁அர்ஜூ	-3664
▁ஆனார்	-3665
▁ஆனால்	-3666
▁என்னா	-3667
▁ஐஏஎஸ்	-3668
▁சவால்	-3669
▁சவுதி	-3670
▁செயல்	-3671
▁தோனிய	-3672
▁நீர்ம	-3673
▁நோயாள	-3674
▁பிஎஸ்	-3675
▁பிரபு	-3676
▁மேகால	-3677
▁வாக்க	-3678
▁வீசிய	-3679
▁ஸ்பெஷ	-3680
ப்பெரிய	-3681
வாதிகள்	-3682
ிருத்வி	-3683
▁அணிகள்	-3684
▁இப்படி	-3685
▁எதிர்க	-3686
▁காட்சி	-3687
▁கார்டு	-3688
▁கோடியை	-3689
▁சுனில்	-3690
▁சுற்றி	-3691
▁ட்விட்	-3692
▁பதவியை	-3693
▁பாலாஜி	-3694
▁மணிரத்	-3695
▁மனைவிய	-3696
▁முன்னி	-3697
▁மோசமான	-3698
▁வரலாறு	-3699
▁விவரம்	-3700
▁வீட்டு	-3701
▁வீட்டை	-3702
▁ஹைட்ரோ	-3703
லாந்தில்	-3704
வர்களின்	-3705
விட்டார்	-3706
▁அணியின்	-3707
▁அணையில்	-3708
▁இல்லையா	-3709
▁உடைப்பு	-3710
▁எய்ம்ஸ்	-3711
▁எல்லாம்	-3712
▁ஒருநாள்	-3713
▁சிலைகள்	-3714
▁செல்ஃபி	-3715
▁ட்ரெண்ட	-3716
▁தடுப்பு	-3717
▁தேர்தலை	-3718
▁பதக்கம்	-3719
▁கோப்பையை	-3720
▁கோவிலில்	-3721
▁நடிகைகள்	-3722
▁நாஞ்சில்	-3723
▁பரிதாபம்	-3724
▁பாண்ட்யா	-3725
▁பிருத்வி	-3726
▁பேருக்கு	-3727
▁பேஸ்புக்	-3728
▁போலீசில்	-3729
▁விபரீதம்	-3730
▁ஹாட்ரிக்	-3731
▁ஃபேஸ்புக்	-3732
▁இடங்களில்	-3733
▁ஒதுக்கீடு	-3734
▁குமாரசாமி	-3735
▁துப்பாக்க	-3736
▁பிரியங்கா	-3737
▁முடிந்தது	-3738
▁எழுத்தாளர்	-3739
▁குடும்பத்த	-3740
▁குழந்தைகளை	-3741
▁சிறுமிக்கு	-3742
▁செல்கிறார்	-3743
▁திட்டமிட்ட	-3744
▁தமிழகத்தின்	-3745
▁திட்டவட்டம்	-3746
▁நிறைவேற்றம்	-3747
▁அதிகரிக்கும்	-3748
▁திடுக்கிடும்	-3749
▁காத்திருக்கும்	-3750
25	-3751
ஜே	-3752
டமி	-3753
ம்ம	-3754
ள்க	-3755
வதா	-3756
்டி	-3757
்தே	-3758
▁ஃப	-3759
▁அற	-3760
க்கர	-3761
தாஸ்	-3762
பிசி	-3763
ரால்	-3764
ுவது	-3765
ெண்ட	-3766
▁200	-3767
▁அரை	-3768
▁ஆண்	-3769
▁ஆள்	-3770
▁எளி	-3771
▁ஒடி	-3772
▁கழு	-3773
▁நவா	-3774
▁பரோ	-3775
▁பல்	-3776
▁பான	-3777
▁பாவ	-3778
▁மவு	-3779
▁மால	-3780
னிடம்	-3781
பிக்க	-3782
மாடிய	-3783
விபிர	-3784
வைத்த	-3785
▁அரவி	-3786
▁ஆயிர	-3787
▁ஒன்ற	-3788
▁கேன்	-3789
▁கேபி	-3790
▁கொதி	-3791
▁சண்ட	-3792
▁சுரே	-3793
▁தாதா	-3794
▁தோல்	-3795
▁நலம்	-3796
▁பலிய	-3797
▁பொய்	-3798
▁மண்ண	-3799
▁மன்ன	-3800
▁மார்	-3801
▁ரோஹி	-3802
▁வியா	-3803
▁ஸ்டை	-3804
▁ஹெல்	-3805
த்திரை	-3806
போர்ட்	-3807
ப்படுக	-3808
ற்பாடு	-3809
ிக்காக	-3810
▁அணியை	-3811
▁அவமதி	-3812
▁ஆதாரை	-3813
▁உதவிய	-3814
▁ஏஆர்ர	-3815
▁காந்த	-3816
▁காவிர	-3817
▁கூறிய	-3818
▁சமாஜ்	-3819
▁சவரன்	-3820
▁டீஸர்	-3821
▁திவாக	-3822
▁நீண்ட	-3823
▁பாடகி	-3824
▁பாம்ப	-3825
▁பாலம்	-3826
▁பெய்ய	-3827
▁போலீஸ	-3828
▁மறக்க	-3829
▁மூன்ற	-3830
க்காமல்	-3831
ங்களின்	-3832
நாவுக்க	-3833
மாணிக்க	-3834
லியர்ஸ்	-3835
▁ஆர்எஸ்	-3836
▁ஆறுமுக	-3837
▁கர்ணன்	-3838
▁குட்டி	-3839
▁கோரும்	-3840
▁சங்கர்	-3841
▁சுவாமி	-3842
▁தாக்கி	-3843
▁நோக்கி	-3844
▁பணத்தை	-3845
▁பாட்டி	-3846
▁போட்டோ	-3847
▁முகாம்	-3848
▁முடிவை	-3849
▁ராஜமவு	-3850
▁விக்கெ	-3851
▁விசாரண	-3852
▁வித்யா	-3853
▁வீச்சு	-3854
டுகிறார்	-3855
த்தலைவர்	-3856
மாட்டோம்	-3857
விட்டால்	-3858
வில்லையா	-3859
▁அடுத்து	-3860
▁இயக்குந	-3861
▁இஸ்ரேல்	-3862
▁காணாமல்	-3863
▁குறைக்க	-3864
▁சின்னம்	-3865
▁டிரைலர்	-3866
▁நாங்கள்	-3867
▁நிலையம்	-3868
▁நெருக்க	-3869
▁பருவமழை	-3870
▁பின்னணி	-3871
▁பிரபாஸ்	-3872
▁பொருட்க	-3873
▁முறையாக	-3874
▁விதிக்க	-3875
▁விளக்கு	-3876
▁வேண்டிய	-3877
▁அதிகாரம்	-3878
▁இந்தியன்	-3879
▁இயங்கும்	-3880
▁கோயிலில்	-3881
▁கோலியின்	-3882
▁செந்தில்	-3883
▁செல்லாது	-3884
▁திரிபுரா	-3885
▁திருவிழா	-3886
▁பறக்கும்	-3887
▁பார்த்து	-3888
▁போட்டியி	-3889
▁மாடியில்	-3890
▁முன்னிலை	-3891
▁ராஜ்நாத்	-3892
▁வென்றார்	-3893
▁ஷூட்டிங்	-3894
▁இந்தியாவை	-3895
▁சஸ்பெண்ட்	-3896
▁சிறுமிகள்	-3897
▁பல்கலைக்க	-3898
▁பெங்களூரு	-3899
▁மனைவிக்கு	-3900
▁மின்சாரம்	-3901
▁ரஜினிக்கு	-3902
▁ஸ்கூட்டர்	-3903
▁ஆஸ்திரேலிய	-3904
▁எடியூரப்பா	-3905
▁திருமணத்தை	-3906
▁பள்ளிகளில்	-3907
▁மாப்பிள்ளை	-3908
▁வெடிகுண்டு	-3909
▁திருநாவுக்க	-3910
▁நீக்கப்பட்ட	-3911
▁பந்துவீச்சா	-3912
▁மக்களவையில்	-3913
▁மாற்றுத்திற	-3914
▁கொள்ளையர்கள்	-3915
▁அரையிறுதியில்	-3916
▁பயங்கரவாதிகள்	-3917
▁ஜெயலலிதாவுக்கு	-3918
ணு	-3919
தூ	-3920
தோ	-3921
நே	-3922
லய	-3923
டகை	-3924
முற	-3925
றவு	-3926
வரூ	-3927
்சா	-3928
▁29	-3929
▁35	-3930
▁ஆஸ	-3931
சான்	-3932
சேனா	-3933
ஜாரா	-3934
ஞ்ச்	-3935
டையே	-3936
ப்ஸ்	-3937
மிதா	-3938
ம்மு	-3939
லித்	-3940
வந்த	-3941
வர்க	-3942
வாடா	-3943
வைஸ்	-3944
ானம்	-3945
ிர்க	-3946
ேசன்	-3947
▁கமி	-3948
▁சரண	-3949
▁சான	-3950
▁பழி	-3951
க்கர்	-3952
டாமல்	-3953
டுகளை	-3954
ப்பாள	-3955
றியல்	-3956
வரிசை	-3957
▁அகில	-3958
▁அனும	-3959
▁உடலை	-3960
▁ஒத்த	-3961
▁கழிவ	-3962
▁காமெ	-3963
▁சாக்	-3964
▁சாய்	-3965
▁சிக்	-3966
▁சேர்	-3967
▁தஞ்ச	-3968
▁துரு	-3969
▁பான்	-3970
▁பாலி	-3971
▁புதி	-3972
▁போதை	-3973
▁மகனை	-3974
▁மண்ட	-3975
▁மாறி	-3976
▁ரவிச	-3977
கிறாரா	-3978
சியில்	-3979
சென்னை	-3980
ட்டால்	-3981
த்துக்	-3982
பாயில்	-3983
பிஎஸ்இ	-3984
மாகும்	-3985
ம்பான்	-3986
ரெட்டி	-3987
ளிப்பு	-3988
வரூபம்	-3989
ுகொள்ள	-3990
▁அகற்ற	-3991
▁அனிதா	-3992
▁அன்பு	-3993
▁ஆகும்	-3994
▁ஆபத்த	-3995
▁எல்லை	-3996
▁ஓடும்	-3997
▁கல்வி	-3998
▁கழிவு	-3999
▁கின்ன	-4000
▁கேஎல்	-4001
▁சுப்ர	-4002
▁செயலி	-4003
▁சேலம்	-4004
▁தொழிற	-4005
▁நியமி	-4006
▁பாடிய	-4007
▁பிரமா	-4008
▁மாதம்	-4009
▁மேற்ப	-4010
▁வர்தா	-4011
▁வாடகை	-4012
▁விக்ர	-4013
த்தியாச	-4014
ந்திரம்	-4015
▁அர்ச்ச	-4016
▁இணைக்க	-4017
▁ஓட்டிய	-4018
▁கவுதம்	-4019
▁காரில்	-4020
▁குத்து	-4021
▁குறைவு	-4022
▁சுரேஷ்	-4023
▁திண்டு	-4024
▁துன்பு	-4025
▁தொழில்	-4026
▁பாஜகவை	-4027
▁பிரதேச	-4028
▁பீட்டா	-4029
▁புஜாரா	-4030
▁பூட்டு	-4031
▁மறியல்	-4032
▁மறைந்த	-4033
▁மாதிரி	-4034
▁மிரட்ட	-4035
▁முத்து	-4036
▁மொபைல்	-4037
▁லண்டன்	-4038
▁விஜயன்	-4039
▁விடுதி	-4040
▁விளம்ப	-4041
க்கிறார்	-4042
டுக்கும்	-4043
போதையில்	-4044
▁அட்வைஸ்	-4045
▁இயக்கம்	-4046
▁இறுதிப்	-4047
▁ஏற்பாடு	-4048
▁கதையில்	-4049
▁கன்னியா	-4050
▁காரணமாக	-4051
▁கிண்டல்	-4052
▁குற்றம்	-4053
▁கோடநாடு	-4054
▁திருடிய	-4055
▁தீர்த்த	-4056
▁பார்வதி	-4057
▁மாற்றிய	-4058
▁முடிந்த	-4059
▁மேகாலயா	-4060
▁யுவராஜ்	-4061
▁வங்கதேச	-4062
▁வங்கிக்	-4063
▁வில்லன்	-4064
விபிரகாஷ்	-4065
▁உற்சாகம்	-4066
▁சிபிஎஸ்இ	-4067
▁சேர்ப்பு	-4068
▁தெலுங்கு	-4069
▁நக்கீரன்	-4070
▁பெண்ணின்	-4071
▁மகாராஷ்ட	-4072
▁வீட்டின்	-4073
விலிருந்து	-4074
▁உண்ணாவிரத	-4075
▁ஏஆர்முருக	-4076
▁ஏற்படுத்த	-4077
▁கேஎல்ராகு	-4078
▁சான்றிதழ்	-4079
▁சொல்கிறது	-4080
▁ட்ரம்பின்	-4081
▁நோட்டுகளை	-4082
▁பணப்பட்டு	-4083
▁பணமதிப்பி	-4084
▁பரிதாபமாக	-4085
▁பள்ளியில்	-4086
▁பாதுகாக்க	-4087
▁வித்தியாச	-4088
▁ஆதித்யநாத்	-4089
▁கையெழுத்து	-4090
▁கொண்டாடும்	-4091
▁பிரபலங்கள்	-4092
▁பெரும்பான்	-4093
▁விவசாயிகளை	-4094
▁விஸ்வரூபம்	-4095
▁வெளியாகும்	-4096
▁கருணாநிதியை	-4097
▁குஜராத்தில்	-4098
▁சேப்பாக்கம்	-4099
▁மன்னிப்புக்	-4100
▁பாகிஸ்தானில்	-4101
▁மாட்டிறைச்சி	-4102
▁முதல்வருக்கு	-4103
▁விண்ணப்பிக்க	-4104
▁கர்ப்பிணிக்கு	-4105
▁திருப்பதியில்	-4106
▁நினைவிடத்தில்	-4107
▁பணப்பட்டுவாடா	-4108
▁மாற்றுத்திறனா	-4109
▁திருமணத்திற்கு	-4110
▁பாகிஸ்தானுக்கு	-4111
▁போராட்டத்திற்கு	-4112
பெட	-4113
வல்	-4114
வேக	-4115
வைய	-4116
ுகை	-4117
▁28	-4118
▁ஆச	-4119
▁தன	-4120
▁ரண	-4121
▁ரஹ	-4122
கார்	-4123
சகம்	-4124
டாதா	-4125
தேஷ்	-4126
ம்மை	-4127
ய்டு	-4128
ரசர்	-4129
ரையா	-4130
வெளி	-4131
வேறு	-4132
ஸின்	-4133
▁அபா	-4134
▁அறை	-4135
▁ஆத்	-4136
▁இடி	-4137
▁ஊடக	-4138
▁ஒளி	-4139
▁களை	-4140
▁கவா	-4141
▁சது	-4142
▁சரத	-4143
▁சீர	-4144
▁சுய	-4145
▁சுவ	-4146
▁போற	-4147
▁மல்	-4148
▁மேஜ	-4149
▁விய	-4150
ச்சரி	-4151
ட்டன்	-4152
ட்டில	-4153
தலில்	-4154
னத்தை	-4155
ம்பம்	-4156
றிவாள	-4157
வாசன்	-4158
ிராஜ்	-4159
▁ஃபெட	-4160
▁அக்க	-4161
▁அணைய	-4162
▁அதிச	-4163
▁அரசா	-4164
▁உடன்	-4165
▁எஸ்ட	-4166
▁ஐஐடி	-4167
▁ஓடிய	-4168
▁கடல்	-4169
▁கைதி	-4170
▁கொள்	-4171
▁டார்	-4172
▁டீம்	-4173
▁தத்த	-4174
▁தரும	-4175
▁நண்ப	-4176
▁நானா	-4177
▁நேர்	-4178
▁போன்	-4179
▁முறி	-4180
▁ராய்	-4181
▁வினா	-4182
▁வேல்	-4183
டுவோம்	-4184
ட்டியை	-4185
ந்தால்	-4186
ன்ஸ்பெ	-4187
ார்களா	-4188
ிற்காக	-4189
ீர்களா	-4190
ீர்கள்	-4191
▁அன்று	-4192
▁இறங்க	-4193
▁ஒன்று	-4194
▁கடந்த	-4195
▁சக்தி	-4196
▁சூரிய	-4197
▁தவறாக	-4198
▁தூங்க	-4199
▁தோற்ற	-4200
▁படேல்	-4201
▁பதக்க	-4202
▁புகழ்	-4203
▁மின்க	-4204
▁முன்ப	-4205
▁மூத்த	-4206
▁ரிஷப்	-4207
▁வாரிய	-4208
▁விஷம்	-4209
ங்களும்	-4210
னுக்காக	-4211
ம்பரில்	-4212
றையினர்	-4213
▁அபாயம்	-4214
▁அப்படி	-4215
▁உடைத்த	-4216
▁கடந்து	-4217
▁கோடியா	-4218
▁கோபால்	-4219
▁சானியா	-4220
▁சென்று	-4221
▁சேவாக்	-4222
▁டிஜிபி	-4223
▁திலீப்	-4224
▁நினைவு	-4225
▁பலியான	-4226
▁பிரச்ச	-4227
▁பூங்கா	-4228
▁போர்டு	-4229
▁முயற்ச	-4230
▁மேற்கு	-4231
▁விளக்க	-4232
▁விஹாரி	-4233
டிப்பில்	-4234
த்திலும்	-4235
ப்பத்திர	-4236
வேண்டும்	-4237
்களுக்கு	-4238
▁அனிருத்	-4239
▁இப்போது	-4240
▁இவ்வளவு	-4241
▁கமல்ஹாச	-4242
▁சிவசேனா	-4243
▁தாண்டிய	-4244
▁தினமும்	-4245
▁தீர்மான	-4246
▁தொழிலாள	-4247
▁படுகோனே	-4248
▁பழமையான	-4249
▁பிடிக்க	-4250
▁பிரதமரை	-4251
▁போர்க்க	-4252
▁யானைகள்	-4253
▁வாடிக்க	-4254
▁ஹெச்ஐவி	-4255
புரத்தில்	-4256
▁அறிமுகம்	-4257
▁குடிநீர்	-4258
▁சைக்கிள்	-4259
▁திவாகரன்	-4260
▁தீர்ப்பை	-4261
▁தோனியின்	-4262
▁நிவாரணப்	-4263
▁பாஜகவில்	-4264
▁பாணியில்	-4265
▁பொறுப்பு	-4266
▁பொறுப்பே	-4267
▁முடியுமா	-4268
▁மேற்பட்ட	-4269
▁விஞ்ஞானி	-4270
▁ஆர்எஸ்எஸ்	-4271
▁இருந்தால்	-4272
▁கண்டித்து	-4273
▁கூடுகிறது	-4274
▁தம்பிதுரை	-4275
▁பாதுகாப்ப	-4276
▁மணிரத்னம்	-4277
▁மாதத்தில்	-4278
▁முக்கியம்	-4279
▁முடியாமல்	-4280
▁மோகன்லால்	-4281
▁வங்கியில்	-4282
▁வரிசையில்	-4283
▁ஆணையத்தில்	-4284
▁சிறுமியின்	-4285
▁சிறுவர்கள்	-4286
▁புத்தாண்டு	-4287
▁மிகப்பெரிய	-4288
▁இந்தியாவில்	-4289
▁கடத்தப்பட்ட	-4290
▁சர்ச்சைக்கு	-4291
▁தட்டுப்பாடு	-4292
▁நாட்களுக்கு	-4293
▁பொன்மாணிக்க	-4294
▁மைதானத்தில்	-4295
▁உயிரிழந்தோர்	-4296
▁தீவிரவாதிகள்	-4297
▁அதிர்ச்சியில்	-4298
▁கட்டுப்படுத்த	-4299
▁கருணாநிதியின்	-4300
▁குற்றப்பத்திர	-4301
▁தமிழ்நாட்டில்	-4302
▁பத்திரிகையாளர்	-4303
▁புதுச்சேரியில்	-4304
பட	-4305
ோக	-4306
100	-4307
அப்	-4308
காத	-4309
சரி	-4310
மாற	-4311
வுக	-4312
ோயி	-4313
்தா	-4314
▁36	-4315
▁இவ	-4316
▁ஏல	-4317
▁தை	-4318
▁ஹூ	-4319
ங்க்	-4320
சில்	-4321
ட்லி	-4322
தீன்	-4323
னேஷ்	-4324
ன்னு	-4325
பாமா	-4326
பூர்	-4327
மெட்	-4328
மேஷ்	-4329
ராம்	-4330
ரீத்	-4331
லியை	-4332
ழும்	-4333
விடு	-4334
ியான	-4335
ுங்க	-4336
ெச்ச	-4337
ேகர்	-4338
▁144	-4339
▁150	-4340
▁300	-4341
▁அசை	-4342
▁அஜீ	-4343
▁அன்	-4344
▁உதவ	-4345
▁கலக	-4346
▁நாட	-4347
▁பண்	-4348
▁மித	-4349
▁வீண	-4350
சாகர்	-4351
நாதன்	-4352
ன்களை	-4353
மாக்க	-4354
முடன்	-4355
ய்லர்	-4356
லாமல்	-4357
ீட்டு	-4358
ோவில்	-4359
▁அகர்	-4360
▁கத்த	-4361
▁கரம்	-4362
▁கற்க	-4363
▁களைக	-4364
▁கீழ்	-4365
▁கூறு	-4366
▁சஞ்ச	-4367
▁சதவீ	-4368
▁சிரி	-4369
▁சிலி	-4370
▁தக்க	-4371
▁தவறி	-4372
▁திக்	-4373
▁நெரி	-4374
▁நெல்	-4375
▁புரி	-4376
▁புலி	-4377
▁பெல்	-4378
▁போடு	-4379
▁மரும	-4380
▁மறுப	-4381
▁யாரு	-4382
▁ரெட்	-4383
▁வெறி	-4384
என்எல்	-4385
களுடன்	-4386
க்காது	-4387
க்குப்	-4388
டையில்	-4389
திக்கு	-4390
பாலாஜி	-4391
ப்பதாக	-4392
விலும்	-4393
ெடுத்த	-4394
▁ஆத்மி	-4395
▁இஸ்ரோ	-4396
▁உரையா	-4397
▁ஊரில்	-4398
▁ஐந்து	-4399
▁குடிம	-4400
▁குட்ட	-4401
▁கொந்த	-4402
▁சன்னி	-4403
▁சேகர்	-4404
▁ஜம்மு	-4405
▁நடக்க	-4406
▁நன்கொ	-4407
▁நிலம்	-4408
▁நோபல்	-4409
▁யாதவ்	-4410
▁ரூபாய	-4411
▁வாதம்	-4412
▁வேட்ட	-4413
க்காரர்	-4414
க்கியது	-4415
ப்பதில்	-4416
்சிஸ்ட்	-4417
▁ஆபத்து	-4418
▁இரண்டா	-4419
▁உங்கள்	-4420
▁குரங்க	-4421
▁சதவிகி	-4422
▁சித்து	-4423
▁தமிழர்	-4424
▁தவித்த	-4425
▁தொலைபே	-4426
▁நிதின்	-4427
▁நெட்டி	-4428
▁மாதவன்	-4429
▁மாநாடு	-4430
▁மாவோயி	-4431
▁மிஸ்ரா	-4432
▁முகமது	-4433
▁முடக்க	-4434
▁முடிவெ	-4435
▁விடுவி	-4436
▁விதிமீ	-4437
▁வைரலான	-4438
▁ஷங்கர்	-4439
ட்டியின்	-4440
வையில்லை	-4441
▁ஃபேஸ்பு	-4442
▁எண்ணெய்	-4443
▁ஏற்பட்ட	-4444
▁கடித்து	-4445
▁கண்ணாடி	-4446
▁கறுப்பு	-4447
▁காவல்து	-4448
▁சிகிச்ச	-4449
▁சேர்க்க	-4450
▁டிரைவர்	-4451
▁தரிசனம்	-4452
▁நீங்கள்	-4453
▁பானர்ஜி	-4454
▁மறுநாள்	-4455
▁வடகொரிய	-4456
▁வந்தால்	-4457
▁வார்த்த	-4458
▁ஹர்பஜன்	-4459
க்களுக்கு	-4460
ிகளுக்காக	-4461
▁அனைவரும்	-4462
▁இளைஞரின்	-4463
▁காட்டும்	-4464
▁கிரிக்கெ	-4465
▁கோவையில்	-4466
▁சாஸ்திரி	-4467
▁சீனாவில்	-4468
▁ட்ரெண்ட்	-4469
▁தவிர்க்க	-4470
▁நிற்கும்	-4471
▁பிக்பாஸ்	-4472
▁பிறந்தநா	-4473
▁பெரியாறு	-4474
▁பேரறிவாள	-4475
▁முல்லைப்	-4476
▁வழக்குப்	-4477
▁வீழ்த்தி	-4478
▁அஜித்தின்	-4479
▁அதிரடியாக	-4480
▁அதிருப்தி	-4481
▁அமைச்சரவை	-4482
▁ஆண்டுகளாக	-4483
▁கட்சியில்	-4484
▁சமாஜ்வாதி	-4485
▁சிதம்பரம்	-4486
▁சுங்கச்சா	-4487
▁செய்யலாம்	-4488
▁சோதனையில்	-4489
▁தெரியாமல்	-4490
▁நடிகைக்கு	-4491
▁நிரூபிக்க	-4492
▁புகார்கள்	-4493
▁புத்தாண்ட	-4494
▁மதுரையில்	-4495
▁மாநிலங்கள	-4496
▁முடிவுகள்	-4497
▁ராஜேந்திர	-4498
▁விலகினார்	-4499
▁விவரங்களை	-4500
ன்ஸ்பெக்டர்	-4501
▁ஆறுமுகசாமி	-4502
▁இப்படியும்	-4503
▁இல்லாததால்	-4504
▁கெஜ்ரிவால்	-4505
▁திருவாரூர்	-4506
▁தேவையில்லை	-4507
▁தொண்டர்கள்	-4508
▁நள்ளிரவில்	-4509
▁நிதியமைச்ச	-4510
▁நீர்மட்டம்	-4511
▁பங்களாதேஷ்	-4512
▁படத்துக்கு	-4513
▁மதிப்பிலான	-4514
▁முதல்வரின்	-4515
▁வீட்டுக்கு	-4516
த்திலிருந்து	-4517
▁அரசியலுக்கு	-4518
▁இயக்கத்தில்	-4519
▁இருக்கிறார்	-4520
▁உண்ணாவிரதம்	-4521
▁சபரிமலைக்கு	-4522
▁திண்டுக்கல்	-4523
▁பிஎஸ்என்எல்	-4524
▁போட்டிகளில்	-4525
▁முடியவில்லை	-4526
▁வாக்குவாதம்	-4527
▁விசாரணைக்கு	-4528
▁திருவாரூரில்	-4529
▁பாதிப்புக்கு	-4530
▁மார்க்சிஸ்ட்	-4531
▁திருநாவுக்கரசர்	-4532
சன	-4533
நக	-4534
பூ	-4535
ளோ	-4536
நடு	-4537
மனை	-4538
மம்	-4539
லோர	-4540
வாண	-4541
ிற்	-4542
ுவெ	-4543
ொடி	-4544
ோல்	-4545
▁32	-4546
▁90	-4547
▁வல	-4548
1000	-4549
எம்க	-4550
ன்கூ	-4551
ப்பூ	-4552
ப்வே	-4553
மாள்	-4554
ம்யூ	-4555
யிலை	-4556
ர்த்	-4557
றில்	-4558
ளமான	-4559
வேதா	-4560
வைக்	-4561
ஷிப்	-4562
ஷ்பு	-4563
ாதது	-4564
ிர்த	-4565
▁அகா	-4566
▁அணு	-4567
▁இழு	-4568
▁ஏரி	-4569
▁ஐடி	-4570
▁காஜ	-4571
▁கிண	-4572
▁கீழ	-4573
▁கைக	-4574
▁கோப	-4575
▁சபை	-4576
▁ஜாக	-4577
▁டன்	-4578
▁நவீ	-4579
▁மபி	-4580
▁மலி	-4581
▁வேற	-4582
களும்	-4583
க்கரி	-4584
சலில்	-4585
ச்செய	-4586
தம்பர	-4587
ம்கள்	-4588
ழலில்	-4589
ழிக்க	-4590
ார்க்	-4591
ின்றன	-4592
ொட்டி	-4593
▁அன்ப	-4594
▁அபாய	-4595
▁அள்ள	-4596
▁அவர்	-4597
▁இங்க	-4598
▁உருக	-4599
▁கட்க	-4600
▁காளை	-4601
▁குகை	-4602
▁கோவா	-4603
▁சத்ய	-4604
▁சிறி	-4605
▁டெபா	-4606
▁துணி	-4607
▁தேடி	-4608
▁நாய்	-4609
▁நெகி	-4610
▁பில்	-4611
▁பேசி	-4612
▁போப்	-4613
▁மெசே	-4614
▁மொழி	-4615
▁யோகா	-4616
▁ராணா	-4617
▁லீக்	-4618
▁வாலி	-4619
▁விடை	-4620
க்குறை	-4621
டுக்கு	-4622
டுவேன்	-4623
ட்டியே	-4624
தையும்	-4625
த்தொகை	-4626
ப்பொழி	-4627
மளிக்க	-4628
மின்றி	-4629
மியார்	-4630
முக்கு	-4631
லூரில்	-4632
ல்போர்	-4633
வைத்து	-4634
▁ஆடியோ	-4635
▁ஆயுள்	-4636
▁ஆலையை	-4637
▁இந்தி	-4638
▁ஏற்று	-4639
▁ஒபாமா	-4640
▁கடலோர	-4641
▁சலுகை	-4642
▁தப்பி	-4643
▁தலித்	-4644
▁தீபக்	-4645
▁நவாஸ்	-4646
▁நிரவ்	-4647
▁நீதிப	-4648
▁பறக்க	-4649
▁பறந்த	-4650
▁மலையா	-4651
▁மல்யு	-4652
▁மானிய	-4653
▁மின்ன	-4654
▁மேட்ட	-4655
▁விற்ற	-4656
▁வெண்க	-4657
▁வெப்ப	-4658
தார்த்த	-4659
த்திரம்	-4660
த்துவம்	-4661
பிஎஸ்சி	-4662
ப்பூர்வ	-4663
மாகிறது	-4664
ருக்கான	-4665
ிகையில்	-4666
▁அச்சம்	-4667
▁அதிவேக	-4668
▁ஆர்வம்	-4669
▁இணைந்த	-4670
▁காதலர்	-4671
▁குஷ்பு	-4672
▁சகோதரி	-4673
▁சாய்னா	-4674
▁சிவாஜி	-4675
▁ஜிம்பா	-4676
▁தலைமறை	-4677
▁தாத்தா	-4678
▁தென்னை	-4679
▁தொற்று	-4680
▁தோனியை	-4681
▁நாராயண	-4682
▁நிதிஷ்	-4683
▁நிலநடு	-4684
▁பட்டம்	-4685
▁பணியிட	-4686
▁பரப்பு	-4687
▁பாம்பு	-4688
▁பார்வை	-4689
▁பிரமுக	-4690
▁பிரிவு	-4691
▁மகளின்	-4692
▁மக்களை	-4693
▁மார்க்	-4694
▁மீண்டு	-4695
▁முன்கூ	-4696
▁விற்பன	-4697
▁வெட்டி	-4698
குதியில்	-4699
த்தியில்	-4700
ப்பூரில்	-4701
▁அனுபவம்	-4702
▁அம்பலம்	-4703
▁ஆண்டில்	-4704
▁இணைப்பு	-4705
▁இரும்பு	-4706
▁இறைச்சி	-4707
▁இளவரசர்	-4708
▁ஊர்வலம்	-4709
▁கின்னஸ்	-4710
▁குதித்த	-4711
▁கொடநாடு	-4712
▁சதவீதம்	-4713
▁சாத்திய	-4714
▁செய்வது	-4715
▁தடுத்து	-4716
▁தொடரில்	-4717
▁நாய்கள்	-4718
▁நெட்டிச	-4719
▁பண்டிகை	-4720
▁பதற்றம்	-4721
▁பிரசவம்	-4722
▁பெற்றது	-4723
▁போலீசார	-4724
▁மூழ்கிய	-4725
▁ரன்னில்	-4726
▁விரக்தி	-4727
▁ஸ்பெஷல்	-4728
▁ஆவணங்கள்	-4729
▁இடத்தில்	-4730
▁உருவானது	-4731
▁உறுப்பின	-4732
▁கவாஸ்கர்	-4733
▁டெபாசிட்	-4734
▁டெல்லியை	-4735
▁திருப்பி	-4736
▁திருவள்ள	-4737
▁நிவாரணம்	-4738
▁பின்னால்	-4739
▁பிரமாண்ட	-4740
▁புறக்கணி	-4741
▁மகளுக்கு	-4742
▁ரயில்கள்	-4743
▁வங்கிகள்	-4744
▁வரலாற்று	-4745
▁வார்த்தை	-4746
▁வீரர்களை	-4747
▁ஹெல்மெட்	-4748
க்கெடுப்பு	-4749
▁இடமாற்றம்	-4750
▁இரண்டாவது	-4751
▁காணவில்லை	-4752
▁நொறுக்கிய	-4753
▁பதவியேற்க	-4754
▁பிரதமரின்	-4755
▁மிரட்டும்	-4756
▁மீனவர்களை	-4757
▁ரன்னுக்கு	-4758
▁வழக்குகள்	-4759
▁வாக்குகள்	-4760
▁வாட்ஸ்அப்	-4761
க்கப்பட்டது	-4762
▁அதிமுகவின்	-4763
▁கோவிலுக்கு	-4764
▁சுட்டுக்கொ	-4765
▁ஜிம்பாப்வே	-4766
▁திரைப்படம்	-4767
▁தொகுதியில்	-4768
▁பாதுகாப்பை	-4769
▁புற்றுநோய்	-4770
▁ரஜினியுடன்	-4771
▁விமானங்கள்	-4772
▁ஸ்ரீரெட்டி	-4773
▁ஆதரவாளர்கள்	-4774
▁உள்ளாட்சித்	-4775
▁ஏஆர்ரஹ்மான்	-4776
▁காத்திருந்த	-4777
▁குழந்தைக்கு	-4778
▁சுப்ரமணியன்	-4779
▁ஜிவிபிரகாஷ்	-4780
▁தற்கொலைக்கு	-4781
▁திமுகவுக்கு	-4782
▁நிலநடுக்கம்	-4783
▁பதறவைக்கும்	-4784
▁வித்யாசாகர்	-4785
▁விற்பனைக்கு	-4786
▁வெள்ளத்தால்	-4787
▁முதலமைச்சராக	-4788
▁முன்கூட்டியே	-4789
▁வேட்பாளர்கள்	-4790
▁துப்பாக்கியால்	-4791
15	-4792
கன	-4793
தர	-4794
டகள	-4795
ட்ல	-4796
பாக	-4797
யன்	-4798
ரோஷ	-4799
ாகர	-4800
ாகி	-4801
ினா	-4802
்டோ	-4803
▁37	-4804
▁42	-4805
▁63	-4806
▁அந	-4807
▁கஷ	-4808
▁க்	-4809
▁டு	-4810
▁டொ	-4811
▁வண	-4812
எஃப்	-4813
கிரி	-4814
க்கண	-4815
தாபி	-4816
த்ரி	-4817
நியோ	-4818
ன்மை	-4819
பின்	-4820
ம்பை	-4821
ரினா	-4822
றையை	-4823
ற்கை	-4824
லையே	-4825
வற்ற	-4826
வாரி	-4827
விரோ	-4828
ஸ்வர	-4829
ேட்ட	-4830
்டன்	-4831
▁800	-4832
▁அசா	-4833
▁அமே	-4834
▁அல்	-4835
▁ஆக்	-4836
▁சேர	-4837
▁தான	-4838
▁மண்	-4839
▁மனோ	-4840
▁விஐ	-4841
▁ஷமி	-4842
▁ஹனு	-4843
சல்யா	-4844
டுவதா	-4845
திபதி	-4846
ரியம்	-4847
லப்பு	-4848
ியாவை	-4849
ுமார்	-4850
ும்போ	-4851
▁2018	-4852
▁அங்க	-4853
▁அதிப	-4854
▁அனல்	-4855
▁அமல்	-4856
▁அரிய	-4857
▁இன்ப	-4858
▁இரவு	-4859
▁ஏவுக	-4860
▁கபடி	-4861
▁கலைஞ	-4862
▁கள்ள	-4863
▁குர்	-4864
▁கொடி	-4865
▁சீனி	-4866
▁ஜெய்	-4867
▁தடகள	-4868
▁தாஜ்	-4869
▁நக்ச	-4870
▁நமது	-4871
▁நோய்	-4872
▁பவர்	-4873
▁பிளே	-4874
▁புகா	-4875
▁மற்ற	-4876
▁மலேச	-4877
▁மீடூ	-4878
▁முனை	-4879
▁ரெடி	-4880
▁லைவ்	-4881
▁வீழ்	-4882
▁வேதா	-4883
▁வேன்	-4884
▁ஸ்டோ	-4885
க்காதீ	-4886
க்கோரி	-4887
க்சிகோ	-4888
ச்சில்	-4889
ண்டிங்	-4890
னியில்	-4891
ப்பார்	-4892
வீச்சு	-4893
ஸ்க்கு	-4894
ிரம்ப்	-4895
▁அக்டோ	-4896
▁அதிசய	-4897
▁அமைதி	-4898
▁அர்ஜு	-4899
▁அவமான	-4900
▁அஸ்வி	-4901
▁ஆராசா	-4902
▁ஒடிசா	-4903
▁கண்ணீ	-4904
▁கம்யூ	-4905
▁கரையை	-4906
▁காஜல்	-4907
▁காற்ற	-4908
▁குரல்	-4909
▁கைதான	-4910
▁சீரிய	-4911
▁ஜனவரி	-4912
▁ஜாதவ்	-4913
▁துண்ட	-4914
▁தூதர்	-4915
▁தொடரை	-4916
▁நின்ற	-4917
▁பத்மா	-4918
▁பன்றி	-4919
▁பாவனா	-4920
▁பேனர்	-4921
▁பேரவை	-4922
▁மகேஷ்	-4923
▁மேனன்	-4924
▁மேற்க	-4925
▁வதந்த	-4926
▁விளாச	-4927
▁ஹேக்க	-4928
ங்கப்பா	-4929
ச்செயலா	-4930
ட்டுகள்	-4931
ண்டனில்	-4932
த்ததால்	-4933
த்துவதா	-4934
த்தொடர்	-4935
ப்படுமா	-4936
ய்ச்சல்	-4937
ர்கிறது	-4938
ிகளுடன்	-4939
ோருக்கு	-4940
▁அரசாணை	-4941
▁ஆப்கான	-4942
▁எரிந்த	-4943
▁ஓவரில்	-4944
▁கரம்பி	-4945
▁காட்டி	-4946
▁காதலனை	-4947
▁சஞ்சய்	-4948
▁சிந்து	-4949
▁சிபிசி	-4950
▁செரினா	-4951
▁ஜனநாயக	-4952
▁தாமதம்	-4953
▁தினேஷ்	-4954
▁தூக்கு	-4955
▁நாட்டை	-4956
▁நிச்சய	-4957
▁நியூசி	-4958
▁நிரூபி	-4959
▁நூற்றா	-4960
▁பதிலாக	-4961
▁புதுசு	-4962
▁பெருமை	-4963
▁பொம்மை	-4964
▁போடும்	-4965
▁மர்மம்	-4966
▁மார்ச்	-4967
▁முட்டை	-4968
▁மோதும்	-4969
▁யாரும்	-4970
▁ரெய்டு	-4971
▁ரோஹிங்	-4972
▁வேகமாக	-4973
▁வேண்டி	-4974
▁ஷாரூக்	-4975
க்குட்டி	-4976
த்தையும்	-4977
ப்பில்லை	-4978
விட்டேன்	-4979
ினருக்கு	-4980
▁அட்டாக்	-4981
▁அமேசான்	-4982
▁அவசியம்	-4983
▁இடிந்து	-4984
▁இணைந்து	-4985
▁இன்னொரு	-4986
▁இயந்திர	-4987
▁உதயநிதி	-4988
▁கணவரின்	-4989
▁கிரண்பே	-4990
▁கிராமம்	-4991
▁குறைந்த	-4992
▁குற்றவா	-4993
▁சடலத்தை	-4994
▁சுந்தர்	-4995
▁சொன்னது	-4996
▁டிரம்ப்	-4997
▁தந்தையை	-4998
▁திறந்து	-4999
▁பணக்கார	-5000
▁புகுந்த	-5001
▁மதிப்பு	-5002
▁மலைப்பா	-5003
▁மாலத்தீ	-5004
▁வாரியர்	-5005
▁விரட்டி	-5006
▁விளாசிய	-5007
▁வெட்டிய	-5008
க்காததால்	-5009
துபதியின்	-5010
ப்பட்டார்	-5011
ப்பட்டால்	-5012
ற்றுங்கள்	-5013
ுவெடிப்பு	-5014
▁அகர்வால்	-5015
▁அறிவிக்க	-5016
▁அழுத்தம்	-5017
▁குடியிரு	-5018
▁குழப்பம்	-5019
▁சசிகலாவை	-5020
▁சட்டத்தை	-5021
▁செய்தேன்	-5022
▁நிலக்கரி	-5023
▁பயங்கரம்	-5024
▁புத்தகம்	-5025
▁பெற்றோரை	-5026
▁போலீஸார்	-5027
▁மகிழ்ச்ச	-5028
▁மதுக்கடை	-5029
▁மாட்டார்	-5030
▁முஸ்லிம்	-5031
▁மெக்சிகோ	-5032
▁வடசென்னை	-5033
▁விரைந்து	-5034
ப்பட்டுள்ள	-5035
ப்பிடித்து	-5036
்ச்செல்வன்	-5037
▁ஆண்டுக்கு	-5038
▁ஆன்லைனில்	-5039
▁இருந்தும்	-5040
▁இறுதிப்போ	-5041
▁கண்காட்சி	-5042
▁காய்ச்சல்	-5043
▁கொண்டாட்ட	-5044
▁சசிகுமார்	-5045
▁திட்டத்தை	-5046
▁திருமணமான	-5047
▁நடிக்கும்	-5048
▁பனிப்பொழி	-5049
▁பாகிஸ்தான	-5050
▁பிரபாகரன்	-5051
▁வீரருக்கு	-5052
ன்னீர்செல்வ	-5053
▁இலங்கையில்	-5054
▁கேட்கிறார்	-5055
▁ஹேக்கர்கள்	-5056
▁ஏற்படுத்திய	-5057
▁காய்ச்சலால்	-5058
▁குடும்பத்தை	-5059
▁தினகரனுக்கு	-5060
▁துன்புறுத்த	-5061
▁நிராகரிப்பு	-5062
▁பிரச்னையில்	-5063
▁மகாராஷ்டிரா	-5064
▁மாணவர்களின்	-5065
▁மீட்கப்பட்ட	-5066
▁முன்னேற்றம்	-5067
▁திருநங்கைகள்	-5068
▁திரும்பினார்	-5069
▁தமிழகத்துக்கு	-5070
▁கல்லூரிகளுக்கு	-5071
▁குண்டுவெடிப்பு	-5072
▁படப்பிடிப்பில்	-5073
▁பதவியேற்கிறார்	-5074
▁இந்தோனேஷியாவில்	-5075
ஜெ	-5076
டெ	-5077
நு	-5078
ீர	-5079
ேஷ	-5080
▁ஞ	-5081
ப்க	-5082
யின	-5083
ராத	-5084
லப்	-5085
வரா	-5086
விச	-5087
வீர	-5088
வ்வ	-5089
ுகு	-5090
ுகொ	-5091
▁43	-5092
▁72	-5093
▁இச	-5094
▁எம	-5095
▁சக	-5096
▁தம	-5097
▁வற	-5098
சாலி	-5099
டினா	-5100
டில்	-5101
டுக்	-5102
த்தோ	-5103
பகம்	-5104
பாக்	-5105
பாலி	-5106
பிடி	-5107
பியா	-5108
ப்ரா	-5109
ருதா	-5110
ளராக	-5111
ழகன்	-5112
வங்க	-5113
வத்த	-5114
ாரர்	-5115
▁அழி	-5116
▁ஆசி	-5117
▁ஆடை	-5118
▁உடன	-5119
▁உறை	-5120
▁எல்	-5121
▁ஒகி	-5122
▁ஓரா	-5123
▁சவா	-5124
▁சாஹ	-5125
▁நாள	-5126
▁நுழ	-5127
▁படி	-5128
▁பாச	-5129
▁பாய	-5130
▁போக	-5131
▁மகள	-5132
▁மொழ	-5133
▁வளை	-5134
கேஎஸ்	-5135
க்கால	-5136
சக்கர	-5137
ச்சல்	-5138
டலில்	-5139
டுகள்	-5140
ணிடம்	-5141
ண்கள்	-5142
ண்முக	-5143
ப்புற	-5144
மிதம்	-5145
மோகன்	-5146
யிரம்	-5147
ரங்கு	-5148
வாசல்	-5149
வித்த	-5150
ார்த்	-5151
ிக்கி	-5152
ினேன்	-5153
ில்தே	-5154
▁1500	-5155
▁ஏப்ர	-5156
▁கிரி	-5157
▁குறு	-5158
▁கேக்	-5159
▁கொசு	-5160
▁கொடை	-5161
▁சமரச	-5162
▁சாமி	-5163
▁சீல்	-5164
▁சுசி	-5165
▁செக்	-5166
▁டான்	-5167
▁தகரா	-5168
▁நெய்	-5169
▁நேபா	-5170
▁பக்க	-5171
▁பிரே	-5172
▁பீர்	-5173
▁பேடி	-5174
▁மிசோ	-5175
▁லியோ	-5176
▁வலுவ	-5177
▁வளர்	-5178
▁வளாக	-5179
▁விண்	-5180
▁விநோ	-5181
▁விரி	-5182
▁விளை	-5183
▁வைகை	-5184
▁ஹரிய	-5185
காரில்	-5186
கையில்	-5187
க்கான்	-5188
த்தவர்	-5189
னால்டோ	-5190
னுசாமி	-5191
ப்போர்	-5192
மைப்பு	-5193
மையில்	-5194
ல்லில்	-5195
வதற்கு	-5196
ஸ்டில்	-5197
ிர்க்க	-5198
ையாடிய	-5199
▁அப்து	-5200
▁அரிவா	-5201
▁ஆர்பி	-5202
▁இட்லி	-5203
▁இதற்க	-5204
▁இயங்க	-5205
▁எஸ்வி	-5206
▁ஐடியா	-5207
▁ஒப்பி	-5208
▁கங்கு	-5209
▁கண்டெ	-5210
▁கத்தி	-5211
▁காய்க	-5212
▁குத்த	-5213
▁கேட்ப	-5214
▁சட்டச	-5215
▁சுவர்	-5216
▁ஜெயரா	-5217
▁தரும்	-5218
▁தாஜ்ம	-5219
▁தோற்க	-5220
▁நிமிட	-5221
▁நியமன	-5222
▁நியாய	-5223
▁நோக்க	-5224
▁பாரதி	-5225
▁பின்ப	-5226
▁பெயரை	-5227
▁பொங்க	-5228
▁மறைவு	-5229
▁மாயம்	-5230
▁மூவர்	-5231
▁வடகிழ	-5232
▁வர்மா	-5233
▁ஹோட்ட	-5234
க்காதது	-5235
ச்சென்ற	-5236
ட்டுகளை	-5237
ப்படாது	-5238
ற்றியது	-5239
ிருஷ்ணா	-5240
ும்போது	-5241
▁அகாடமி	-5242
▁அடையாள	-5243
▁அமீர்க	-5244
▁ஆதரவாள	-5245
▁இன்றைய	-5246
▁இழந்து	-5247
▁உருக்க	-5248
▁உறுதிய	-5249
▁எங்களை	-5250
▁என்கவு	-5251
▁எஸ்எம்	-5252
▁ஒழிக்க	-5253
▁கணேசன்	-5254
▁கல்யாண	-5255
▁கிடந்த	-5256
▁கூவத்த	-5257
▁கொட்டி	-5258
▁கோவில்	-5259
▁சடலமாக	-5260
▁சிறைபி	-5261
▁சிலையை	-5262
▁சூசகம்	-5263
▁செல்போ	-5264
▁ஜோதிகா	-5265
▁தமன்னா	-5266
▁தயாராக	-5267
▁தள்ளிய	-5268
▁தாயின்	-5269
▁திடுக்	-5270
▁த்ரில்	-5271
▁நம்பர்	-5272
▁படேகர்	-5273
▁பயங்கர	-5274
▁பழங்கு	-5275
▁மலையாள	-5276
▁மூன்றா	-5277
▁மேட்ச்	-5278
▁ராக்கி	-5279
▁ராஜஸ்த	-5280
▁வருத்த	-5281
▁வாகனம்	-5282
▁விபரீத	-5283
▁விமானி	-5284
▁விவாகர	-5285
▁வெட்டு	-5286
ாதீர்கள்	-5287
ேந்திரர்	-5288
▁ஃபெடரர்	-5289
▁அகிலேஷ்	-5290
▁அடியில்	-5291
▁அமலாக்க	-5292
▁அம்ருதா	-5293
▁ஆபத்தான	-5294
▁இப்படிய	-5295
▁இருக்கை	-5296
▁உள்துறை	-5297
▁ஐஎஸ்எல்	-5298
▁கட்டடம்	-5299
▁கபில்தே	-5300
▁கழுத்தை	-5301
▁கார்பன்	-5302
▁குண்டர்	-5303
▁கொண்டுவ	-5304
▁சகோதரர்	-5305
▁சல்மான்	-5306
▁சாம்பிய	-5307
▁சென்றது	-5308
▁செல்லாத	-5309
▁சொந்தம்	-5310
▁ஜெர்மனி	-5311
▁தனுஷின்	-5312
▁தாக்கரே	-5313
▁திட்டிய	-5314
▁நன்கொடை	-5315
▁நவம்பர்	-5316
▁நிர்வாண	-5317
▁நிலவரம்	-5318
▁பார்வைய	-5319
▁மணிக்கு	-5320
▁மனிதாபி	-5321
▁மார்க்க	-5322
▁முருகன்	-5323
▁லாரன்ஸ்	-5324
▁வடமாநில	-5325
▁வழிபாடு	-5326
▁வார்னர்	-5327
▁விடுத்த	-5328
▁விதித்த	-5329
▁வெளிச்ச	-5330
▁ஹரியானா	-5331
ச்சரிவில்	-5332
த்திற்கான	-5333
த்துக்காக	-5334
ன்களுக்கு	-5335
ல்லப்பட்ட	-5336
ிறுதிக்கு	-5337
▁அரவிந்த்	-5338
▁ஆவணங்களை	-5339
▁இந்தியர்	-5340
▁இருசக்கர	-5341
▁உடல்நிலை	-5342
▁கட்சிகள்	-5343
▁களமிறங்க	-5344
▁கவுசல்யா	-5345
▁காதலிக்க	-5346
▁கேட்டார்	-5347
▁சட்டமன்ற	-5348
▁சாமியார்	-5349
▁சிக்கித்	-5350
▁சிறுத்தை	-5351
▁சென்னையை	-5352
▁துபாயில்	-5353
▁நடத்தும்	-5354
▁படக்குழு	-5355
▁பாஜகவின்	-5356
▁பாடல்கள்	-5357
▁பிரமுகர்	-5358
▁பீகாரில்	-5359
▁பெற்றார்	-5360
▁மல்யுத்த	-5361
▁மாட்டேன்	-5362
▁மெல்போர்	-5363
▁ராஜமவுலி	-5364
▁ரொனால்டோ	-5365
▁லண்டனில்	-5366
▁வழங்கும்	-5367
▁வாய்ப்பை	-5368
க்கப்படும்	-5369
த்துக்கும்	-5370
▁எடுக்கும்	-5371
▁கிணற்றில்	-5372
▁குத்துச்ச	-5373
▁கொடைக்கான	-5374
▁சிக்கியது	-5375
▁சிபிசிஐடி	-5376
▁செயல்பட்ட	-5377
▁திரும்பிய	-5378
▁துரத்தும்	-5379
▁நிர்வாகம்	-5380
▁நிறுத்திய	-5381
▁பெருமிதம்	-5382
▁மதிப்பெண்	-5383
▁மாணவர்களை	-5384
▁வருமானவரி	-5385
▁வீசப்பட்ட	-5386
▁வீழ்த்திய	-5387
ப்படுத்தும்	-5388
▁ஆளுநருக்கு	-5389
▁உறவினர்கள்	-5390
▁எதிர்கொள்ள	-5391
▁கொந்தளித்த	-5392
▁சரத்குமார்	-5393
▁தள்ளிவிட்ட	-5394
▁தாய்லாந்து	-5395
▁பாஸ்போர்ட்	-5396
▁ராகுலுக்கு	-5397
▁வாக்குறுதி	-5398
▁விடுவிப்பு	-5399
▁வீட்டிற்கு	-5400
▁வீரர்களின்	-5401
▁வெளிநாட்டு	-5402
▁ஆசிரியர்கள்	-5403
▁சர்ச்சையில்	-5404
▁செய்யவில்லை	-5405
▁நிறைவேறியது	-5406
▁பல்கலைக்கழக	-5407
▁ஸ்ருதிஹாசன்	-5408
▁அடுத்தடுத்து	-5409
▁குற்றவாளிகள்	-5410
▁சசிகலாவுக்கு	-5411
▁தொடங்குகிறது	-5412
▁நெட்டிசன்கள்	-5413
▁முதன்முறையாக	-5414
▁கன்னியாஸ்திரி	-5415
▁சாம்பியன்ஷிப்	-5416
▁நம்பிக்கையில்	-5417
▁நிகழ்ச்சியில்	-5418
▁நிச்சயதார்த்த	-5419
▁நிறுவனத்திற்கு	-5420
▁பணமதிப்பிழப்பு	-5421
▁நிறுவனங்களுக்கு	-5422
▁பொன்மாணிக்கவேல்	-5423
13	-5424
14	-5425
16	-5426
30	-5427
ஸா	-5428
▁ஸ	-5429
500	-5430
சாம	-5431
சாவ	-5432
த்க	-5433
மரி	-5434
ரச்	-5435
லதா	-5436
ஷிங	-5437
ஸ்ச	-5438
ிங்	-5439
ீன்	-5440
ூப்	-5441
ென்	-5442
▁75	-5443
▁ஆள	-5444
▁ஞா	-5445
▁நப	-5446
▁லூ	-5447
▁ஷே	-5448
▁ஷோ	-5449
காய்	-5450
சேகர	-5451
ண்ணு	-5452
நகர்	-5453
னும்	-5454
பட்ட	-5455
பிள்	-5456
போம்	-5457
போல்	-5458
ப்சி	-5459
மாம்	-5460
மீத்	-5461
ரையை	-5462
ர்ணா	-5463
லாளி	-5464
லிங்	-5465
வரான	-5466
வெறி	-5467
வ்ளோ	-5468
ையில	-5469
▁400	-5470
▁ஃப்	-5471
▁அடே	-5472
▁அடை	-5473
▁இதை	-5474
▁உரை	-5475
▁உழை	-5476
▁ஒழு	-5477
▁கலெ	-5478
▁குண	-5479
▁கெள	-5480
▁சேல	-5481
▁சைவ	-5482
▁ஜனா	-5483
▁தடய	-5484
▁தற்	-5485
▁துற	-5486
▁நண்	-5487
▁நிஜ	-5488
▁பக்	-5489
▁யான	-5490
▁ரம்	-5491
▁ஹஜ்	-5492
சோதனை	-5493
ஞ்சன்	-5494
தன்யா	-5495
நுட்ப	-5496
பத்து	-5497
பாண்ட	-5498
ப்பணி	-5499
ரேஷன்	-5500
றிக்க	-5501
ஸ்ட்ட	-5502
ியாகு	-5503
்சாலை	-5504
▁அப்ட	-5505
▁அழகி	-5506
▁அழுத	-5507
▁அவதூ	-5508
▁உற்ப	-5509
▁எப்ப	-5510
▁ஒவ்வ	-5511
▁கஷ்ட	-5512
▁கிறி	-5513
▁கீழே	-5514
▁குக்	-5515
▁கும்	-5516
▁குரே	-5517
▁கெய்	-5518
▁கைவி	-5519
▁சத்த	-5520
▁சமைய	-5521
▁சீட்	-5522
▁செரு	-5523
▁தன்ன	-5524
▁தாயை	-5525
▁தாஸ்	-5526
▁தொடர	-5527
▁நூறு	-5528
▁படைய	-5529
▁பராம	-5530
▁பறவை	-5531
▁புனே	-5532
▁போய்	-5533
▁மனதை	-5534
▁மரம்	-5535
▁மிர்	-5536
▁மேரி	-5537
▁ராஜூ	-5538
▁வேளா	-5539
▁ஸ்பை	-5540
▁ஹெட்	-5541
க்கையை	-5542
ங்கிலி	-5543
டியின்	-5544
டியூப்	-5545
ணைப்பு	-5546
தற்கான	-5547
த்தியை	-5548
த்திரி	-5549
த்தேன்	-5550
நாட்டு	-5551
ப்பிங்	-5552
ப்பின்	-5553
மித்ரா	-5554
ம்போல்	-5555
ரானார்	-5556
றையின்	-5557
ற்றார்	-5558
லையின்	-5559
ளர்களை	-5560
ளியின்	-5561
ளுக்கே	-5562
வருடன்	-5563
ஸ்கிரு	-5564
ானந்தா	-5565
ிகளும்	-5566
▁அட்டை	-5567
▁அப்ரி	-5568
▁அம்பல	-5569
▁இப்போ	-5570
▁எழுதி	-5571
▁ஏற்றி	-5572
▁கந்து	-5573
▁கன்னட	-5574
▁காட்ச	-5575
▁காம்ப	-5576
▁காலணி	-5577
▁கொள்க	-5578
▁சிவன்	-5579
▁செயலக	-5580
▁செலவு	-5581
▁ஜெயம்	-5582
▁தகனம்	-5583
▁தஞ்சை	-5584
▁தர்ணா	-5585
▁தியாக	-5586
▁நடைபெ	-5587
▁நாடுக	-5588
▁நாட்ட	-5589
▁நேர்ம	-5590
▁பரோல்	-5591
▁பழிவா	-5592
▁புல்ல	-5593
▁பொன்ன	-5594
▁மசூதி	-5595
▁ரணில்	-5596
▁ரயிலை	-5597
▁ரஹானே	-5598
▁வசூலி	-5599
▁வாரம்	-5600
▁வாஷிங	-5601
▁விநோத	-5602
க்கிரமி	-5603
க்கொள்ள	-5604
ங்கோவன்	-5605
சிரியர்	-5606
த்திடம்	-5607
நீக்கம்	-5608
ப்பதால்	-5609
ப்பினர்	-5610
யத்தில்	-5611
ல்களில்	-5612
ிகளிடம்	-5613
ின்றனர்	-5614
▁அடைந்த	-5615
▁அண்ணன்	-5616
▁அமிர்த	-5617
▁அலர்ட்	-5618
▁ஆறுதல்	-5619
▁ஆளுநரை	-5620
▁இத்தனை	-5621
▁இழப்பு	-5622
▁ஊழியரை	-5623
▁எம்ஜிஆ	-5624
▁கசிந்த	-5625
▁கட்கரி	-5626
▁கலாச்ச	-5627
▁கலைஞர்	-5628
▁காலில்	-5629
▁கேபிமு	-5630
▁சரியான	-5631
▁சர்க்க	-5632
▁சல்மான	-5633
▁சாக்ஷி	-5634
▁சிரியா	-5635
▁ஜெயராம	-5636
▁டிக்கெ	-5637
▁டிவில்	-5638
▁டொனால்	-5639
▁தங்கல்	-5640
▁தடுத்த	-5641
▁துபாய்	-5642
▁தென்கொ	-5643
▁தொடக்க	-5644
▁நிதியை	-5645
▁நெல்லை	-5646
▁பணிகள்	-5647
▁பறித்த	-5648
▁பாரம்ப	-5649
▁பிரசார	-5650
▁பிராவோ	-5651
▁பெறும்	-5652
▁பைக்கு	-5653
▁போகும்	-5654
▁மடக்கி	-5655
▁மதுபான	-5656
▁மவுனம்	-5657
▁மாணவனை	-5658
▁மாற்றி	-5659
▁மீனவர்	-5660
▁முன்பே	-5661
▁மூட்டை	-5662
▁மெசேஜ்	-5663
▁மேஜிக்	-5664
▁ராதிகா	-5665
▁ரீமேக்	-5666
▁வாக்கா	-5667
▁விலகிய	-5668
▁வேலூர்	-5669
▁வைப்பு	-5670
ங்களுடன்	-5671
டுக்குமா	-5672
த்துவோம்	-5673
நகராட்சி	-5674
ந்துக்கு	-5675
புரியில்	-5676
ப்போகும்	-5677
மூர்த்தி	-5678
ர்க்கும்	-5679
ையுங்கள்	-5680
▁அணிந்து	-5681
▁அணையின்	-5682
▁அப்டேட்	-5683
▁அர்ஜுன்	-5684
▁அர்ஜூன்	-5685
▁ஆதரவற்ற	-5686
▁ஆரம்பம்	-5687
▁ஆற்றில்	-5688
▁ஆலையில்	-5689
▁இடுக்கி	-5690
▁உண்மையை	-5691
▁உத்தரவை	-5692
▁உறுப்பு	-5693
▁ஊருக்கு	-5694
▁எதுவும்	-5695
▁எஸ்டேட்	-5696
▁ஒவ்வொரு	-5697
▁குறித்த	-5698
▁குற்றால	-5699
▁குளிக்க	-5700
▁கொன்றது	-5701
▁சதவிகித	-5702
▁சம்பந்த	-5703
▁சாய்த்த	-5704
▁தனுஸ்ரீ	-5705
▁நாய்க்க	-5706
▁பணிக்கு	-5707
▁பயணித்த	-5708
▁பல்வேறு	-5709
▁பாட்டில	-5710
▁மகளுடன்	-5711
▁மக்களவை	-5712
▁மழையில்	-5713
▁மாணவியை	-5714
▁முடித்த	-5715
▁மோகன்லா	-5716
▁லாரிகள்	-5717
▁வடிவேலு	-5718
▁விமர்சி	-5719
▁விலக்கு	-5720
▁விளம்பர	-5721
▁வீடுகள்	-5722
ங்களிலும்	-5723
ப்படுத்து	-5724
▁அக்டோபர்	-5725
▁அமைச்சரை	-5726
▁ஆக்கிரமி	-5727
▁எதிர்த்த	-5728
▁கமல்நாத்	-5729
▁குர்மீத்	-5730
▁கேப்டனாக	-5731
▁சட்டவிரோ	-5732
▁சந்தானம்	-5733
▁சமஸ்கிரு	-5734
▁சரிந்தது	-5735
▁சிறுமியை	-5736
▁சிறைக்கு	-5737
▁செய்வோம்	-5738
▁சேர்ந்து	-5739
▁ஜனாதிபதி	-5740
▁தருமபுரி	-5741
▁தவறவிட்ட	-5742
▁திருச்செ	-5743
▁தெரியும்	-5744
▁நாகையில்	-5745
▁நிச்சயம்	-5746
▁பிடித்து	-5747
▁பிரச்சனை	-5748
▁புகாரில்	-5749
▁பெய்யும்	-5750
▁பெரியார்	-5751
▁ப்ளூவேல்	-5752
▁மத்தியக்	-5753
▁மன்மோகன்	-5754
▁யாராலும்	-5755
▁ரோஹிங்யா	-5756
▁விண்வெளி	-5757
▁விற்கும்	-5758
▁வெடித்து	-5759
▁வெளிநாடு	-5760
▁வேலைவாய்	-5761
▁ஸ்டோக்ஸ்	-5762
▁அதிகரிக்க	-5763
▁அமீர்கான்	-5764
▁அர்ச்சகர்	-5765
▁அழைத்துச்	-5766
▁இந்தியில்	-5767
▁எதிர்பார்	-5768
▁கத்தியால்	-5769
▁கன்னியாகு	-5770
▁கபில்தேவ்	-5771
▁களைகட்டிய	-5772
▁கொடுங்கள்	-5773
▁சதுர்த்தி	-5774
▁சாப்பிட்ட	-5775
▁செய்தியாள	-5776
▁செல்கிறது	-5777
▁சேலத்தில்	-5778
▁ட்ரெய்லர்	-5779
▁திமுகவில்	-5780
▁திறந்தார்	-5781
▁தெரிவித்த	-5782
▁தேசியக்கொ	-5783
▁பரபரப்பான	-5784
▁பாய்ச்சல்	-5785
▁பெண்ணிடம்	-5786
▁பேரவையில்	-5787
▁முன்னெச்ச	-5788
▁ரசிகர்களை	-5789
▁ரவிசங்கர்	-5790
▁வாருங்கள்	-5791
▁விருப்பம்	-5792
▁விளையாடிய	-5793
▁அடேங்கப்பா	-5794
▁அதிமுகவில்	-5795
▁அமிர்தசரஸ்	-5796
▁அமைப்புகள்	-5797
▁ஆப்கானிஸ்த	-5798
▁இளம்பெண்ணை	-5799
▁உறுப்பினர்	-5800
▁ஏடிஎம்மில்	-5801
▁ஒப்படைப்பு	-5802
▁காவிரியில்	-5803
▁சத்தீஸ்கர்	-5804
▁சுற்றுக்கு	-5805
▁சென்னையின்	-5806
▁தொழிற்சாலை	-5807
▁நாராயணசாமி	-5808
▁நெருங்கும்	-5809
▁பயங்கரவாதி	-5810
▁புகாருக்கு	-5811
▁முல்லைப்பெ	-5812
▁வலுக்கிறது	-5813
▁வினாத்தாள்	-5814
▁விமர்சிக்க	-5815
▁விவாகரத்து	-5816
▁கண்காணிப்பு	-5817
▁கொடைக்கானல்	-5818
▁சிங்கப்பூர்	-5819
▁ட்ரம்புக்கு	-5820
▁தாக்கியதில்	-5821
▁துணைவேந்தர்	-5822
▁தொழில்நுட்ப	-5823
▁பயணிகளுக்கு	-5824
▁வழக்கம்போல்	-5825
▁வைக்கப்பட்ட	-5826
▁ஏற்படுத்தும்	-5827
▁ஒப்புக்கொண்ட	-5828
▁குடிபோதையில்	-5829
▁கேபிமுனுசாமி	-5830
▁சுரங்கத்தில்	-5831
▁செய்யப்படும்	-5832
▁நாடாளுமன்றம்	-5833
▁நிறுவனத்தில்	-5834
▁நிலச்சரிவில்	-5835
▁போராட்டங்கள்	-5836
▁வருடத்துக்கு	-5837
▁வாக்கெடுப்பு	-5838
▁விசாரித்தார்	-5839
▁விளக்கமளிக்க	-5840
▁விவசாயிகளின்	-5841
▁அதிகாரப்பூர்வ	-5842
▁ஊழியர்களுக்கு	-5843
▁கருணாநிதிக்கு	-5844
▁குத்துச்சண்டை	-5845
▁திறக்கப்படும்	-5846
▁விரும்பவில்லை	-5847
▁இருக்கிறார்கள்	-5848
▁செந்தில்பாலாஜி	-5849
▁வலைத்தளங்களில்	-5850
▁நம்பிக்கையில்லா	-5851
▁மாற்றுத்திறனாளி	-5852
▁முதலமைச்சருக்கு	-5853
தக	-5854
பக	-5855
மய	-5856
ேக	-5857
அழக	-5858
கலை	-5859
சரா	-5860
சேன	-5861
ஜர்	-5862
னித	-5863
புர	-5864
மசி	-5865
ய்ல	-5866
ரின	-5867
ழுவ	-5868
விஜ	-5869
ீத்	-5870
ீரெ	-5871
▁33	-5872
▁47	-5873
▁கஜ	-5874
▁டய	-5875
▁நன	-5876
▁லே	-5877
ங்கல	-5878
சாரி	-5879
ச்சல	-5880
ண்ணி	-5881
தியா	-5882
திர்	-5883
தீபா	-5884
த்தே	-5885
நல்ல	-5886
னியை	-5887
பிவி	-5888
மாரி	-5889
முன்	-5890
மையா	-5891
யுடு	-5892
ருமா	-5893
ருமை	-5894
ரெட்	-5895
ரேயா	-5896
ர்கள	-5897
ர்வே	-5898
லைக்	-5899
ல்பூ	-5900
ழுது	-5901
வாயு	-5902
வீர்	-5903
வேர்	-5904
வேஸ்	-5905
ிரபர	-5906
ுடைய	-5907
்டர்	-5908
▁அலி	-5909
▁ஏறி	-5910
▁ஐஜி	-5911
▁காத	-5912
▁கோர	-5913
▁சதம	-5914
▁சமு	-5915
▁தஷ்	-5916
▁தாக	-5917
▁துய	-5918
▁பரவ	-5919
▁பேன	-5920
▁போட	-5921
▁வம்	-5922
▁வாய	-5923
க்கலை	-5924
ங்கில	-5925
சாவளி	-5926
டுவது	-5927
தத்தை	-5928
தேசம்	-5929
ப்பறி	-5930
ரீட்ச	-5931
ல்லவி	-5932
ழுத்த	-5933
வதில்	-5934
வாரஸ்	-5935
ினாரா	-5936
ிராமி	-5937
ெட்ச்	-5938
ைக்கு	-5939
ொருள்	-5940
▁2500	-5941
▁5000	-5942
▁அஃப்	-5943
▁அமளி	-5944
▁ஆர்வ	-5945
▁எரிய	-5946
▁ஓரின	-5947
▁கடனை	-5948
▁களம்	-5949
▁கஸ்த	-5950
▁கிளை	-5951
▁சக்த	-5952
▁சரண்	-5953
▁சாதக	-5954
▁சிம்	-5955
▁சொகு	-5956
▁ஜப்ப	-5957
▁டிடி	-5958
▁ட்ரோ	-5959
▁தசரா	-5960
▁தாலி	-5961
▁துரோ	-5962
▁தூய்	-5963
▁படகு	-5964
▁பவன்	-5965
▁பாபா	-5966
▁பிப்	-5967
▁பேசு	-5968
▁மலர்	-5969
▁மாரி	-5970
▁மினி	-5971
▁லஞ்ச	-5972
▁லோக்	-5973
▁வட்ட	-5974
▁வண்ட	-5975
▁வளைய	-5976
▁வினோ	-5977
▁விரோ	-5978
▁வெளு	-5979
▁ஷெரி	-5980
அழகிரி	-5981
க்கால்	-5982
க்கெடு	-5983
ங்கானா	-5984
ட்ரினோ	-5985
த்தாரா	-5986
ந்தும்	-5987
னிஸ்ட்	-5988
ன்னிங்	-5989
பிவிபி	-5990
ப்படுவ	-5991
ப்பிள்	-5992
முறையா	-5993
ம்பூர்	-5994
ல்தான்	-5995
ளிடையே	-5996
ாததால்	-5997
ீங்களா	-5998
▁ஃபார்	-5999
▁அடையா	-6000
▁அனுபவ	-6001
▁அமிதா	-6002
▁அறுவை	-6003
▁ஆர்டி	-6004
▁ஆளில்	-6005
▁உண்டு	-6006
▁எனும்	-6007
▁எஸ்கே	-6008
▁ஏற்பு	-6009
▁கபூர்	-6010
▁கருகி	-6011
▁குரோஷ	-6012
▁கைவிட	-6013
▁கோஷம்	-6014
▁சம்பவ	-6015
▁சம்பா	-6016
▁சுழல்	-6017
▁சேதம்	-6018
▁சொல்ற	-6019
▁ஜேஎன்	-6020
▁நாயகி	-6021
▁நித்ய	-6022
▁நுழைய	-6023
▁நெகிழ	-6024
▁நேரடி	-6025
▁பங்கு	-6026
▁பசுமை	-6027
▁பணியா	-6028
▁பந்தா	-6029
▁பரவிய	-6030
▁பிரபா	-6031
▁பொறிய	-6032
▁மூடல்	-6033
▁மைல்க	-6034
▁யுவன்	-6035
▁ரசிகை	-6036
▁ரம்யா	-6037
▁ரியல்	-6038
▁ரெக்க	-6039
▁ரொம்ப	-6040
▁வயதான	-6041
▁வருது	-6042
▁விஐபி	-6043
▁வேகம்	-6044
கனுக்கு	-6045
க்களின்	-6046
ப்புறம்	-6047
வரியில்	-6048
வுக்காக	-6049
ாலியில்	-6050
ிக்கொலை	-6051
ினருடன்	-6052
ிருக்கா	-6053
ுகிறேன்	-6054
ென்டினா	-6055
ையிலும்	-6056
▁ஆங்கில	-6057
▁ஆர்டர்	-6058
▁இறந்து	-6059
▁இளவரசி	-6060
▁உடைந்த	-6061
▁ஊதியம்	-6062
▁எதற்கு	-6063
▁என்பதா	-6064
▁ஏவுகணை	-6065
▁கடவுள்	-6066
▁கடித்த	-6067
▁கட்சிய	-6068
▁காமெடி	-6069
▁குரூப்	-6070
▁குல்பூ	-6071
▁கூடாதா	-6072
▁கொள்கை	-6073
▁சட்டசப	-6074
▁சத்திய	-6075
▁சரக்கு	-6076
▁ஜெதீபா	-6077
▁திடீரெ	-6078
▁திணறல்	-6079
▁திருடி	-6080
▁தீர்வு	-6081
▁நடத்து	-6082
▁நடந்து	-6083
▁நிரம்ப	-6084
▁நீரில்	-6085
▁நேற்று	-6086
▁பணிகளை	-6087
▁பரிசாக	-6088
▁பரிதவி	-6089
▁பறிபோன	-6090
▁பல்லவி	-6091
▁பாக்ஸ்	-6092
▁பாண்டே	-6093
▁பிளான்	-6094
▁போலீசா	-6095
▁போல்ட்	-6096
▁மிர்சா	-6097
▁ரசிகர்	-6098
▁ராயுடு	-6099
▁ரிப்போ	-6100
▁ரெஸ்ட்	-6101
▁வங்கிய	-6102
▁வதந்தி	-6103
▁வாங்கி	-6104
▁விடுதல	-6105
▁விநியோ	-6106
▁விலங்க	-6107
▁வீரராக	-6108
▁வெள்ளி	-6109
▁வேட்பு	-6110
▁ஸ்ரேயா	-6111
▁ஹேப்பி	-6112
களுக்காக	-6113
க்கிற்கு	-6114
ப்பிற்கு	-6115
ப்புள்ளி	-6116
மாட்டேன்	-6117
மில்லையா	-6118
ரோட்டில்	-6119
ாகத்தான்	-6120
▁அபிராமி	-6121
▁ஆகிறார்	-6122
▁ஆதங்கம்	-6123
▁இண்டிகோ	-6124
▁இன்னிங்	-6125
▁இன்றும்	-6126
▁இம்ரான்	-6127
▁இவர்கள்	-6128
▁எரிவாயு	-6129
▁ஏபிவிபி	-6130
▁ஏர்செல்	-6131
▁ஏர்வேஸ்	-6132
▁கங்குலி	-6133
▁கல்யாண்	-6134
▁கஸ்தூரி	-6135
▁காதலில்	-6136
▁காய்கறி	-6137
▁காவலாளி	-6138
▁சிறிசேன	-6139
▁சுற்றிய	-6140
▁சுவாரஸ்	-6141
▁செயல்பட	-6142
▁சேர்த்த	-6143
▁தண்டவாள	-6144
▁தாமிரபர	-6145
▁தினகரனை	-6146
▁நிகழ்வு	-6147
▁நோக்கம்	-6148
▁பட்டேல்	-6149
▁பணியில்	-6150
▁பின்னடை	-6151
▁பிரிந்த	-6152
▁புரிந்த	-6153
▁பெறலாம்	-6154
▁பேராயர்	-6155
▁மழையால்	-6156
▁முடிக்க	-6157
▁லட்சுமி	-6158
▁லிட்டர்	-6159
▁வந்தார்	-6160
▁வாலிபர்	-6161
▁வில்லிய	-6162
▁வீரரின்	-6163
▁வெடிக்க	-6164
க்காதீங்க	-6165
டாதீர்கள்	-6166
தளங்களில்	-6167
▁அந்தமான்	-6168
▁அப்புறம்	-6169
▁அறிவித்த	-6170
▁இயக்கும்	-6171
▁உரிமைகள்	-6172
▁எதிர்பார	-6173
▁என்னுடைய	-6174
▁கடம்பூர்	-6175
▁கமலுக்கு	-6176
▁கல்யாணம்	-6177
▁கவலையில்	-6178
▁கோடியில்	-6179
▁சித்தராம	-6180
▁ஜெயராமன்	-6181
▁தகவல்களை	-6182
▁தனிப்படை	-6183
▁தயாரித்த	-6184
▁தாக்கும்	-6185
▁துருக்கி	-6186
▁தேதிக்கு	-6187
▁தொடர்ந்த	-6188
▁நடனமாடிய	-6189
▁நள்ளிரவு	-6190
▁பதவிக்கு	-6191
▁பேச்சால்	-6192
▁பைக்கில்	-6193
▁மணந்தார்	-6194
▁மத்தியப்	-6195
▁மாட்டோம்	-6196
▁முறையீடு	-6197
▁மேட்டூர்	-6198
▁யாத்திரை	-6199
▁வனத்துறை	-6200
▁வம்சாவளி	-6201
▁வழிப்பறி	-6202
▁வாங்கும்	-6203
▁வீரப்பன்	-6204
▁வேண்டுமா	-6205
▁ஸ்கெட்ச்	-6206
ப்பாளர்கள்	-6207
▁அத்துமீறி	-6208
▁அமைச்சகம்	-6209
▁அளித்தார்	-6210
▁ஆய்வுக்கு	-6211
▁இணைகிறார்	-6212
▁இயந்திரம்	-6213
▁இளங்கோவன்	-6214
▁உருக்கமான	-6215
▁எஸ்எம்எஸ்	-6216
▁கட்சியின்	-6217
▁குற்றவாளி	-6218
▁கூறவில்லை	-6219
▁சட்டப்பேர	-6220
▁சிக்கலில்	-6221
▁சிவகுமார்	-6222
▁சீனிவாசன்	-6223
▁திருப்பம்	-6224
▁தொடங்கும்	-6225
▁நினைவிடம்	-6226
▁நெரிசலில்	-6227
▁படங்களில்	-6228
▁பாரஞ்சித்	-6229
▁பாரம்பரிய	-6230
▁பிரிட்டன்	-6231
▁பொறியியல்	-6232
▁போட்டியிட	-6233
▁முகஅழகிரி	-6234
▁வரலட்சுமி	-6235
▁விதிமீறல்	-6236
▁விமானத்தை	-6237
▁வீழ்ந்தது	-6238
▁வெளியேறிய	-6239
▁வேண்டுமான	-6240
ிருக்கிறேன்	-6241
▁அஜித்துடன்	-6242
▁இந்தோனேஷிய	-6243
▁இப்படியொரு	-6244
▁ஏற்பாடுகள்	-6245
▁ஓய்வுபெற்ற	-6246
▁கண்காணிக்க	-6247
▁காந்தியின்	-6248
▁கொடுக்கும்	-6249
▁சகோதரர்கள்	-6250
▁சித்தார்த்	-6251
▁சிரியாவில்	-6252
▁சென்னைக்கு	-6253
▁தென்கொரியா	-6254
▁தெரிவித்து	-6255
▁தெலுங்கானா	-6256
▁நியூட்ரினோ	-6257
▁பேச்சுக்கு	-6258
▁பேரறிவாளன்	-6259
▁பேராசிரியை	-6260
▁போர்க்கொடி	-6261
▁மனைவியுடன்	-6262
▁முனைப்பில்	-6263
▁ரிப்போர்ட்	-6264
▁வெளியேறும்	-6265
▁வைக்கிறார்	-6266
▁அயோத்தியில்	-6267
▁அரசியல்வாதி	-6268
▁அர்ஜென்டினா	-6269
▁கண்டெடுப்பு	-6270
▁கம்யூனிஸ்ட்	-6271
▁தொகுதிகளில்	-6272
▁நித்யானந்தா	-6273
▁பாரிவேந்தர்	-6274
▁பேராசிரியர்	-6275
▁பொங்கலுக்கு	-6276
▁பொதுச்செயலா	-6277
▁முடிவெடுத்த	-6278
▁முதலமைச்சரை	-6279
▁ராஜஸ்தானில்	-6280
▁விசாரணையில்	-6281
▁வேல்முருகன்	-6282
▁இன்ஸ்பெக்டர்	-6283
▁இயக்குகிறார்	-6284
▁கட்டாயமில்லை	-6285
▁கூட்டத்தொடர்	-6286
▁சட்டத்திற்கு	-6287
▁தீப்பிடித்து	-6288
▁பரிதவிக்கும்	-6289
▁புறப்பட்டார்	-6290
▁வருடத்திற்கு	-6291
▁வாய்ப்பில்லை	-6292
▁வேலைவாய்ப்பு	-6293
▁இங்கிலாந்தில்	-6294
▁இதற்காகத்தான்	-6295
▁குழந்தைகளுடன்	-6296
▁டிவில்லியர்ஸ்	-6297
▁தெலங்கானாவில்	-6298
▁ரசிகர்களுக்கு	-6299
▁குழந்தைகளுக்கு	-6300
▁தமிழ்ச்செல்வன்	-6301
▁நிறுவனத்துக்கு	-6302
▁பெரும்பான்மையை	-6303
▁முற்றுப்புள்ளி	-6304
▁வித்தியாசத்தில்	-6305
64	-6306
வக	-6307
வூ	-6308
ஸு	-6309
ஸூ	-6310
ஒது	-6311
சனை	-6312
ஜ்ர	-6313
நாக	-6314
னரை	-6315
மத்	-6316
மாத	-6317
மாய	-6318
வரு	-6319
ஷர்	-6320
ஸ்ஸ	-6321
ீவ்	-6322
ோகி	-6323
ோன்	-6324
▁41	-6325
▁58	-6326
▁65	-6327
▁68	-6328
▁74	-6329
▁உஷ	-6330
▁ஐஐ	-6331
▁ஜவ	-6332
▁நை	-6333
சூர்	-6334
ச்சட	-6335
ச்டி	-6336
ட்டே	-6337
ணியை	-6338
தரன்	-6339
தல்ல	-6340
தாரண	-6341
தேவா	-6342
த்வி	-6343
னாலி	-6344
ன்ட்	-6345
பாடா	-6346
பிக்	-6347
ப்ட்	-6348
மடைய	-6349
மலதா	-6350
மூடி	-6351
மேன்	-6352
யிட்	-6353
ரசன்	-6354
ர்கா	-6355
லாகல	-6356
லாட்	-6357
லாது	-6358
லாமே	-6359
லேயே	-6360
லோக்	-6361
ல்ஸ்	-6362
ழகம்	-6363
வ்யா	-6364
ஷ்பா	-6365
ஷ்மி	-6366
ஸிங்	-6367
ஸ்மி	-6368
ில்க	-6369
்சன்	-6370
▁108	-6371
▁ஃபி	-6372
▁ஆடி	-6373
▁இல்	-6374
▁ஏரா	-6375
▁கட்	-6376
▁கலி	-6377
▁கலீ	-6378
▁கவன	-6379
▁காள	-6380
▁கோட	-6381
▁சரவ	-6382
▁சித	-6383
▁சீம	-6384
▁சுட	-6385
▁சும	-6386
▁சோன	-6387
▁ஜான	-6388
▁டால	-6389
▁தீய	-6390
▁தோழ	-6391
▁நாண	-6392
▁நோய	-6393
▁படக	-6394
▁பரு	-6395
▁மம்	-6396
க்குற	-6397
ங்களே	-6398
சக்தி	-6399
சிகள்	-6400
ச்சன்	-6401
டிகள்	-6402
டினல்	-6403
ண்ட்ட	-6404
தாட்ட	-6405
ப்டன்	-6406
ப்பதை	-6407
யுடன்	-6408
ரித்த	-6409
ர்களா	-6410
லாத்க	-6411
லாயம்	-6412
லைந்த	-6413
ல்கர்	-6414
வந்த்	-6415
வியம்	-6416
ாக்ஸ்	-6417
ாச்சு	-6418
ிறந்த	-6419
ுவார்	-6420
ேசில்	-6421
்சிங்	-6422
▁2016	-6423
▁2017	-6424
▁அமோக	-6425
▁அரண்	-6426
▁அஸ்த	-6427
▁ஆஃப்	-6428
▁ஆனது	-6429
▁ஆராய	-6430
▁ஏறிய	-6431
▁கங்க	-6432
▁கட்ஜ	-6433
▁கனடா	-6434
▁கலகல	-6435
▁கவர்	-6436
▁கவுத	-6437
▁காவே	-6438
▁கில்	-6439
▁கிளி	-6440
▁சாசன	-6441
▁சாம்	-6442
▁சில்	-6443
▁ஜாங்	-6444
▁ஜான்	-6445
▁ஜோதி	-6446
▁தருவ	-6447
▁தானே	-6448
▁தில்	-6449
▁தொகை	-6450
▁நவீன	-6451
▁நானே	-6452
▁நாளி	-6453
▁நெக்	-6454
▁பகிர	-6455
▁பஜ்ர	-6456
▁பயன்	-6457
▁பலர்	-6458
▁பாபு	-6459
▁மகளை	-6460
▁மாறு	-6461
▁முது	-6462
▁மெகா	-6463
▁மேன்	-6464
▁ரசாய	-6465
▁ரேஸ்	-6466
▁ரோபோ	-6467
▁வண்ண	-6468
▁வயசு	-6469
▁வராத	-6470
▁வாசி	-6471
▁வாரி	-6472
▁விசு	-6473
▁விஷ்	-6474
▁வெறு	-6475
எம்கள்	-6476
க்கோழி	-6477
ங்கிள்	-6478
ட்டுமா	-6479
ண்டார்	-6480
தற்காக	-6481
த்தக்க	-6482
நகரில்	-6483
நர்கள்	-6484
நாயகம்	-6485
ந்தின்	-6486
படுத்த	-6487
ப்படாத	-6488
ப்பாரா	-6489
ப்பிடி	-6490
ம்போது	-6491
ராய்வு	-6492
ர்ச்சி	-6493
ர்மேன்	-6494
ர்ஸ்ட்	-6495
லர்கள்	-6496
லியின்	-6497
வாயில்	-6498
ியேட்ட	-6499
ிர்கால	-6500
▁அசத்த	-6501
▁அச்சு	-6502
▁அஜீத்	-6503
▁அலோக்	-6504
▁இடஒது	-6505
▁இண்டீ	-6506
▁இழிவு	-6507
▁உமேஷ்	-6508
▁உள்ளே	-6509
▁எட்டு	-6510
▁எப்போ	-6511
▁ஒன்றி	-6512
▁ஒற்றை	-6513
▁ஓவியா	-6514
▁கஞ்சா	-6515
▁கடக்க	-6516
▁கணவரை	-6517
▁கதையை	-6518
▁கலாம்	-6519
▁கல்வீ	-6520
▁கவுர்	-6521
▁கஷோகி	-6522
▁கார்க	-6523
▁கோபம்	-6524
▁சாமான	-6525
▁செப்ட	-6526
▁தடுமா	-6527
▁தமிழா	-6528
▁தலைமு	-6529
▁தின்ற	-6530
▁திறமை	-6531
▁நம்பி	-6532
▁நிர்ண	-6533
▁பந்தை	-6534
▁பரப்ப	-6535
▁பாசம்	-6536
▁பாடலா	-6537
▁பிரசவ	-6538
▁புஷ்க	-6539
▁பேரம்	-6540
▁பேரிட	-6541
▁பொய்ய	-6542
▁போன்ற	-6543
▁ப்ளஸ்	-6544
▁மசூத்	-6545
▁மிஞ்ச	-6546
▁மீறல்	-6547
▁யோசனை	-6548
▁ராமாய	-6549
▁ராயல்	-6550
▁ரேசன்	-6551
▁வயிற்	-6552
▁விஷால	-6553
▁வெட்க	-6554
த்திட்ட	-6555
ர்களும்	-6556
லிங்கம்	-6557
ளருக்கு	-6558
வதில்லை	-6559
வாகிறது	-6560
வாசலில்	-6561
வேலுமணி	-6562
ினுக்கு	-6563
ிருக்கு	-6564
ிர்கான்	-6565
ீட்டில்	-6566
▁அஃப்ரி	-6567
▁அநாகரி	-6568
▁அலங்கா	-6569
▁அழிக்க	-6570
▁அவதூறு	-6571
▁ஆடுகள்	-6572
▁ஆர்பிஐ	-6573
▁ஆல்ரவு	-6574
▁இன்ஜின	-6575
▁இறங்கி	-6576
▁இளைஞரை	-6577
▁உரிமம்	-6578
▁எந்திர	-6579
▁என்எல்	-6580
▁எஸ்பிஐ	-6581
▁ஏப்ரல்	-6582
▁ஒபிஎஸ்	-6583
▁ஓவியம்	-6584
▁கடத்தி	-6585
▁கமலின்	-6586
▁காவலரை	-6587
▁காவல்ப	-6588
▁கூறும்	-6589
▁கெலாட்	-6590
▁கையில்	-6591
▁கோர்ட்	-6592
▁கோலாகல	-6593
▁சங்கத்	-6594
▁சந்தேக	-6595
▁சமையல்	-6596
▁சாகசம்	-6597
▁சிசிடி	-6598
▁சிட்டி	-6599
▁சொகுசு	-6600
▁சொல்லி	-6601
▁சொல்லு	-6602
▁ஜாமின்	-6603
▁தஞ்சம்	-6604
▁தலைவரை	-6605
▁துண்டு	-6606
▁நாடகம்	-6607
▁நாயகன்	-6608
▁நோட்டா	-6609
▁பற்றிய	-6610
▁பலாத்க	-6611
▁பிரின்	-6612
▁புஷ்பா	-6613
▁பேசும்	-6614
▁பேஸ்பு	-6615
▁மகாபார	-6616
▁மலேசிய	-6617
▁மெஸ்சி	-6618
▁ரசித்த	-6619
▁ராஜேஷ்	-6620
▁லியோன்	-6621
▁வர்த்த	-6622
▁விடும்	-6623
▁விருதை	-6624
▁விரைவு	-6625
க்குத்து	-6626
படுத்திய	-6627
போர்னியா	-6628
ப்பிரதேச	-6629
ரங்குன்ற	-6630
▁அடக்கம்	-6631
▁அணியும்	-6632
▁அன்சாரி	-6633
▁அப்ரிதி	-6634
▁அமர்ந்த	-6635
▁அம்பானி	-6636
▁ஆப்பிள்	-6637
▁இழந்தது	-6638
▁உடைத்து	-6639
▁உயர்த்த	-6640
▁எதையும்	-6641
▁எரிப்பு	-6642
▁எஸ்கேப்	-6643
▁ஏராளமான	-6644
▁ஒழிப்பு	-6645
▁கடத்திய	-6646
▁கார்கள்	-6647
▁கைவரிசை	-6648
▁கொண்டாட	-6649
▁சீமராஜா	-6650
▁சுப்பிர	-6651
▁சூதாட்ட	-6652
▁செலவில்	-6653
▁டிகேஎஸ்	-6654
▁டீச்சர்	-6655
▁தரவரிசை	-6656
▁தெரியாத	-6657
▁நுழைந்த	-6658
▁படங்கள்	-6659
▁பந்தில்	-6660
▁பள்ளிக்	-6661
▁பாம்பன்	-6662
▁புல்லட்	-6663
▁பேசுவது	-6664
▁மரங்கள்	-6665
▁மருந்து	-6666
▁மலிங்கா	-6667
▁மாநிலம்	-6668
▁மிரட்டி	-6669
▁முலாயம்	-6670
▁ரகசியம்	-6671
▁ரஜினியை	-6672
▁ரன்வீர்	-6673
▁விடாமல்	-6674
▁விளாசல்	-6675
▁வீடுகளை	-6676
▁ஹோட்டல்	-6677
க்கடத்தல்	-6678
க்கவில்லை	-6679
க்கொடுத்த	-6680
ட்டியுடன்	-6681
ளிக்கிறது	-6682
ிருந்தால்	-6683
▁அலுவலகம்	-6684
▁ஏற்படும்	-6685
▁ஓட்டலில்	-6686
▁ஓட்டிகள்	-6687
▁கடுமையாக	-6688
▁கணக்கில்	-6689
▁கலெக்டர்	-6690
▁கழிவுகள்	-6691
▁காப்பீடு	-6692
▁குகையில்	-6693
▁கோரினார்	-6694
▁சுவாரஸ்ய	-6695
▁செய்தால்	-6696
▁செல்லூர்	-6697
▁சொன்னார்	-6698
▁திருடும்	-6699
▁தெரிந்து	-6700
▁தொழிலதிப	-6701
▁நாராயணன்	-6702
▁நேருக்கு	-6703
▁பங்கேற்ற	-6704
▁பதவியில்	-6705
▁பத்மாவத்	-6706
▁பள்ளிகள்	-6707
▁பாதிப்பை	-6708
▁பிரேசில்	-6709
▁புகழ்ந்த	-6710
▁போலீசாரை	-6711
▁போலீஸில்	-6712
▁முடிவில்	-6713
▁வரவில்லை	-6714
▁விக்னேஷ்	-6715
▁விருந்து	-6716
▁வெல்லும்	-6717
▁வேலூரில்	-6718
▁ஸ்டைலில்	-6719
ிருக்கலாம்	-6720
ுகிறார்கள்	-6721
▁அடித்துக்	-6722
▁இணைகிறாரா	-6723
▁உதயகுமார்	-6724
▁உயர்கிறது	-6725
▁கட்சிக்கு	-6726
▁கிடைத்தது	-6727
▁கிரண்பேடி	-6728
▁குறைந்தது	-6729
▁குளிர்கால	-6730
▁கேட்கிறது	-6731
▁சதமடித்து	-6732
▁சென்டினல்	-6733
▁செலுத்திய	-6734
▁தமிழுக்கு	-6735
▁தலைமறைவான	-6736
▁தாருங்கள்	-6737
▁திமுகவின்	-6738
▁துண்டிக்க	-6739
▁நடிகர்கள்	-6740
▁நாடகமாடிய	-6741
▁நெருக்கடி	-6742
▁நொறுங்கிய	-6743
▁நோயாளிகள்	-6744
▁பத்திரிகை	-6745
▁பின்னடைவு	-6746
▁பிரபுதேவா	-6747
▁பெங்களூர்	-6748
▁மரணத்தில்	-6749
▁மறுக்கும்	-6750
▁மாணவியின்	-6751
▁மூன்றாவது	-6752
▁வங்கதேசம்	-6753
▁வந்தாச்சு	-6754
▁விசாரணையை	-6755
▁விடைபெற்ற	-6756
தராபாத்தில்	-6757
▁அத்துமீறிய	-6758
▁அலங்காநல்ல	-6759
▁ஆண்டுகளில்	-6760
▁ஏலத்துக்கு	-6761
▁கிடைக்கும்	-6762
▁கொடுத்தார்	-6763
▁சுற்றுலாப்	-6764
▁ஜெயலலிதாவை	-6765
▁டாக்டர்கள்	-6766
▁திருடர்கள்	-6767
▁தேர்வுக்கு	-6768
▁நீதிமன்றக்	-6769
▁நூற்றாண்டு	-6770
▁பலாத்காரம்	-6771
▁பாதிரியார்	-6772
▁பிடிக்கும்	-6773
▁பேருந்தில்	-6774
▁பொதுக்குழு	-6775
▁மருத்துவக்	-6776
▁மாநகராட்சி	-6777
▁வளாகத்தில்	-6778
▁வாழ்க்கையை	-6779
▁விடுதியில்	-6780
▁விலங்குகள்	-6781
▁வீடியோவில்	-6782
▁வெற்றிக்கு	-6783
▁ஆந்திராவில்	-6784
▁இந்தியாபாக்	-6785
▁உண்ணாவிரதப்	-6786
▁எங்கெல்லாம்	-6787
▁எதிர்க்கட்ச	-6788
▁ஏஆர்முருகதா	-6789
▁காஞ்சிபுரம்	-6790
▁கேஎல்ராகுல்	-6791
▁சட்டசபையில்	-6792
▁சித்தராமையா	-6793
▁செய்தியாளரை	-6794
▁தமிழர்களின்	-6795
▁தயாரிப்பில்	-6796
▁தாக்கப்பட்ட	-6797
▁திட்டத்தில்	-6798
▁திருச்செந்த	-6799
▁தீப்பிடித்த	-6800
▁தேர்தலுக்கு	-6801
▁நடிக்கிறார்	-6802
▁நடுரோட்டில்	-6803
▁பணத்திற்காக	-6804
▁பாதிரியார்க	-6805
▁மலேசியாவில்	-6806
▁விஜயலட்சுமி	-6807
▁வில்லியர்ஸ்	-6808
▁ஸ்டாலினுடன்	-6809
▁ஆசிரியருக்கு	-6810
▁எஸ்பிவேலுமணி	-6811
▁குற்றவாளிகளை	-6812
▁சத்தீஸ்கரில்	-6813
▁சுங்கச்சாவடி	-6814
▁மாநிலங்களில்	-6815
▁வலைதளங்களில்	-6816
▁வழங்கப்படும்	-6817
▁ஃபேஸ்புக்கில்	-6818
▁அறிவிப்புக்கு	-6819
▁இந்தியாவிற்கு	-6820
▁இஸ்லாமியர்கள்	-6821
▁உறுப்பினர்கள்	-6822
▁ஏஆர்முருகதாஸ்	-6823
▁கத்திக்குத்து	-6824
▁சிலைக்கடத்தல்	-6825
▁சுப்பிரமணியன்	-6826
▁நினைக்கவில்லை	-6827
▁விதிக்கப்பட்ட	-6828
▁வெளிநாடுகளில்	-6829
▁ஆண்டுகளுக்குப்	-6830
▁குடும்பத்தினர்	-6831
▁மருத்துவமனைகள்	-6832
▁முக்கியத்துவம்	-6833
▁களமிறங்குகிறார்	-6834
▁கொண்டாட்டத்தில்	-6835
▁திருப்பரங்குன்ற	-6836
▁நிச்சயதார்த்தம்	-6837
18	-6838
24	-6839
இர	-6840
உத	-6841
ஐஏ	-6842
கொ	-6843
தம	-6844
தழ	-6845
நெ	-6846
னக	-6847
பழ	-6848
மொ	-6849
ரூ	-6850
ூழ	-6851
600	-6852
அடி	-6853
உதய	-6854
கைய	-6855
சின	-6856
செய	-6857
நடை	-6858
நிக	-6859
புண	-6860
போத	-6861
ய்க	-6862
லக்	-6863
லைவ	-6864
வதே	-6865
ஷஸ்	-6866
ாலே	-6867
ிடை	-6868
ுலக	-6869
ையோ	-6870
்ரா	-6871
▁34	-6872
▁45	-6873
▁52	-6874
▁56	-6875
▁கழ	-6876
▁ரச	-6877
▁ரை	-6878
▁ஷெ	-6879
2000	-6880
கையை	-6881
சரச்	-6882
சார்	-6883
சுதே	-6884
செட்	-6885
ணுமா	-6886
தளம்	-6887
பானி	-6888
பாரி	-6889
பெரு	-6890
ப்பய	-6891
ம்தே	-6892
ரிஸ்	-6893
ரீனா	-6894
ர்க்	-6895
ர்மி	-6896
லாலா	-6897
ல்பு	-6898
வாலய	-6899
வாஷ்	-6900
வூர்	-6901
ஹால்	-6902
ாகவா	-6903
ேத்க	-6904
ையிற	-6905
▁அபி	-6906
▁அரே	-6907
▁அளி	-6908
▁அவல	-6909
▁அஷ்	-6910
▁உதை	-6911
▁உமா	-6912
▁உம்	-6913
▁எகி	-6914
▁எமி	-6915
▁ஓடி	-6916
▁கனா	-6917
▁கழக	-6918
▁கொல	-6919
▁கோய	-6920
▁சசி	-6921
▁சஜ்	-6922
▁சுர	-6923
▁தகு	-6924
▁தரை	-6925
▁நம்	-6926
▁பட்	-6927
▁பிக	-6928
▁பிஷ	-6929
▁மாம	-6930
▁மாய	-6931
▁மிள	-6932
▁மோத	-6933
▁ரஷி	-6934
எஸ்பி	-6935
ங்கார	-6936
சிபல்	-6937
துவதை	-6938
த்தடி	-6939
த்தின	-6940
த்யேக	-6941
நீக்க	-6942
ன்றாக	-6943
ப்பாக	-6944
மன்வெ	-6945
மாறாக	-6946
மேகலை	-6947
ம்பிள	-6948
யத்து	-6949
யத்தை	-6950
ரைலர்	-6951
ற்றின	-6952
ல்லாத	-6953
ளர்வு	-6954
ளவில்	-6955
ள்கள்	-6956
ழப்பை	-6957
ழுவிய	-6958
வட்டி	-6959
வாரிய	-6960
வேந்த	-6961
ாகுமா	-6962
ாவில்	-6963
ுக்தா	-6964
்திக்	-6965
▁அகதி	-6966
▁அசைவ	-6967
▁அயர்	-6968
▁அருவ	-6969
▁ஆச்ச	-6970
▁ஆஷஸ்	-6971
▁உறவு	-6972
▁எரிப	-6973
▁கணின	-6974
▁கந்த	-6975
▁கமிஷ	-6976
▁கலாய	-6977
▁காவி	-6978
▁குழா	-6979
▁கேசி	-6980
▁கைகல	-6981
▁கோடை	-6982
▁சக்க	-6983
▁சமன்	-6984
▁சரத்	-6985
▁சாஹோ	-6986
▁செட்	-6987
▁செப்	-6988
▁சேமி	-6989
▁ஜவடே	-6990
▁ஜூன்	-6991
▁ஜூலை	-6992
▁ஜோனா	-6993
▁டீன்	-6994
▁டெக்	-6995
▁தகாத	-6996
▁தண்ண	-6997
▁தாறு	-6998
▁திரா	-6999
▁திலீ	-7000
▁தீவி	-7001
▁நடமா	-7002
▁நந்த	-7003
▁நாம்	-7004
▁நிக்	-7005
▁நேரி	-7006
▁பியூ	-7007
▁பீதி	-7008
▁பென்	-7009
▁பெர்	-7010
▁மியூ	-7011
▁மீம்	-7012
▁மூளை	-7013
▁ராஜு	-7014
▁ராமே	-7015
▁ரூம்	-7016
▁வல்ல	-7017
▁வாயு	-7018
▁வியூ	-7019
▁ஷாரு	-7020
▁ஹிப்	-7021
▁ஹூமா	-7022
கிறேன்	-7023
க்காதி	-7024
ச்சாலை	-7025
ண்டில்	-7026
ந்தரவு	-7027
போகும்	-7028
மிட்டு	-7029
மூட்டி	-7030
மெண்ட்	-7031
ம்பில்	-7032
ராஜின்	-7033
லியில்	-7034
ளையும்	-7035
வர்த்த	-7036
வாகும்	-7037
வியால்	-7038
வீரமணி	-7039
ஷூக்கு	-7040
ஸ்வரம்	-7041
ூழியம்	-7042
▁அமமுக	-7043
▁அற்பு	-7044
▁அஸ்தி	-7045
▁ஆசியா	-7046
▁ஆட்டு	-7047
▁ஆணவப்	-7048
▁ஆஸிகே	-7049
▁இன்றே	-7050
▁உயிரு	-7051
▁உள்பட	-7052
▁ஊற்றி	-7053
▁ஐபோன்	-7054
▁ஓரங்க	-7055
▁கங்கை	-7056
▁கஜோல்	-7057
▁கடற்க	-7058
▁கடையை	-7059
▁கட்ஜூ	-7060
▁கட்டட	-7061
▁கணினி	-7062
▁கலக்க	-7063
▁காலம்	-7064
▁காலாவ	-7065
▁குளறு	-7066
▁கெட்ட	-7067
▁கேன்ச	-7068
▁சத்து	-7069
▁சிஆர்	-7070
▁சிறிய	-7071
▁சிவகா	-7072
▁சூழல்	-7073
▁செக்க	-7074
▁ஜப்தி	-7075
▁டிஆர்	-7076
▁டிஎன்	-7077
▁தஞ்சா	-7078
▁தடையை	-7079
▁தண்ணி	-7080
▁தன்னை	-7081
▁தலையி	-7082
▁தீப்ப	-7083
▁துருவ	-7084
▁நடராஜ	-7085
▁நட்பு	-7086
▁நாயர்	-7087
▁நிபுண	-7088
▁பகவத்	-7089
▁பதிவே	-7090
▁பனிமூ	-7091
▁பரிசீ	-7092
▁பாலின	-7093
▁பிளஸ்	-7094
▁புனித	-7095
▁போஸ்ட	-7096
▁மணிநே	-7097
▁மலாலா	-7098
▁மலையே	-7099
▁முகம்	-7100
▁ரசாயன	-7101
▁ரஞ்சி	-7102
▁ராகவா	-7103
▁ராக்க	-7104
▁லெவல்	-7105
▁வட்டி	-7106
▁வராது	-7107
▁வானம்	-7108
▁வாழ்க	-7109
▁வினோத	-7110
▁வைரஸ்	-7111
▁ஸ்டார	-7112
க்குடன்	-7113
ங்களால்	-7114
ஜேந்தர்	-7115
டவில்லை	-7116
ட்சியம்	-7117
தம்மாள்	-7118
தியுடன்	-7119
த்தனமாக	-7120
ந்தர்யா	-7121
மாக்கிய	-7122
லுக்கிய	-7123
ள்ளுவர்	-7124
வரானார்	-7125
வாரண்ட்	-7126
விற்காக	-7127
ாலையில்	-7128
ியர்கள்	-7129
ையொட்டி	-7130
▁அக்ஷரா	-7131
▁அறைந்த	-7132
▁அலைக்க	-7133
▁அவசரச்	-7134
▁ஆசிஃபா	-7135
▁ஆர்டிஐ	-7136
▁இயலாது	-7137
▁இயல்பு	-7138
▁இரண்டே	-7139
▁இலவசம்	-7140
▁உம்மன்	-7141
▁உயரமான	-7142
▁ஏமாந்த	-7143
▁ஐபிஎஸ்	-7144
▁ஒன்றரை	-7145
▁கடலூர்	-7146
▁கடைகளை	-7147
▁கிறிஸ்	-7148
▁கெத்து	-7149
▁கெய்ல்	-7150
▁கொள்ளு	-7151
▁சஜ்ஜன்	-7152
▁சரமாரி	-7153
▁சரியாக	-7154
▁சுடுகா	-7155
▁சுப்பு	-7156
▁செஞ்சு	-7157
▁ஞாபகம்	-7158
▁டாட்டா	-7159
▁டான்ஸ்	-7160
▁டிப்ஸ்	-7161
▁தகராறு	-7162
▁தரையிற	-7163
▁தளர்வு	-7164
▁தாழ்வு	-7165
▁தினசரி	-7166
▁துண்டி	-7167
▁தூய்மை	-7168
▁தேவசம்	-7169
▁தோளில்	-7170
▁நிவின்	-7171
▁நெல்லி	-7172
▁நேர்மை	-7173
▁பஜ்ரங்	-7174
▁பிட்ச்	-7175
▁பின்பு	-7176
▁பீகார்	-7177
▁புகாரை	-7178
▁புதுமண	-7179
▁புள்ளி	-7180
▁பேட்ஸ்	-7181
▁போத்ரா	-7182
▁ப்ரியா	-7183
▁மடங்கு	-7184
▁மதிமுக	-7185
▁மருந்த	-7186
▁மாதமாக	-7187
▁முன்னோ	-7188
▁முஸ்லீ	-7189
▁மொட்டை	-7190
▁ராகுலை	-7191
▁ரேஸில்	-7192
▁வறுத்த	-7193
▁வாசுதே	-7194
▁வாழும்	-7195
▁வெறும்	-7196
▁ஸ்வேதா	-7197
▁ஹனுமன்	-7198
▁ஹிந்தி	-7199
ண்டுக்கு	-7200
தியின்றி	-7201
த்திலேயே	-7202
பாபுவின்	-7203
மாருக்கு	-7204
ராத்திரி	-7205
வர்களில்	-7206
வாரிலால்	-7207
வுக்கும்	-7208
ிக்கொண்ட	-7209
ிறீர்களா	-7210
்செல்வன்	-7211
▁அகற்றம்	-7212
▁அநாகரிக	-7213
▁அப்செட்	-7214
▁அப்பாவி	-7215
▁அரசியலை	-7216
▁அலட்சிய	-7217
▁ஆயுக்தா	-7218
▁ஆளில்லா	-7219
▁இங்கிலா	-7220
▁உருகும்	-7221
▁உருக்கு	-7222
▁என்னால்	-7223
▁எரியும்	-7224
▁எழுத்து	-7225
▁ஏடிஎம்க	-7226
▁ஐயப்பன்	-7227
▁கண்காணி	-7228
▁கருணைக்	-7229
▁காமன்வெ	-7230
▁காயத்ரி	-7231
▁கால்நடை	-7232
▁காளைகள்	-7233
▁கிடைக்க	-7234
▁கேன்சர்	-7235
▁கேப்டனா	-7236
▁கொஞ்சம்	-7237
▁கொடுங்க	-7238
▁சந்திரா	-7239
▁சரண்டர்	-7240
▁சிறுவனை	-7241
▁சீக்கிய	-7242
▁சீற்றம்	-7243
▁சுத்தம்	-7244
▁சுவரில்	-7245
▁சேலஞ்ச்	-7246
▁சைதன்யா	-7247
▁ஜேஎன்யு	-7248
▁ட்ரைலர்	-7249
▁தடையில்	-7250
▁தமிழ்ப்	-7251
▁தவிப்பு	-7252
▁தாக்கம்	-7253
▁திடீரென	-7254
▁தீர்க்க	-7255
▁தூங்கிய	-7256
▁தொடர்பு	-7257
▁நடராஜன்	-7258
▁நாடுகள்	-7259
▁நாளிதழ்	-7260
▁பக்ரீத்	-7261
▁பணியிடை	-7262
▁பாய்ந்த	-7263
▁பாராட்ட	-7264
▁பீட்டர்	-7265
▁புகழும்	-7266
▁புதிதாக	-7267
▁புலிகள்	-7268
▁மண்டலப்	-7269
▁மரங்களை	-7270
▁மரணத்தை	-7271
▁மலையில்	-7272
▁மானியம்	-7273
▁மிசோரம்	-7274
▁மின்னணு	-7275
▁முகமூடி	-7276
▁ரகுராம்	-7277
▁வாழ்ந்த	-7278
▁விதிகளை	-7279
▁விதிகள்	-7280
▁விம்பிள	-7281
▁வியூகம்	-7282
உதயகுமார்	-7283
களுக்கும்	-7284
தம்பரத்தை	-7285
த்துங்கள்	-7286
ப்படையில்	-7287
ம்களுக்கு	-7288
ம்பிடித்த	-7289
ளியுங்கள்	-7290
விடுங்கள்	-7291
விட்டரில்	-7292
▁அடையாளம்	-7293
▁அதிமுகவை	-7294
▁அப்துல்க	-7295
▁அம்பேத்க	-7296
▁இன்றுடன்	-7297
▁இருந்தது	-7298
▁உடனடியாக	-7299
▁என்எல்சி	-7300
▁எழுப்பிய	-7301
▁ஐஐடியில்	-7302
▁கணினிகள்	-7303
▁கண்கலங்க	-7304
▁கண்டித்த	-7305
▁காத்திரு	-7306
▁காம்பீர்	-7307
▁காற்றில்	-7308
▁காவல்படை	-7309
▁குறைந்து	-7310
▁கெஜ்ரிவா	-7311
▁கொடூரமாக	-7312
▁கொட்டும்	-7313
▁கொண்டுவர	-7314
▁கொலைக்கு	-7315
▁கொள்ளையை	-7316
▁கோவாவில்	-7317
▁சத்யராஜ்	-7318
▁சிறப்பான	-7319
▁சீரமைக்க	-7320
▁சுட்டுக்	-7321
▁சென்றவர்	-7322
▁சென்றார்	-7323
▁சேர்த்து	-7324
▁டெஸ்டில்	-7325
▁தப்பிக்க	-7326
▁தப்பியது	-7327
▁தரப்பில்	-7328
▁தஷ்வந்த்	-7329
▁தாக்குதல	-7330
▁திரையுலக	-7331
▁தீர்மானி	-7332
▁தீவிரவாத	-7333
▁தொடர்பாக	-7334
▁தொந்தரவு	-7335
▁தோனிக்கு	-7336
▁நடவடிக்க	-7337
▁நாக்பூர்	-7338
▁நிறுத்தி	-7339
▁நெக்ஸ்ட்	-7340
▁நேரிடும்	-7341
▁பந்துவீச	-7342
▁பரப்புரை	-7343
▁பாடல்களை	-7344
▁பிரசாரம்	-7345
▁பிரத்யேக	-7346
▁பிரியாணி	-7347
▁போட்டியை	-7348
▁மணிமேகலை	-7349
▁மறுத்தது	-7350
▁மாற்றுத்	-7351
▁முகாமில்	-7352
▁முடக்கிய	-7353
▁மேடையில்	-7354
▁யாரையும்	-7355
▁ராம்நாத்	-7356
▁விதிமுறை	-7357
▁விலைக்கு	-7358
▁வெண்கலம்	-7359
▁வெளுத்து	-7360
டுக்குமாடி	-7361
த்திற்கும்	-7362
ப்படுத்துவ	-7363
ர்களுக்கான	-7364
▁அருவியில்	-7365
▁இருந்தார்	-7366
▁உயிருக்கு	-7367
▁உள்நாட்டு	-7368
▁என்னாச்சு	-7369
▁ஒப்படைக்க	-7370
▁ஒப்படைத்த	-7371
▁கட்டுப்பா	-7372
▁கண்டுபிடி	-7373
▁காலக்கெடு	-7374
▁கொள்முதல்	-7375
▁சகோதரிகள்	-7376
▁சந்தையில்	-7377
▁சம்பளத்தை	-7378
▁சவுதியில்	-7379
▁சிபிஐக்கு	-7380
▁சிறுவனின்	-7381
▁சீதக்காதி	-7382
▁ஜனவரியில்	-7383
▁ஜப்பானில்	-7384
▁டார்ச்சர்	-7385
▁டிஜிட்டல்	-7386
▁டிராவிட்ட	-7387
▁ட்ரெண்டான	-7388
▁தஞ்சாவூர்	-7389
▁தமிழ்நாடு	-7390
▁தாஜ்மஹால்	-7391
▁தாறுமாறாக	-7392
▁தினகரனின்	-7393
▁தீவிபத்து	-7394
▁தேர்வுகள்	-7395
▁நாய்க்கறி	-7396
▁நீங்கியது	-7397
▁நெகிழ்ச்ச	-7398
▁நோயாளிகளை	-7399
▁மனிதர்களை	-7400
▁மனைவியின்	-7401
▁மம்மூட்டி	-7402
▁மாரத்தான்	-7403
▁மாவோயிஸ்ட	-7404
▁முத்துக்க	-7405
▁முருகதாஸ்	-7406
▁மேற்கொள்ள	-7407
▁மோசடியில்	-7408
▁யுபிஎஸ்சி	-7409
▁ராகுலுடன்	-7410
▁ராக்கர்ஸ்	-7411
▁வடகிழக்கு	-7412
▁வலைவீச்சு	-7413
▁விசுவாசம்	-7414
▁விஜய்க்கு	-7415
▁வீடுகளில்	-7416
▁வெடித்தது	-7417
▁வேடத்தில்	-7418
▁ஹைதராபாத்	-7419
ையிலிருந்து	-7420
▁அட்டூழியம்	-7421
▁அதிரடியில்	-7422
▁அத்துமீறல்	-7423
▁அமைச்சரின்	-7424
▁ஆப்பிரிக்க	-7425
▁இடைக்காலத்	-7426
▁எடுக்கலாம்	-7427
▁கண்ணீருடன்	-7428
▁கந்துவட்டி	-7429
▁கல்லூரிகள்	-7430
▁கேள்விக்கு	-7431
▁கோயிலுக்கு	-7432
▁சட்டத்தில்	-7433
▁சண்டக்கோழி	-7434
▁சந்தித்தது	-7435
▁சவுந்தர்யா	-7436
▁சாதிக்குமா	-7437
▁சுப்புராஜ்	-7438
▁தயாரிப்பாள	-7439
▁திரும்பும்	-7440
▁துண்டிப்பு	-7441
▁தொட்டியில்	-7442
▁நாட்டிலேயே	-7443
▁நிராகரித்த	-7444
▁நீதிபதியாக	-7445
▁நெல்லையில்	-7446
▁பனிமூட்டம்	-7447
▁பாதிப்பால்	-7448
▁பின்னுக்கு	-7449
▁மனிதாபிமான	-7450
▁மறுத்ததால்	-7451
▁மேற்குவங்க	-7452
▁ரீமேக்கில்	-7453
▁ரெட்டியின்	-7454
▁வாகனத்தில்	-7455
▁விழாவுக்கு	-7456
▁வெடிக்கும்	-7457
▁அடுக்குமாடி	-7458
▁அதிகாரிக்கு	-7459
▁ஆட்சியமைக்க	-7460
▁ஆட்சியரிடம்	-7461
▁இணையதளங்கள்	-7462
▁இருந்தாலும்	-7463
▁எம்எல்ஏவின்	-7464
▁கடைக்குட்டி	-7465
▁கமல்ஹாசனின்	-7466
▁கூட்டணியில்	-7467
▁கேட்கவில்லை	-7468
▁சிறுத்தைகள்	-7469
▁சேதுபதியின்	-7470
▁ஜெயேந்திரர்	-7471
▁டிராஜேந்தர்	-7472
▁தற்காலிகமாக	-7473
▁தாக்குதலில்	-7474
▁திருமுருகன்	-7475
▁திரும்பியது	-7476
▁தீபாவளிக்கு	-7477
▁நிகழ்ச்சியை	-7478
▁நெடுவாசலில்	-7479
▁படத்திற்காக	-7480
▁படத்துக்காக	-7481
▁பன்வாரிலால்	-7482
▁பாதுகாப்பாக	-7483
▁பிடிவாரண்ட்	-7484
▁பிரச்னைக்கு	-7485
▁பிரின்சிபல்	-7486
▁பொறுப்பேற்க	-7487
▁போராட்டத்தை	-7488
▁மாநிலங்களவை	-7489
▁மாலத்தீவில்	-7490
▁முன்னேறியது	-7491
▁ரசிகர்களின்	-7492
▁வீழ்த்தியது	-7493
▁வெளியேற்றம்	-7494
▁வேட்டையாடிய	-7495
▁அனுமதியின்றி	-7496
▁அற்புதம்மாள்	-7497
▁கன்னியாகுமரி	-7498
▁காலிறுதிக்கு	-7499
▁காலிறுதியில்	-7500
▁குருமூர்த்தி	-7501
▁கொடுக்கிறார்	-7502
▁கொன்றுவிட்டு	-7503
▁சாத்தியமானது	-7504
▁செவிலியர்கள்	-7505
▁திருவள்ளுவர்	-7506
▁தீக்குளிப்பு	-7507
▁நாயுடுவுக்கு	-7508
▁பிறந்தநாளில்	-7509
▁பெரும்பான்மை	-7510
▁போராட்டக்கார	-7511
▁போலீசாருக்கு	-7512
▁வித்தியாசமான	-7513
▁விளையாட்டுப்	-7514
▁ஸ்மார்ட்போன்	-7515
▁அடித்துக்கொலை	-7516
▁அமலாக்கத்துறை	-7517
▁அமெரிக்காவின்	-7518
▁இருந்தால்தான்	-7519
▁எதிர்கொள்ளும்	-7520
▁எதிர்பார்ப்பு	-7521
▁குடும்பத்தில்	-7522
▁திட்டத்திற்கு	-7523
▁திட்டமிட்டபடி	-7524
▁திருவள்ளூரில்	-7525
▁திரையரங்குகள்	-7526
▁நிகழ்ச்சிக்கு	-7527
▁பாராட்டுக்கள்	-7528
▁மாதத்திற்குள்	-7529
▁மீனவர்களுக்கு	-7530
▁வாடிக்கையாளர்	-7531
▁ஹெலிகாப்டரில்	-7532
▁ஆர்பிஉதயகுமார்	-7533
▁கட்டுப்பாடுகள்	-7534
▁காவல்துறையினர்	-7535
▁ஜிம்பாப்வேயில்	-7536
▁அதிர்ச்சியடைந்த	-7537
▁திருமணத்திற்காக	-7538
▁மாநிலங்களவையில்	-7539
▁மாவட்டங்களுக்கு	-7540
▁முன்னெச்சரிக்கை	-7541
▁வருமானவரித்துறை	-7542
▁விவசாயிகளுக்காக	-7543
21	-7544
46	-7545
55	-7546
84	-7547
சக	-7548
நட	-7549
பவ	-7550
பொ	-7551
மத	-7552
மர	-7553
வய	-7554
ஷே	-7555
ூட	-7556
ஃபை	-7557
ஃபோ	-7558
அக்	-7559
கவு	-7560
சில	-7561
டலை	-7562
ணவு	-7563
திக	-7564
னேஷ	-7565
ன்ட	-7566
பாத	-7567
ப்இ	-7568
மிக	-7569
யாத	-7570
லட்	-7571
லான	-7572
வணை	-7573
வரெ	-7574
வித	-7575
வைர	-7576
ாகா	-7577
ாப்	-7578
ாய்	-7579
ிகள	-7580
ிகி	-7581
ிகொ	-7582
ீம்	-7583
ீஷ்	-7584
ுவை	-7585
ூஸ்	-7586
ேஜி	-7587
ோமா	-7588
்க்	-7589
▁49	-7590
▁87	-7591
▁89	-7592
▁உல	-7593
▁ஓர	-7594
▁டோ	-7595
அன்ப	-7596
கான்	-7597
கோடி	-7598
க்கள	-7599
க்சி	-7600
க்டே	-7601
சதம்	-7602
சாத்	-7603
சாரே	-7604
சிங்	-7605
சியை	-7606
சிஸ்	-7607
சைன்	-7608
ஜாமீ	-7609
ஜிசி	-7610
ஜிவ்	-7611
தட்ச	-7612
தமிழ	-7613
தார்	-7614
தினக	-7615
த்ரே	-7616
ந்தே	-7617
பாட்	-7618
பாத்	-7619
பேர்	-7620
ப்பவ	-7621
மங்க	-7622
மாரை	-7623
மால்	-7624
மேல்	-7625
ம்பே	-7626
ய்ட்	-7627
ராதி	-7628
ராய்	-7629
ரைக்	-7630
ரோம்	-7631
றியா	-7632
றோம்	-7633
ற்பா	-7634
லினி	-7635
வயது	-7636
வானி	-7637
விஜய	-7638
விரி	-7639
ஸூம்	-7640
ஸ்டா	-7641
ஹானா	-7642
ாகவே	-7643
ிகர்	-7644
ித்ய	-7645
ிபன்	-7646
ீயர்	-7647
ுவதே	-7648
ெந்த	-7649
ோடிய	-7650
்சர்	-7651
▁160	-7652
▁182	-7653
▁600	-7654
▁இமா	-7655
▁இஷா	-7656
▁உன்	-7657
▁ஊசி	-7658
▁எடை	-7659
▁ஒழி	-7660
▁ஓர்	-7661
▁கதா	-7662
▁காச	-7663
▁காம	-7664
▁சலச	-7665
▁தயா	-7666
▁தள்	-7667
▁தேட	-7668
▁நசு	-7669
▁நமீ	-7670
▁பகி	-7671
▁பது	-7672
▁பயோ	-7673
▁பிண	-7674
▁புவ	-7675
▁போய	-7676
▁மரா	-7677
▁மஹா	-7678
▁வகை	-7679
▁வித	-7680
▁வேட	-7681
இன்று	-7682
களோடு	-7683
கவுடா	-7684
ங்காக	-7685
சல்ட்	-7686
ஜேஅக்	-7687
ட்களை	-7688
ட்டாக	-7689
ட்டின	-7690
ணத்தை	-7691
ண்டனை	-7692
தலைக்	-7693
தழில்	-7694
தாகக்	-7695
தாரவி	-7696
நேயம்	-7697
ப்பல்	-7698
மாறன்	-7699
மிக்க	-7700
முதிக	-7701
ர்திற	-7702
ர்மன்	-7703
லிடம்	-7704
லைகள்	-7705
ல்கார	-7706
வர்ஸ்	-7707
வியட்	-7708
வியல்	-7709
வுள்ள	-7710
ஸ்டாக	-7711
ஸ்தான	-7712
ிட்டு	-7713
ும்மு	-7714
ேட்லி	-7715
ேட்ஸ்	-7716
ேறும்	-7717
்சாமி	-7718
▁அமேச	-7719
▁அழகு	-7720
▁ஆக்க	-7721
▁ஆவது	-7722
▁இசைய	-7723
▁இனிய	-7724
▁உறவை	-7725
▁உளவு	-7726
▁ஊழலை	-7727
▁எவரெ	-7728
▁எஸ்ஏ	-7729
▁ஓஎஸ்	-7730
▁ஓபிஎ	-7731
▁ஓவர்	-7732
▁கசிய	-7733
▁கதறி	-7734
▁கனவை	-7735
▁கவிழ	-7736
▁காசு	-7737
▁காது	-7738
▁கிகி	-7739
▁கிங்	-7740
▁கிரை	-7741
▁குவை	-7742
▁கெட்	-7743
▁கேரி	-7744
▁கைகோ	-7745
▁கையா	-7746
▁கையை	-7747
▁கோம்	-7748
▁கோல்	-7749
▁சப்இ	-7750
▁சர்ஜ	-7751
▁சிரம	-7752
▁சுஜா	-7753
▁ஜாலி	-7754
▁டும்	-7755
▁டூடு	-7756
▁டென்	-7757
▁டெலி	-7758
▁ட்ரூ	-7759
▁திசை	-7760
▁தீவு	-7761
▁துயர	-7762
▁நகர்	-7763
▁நீரா	-7764
▁நீலக	-7765
▁பலன்	-7766
▁பவுல	-7767
▁பாட்	-7768
▁பிலி	-7769
▁பிழை	-7770
▁பேசா	-7771
▁பேய்	-7772
▁ப்ரி	-7773
▁மஞ்ச	-7774
▁மதம்	-7775
▁மதரா	-7776
▁மாடு	-7777
▁மாநா	-7778
▁மான்	-7779
▁மாபெ	-7780
▁மூடி	-7781
▁மெக்	-7782
▁மேப்	-7783
▁மோகன	-7784
▁ரூபா	-7785
▁லீனா	-7786
▁வடிய	-7787
▁வருக	-7788
▁வீசி	-7789
▁வேதன	-7790
▁வேலு	-7791
▁ஷெரீ	-7792
▁ஸ்டீ	-7793
▁ஹர்த	-7794
▁ஹேக்	-7795
▁ஹோலி	-7796
கர்கள்	-7797
கிறோம்	-7798
க்கீடு	-7799
க்கோள்	-7800
ங்காங்	-7801
சாண்டி	-7802
சாமியை	-7803
சில்லா	-7804
சுக்கு	-7805
ச்சார்	-7806
ஜாமீன்	-7807
டக்கம்	-7808
டுவதாக	-7809
டுவாரா	-7810
டையும்	-7811
ட்டமாக	-7812
ட்டிக்	-7813
தட்சணை	-7814
த்தமிழ	-7815
த்திமா	-7816
த்தைத்	-7817
த்தோடு	-7818
ந்தேன்	-7819
ன்தான்	-7820
ப்பணம்	-7821
மர்த்த	-7822
மிடும்	-7823
யபுரம்	-7824
ரீட்சை	-7825
ர்க்கு	-7826
ர்மிளா	-7827
றிக்கு	-7828
றினார்	-7829
றியும்	-7830
ற்றுமா	-7831
லங்கிய	-7832
லையால்	-7833
ழையில்	-7834
வாளால்	-7835
விடும்	-7836
ஸ்மிஸ்	-7837
ானிடம்	-7838
ாராயம்	-7839
ியிடம்	-7840
ுக்குற	-7841
ும்பாத	-7842
ையன்ஸ்	-7843
ையிடம்	-7844
▁15000	-7845
▁அகமது	-7846
▁அதிர்	-7847
▁அனில்	-7848
▁அபராத	-7849
▁அபிஷே	-7850
▁அரிசி	-7851
▁அலறிய	-7852
▁அலைமோ	-7853
▁அல்வா	-7854
▁அழகான	-7855
▁அவ்ளோ	-7856
▁அஷ்வி	-7857
▁ஆசிட்	-7858
▁ஆர்யா	-7859
▁ஆற்று	-7860
▁உடல்ந	-7861
▁ஊர்வல	-7862
▁எங்கு	-7863
▁எஸ்சி	-7864
▁ஐயப்ப	-7865
▁ஒட்டு	-7866
▁கசிவு	-7867
▁கருவி	-7868
▁கலீல்	-7869
▁கவனம்	-7870
▁குறைய	-7871
▁கூண்ட	-7872
▁கோமிய	-7873
▁சக்கர	-7874
▁சஞ்சு	-7875
▁சடங்க	-7876
▁சட்டீ	-7877
▁சமாளி	-7878
▁சரமார	-7879
▁சாடிய	-7880
▁சுதாக	-7881
▁செங்க	-7882
▁செம்ம	-7883
▁ஜெயில	-7884
▁டயானா	-7885
▁டாலர்	-7886
▁தட்டி	-7887
▁தண்ணீ	-7888
▁தப்பு	-7889
▁தயங்க	-7890
▁தூக்க	-7891
▁தொட்ட	-7892
▁தொல்ல	-7893
▁நகரம்	-7894
▁நாங்க	-7895
▁நாப்க	-7896
▁நாற்க	-7897
▁பச்சி	-7898
▁பஞ்ச்	-7899
▁படுகொ	-7900
▁பட்ஜெ	-7901
▁பட்டு	-7902
▁பணியை	-7903
▁பந்த்	-7904
▁பாகம்	-7905
▁பாடப்	-7906
▁பாடலை	-7907
▁பில்க	-7908
▁புக்க	-7909
▁புரிய	-7910
▁புள்ள	-7911
▁புழல்	-7912
▁பெல்ஜ	-7913
▁பைரவா	-7914
▁பைலட்	-7915
▁போக்ச	-7916
▁போராட	-7917
▁மனம்த	-7918
▁மாடல்	-7919
▁மாடிய	-7920
▁மாரடை	-7921
▁மாரிய	-7922
▁மாஸ்ட	-7923
▁மிருக	-7924
▁முந்த	-7925
▁மேத்ய	-7926
▁ரபேல்	-7927
▁ரஷித்	-7928
▁ராதாக	-7929
▁வந்தன	-7930
▁வரலக்	-7931
▁வருமா	-7932
▁வீட்ட	-7933
▁வேடமி	-7934
▁ஷர்மா	-7935
▁ஹசாரே	-7936
ஆர்விஜய	-7937
என்ஜிசி	-7938
க்கடையை	-7939
க்களில்	-7940
க்கிடம்	-7941
க்கோட்ட	-7942
ங்கரின்	-7943
டாதீங்க	-7944
ட்லரின்	-7945
தத்தில்	-7946
தினகரன்	-7947
தீர்கள்	-7948
த்ரேயன்	-7949
ந்துபோன	-7950
னத்தின்	-7951
னையுடன்	-7952
மசிங்கே	-7953
மரியில்	-7954
ருகிறது	-7955
ருக்காக	-7956
லுக்கான	-7957
வுக்கான	-7958
ிலையில்	-7959
ெண்டினா	-7960
ையின்றி	-7961
▁அக்கறை	-7962
▁அழைத்த	-7963
▁ஆத்திர	-7964
▁இயற்கை	-7965
▁இரும்ப	-7966
▁இறக்கு	-7967
▁இல்லம்	-7968
▁உதவும்	-7969
▁ஊழலில்	-7970
▁எட்டிய	-7971
▁என்பதை	-7972
▁ஏமாற்ற	-7973
▁ஒன்றாக	-7974
▁ஓட்டம்	-7975
▁ஓட்டல்	-7976
▁கதறும்	-7977
▁கலவரம்	-7978
▁காணும்	-7979
▁காதலரை	-7980
▁காவேரி	-7981
▁கிரிமி	-7982
▁கேரக்ட	-7983
▁கொச்சை	-7984
▁கொடியே	-7985
▁கோவிலை	-7986
▁சண்முக	-7987
▁சதத்தை	-7988
▁சமரசம்	-7989
▁சாக்லே	-7990
▁சாதாரண	-7991
▁சான்ஸ்	-7992
▁சிலைக்	-7993
▁சிவந்த	-7994
▁சீரிஸ்	-7995
▁செரீனா	-7996
▁சோனாலி	-7997
▁சோபியா	-7998
▁சோப்ரா	-7999
▁ஜோனாஸ்	-8000
▁டாப்ஸி	-8001
▁டிகிரி	-8002
▁ட்ராக்	-8003
▁ட்ரோல்	-8004
▁தலையிட	-8005
▁திரட்ட	-8006
▁தீவிரம	-8007
▁தெற்கு	-8008
▁தேர்வா	-8009
▁தொகையை	-8010
▁நடித்த	-8011
▁நடுக்க	-8012
▁நண்பன்	-8013
▁நன்றாக	-8014
▁நான்கு	-8015
▁நிக்கி	-8016
▁நிலுவை	-8017
▁நிலைகு	-8018
▁நிவேதா	-8019
▁நோயாளி	-8020
▁படிக்க	-8021
▁படித்த	-8022
▁படைக்க	-8023
▁பயந்து	-8024
▁பாடகர்	-8025
▁பாயும்	-8026
▁பாரிஸ்	-8027
▁பிராமண	-8028
▁பிள்ளை	-8029
▁பெத்து	-8030
▁பெப்சி	-8031
▁பெரும்	-8032
▁பொருள்	-8033
▁மணமகன்	-8034
▁மண்டிய	-8035
▁மனோகர்	-8036
▁மன்றம்	-8037
▁மிதமான	-8038
▁முடியா	-8039
▁முட்டா	-8040
▁முன்னு	-8041
▁மும்மு	-8042
▁மூடிவி	-8043
▁ராஜிவ்	-8044
▁ராஜீவ்	-8045
▁ரூபானி	-8046
▁ரெஹானா	-8047
▁வருடம்	-8048
▁வலுவான	-8049
▁வார்ஸ்	-8050
▁விற்று	-8051
▁விழாவை	-8052
▁விஷ்ணு	-8053
▁வெயில்	-8054
▁வைத்தி	-8055
▁ஷூட்டி	-8056
▁ஸ்டைல்	-8057
▁ஹிந்து	-8058
▁ஹீரோவை	-8059
▁ஹெக்டே	-8060
▁ஹெச்டி	-8061
அன்பழகன்	-8062
க்கிடையே	-8063
ஜேஅக்பர்	-8064
ந்த்சாமி	-8065
ப்பட்டின	-8066
ப்பதற்கு	-8067
லுக்கும்	-8068
ஸ்டாகிரா	-8069
ிக்கொள்ள	-8070
▁அதிகப்ப	-8071
▁அந்தஸ்த	-8072
▁அரண்மனை	-8073
▁அருங்கா	-8074
▁அர்ஜூனா	-8075
▁அலுவலர்	-8076
▁அழிந்து	-8077
▁ஆசிரமம்	-8078
▁ஆசிரியை	-8079
▁ஆபரேஷன்	-8080
▁இடங்கள்	-8081
▁இடித்து	-8082
▁இந்திரா	-8083
▁இயக்கிய	-8084
▁இருக்கா	-8085
▁இறங்கிய	-8086
▁இஷாந்த்	-8087
▁உடல்நில	-8088
▁உண்மைக்	-8089
▁உயிரைப்	-8090
▁எரித்து	-8091
▁ஏர்போர்	-8092
▁ஒத்திகை	-8093
▁ஒருங்கி	-8094
▁ஒழுங்கா	-8095
▁கட்டும்	-8096
▁கமிட்டி	-8097
▁காமராஜ்	-8098
▁குறைத்த	-8099
▁குறைவாக	-8100
▁குவித்த	-8101
▁கேட்டறி	-8102
▁கேட்பது	-8103
▁கேவியட்	-8104
▁கைவிட்ட	-8105
▁சாகித்ய	-8106
▁சிக்சர்	-8107
▁சிலைகளை	-8108
▁சீரியல்	-8109
▁சுழலில்	-8110
▁சூழலில்	-8111
▁செயற்கை	-8112
▁செய்யாத	-8113
▁சொர்க்க	-8114
▁ஜாக்சன்	-8115
▁ஜான்சன்	-8116
▁தயாநிதி	-8117
▁தலைமைத்	-8118
▁தாமதமாக	-8119
▁தியேட்ட	-8120
▁தெறிக்க	-8121
▁தேமுதிக	-8122
▁தொங்கிய	-8123
▁தொடருமா	-8124
▁தொழிற்ச	-8125
▁நசுங்கி	-8126
▁நீடிக்க	-8127
▁நீர்திற	-8128
▁நெய்மர்	-8129
▁பகிரங்க	-8130
▁பயன்படு	-8131
▁பர்ஸ்ட்	-8132
▁பள்ளிச்	-8133
▁பாரிக்க	-8134
▁பாலத்தை	-8135
▁பிரபஞ்ச	-8136
▁பிரிக்க	-8137
▁பிறகும்	-8138
▁புயலில்	-8139
▁பேப்பர்	-8140
▁மனுத்தா	-8141
▁மருமகன்	-8142
▁மற்றொரு	-8143
▁மிகவும்	-8144
▁மிரண்டு	-8145
▁மிளகாய்	-8146
▁மீட்டது	-8147
▁முந்திய	-8148
▁முன்னரே	-8149
▁மொத்தம்	-8150
▁மோதியது	-8151
▁ராதாரவி	-8152
▁ரிசல்ட்	-8153
▁வாசிகள்	-8154
▁வானவில்	-8155
▁விட்டது	-8156
▁விமானப்	-8157
▁வியாபார	-8158
▁வெற்றிய	-8159
▁வெளியிட	-8160
▁வேலைகள்	-8161
▁வைத்திய	-8162
▁ஷர்மிளா	-8163
▁ஸ்டம்பி	-8164
▁ஹர்திக்	-8165
▁ஹீரோயின	-8166
கிறார்கள்	-8167
ப்போகிறது	-8168
▁அமர்நாத்	-8169
▁அமலாபால்	-8170
▁அமலுக்கு	-8171
▁அமைதியாக	-8172
▁ஆத்திரம்	-8173
▁இந்தியப்	-8174
▁இனத்தவர்	-8175
▁இவர்தான்	-8176
▁உடலுக்கு	-8177
▁உத்தரவிட	-8178
▁உருவாக்க	-8179
▁உறவுக்கு	-8180
▁ஊடகங்கள்	-8181
▁எதிரானது	-8182
▁எந்தெந்த	-8183
▁என்கிறது	-8184
▁எழுதுவதை	-8185
▁ஏமாற்றிய	-8186
▁ஒன்றிணைய	-8187
▁கடுப்பான	-8188
▁கனவுக்கு	-8189
▁காந்தியை	-8190
▁கிரிராஜ்	-8191
▁கீர்த்தி	-8192
▁குறிப்பி	-8193
▁குளறுபடி	-8194
▁கொட்டித்	-8195
▁கொன்றேன்	-8196
▁கோவிந்த்	-8197
▁சத்துணவு	-8198
▁சர்க்கரை	-8199
▁சலசலப்பு	-8200
▁சீனாவின்	-8201
▁சீராய்வு	-8202
▁சென்சார்	-8203
▁சென்றதாக	-8204
▁செய்தவர்	-8205
▁சொல்லும்	-8206
▁டிஸ்மிஸ்	-8207
▁டீமுக்கு	-8208
▁டொனால்ட்	-8209
▁தண்டனையை	-8210
▁தலைவரின்	-8211
▁திரையில்	-8212
▁தீர்ப்பா	-8213
▁தேவகவுடா	-8214
▁தொலைக்கா	-8215
▁தொலைபேசி	-8216
▁தோனியும்	-8217
▁தோல்வியை	-8218
▁நடிப்பது	-8219
▁நாட்களாக	-8220
▁நாட்டில்	-8221
▁நிதிக்கு	-8222
▁நினைத்து	-8223
▁பட்டத்தை	-8224
▁பயிர்க்க	-8225
▁பாட்டில்	-8226
▁பாத்திமா	-8227
▁பெயர்கள்	-8228
▁பெருமாள்	-8229
▁பேரிடராக	-8230
▁போட்டியா	-8231
▁ப்ரித்வி	-8232
▁மாணவிகளை	-8233
▁மாபெரும்	-8234
▁மின்கம்ப	-8235
▁மீத்தேன்	-8236
▁மீறினால்	-8237
▁யுடியூப்	-8238
▁ராஜபக்சே	-8239
▁லட்சத்தை	-8240
▁வசூலித்த	-8241
▁வரதட்சணை	-8242
▁விண்ணில்	-8243
▁வியாபாரி	-8244
▁வென்றேன்	-8245
▁வெறுப்பு	-8246
▁ஸ்டாலினை	-8247
▁ஸ்ரீஸ்ரீ	-8248
▁ஸ்ரேயாஸ்	-8249
▁ஹாங்காங்	-8250
க்கெல்லாம்	-8251
ட்டுக்கட்ட	-8252
ம்பிக்கில்	-8253
ிக்கொடுத்த	-8254
▁அரிவாளால்	-8255
▁அவமதிப்பு	-8256
▁ஆட்சிக்கு	-8257
▁ஆதரவாளர்க	-8258
▁ஆதாரங்களை	-8259
▁இரும்புத்	-8260
▁இறுதிச்சட	-8261
▁உணவுக்காக	-8262
▁உண்மைதான்	-8263
▁எடுத்துச்	-8264
▁எதிர்ப்பை	-8265
▁எரித்துக்	-8266
▁ஏடிஎம்கள்	-8267
▁கணக்குகள்	-8268
▁கணவருக்கு	-8269
▁கருத்தில்	-8270
▁கலைத்தார்	-8271
▁காஞ்சிபுர	-8272
▁காதலருடன்	-8273
▁குற்றம்சா	-8274
▁கூட்டுறவு	-8275
▁கூவத்தூர்	-8276
▁கோபத்தில்	-8277
▁சரமாரியாக	-8278
▁சர்ச்சையை	-8279
▁சேதமடைந்த	-8280
▁சோகத்தில்	-8281
▁தடுக்கும்	-8282
▁தடையில்லை	-8283
▁தத்தளித்த	-8284
▁தந்தையின்	-8285
▁தனிப்பட்ட	-8286
▁தமிழகத்தை	-8287
▁தற்கொலையா	-8288
▁தற்கொலையை	-8289
▁தவிர்ப்பு	-8290
▁தாமிரபரணி	-8291
▁தினத்தில்	-8292
▁திருக்குற	-8293
▁திரும்பப்	-8294
▁தீயணைப்பு	-8295
▁தெரிவிக்க	-8296
▁தேதிகளில்	-8297
▁தொழிலாளர்	-8298
▁நண்பர்கள்	-8299
▁நவம்பரில்	-8300
▁நெடுவாசல்	-8301
▁பகுதியில்	-8302
▁பணிப்பெண்	-8303
▁பறக்கலாம்	-8304
▁பள்ளிக்கு	-8305
▁பழங்குடிய	-8306
▁பாய்ந்தது	-8307
▁பேரணியில்	-8308
▁பொதுப்பணி	-8309
▁பொன்னையன்	-8310
▁பொருட்களை	-8311
▁பொருளாளர்	-8312
▁போறீங்களா	-8313
▁மகாபாரதம்	-8314
▁மதுரைக்கு	-8315
▁மனிதநேயம்	-8316
▁மறைந்தார்	-8317
▁மறைவுக்கு	-8318
▁முகஸ்டாலி	-8319
▁முத்தரசன்	-8320
▁முன்னேற்ற	-8321
▁முற்றுகைய	-8322
▁மைத்ரேயன்	-8323
▁மையத்தில்	-8324
▁மோகன்லாலை	-8325
▁மோடியுடன்	-8326
▁ரிலையன்ஸ்	-8327
▁வரலக்ஷ்மி	-8328
▁வாரத்தில்	-8329
▁வாழ்த்திய	-8330
▁வாஷிங்டன்	-8331
▁விளம்பரம்	-8332
▁விவரங்கள்	-8333
▁வேடமிட்டு	-8334
டுத்துகிறது	-8335
த்துறையினர்	-8336
விடுவார்கள்	-8337
▁அச்சத்தில்	-8338
▁அதிகாரிகளை	-8339
▁அமெரிக்கப்	-8340
▁அமைப்பாளர்	-8341
▁அமைப்பினர்	-8342
▁அளிக்கிறது	-8343
▁இருக்கிறதா	-8344
▁உருவாக்கிய	-8345
▁எம்ஆர்விஜய	-8346
▁ஏழைகளுக்கு	-8347
▁ஓஎஸ்மணியன்	-8348
▁கண்கலங்கிய	-8349
▁கண்டுகொள்ள	-8350
▁கன்னத்தில்	-8351
▁கலாச்சாரம்	-8352
▁காதலிக்காக	-8353
▁காற்றழுத்த	-8354
▁குகைக்குள்	-8355
▁குறிவைத்து	-8356
▁குவைத்தில்	-8357
▁கேமராக்கள்	-8358
▁கோரிக்கையை	-8359
▁சங்கத்தின்	-8360
▁சங்கமித்ரா	-8361
▁சடலத்துடன்	-8362
▁சந்திரசேகர	-8363
▁சாய்த்தார்	-8364
▁சிக்கினார்	-8365
▁சினிமாவின்	-8366
▁சுங்கச்சாவ	-8367
▁சுற்றுச்சூ	-8368
▁சூர்யாவின்	-8369
▁செயல்படும்	-8370
▁செய்கிறார்	-8371
▁ஜெயராமனின்	-8372
▁டிசம்பரில்	-8373
▁தகுதிநீக்க	-8374
▁தண்டனைக்கு	-8375
▁தலைவரானார்	-8376
▁தாய்ப்பால்	-8377
▁திமுகவினர்	-8378
▁த்ரிஷாவின்	-8379
▁நடிகையுடன்	-8380
▁நல்லடக்கம்	-8381
▁பயணிக்கும்	-8382
▁பல்கலையில்	-8383
▁பாகிஸ்தானை	-8384
▁பிரதமரிடம்	-8385
▁பிரான்ஸில்	-8386
▁பிரிவுக்கு	-8387
▁புத்தகத்தை	-8388
▁பெத்துராஜ்	-8389
▁போக்சோவில்	-8390
▁மதுக்கடையை	-8391
▁மனம்திறந்த	-8392
▁மாதங்களில்	-8393
▁முன்ஜாமீன்	-8394
▁மும்பைக்கு	-8395
▁மூடப்படும்	-8396
▁மூதாட்டியை	-8397
▁மெட்ரோவில்	-8398
▁யாருக்கும்	-8399
▁ராஜ்குமார்	-8400
▁ரூபாய்க்கு	-8401
▁ரெட்டிக்கு	-8402
▁வரவேண்டாம்	-8403
▁விக்கெட்டை	-8404
▁விமானநிலைய	-8405
▁விமானப்படை	-8406
▁விளாசினார்	-8407
▁விழுந்தார்	-8408
▁ஷாருக்கான்	-8409
ந்திருக்கும்	-8410
▁அகற்றுங்கள்	-8411
▁அமைச்சரவைக்	-8412
▁அர்ஜெண்டினா	-8413
▁அறிவித்தார்	-8414
▁ஆசிரியர்களை	-8415
▁இடஒதுக்கீடு	-8416
▁இடம்பிடித்த	-8417
▁இணைப்புக்கு	-8418
▁இன்ஸ்டாகிரா	-8419
▁இருக்கிறாரா	-8420
▁உத்தரவுக்கு	-8421
▁எம்ஜேஅக்பர்	-8422
▁ஓட்டுநர்கள்	-8423
▁கடற்கரையில்	-8424
▁கலிபோர்னியா	-8425
▁களமிறங்கும்	-8426
▁கவலைக்கிடம்	-8427
▁காவிரிக்காக	-8428
▁சிறைபிடித்த	-8429
▁சுதந்திரமாக	-8430
▁செல்லவில்லை	-8431
▁திட்டியதால்	-8432
▁திருவள்ளூர்	-8433
▁தேசியக்கொடி	-8434
▁தொகுப்பாளர்	-8435
▁நடுக்கடலில்	-8436
▁நொறுங்கியது	-8437
▁பட்ஜெட்டில்	-8438
▁பனிப்பொழிவு	-8439
▁பார்த்திபன்	-8440
▁பிசிசிஐக்கு	-8441
▁மண்டியிட்டு	-8442
▁மதுபோதையில்	-8443
▁மாட்டார்கள்	-8444
▁மாரடைப்பால்	-8445
▁மீனவர்களின்	-8446
▁விடமாட்டோம்	-8447
▁விடுதலைக்கு	-8448
▁விமானத்தின்	-8449
▁அதிமுகவுக்கு	-8450
▁அரவிந்த்சாமி	-8451
▁அருங்காட்சிய	-8452
▁இளம்பெண்ணைக்	-8453
▁உம்மன்சாண்டி	-8454
▁உருக்குலைந்த	-8455
▁எதிர்க்கட்சி	-8456
▁எந்திரத்தில்	-8457
▁எம்எல்ஏக்களை	-8458
▁ஐதராபாத்தில்	-8459
▁கிரிக்கெட்டை	-8460
▁குறிவைக்கும்	-8461
▁குழந்தைகளின்	-8462
▁கொள்ளையடிக்க	-8463
▁சட்டீஸ்கரில்	-8464
▁டிஎன்பிஎஸ்சி	-8465
▁தீர்ப்புக்கு	-8466
▁நாற்காலியில்	-8467
▁நிறுவனத்தின்	-8468
▁பத்திரிகையாள	-8469
▁பன்னீர்செல்வ	-8470
▁பிரதேசத்தில்	-8471
▁புத்தகத்தில்	-8472
▁போட்டியிடும்	-8473
▁போட்டியிலும்	-8474
▁மனுத்தாக்கல்	-8475
▁முன்னிலையில்	-8476
▁மெல்போர்னில்	-8477
▁வாழ்க்கையின்	-8478
▁விடைபெற்றார்	-8479
▁விண்வெளிக்கு	-8480
▁வீராங்கனைகள்	-8481
▁வெட்டிக்கொலை	-8482
▁ஸ்டாலினுக்கு	-8483
▁உரிமையாளர்கள்	-8484
▁ஏர்போர்ட்டில்	-8485
▁ஒலிம்பிக்கில்	-8486
▁ஒழிப்புத்துறை	-8487
▁ஓபன்னீர்செல்வ	-8488
▁காய்ச்சலுக்கு	-8489
▁காவலர்களுக்கு	-8490
▁டிடிவிதினகரன்	-8491
▁தொடங்குகிறார்	-8492
▁நிறுத்துங்கள்	-8493
▁நோட்டுகளுக்கு	-8494
▁படுகோனேவுக்கு	-8495
▁பல்கலைக்கழகம்	-8496
▁பெங்களூருவில்	-8497
▁போராட்டக்குழு	-8498
▁முறியடித்தார்	-8499
▁வாகனங்களுக்கு	-8500
▁வீராங்கனைக்கு	-8501
▁வைத்திலிங்கம்	-8502
▁அலுவலகத்துக்கு	-8503
▁ஜல்லிக்கட்டில்	-8504
▁திறக்கப்பட்டது	-8505
▁பதவியிலிருந்து	-8506
▁பொதுச்செயலாளர்	-8507
▁மாற்றுத்திறனாள	-8508
▁எதிர்பார்க்கும்	-8509
▁நிதியமைச்சர்கள்	-8510
▁புகாருக்குள்ளான	-8511
▁பொதுப்பணித்துறை	-8512
62	-8513
ஜத	-8514
டீ	-8515
ந்	-8516
மன	-8517
யை	-8518
லெ	-8519
வச	-8520
ோட	-8521
்ப	-8522
250	-8523
கனை	-8524
கான	-8525
ஜனை	-8526
டாக	-8527
த்ர	-8528
நாத	-8529
னார	-8530
னிஷ	-8531
பால	-8532
பிந	-8533
மதா	-8534
மனு	-8535
மலை	-8536
யான	-8537
றுவ	-8538
லகண	-8539
லனா	-8540
லனை	-8541
லஸ்	-8542
ளான	-8543
ள்த	-8544
வனை	-8545
ஷண்	-8546
ஸம்	-8547
ிகர	-8548
ிரோ	-8549
ீட்	-8550
ெச்	-8551
ெழு	-8552
▁59	-8553
▁61	-8554
▁62	-8555
▁71	-8556
▁82	-8557
▁ஆழ	-8558
▁உச	-8559
▁கய	-8560
▁நள	-8561
▁பள	-8562
▁ரு	-8563
▁லு	-8564
▁வு	-8565
குடி	-8566
கோரி	-8567
க்ஷா	-8568
சிகா	-8569
சிக்	-8570
சின்	-8571
சிவு	-8572
சுவா	-8573
ஜெட்	-8574
ஞ்சக	-8575
டாக்	-8576
டிங்	-8577
டையை	-8578
ணையை	-8579
தானா	-8580
தாம்	-8581
துரி	-8582
த்னா	-8583
னாளி	-8584
ன்றே	-8585
பட்ச	-8586
பிஸ்	-8587
பூபா	-8588
ப்பக	-8589
மாகி	-8590
மிங்	-8591
மோகன	-8592
யூட்	-8593
ய்ன்	-8594
ரீஷ்	-8595
ரைஸ்	-8596
ரோரா	-8597
றால்	-8598
றேன்	-8599
ற்கா	-8600
ல்த்	-8601
ழக்க	-8602
வகம்	-8603
வரகொ	-8604
வாலா	-8605
விங்	-8606
விதி	-8607
விலை	-8608
வைசி	-8609
ஷிகா	-8610
ஷ்டி	-8611
ஷ்டே	-8612
ஷ்யா	-8613
ார்வ	-8614
ாலம்	-8615
ிகளே	-8616
ீரல்	-8617
ெண்ண	-8618
ையாத	-8619
ையோர	-8620
▁102	-8621
▁104	-8622
▁110	-8623
▁250	-8624
▁350	-8625
▁700	-8626
▁அநீ	-8627
▁அவை	-8628
▁ஆஃப	-8629
▁ஆதா	-8630
▁ஆரு	-8631
▁ஆறா	-8632
▁எலி	-8633
▁எவ்	-8634
▁ஏசி	-8635
▁ஓகே	-8636
▁கபா	-8637
▁கான	-8638
▁குத	-8639
▁குழ	-8640
▁சமை	-8641
▁சேக	-8642
▁சொத	-8643
▁ஜமை	-8644
▁ஜூன	-8645
▁டக்	-8646
▁டீச	-8647
▁தத்	-8648
▁துவ	-8649
▁நகர	-8650
▁நரச	-8651
▁நாத	-8652
▁பொற	-8653
▁மஜத	-8654
▁மெழ	-8655
▁ரசூ	-8656
▁லதா	-8657
▁வறு	-8658
▁வெத	-8659
▁ஸ்ம	-8660
▁ஸ்வ	-8661
▁ஹனி	-8662
▁ஹன்	-8663
▁ஹரி	-8664
10000	-8665
எக்ஸ்	-8666
களைப்	-8667
காரம்	-8668
சன்ஸ்	-8669
சரின்	-8670
செய்ய	-8671
ச்சுவ	-8672
ச்செழ	-8673
டுங்க	-8674
ண்யம்	-8675
தாரம்	-8676
பட்டு	-8677
பாலின	-8678
பாஸ்க	-8679
ப்பாட	-8680
மரியா	-8681
யராஜ்	-8682
ர்மாக	-8683
லத்தை	-8684
ல்கனி	-8685
ளியல்	-8686
வாங்க	-8687
வியாக	-8688
விற்க	-8689
வூதிய	-8690
ஷ்டம்	-8691
ாக்ஷி	-8692
ாதுரை	-8693
ாப்பு	-8694
ிக்கா	-8695
ியைக்	-8696
ியோடு	-8697
ில்பா	-8698
ில்லு	-8699
ில்லை	-8700
ெச்பி	-8701
ெருமை	-8702
ையற்ற	-8703
்ச்சி	-8704
்ட்டி	-8705
▁3000	-8706
▁அணுக	-8707
▁ஆவேச	-8708
▁இலகண	-8709
▁இழுப	-8710
▁உடனே	-8711
▁உணவை	-8712
▁ஊக்க	-8713
▁எஃப்	-8714
▁என்ஜ	-8715
▁ஏழைக	-8716
▁ஐபிஎ	-8717
▁ஒருவ	-8718
▁கடமை	-8719
▁கதவை	-8720
▁கமலை	-8721
▁கலவர	-8722
▁குடை	-8723
▁குமு	-8724
▁கூலி	-8725
▁கேப்	-8726
▁கேலி	-8727
▁கோக்	-8728
▁சாஹா	-8729
▁சிதை	-8730
▁சீக்	-8731
▁சூறை	-8732
▁ஜில்	-8733
▁ஜீரோ	-8734
▁ஜொலி	-8735
▁டிரெ	-8736
▁டூரி	-8737
▁தடால	-8738
▁தனது	-8739
▁திமி	-8740
▁துடி	-8741
▁தெரு	-8742
▁நட்ப	-8743
▁நாகா	-8744
▁நாடோ	-8745
▁நாயக	-8746
▁நாலு	-8747
▁நிகி	-8748
▁நின்	-8749
▁நிபா	-8750
▁நீடி	-8751
▁நீரி	-8752
▁நூலி	-8753
▁நேரு	-8754
▁பதாக	-8755
▁பன்ற	-8756
▁பயம்	-8757
▁பாஇர	-8758
▁பாலூ	-8759
▁பியா	-8760
▁புடி	-8761
▁பூனை	-8762
▁பொறி	-8763
▁ப்ரீ	-8764
▁மச்ச	-8765
▁மய்ய	-8766
▁மிகு	-8767
▁மிதி	-8768
▁ரசகு	-8769
▁லூகா	-8770
▁லைசெ	-8771
▁வசிய	-8772
▁வடிவ	-8773
▁வலம்	-8774
▁வாழை	-8775
▁விளி	-8776
▁விழி	-8777
▁வெல்	-8778
▁ஷேர்	-8779
▁ஸ்கு	-8780
▁ஸ்டே	-8781
▁ஸ்வீ	-8782
▁ஹனன்	-8783
▁ஹாஜி	-8784
▁ஹாப்	-8785
▁ஹார்	-8786
▁ஹிட்	-8787
ஆயிரம்	-8788
களிடம்	-8789
கைக்கு	-8790
க்கரம்	-8791
க்கானி	-8792
க்குத்	-8793
க்கேல்	-8794
ங்களாக	-8795
ச்சுவை	-8796
ச்சைத்	-8797
டியாய்	-8798
டெஸ்ட்	-8799
டைந்து	-8800
ட்போம்	-8801
ட்ரிச்	-8802
திலும்	-8803
த்தமாக	-8804
த்தையே	-8805
னாய்வு	-8806
னாலும்	-8807
னையும்	-8808
பாண்டி	-8809
ப்போரா	-8810
ப்ரீத்	-8811
மளித்த	-8812
மானில்	-8813
ரங்கம்	-8814
ரிமையை	-8815
ருதின்	-8816
ருதீன்	-8817
ர்களாக	-8818
ர்ஜித்	-8819
றுத்தி	-8820
லிங்ஸ்	-8821
லும்பு	-8822
ழுத்தி	-8823
வாக்கு	-8824
விலேயே	-8825
ஸூக்கு	-8826
ஸ்சிங்	-8827
ஸ்டீன்	-8828
ார்களை	-8829
ார்க்க	-8830
ின்கள்	-8831
்களில்	-8832
▁40000	-8833
▁அங்கீ	-8834
▁அசோக்	-8835
▁அய்யா	-8836
▁அரோரா	-8837
▁அறியா	-8838
▁ஆக்ஸ்	-8839
▁ஆச்சு	-8840
▁ஆம்னி	-8841
▁ஆரம்ப	-8842
▁ஆவின்	-8843
▁இன்றி	-8844
▁இயற்க	-8845
▁இரானி	-8846
▁உசேன்	-8847
▁உலகம்	-8848
▁எதிரி	-8849
▁ஒடிஷா	-8850
▁ஒத்து	-8851
▁கம்பெ	-8852
▁கருண்	-8853
▁கல்லெ	-8854
▁கவுன்	-8855
▁காதலை	-8856
▁கிளப்	-8857
▁கீதம்	-8858
▁குதிர	-8859
▁குரேஷ	-8860
▁கூடிய	-8861
▁கொட்ட	-8862
▁கொம்ப	-8863
▁சந்தோ	-8864
▁சாதிய	-8865
▁சிவிச	-8866
▁சுந்த	-8867
▁சுமூக	-8868
▁செய்வ	-8869
▁ஜேபிந	-8870
▁தகவலை	-8871
▁தனித்	-8872
▁தபால்	-8873
▁தருண்	-8874
▁தாண்ட	-8875
▁தாம்ப	-8876
▁தேக்க	-8877
▁தோட்ட	-8878
▁நன்மை	-8879
▁நமீதா	-8880
▁நர்ஸ்	-8881
▁நளினி	-8882
▁நிம்ம	-8883
▁நெய்ம	-8884
▁நேபாள	-8885
▁பணயம்	-8886
▁பர்த்	-8887
▁பழுது	-8888
▁பாண்ட	-8889
▁பிரதி	-8890
▁பொல்ல	-8891
▁போனது	-8892
▁போனஸ்	-8893
▁போலிய	-8894
▁மங்கை	-8895
▁மதவாத	-8896
▁மதுபா	-8897
▁மனோஜ்	-8898
▁மயக்க	-8899
▁மிகப்	-8900
▁மிஷ்க	-8901
▁மீண்ட	-8902
▁மொத்த	-8903
▁மோர்க	-8904
▁ரபாடா	-8905
▁ரமேஷ்	-8906
▁ராவத்	-8907
▁வசனம்	-8908
▁வட்டா	-8909
▁வனிதா	-8910
▁வருண்	-8911
▁வழிகா	-8912
▁வழிபா	-8913
▁விறுவ	-8914
▁வீரரை	-8915
▁வேதார	-8916
கார்பன்	-8917
க்கண்ணு	-8918
க்கமும்	-8919
க்கியம்	-8920
டுகிறதா	-8921
ண்முகம்	-8922
ந்திரன்	-8923
பிடிக்க	-8924
ப்பாக்க	-8925
ப்போவது	-8926
மரியாதை	-8927
ர்களில்	-8928
லுக்காக	-8929
வரையும்	-8930
வாசிகள்	-8931
வாதிகார	-8932
வாய்ந்த	-8933
வீர்களா	-8934
ஸ்தம்பி	-8935
ெண்ணெய்	-8936
ையையும்	-8937
்கிறார்	-8938
்த்தாய்	-8939
▁அகிலேஷ	-8940
▁அசைக்க	-8941
▁அடிக்க	-8942
▁அடிச்ச	-8943
▁அறுத்த	-8944
▁அல்லாத	-8945
▁அள்ளிய	-8946
▁அழகிரி	-8947
▁அழுத்த	-8948
▁ஆகிறது	-8949
▁ஆக்ஷன்	-8950
▁ஆசியக்	-8951
▁ஆட்களை	-8952
▁ஆண்டர்	-8953
▁ஆதாரம்	-8954
▁ஆஸ்கர்	-8955
▁இசையமை	-8956
▁இடிக்க	-8957
▁இனவெறி	-8958
▁இன்டர்	-8959
▁இறப்பு	-8960
▁உச்சவர	-8961
▁உருவான	-8962
▁உலவும்	-8963
▁உள்ளதா	-8964
▁எச்சரி	-8965
▁எந்தத்	-8966
▁எரித்த	-8967
▁ஐக்கிய	-8968
▁ஒடுக்க	-8969
▁கண்ணகி	-8970
▁கரும்ப	-8971
▁கரையோர	-8972
▁கலந்து	-8973
▁கலைத்த	-8974
▁கழிவறை	-8975
▁கவிஞர்	-8976
▁காரசார	-8977
▁காலாவை	-8978
▁கிரிஜா	-8979
▁குரேஷி	-8980
▁கேட்ச்	-8981
▁கைவிரி	-8982
▁கொச்சி	-8983
▁கொடியை	-8984
▁கோலியா	-8985
▁சரணடைய	-8986
▁சவாலாக	-8987
▁சாவந்த	-8988
▁சின்ஹா	-8989
▁சிறுவய	-8990
▁தடுப்ப	-8991
▁தடைகளை	-8992
▁தந்திர	-8993
▁தரமற்ற	-8994
▁திரில்	-8995
▁துணைத்	-8996
▁தேவரகொ	-8997
▁தோட்டா	-8998
▁தோண்டி	-8999
▁நடுவர்	-9000
▁நலனில்	-9001
▁நல்லது	-9002
▁நாடகமா	-9003
▁நில்லு	-9004
▁நீளமான	-9005
▁பச்சன்	-9006
▁பண்ணிய	-9007
▁பதித்த	-9008
▁பயன்பா	-9009
▁பயப்பட	-9010
▁பராமரி	-9011
▁பலசாலி	-9012
▁பாட்ஷா	-9013
▁பாரதிய	-9014
▁பாலிவு	-9015
▁புதின்	-9016
▁புதுசா	-9017
▁புரியா	-9018
▁பூட்டி	-9019
▁பேச்சை	-9020
▁போச்சு	-9021
▁மகனின்	-9022
▁மகளையே	-9023
▁மணமகள்	-9024
▁மதிக்க	-9025
▁மயங்க்	-9026
▁மரங்கள	-9027
▁மலரும்	-9028
▁மாசுபா	-9029
▁மாட்டு	-9030
▁மாமல்ல	-9031
▁மாருதி	-9032
▁மாலிக்	-9033
▁மின்கோ	-9034
▁மின்வெ	-9035
▁மீதும்	-9036
▁முதல்க	-9037
▁முறிவு	-9038
▁மூச்சு	-9039
▁மூழ்கி	-9040
▁மெக்கா	-9041
▁ரசிகரை	-9042
▁ரஞ்சன்	-9043
▁ரெண்டு	-9044
▁லாசரஸ்	-9045
▁வயலில்	-9046
▁வலிமைய	-9047
▁வழிச்ச	-9048
▁வாயில்	-9049
▁வாழ்வா	-9050
▁வாழ்வை	-9051
▁விரக்த	-9052
▁வெளியீ	-9053
▁வெள்ளை	-9054
▁வேட்டை	-9055
▁ஷில்பா	-9056
▁ஷெரிப்	-9057
▁ஸ்ரீதே	-9058
▁ஹனுமனை	-9059
▁ஹூசைன்	-9060
▁ஹேஷ்டே	-9061
க்கோட்டை	-9062
ச்சியில்	-9063
ட்டேன்னு	-9064
ண்டார்டி	-9065
ண்ணுக்கு	-9066
திக்கும்	-9067
த்திரக்க	-9068
னியப்பன்	-9069
ப்கார்ட்	-9070
ப்ட்வேர்	-9071
ப்பகலில்	-9072
ப்பட்டதா	-9073
முறையில்	-9074
ர்மாகோல்	-9075
லாளர்கள்	-9076
லிருந்து	-9077
ளித்தார்	-9078
வைத்தார்	-9079
▁அடைத்து	-9080
▁அதிர்வு	-9081
▁அனுப்பு	-9082
▁அனுமதிய	-9083
▁அரசிடம்	-9084
▁அரிவாள்	-9085
▁அரைசதம்	-9086
▁அலங்கார	-9087
▁அழிப்பு	-9088
▁அழைப்பி	-9089
▁அவ்வளவு	-9090
▁அஷ்வினி	-9091
▁ஆட்டோவை	-9092
▁ஆலைக்கு	-9093
▁ஆஸிக்கு	-9094
▁இசையில்	-9095
▁இதுக்கு	-9096
▁இருந்தா	-9097
▁இறந்தது	-9098
▁இல்லையெ	-9099
▁இழுத்து	-9100
▁உடல்கள்	-9101
▁உத்தரகா	-9102
▁உத்தராக	-9103
▁உரிமையை	-9104
▁உர்ஜித்	-9105
▁என்னாது	-9106
▁எலும்பு	-9107
▁ஐநாவின்	-9108
▁ஒடுக்கு	-9109
▁ஓராண்டு	-9110
▁கடைசிப்	-9111
▁கடையில்	-9112
▁கமிஷனர்	-9113
▁கற்றுக்	-9114
▁கவனத்தை	-9115
▁காட்சிய	-9116
▁காப்பிய	-9117
▁கீதத்தை	-9118
▁குடித்த	-9119
▁கும்பகோ	-9120
▁குளியல்	-9121
▁கூறுவது	-9122
▁கேட்டது	-9123
▁கைதிகள்	-9124
▁கொதித்த	-9125
▁சங்கிலி	-9126
▁சந்தீப்	-9127
▁சபாநாயக	-9128
▁சாதகமான	-9129
▁சிவபெரு	-9130
▁சுவராஜ்	-9131
▁ஜவடேகர்	-9132
▁ஜாக்கிர	-9133
▁ஜூனியர்	-9134
▁ஜோதிடர்	-9135
▁டிஎஸ்பி	-9136
▁டிரம்பை	-9137
▁டிவிஎஸ்	-9138
▁டெண்டர்	-9139
▁தகர்க்க	-9140
▁தகுதிச்	-9141
▁தங்கும்	-9142
▁தடுப்பூ	-9143
▁தந்திரி	-9144
▁தரையில்	-9145
▁தற்போது	-9146
▁தலைமுடி	-9147
▁தவறாகப்	-9148
▁திமுகவை	-9149
▁திருத்த	-9150
▁திறனாளி	-9151
▁திறப்பை	-9152
▁துரோகம்	-9153
▁துறைமுக	-9154
▁துல்கர்	-9155
▁நடத்துவ	-9156
▁நடிகையை	-9157
▁நதியில்	-9158
▁நபர்கள்	-9159
▁நிபுணர்	-9160
▁நியாயமா	-9161
▁நீலகிரி	-9162
▁நெடுஞ்ச	-9163
▁நேபாளம்	-9164
▁படங்களை	-9165
▁படமாக்க	-9166
▁பன்றிக்	-9167
▁பவுலிங்	-9168
▁பால்கனி	-9169
▁பாஸ்கர்	-9170
▁பிரித்த	-9171
▁புதைத்த	-9172
▁புரட்டி	-9173
▁பெருந்த	-9174
▁பேசியது	-9175
▁பேரிடர்	-9176
▁பேருடன்	-9177
▁போகலாம்	-9178
▁போலீஸ்க	-9179
▁மகாத்மா	-9180
▁மண்ணில்	-9181
▁மதிப்பி	-9182
▁மன்சூர்	-9183
▁மராத்தா	-9184
▁மாடுகளை	-9185
▁மாறியது	-9186
▁மாஸ்டர்	-9187
▁யானைகளை	-9188
▁யாருடைய	-9189
▁ராயல்டி	-9190
▁வரவேற்க	-9191
▁வரவேற்ற	-9192
▁வர்த்தக	-9193
▁வளர்க்க	-9194
▁வளர்த்த	-9195
▁வழக்காக	-9196
▁வழியில்	-9197
▁வாய்ந்த	-9198
▁விதிமீற	-9199
▁விமானக்	-9200
▁விருப்ப	-9201
▁விவேகான	-9202
▁வைக்கம்	-9203
▁வைத்தது	-9204
▁ஸ்டீபன்	-9205
▁ஸ்பைடர்	-9206
▁ஹன்சிகா	-9207
க்காய்ச்ச	-9208
க்குங்கள்	-9209
த்துள்ளது	-9210
நிகழ்ச்சி	-9211
ப்பணியில்	-9212
ப்பெண்கள்	-9213
ஸ்திரிகள்	-9214
ிக்கொண்டு	-9215
ெடுக்கும்	-9216
▁அடிப்படை	-9217
▁அணியினர்	-9218
▁அன்பழகன்	-9219
▁அமைகிறது	-9220
▁அம்பத்தி	-9221
▁அவைகளும்	-9222
▁ஆணையத்தை	-9223
▁ஆயிரக்கண	-9224
▁ஆஸ்கரில்	-9225
▁இசைக்கலை	-9226
▁இணையதளம்	-9227
▁இருக்கக்	-9228
▁இருப்பது	-9229
▁இலகணேசன்	-9230
▁உணவுக்கு	-9231
▁உத்தப்பா	-9232
▁உரையாடல்	-9233
▁உலுக்கிய	-9234
▁ஊதியத்தை	-9235
▁என்னதான்	-9236
▁எம்எல்சி	-9237
▁எம்எஸ்கே	-9238
▁ஒருதலைக்	-9239
▁ஓஎன்ஜிசி	-9240
▁ஓட்டுனர்	-9241
▁ஓய்வூதிய	-9242
▁ஓரங்கட்ட	-9243
▁கடக்கும்	-9244
▁கட்டுவது	-9245
▁கழிவுகளை	-9246
▁காக்கும்	-9247
▁காணிக்கை	-9248
▁காதலரின்	-9249
▁காமெடியை	-9250
▁கார்கில்	-9251
▁காற்றின்	-9252
▁கிருஷ்ணா	-9253
▁கிளார்க்	-9254
▁குடித்து	-9255
▁குப்பைத்	-9256
▁சதத்தால்	-9257
▁சன்னிதான	-9258
▁சாக்லேட்	-9259
▁சாம்பியன	-9260
▁சீக்ரெட்	-9261
▁சுசித்ரா	-9262
▁செஞ்சுரி	-9263
▁செய்தும்	-9264
▁சேவைக்கு	-9265
▁சோனாக்ஷி	-9266
▁ஜனநாயகம்	-9267
▁டிஆர்எஸ்	-9268
▁டிராவிட்	-9269
▁டிராவில்	-9270
▁தங்கத்தை	-9271
▁தடயவியல்	-9272
▁தனுஷுடன்	-9273
▁தன்பாலின	-9274
▁தயாரிக்க	-9275
▁தரவில்லை	-9276
▁தர்மபுரி	-9277
▁தவறில்லை	-9278
▁திரட்டிய	-9279
▁தீபாவளிய	-9280
▁தேனியில்	-9281
▁தொடர்ச்ச	-9282
▁தொழிலாளி	-9283
▁தோனிதான்	-9284
▁நான்தான்	-9285
▁நியமிக்க	-9286
▁நிறுவனர்	-9287
▁பட்டியலி	-9288
▁பணிகளில்	-9289
▁பறிபோனது	-9290
▁பழங்குடி	-9291
▁பாகுபாடு	-9292
▁பாண்டிங்	-9293
▁பாஸ்போர்	-9294
▁பின்பும்	-9295
▁பிரசன்னா	-9296
▁பிரேமலதா	-9297
▁பிலிப்பை	-9298
▁புகுந்து	-9299
▁பூட்டுப்	-9300
▁பெய்ட்டி	-9301
▁பேட்ஸ்மே	-9302
▁பேருந்தை	-9303
▁போகிறோம்	-9304
▁போராடித்	-9305
▁மதச்சார்	-9306
▁மன்னிக்க	-9307
▁மரத்தில்	-9308
▁மிஸ்ராவை	-9309
▁முடித்து	-9310
▁மூழ்கும்	-9311
▁மைக்கேல்	-9312
▁மோட்ரிச்	-9313
▁ரசகுல்லா	-9314
▁ராக்கெட்	-9315
▁ரிலாக்ஸ்	-9316
▁ரூபாயில்	-9317
▁ரெக்கார்	-9318
▁லட்சத்து	-9319
▁வண்டலூர்	-9320
▁வந்ததால்	-9321
▁வளர்ப்பு	-9322
▁வாக்கிங்	-9323
▁வாசுதேவ்	-9324
▁வாழ்நாள்	-9325
▁விட்டேன்	-9326
▁விலையில்	-9327
▁விழுப்பு	-9328
▁விஹெச்பி	-9329
▁வெங்கய்ய	-9330
▁வெடிப்பு	-9331
▁வெட்டிக்	-9332
▁வெற்றிக்	-9333
▁வேலைக்கு	-9334
▁ஸ்குவாஷ்	-9335
▁ஸ்ரீதரன்	-9336
ட்டாளர்கள்	-9337
த்துறையின்	-9338
த்ராவுக்கு	-9339
ஸ்வரத்தில்	-9340
ிருக்காங்க	-9341
்க்கவில்லை	-9342
▁அசாருதீன்	-9343
▁அண்டார்டி	-9344
▁அண்ணாதுரை	-9345
▁அதிகரித்த	-9346
▁அனிதாவின்	-9347
▁அனைத்துக்	-9348
▁அலைமோதும்	-9349
▁அளிக்கும்	-9350
▁ஆணவக்கொலை	-9351
▁ஆயுதங்கள்	-9352
▁ஆர்வமுடன்	-9353
▁ஆஸிடெஸ்ட்	-9354
▁இணைந்தார்	-9355
▁இயக்குனரை	-9356
▁இறக்குமதி	-9357
▁ஊழியர்களை	-9358
▁எச்சரிக்க	-9359
▁எரிபொருள்	-9360
▁கருப்புப்	-9361
▁கவனக்குறை	-9362
▁காதலர்களை	-9363
▁காயத்தால்	-9364
▁கிரிமினல்	-9365
▁கிருஷ்ணன்	-9366
▁குட்டிகள்	-9367
▁குல்பூஷண்	-9368
▁குழந்தைக்	-9369
▁கொடுப்பது	-9370
▁கோடிகளில்	-9371
▁சஸ்பென்ஸ்	-9372
▁சாதனைக்கு	-9373
▁சிக்கித்த	-9374
▁சிலிர்க்க	-9375
▁சுகாதாரப்	-9376
▁செய்கிறது	-9377
▁செய்துள்ள	-9378
▁சொத்துகள்	-9379
▁ஜேபிநட்டா	-9380
▁தடுமாறும்	-9381
▁தமிழகமும்	-9382
▁தமிழர்களை	-9383
▁தீப்பற்றி	-9384
▁தொடர்பில்	-9385
▁தோனியிடம்	-9386
▁நகைச்சுவை	-9387
▁நடத்தியது	-9388
▁நடைபெறும்	-9389
▁நலத்திட்ட	-9390
▁நாடோடிகள்	-9391
▁நினைவேந்த	-9392
▁நிரூபித்த	-9393
▁நிறைவேற்ற	-9394
▁நிலத்தில்	-9395
▁நெகிழ்ந்த	-9396
▁பதக்கத்தை	-9397
▁பதவிக்கால	-9398
▁பராமரிக்க	-9399
▁பரிவர்த்த	-9400
▁பறிபோகும்	-9401
▁பார்வையிட	-9402
▁பிரபாஸின்	-9403
▁புகார்களை	-9404
▁புலனாய்வு	-9405
▁பெறப்பட்ட	-9406
▁பெல்ஜியம்	-9407
▁பைக்குகள்	-9408
▁போடப்பட்ட	-9409
▁மக்களிடம்	-9410
▁மட்டுமல்ல	-9411
▁மழையிலும்	-9412
▁மாஸ்டர்ஸ்	-9413
▁மிதக்கும்	-9414
▁முகத்தில்	-9415
▁முன்னேறிய	-9416
▁மூட்டைகள்	-9417
▁வங்கியின்	-9418
▁வயிற்றில்	-9419
▁வருடங்கள்	-9420
▁வாகனங்கள்	-9421
▁வாக்குவாத	-9422
▁விநியோகம்	-9423
▁விருதுகள்	-9424
▁விரும்பிய	-9425
▁விழுந்தது	-9426
▁வெங்கய்யா	-9427
▁வெதர்மேன்	-9428
▁வெளிநாட்ட	-9429
▁வேட்புமனு	-9430
▁வேண்டியது	-9431
▁வையுங்கள்	-9432
▁ஹிட்லரின்	-9433
ற்றினார்கள்	-9434
வர்களுக்காக	-9435
▁அசத்தினார்	-9436
▁அதிரடியாய்	-9437
▁அந்தமானில்	-9438
▁அன்புச்செழ	-9439
▁அமர்வுக்கு	-9440
▁அம்பேத்கர்	-9441
▁அயர்லாந்து	-9442
▁ஆஸிகேப்டன்	-9443
▁இணையதளத்தை	-9444
▁உத்தரவிட்ட	-9445
▁எதிர்ப்பது	-9446
▁என்பதுதான்	-9447
▁எம்ஜிஆரின்	-9448
▁எம்பிபிஎஸ்	-9449
▁ஐபிஎல்லில்	-9450
▁கடலுக்குள்	-9451
▁கட்சிகளின்	-9452
▁கழிவறையில்	-9453
▁கவிழ்ந்தது	-9454
▁காட்டெருமை	-9455
▁காவல்துறைய	-9456
▁கிடைக்குமா	-9457
▁குதித்தார்	-9458
▁கைப்பற்றிய	-9459
▁கையெழுத்தி	-9460
▁கொடுத்தவர்	-9461
▁கொதிக்கும்	-9462
▁சர்வாதிகார	-9463
▁சாதனையாளர்	-9464
▁சினிமாவில்	-9465
▁சுனாமிக்கு	-9466
▁சுற்றுப்பய	-9467
▁சூட்டிற்கு	-9468
▁செப்டம்பர்	-9469
▁ஜெயிக்கும்	-9470
▁டெல்லிக்கு	-9471
▁ட்ரெண்டிங்	-9472
▁ட்ரெண்டில்	-9473
▁தலைவருக்கு	-9474
▁திருப்பூர்	-9475
▁தெர்மாகோல்	-9476
▁தெலுங்கில்	-9477
▁தேவரகொண்டா	-9478
▁தொண்டர்களை	-9479
▁தொல்லைக்கு	-9480
▁நடத்துவோம்	-9481
▁நவராத்திரி	-9482
▁நாளைக்குள்	-9483
▁நிரந்தரமாக	-9484
▁நிரம்பியது	-9485
▁நிற்கிறேன்	-9486
▁நூலிழையில்	-9487
▁நெல்லித்தோ	-9488
▁பணிகளுக்கு	-9489
▁பறக்கவிட்ட	-9490
▁பள்ளத்தில்	-9491
▁பாஇரஞ்சித்	-9492
▁பார்க்கிங்	-9493
▁பிறந்தநாளை	-9494
▁பொல்லார்ட்	-9495
▁போட்டிக்கு	-9496
▁மறுபடியும்	-9497
▁மாட்டுக்கு	-9498
▁மாளிகையில்	-9499
▁மாவோயிஸ்ட்	-9500
▁முடக்கியது	-9501
▁முயற்சித்த	-9502
▁மெல்போர்ன்	-9503
▁வங்கிகளில்	-9504
▁வாக்களித்த	-9505
▁வாழ்க்கைக்	-9506
▁விஜயகுமார்	-9507
▁விண்ணப்பம்	-9508
▁விரும்பும்	-9509
▁விளிம்பில்	-9510
▁விவகாரத்தை	-9511
▁விஷாலுக்கு	-9512
▁வெற்றியில்	-9513
▁வேதாரண்யம்	-9514
▁வைகோவுக்கு	-9515
▁ஷாரூக்கான்	-9516
க்கோட்டையில்	-9517
ப்படுத்துவதா	-9518
ப்படுத்துவது	-9519
▁அதிகாரியின்	-9520
▁அதிமுகவினர்	-9521
▁அமைச்சரிடம்	-9522
▁அவமானத்தால்	-9523
▁அஸ்வினுக்கு	-9524
▁இருக்கிறோம்	-9525
▁உள்ளிட்டோர்	-9526
▁எழுதிவிட்டு	-9527
▁கரம்பிடித்த	-9528
▁கலாய்க்கும்	-9529
▁காட்டுகிறது	-9530
▁காத்திருக்க	-9531
▁காமன்வெல்த்	-9532
▁கிருஷ்ணசாமி	-9533
▁குழந்தையின்	-9534
▁கூவத்தூரில்	-9535
▁கேரளாவிற்கு	-9536
▁சந்திக்கும்	-9537
▁சமுத்திரக்க	-9538
▁சாம்பியன்ஸ்	-9539
▁சிறுவனுக்கு	-9540
▁செயலகத்தில்	-9541
▁செயலாளர்கள்	-9542
▁செல்போன்கள்	-9543
▁சொல்வார்கள்	-9544
▁தன்னம்பிக்க	-9545
▁தமிழ்த்தாய்	-9546
▁தற்கொலையில்	-9547
▁திருமலையில்	-9548
▁தீக்குளித்த	-9549
▁நம்பிக்கையை	-9550
▁நாடுகளுக்கு	-9551
▁நியமனத்தில்	-9552
▁நிர்மலாதேவி	-9553
▁நீதிபதிக்கு	-9554
▁நீர்திறப்பு	-9555
▁படுகோனேவின்	-9556
▁பழிவாங்கும்	-9557
▁பாராட்டுகள்	-9558
▁புகழ்கிறார்	-9559
▁புறக்கணிக்க	-9560
▁புறக்கணித்த	-9561
▁பெற்றோர்கள்	-9562
▁பேசக்கூடாது	-9563
▁போட்டுடைத்த	-9564
▁முதல்வரிடம்	-9565
▁முயற்சியால்	-9566
▁முஸ்லிம்கள்	-9567
▁மேற்பட்டோர்	-9568
▁ரம்யாவுக்கு	-9569
▁ரவிசங்கரின்	-9570
▁வாழ்த்துகள்	-9571
▁விம்பிள்டன்	-9572
▁விற்கப்பட்ட	-9573
▁அடிப்படையில்	-9574
▁அப்துல்கலாம்	-9575
▁அமைச்சருக்கு	-9576
▁அர்ச்சகர்கள்	-9577
▁ஆத்திரத்தில்	-9578
▁இணையதளத்தில்	-9579
▁இயந்திரங்கள்	-9580
▁எடுக்கப்பட்ட	-9581
▁காப்பகத்தில்	-9582
▁குடியிருப்பு	-9583
▁கைகோர்க்கும்	-9584
▁சங்கத்துக்கு	-9585
▁சிகிச்சைக்கு	-9586
▁சிசிடிவியில்	-9587
▁சிறைபிடிப்பு	-9588
▁சிவிசண்முகம்	-9589
▁செய்துவிட்டு	-9590
▁டிராவிட்டின்	-9591
▁தத்தளிக்கும்	-9592
▁தருமபுரியில்	-9593
▁தர்மபுரியில்	-9594
▁தாய்லாந்தில்	-9595
▁திருச்சியில்	-9596
▁திரையரங்கில்	-9597
▁திறக்கப்பட்ட	-9598
▁தீவிரமடையும்	-9599
▁துணைத்தலைவர்	-9600
▁தொலைபேசியில்	-9601
▁நிறுத்தினார்	-9602
▁நிலையங்களில்	-9603
▁நீதிமன்றத்தை	-9604
▁பசிதம்பரத்தை	-9605
▁பட்டப்பகலில்	-9606
▁பதவியேற்றார்	-9607
▁பயன்படுத்தக்	-9608
▁பயன்படுத்துவ	-9609
▁பாடலாசிரியர்	-9610
▁பாதுகாப்பில்	-9611
▁பார்க்கிறேன்	-9612
▁மணிநேரத்தில்	-9613
▁மதுக்கடைக்கு	-9614
▁மாணவிகளுக்கு	-9615
▁முதல்முறையாக	-9616
▁லட்சத்திற்கு	-9617
▁வருத்தத்தில்	-9618
▁விக்ரமசிங்கே	-9619
▁விராத்துக்கு	-9620
▁வெளியிட்டார்	-9621
▁ஸ்ரீதேவியின்	-9622
▁இளைஞர்களுக்கு	-9623
▁கட்டாயமாகிறது	-9624
▁கமல்ஹாசனுக்கு	-9625
▁கீழ்ப்பாக்கம்	-9626
▁கொடுக்காததால்	-9627
▁சட்டப்பேரவைக்	-9628
▁சந்திராவுக்கு	-9629
▁சம்பாதிக்கும்	-9630
▁சிங்கப்பூரில்	-9631
▁சினிமாவாகிறது	-9632
▁சுகாதாரத்துறை	-9633
▁சுட்டுக்கொன்ற	-9634
▁சுற்றுச்சூழல்	-9635
▁சேதப்படுத்திய	-9636
▁தமிழர்களுக்கு	-9637
▁தெரியப்படுத்த	-9638
▁நடவடிக்கைக்கு	-9639
▁நிதியமைச்சகம்	-9640
▁பக்தர்களுக்கு	-9641
▁பங்கேற்கிறார்	-9642
▁பயங்கரவாதத்தை	-9643
▁பாதுகாக்கப்பட	-9644
▁பாதுகாப்பானது	-9645
▁பார்க்கவில்லை	-9646
▁புரிந்துகொள்ள	-9647
▁பெங்களூருக்கு	-9648
▁மகிழ்ச்சியில்	-9649
▁மகேஷ்பாபுவின்	-9650
▁மலைப்பாதையில்	-9651
▁மாநிலத்திற்கு	-9652
▁மீட்கப்பட்டது	-9653
▁முற்றுகையிட்ட	-9654
▁மூடப்படுகிறது	-9655
▁வந்துட்டேன்னு	-9656
▁விளக்குகிறார்	-9657
▁ஹைட்ரோகார்பன்	-9658
▁அதிகாரிகளுக்கு	-9659
▁எம்எல்ஏக்களின்	-9660
▁கிராமங்களுக்கு	-9661
▁குடும்பத்துடன்	-9662
▁சகோதரர்களுக்கு	-9663
▁சர்ச்சைக்குரிய	-9664
▁சிலிர்க்கிறார்	-9665
▁தீர்மானிக்கும்	-9666
▁தொழிலாளர்களின்	-9667
▁நெடுஞ்சாலையில்	-9668
▁பணமதிப்பிழப்பை	-9669
▁பன்றிக்காய்ச்ச	-9670
▁பொறுப்பேற்றார்	-9671
▁போட்டியிடுவேன்	-9672
▁மனிதாபிமானமற்ற	-9673
▁மார்க்கெட்டில்	-9674
▁முதலமைச்சருடன்	-9675
▁ஹெச்ராஜாவுக்கு	-9676
▁அலங்காநல்லூரில்	-9677
▁ஆசிரியர்களுக்கு	-9678
▁ஆப்கானிஸ்தானில்	-9679
▁இந்தியர்களுக்கு	-9680
▁ஒளிந்திருக்கும்	-9681
▁கட்டுப்பாட்டில்	-9682
▁காட்சியளிக்கும்	-9683
▁கேஎல்ராகுலுக்கு	-9684
▁சட்டப்பேரவையில்	-9685
▁சப்இன்ஸ்பெக்டர்	-9686
▁திரையரங்குகளில்	-9687
▁மடக்கிப்பிடித்த	-9688
▁மாமல்லபுரத்தில்	-9689
▁முஸ்லிம்களுக்கு	-9690
▁விளம்பரப்படுத்த	-9691
▁வெளிச்சத்திற்கு	-9692
28	-9693
35	-9694
37	-9695
75	-9696
97	-9697
99	-9698
இஓ	-9699
கீ	-9700
ஜு	-9701
தொ	-9702
னீ	-9703
னெ	-9704
ரக	-9705
றே	-9706
வட	-9707
300	-9708
700	-9709
கதீ	-9710
கிய	-9711
கீழ	-9712
கேன	-9713
சுவ	-9714
ஜ்க	-9715
டான	-9716
ணுக	-9717
தழை	-9718
நடி	-9719
னரா	-9720
னான	-9721
னாள	-9722
பலி	-9723
ரவ்	-9724
லன்	-9725
லரி	-9726
லறை	-9727
ளரை	-9728
ளிர	-9729
வகை	-9730
வடை	-9731
வளை	-9732
வழி	-9733
வீன	-9734
ஷ்ம	-9735
ஹல்	-9736
ாகோ	-9737
ாரெ	-9738
ிம்	-9739
ீல்	-9740
ுகி	-9741
ைம்	-9742
ையு	-9743
ோவி	-9744
்கோ	-9745
்பக	-9746
்யா	-9747
▁44	-9748
▁55	-9749
▁57	-9750
▁94	-9751
▁அஜ	-9752
▁ஆம	-9753
▁உன	-9754
▁உழ	-9755
▁ஓட	-9756
▁சய	-9757
▁யம	-9758
▁லோ	-9759
▁வொ	-9760
அரசு	-9761
ஐஆர்	-9762
கட்ட	-9763
கிடு	-9764
குல்	-9765
சாஜ்	-9766
சிடி	-9767
ச்சொ	-9768
ஜித்	-9769
டுபட	-9770
ணாப்	-9771
ணுகா	-9772
தமான	-9773
தானே	-9774
தாரி	-9775
தீஷ்	-9776
ந்தை	-9777
னான்	-9778
ன்கு	-9779
பாலை	-9780
பிரி	-9781
பேஷ்	-9782
போதே	-9783
போதை	-9784
ப்து	-9785
ப்ளே	-9786
மட்ட	-9787
மண்ட	-9788
மானை	-9789
மிகா	-9790
மிரா	-9791
முறு	-9792
முல்	-9793
மேடு	-9794
ம்பழ	-9795
யிலா	-9796
ய்ரா	-9797
ரகர்	-9798
ராணி	-9799
ருகே	-9800
ருடை	-9801
ரோஜா	-9802
ர்வை	-9803
லைவன	-9804
ளாப்	-9805
ளைட்	-9806
ள்ளன	-9807
ள்ளா	-9808
ழுதி	-9809
விதா	-9810
வியூ	-9811
விஸ்	-9812
வுன்	-9813
வையை	-9814
ஷான்	-9815
ஷின்	-9816
ஷ்கு	-9817
ஸ்டோ	-9818
ிருப	-9819
ிறவி	-9820
ுக்க	-9821
ுவலி	-9822
ென்ன	-9823
ைகள்	-9824
்திக	-9825
▁101	-9826
▁125	-9827
▁128	-9828
▁157	-9829
▁170	-9830
▁281	-9831
▁546	-9832
▁அத்	-9833
▁அபு	-9834
▁அமள	-9835
▁அமி	-9836
▁ஆகா	-9837
▁ஆகி	-9838
▁ஆணை	-9839
▁ஆனா	-9840
▁ஊரு	-9841
▁ஏகே	-9842
▁ஏறு	-9843
▁ஐன்	-9844
▁ஐரா	-9845
▁ஓம்	-9846
▁கன்	-9847
▁குற	-9848
▁குல	-9849
▁கைய	-9850
▁சத்	-9851
▁சறு	-9852
▁சாண	-9853
▁சூற	-9854
▁செள	-9855
▁ஜவு	-9856
▁ஜாத	-9857
▁டைர	-9858
▁தம்	-9859
▁தரா	-9860
▁தார	-9861
▁தாள	-9862
▁தீர	-9863
▁தூத	-9864
▁பலூ	-9865
▁பலே	-9866
▁பாப	-9867
▁போப	-9868
▁மஜீ	-9869
▁மடா	-9870
▁மதக	-9871
▁யுஏ	-9872
▁யுக	-9873
▁ரகள	-9874
▁ரிக	-9875
▁லக்	-9876
▁வசன	-9877
▁வசு	-9878
▁வசை	-9879
▁ஹாத	-9880
ஃபோர்	-9881
இங்கி	-9882
எம்சி	-9883
கீழாக	-9884
க்கக்	-9885
ங்காய	-9886
சரிதை	-9887
சாமிய	-9888
சாயம்	-9889
சினஸ்	-9890
சிப்ப	-9891
சென்ன	-9892
செய்த	-9893
ச்சிய	-9894
ஜெயம்	-9895
டலாமா	-9896
டாதது	-9897
டிஆர்	-9898
டியான	-9899
டீசர்	-9900
டையாக	-9901
துவாக	-9902
தையாக	-9903
ந்தரா	-9904
னிவர்	-9905
னெஸ்க	-9906
ன்மர்	-9907
ன்றிய	-9908
பதியை	-9909
பராதி	-9910
பிஎப்	-9911
பின்ன	-9912
பிரபு	-9913
பெயர்	-9914
ப்பரி	-9915
ப்பறை	-9916
மலின்	-9917
மாற்ற	-9918
முடிய	-9919
முன்ன	-9920
ம்பிய	-9921
ரமில்	-9922
ரல்ஸ்	-9923
ருங்க	-9924
ர்ஷன்	-9925
றுக்க	-9926
லரில்	-9927
லுறவு	-9928
ல்பம்	-9929
ழும்ப	-9930
வடிவு	-9931
வனின்	-9932
வர்ட்	-9933
வீரர்	-9934
வுகள்	-9935
வையாள	-9936
ாகித்	-9937
ானின்	-9938
ாரும்	-9939
ார்ஜு	-9940
ிக்கோ	-9941
ினேனா	-9942
ினோம்	-9943
ிரிட்	-9944
ிருமா	-9945
ிறேனா	-9946
ீஸ்வர	-9947
ுகொள்	-9948
ுவோம்	-9949
ெதிர்	-9950
▁3500	-9951
▁ஃபாச	-9952
▁ஃப்ள	-9953
▁அசல்	-9954
▁அடடா	-9955
▁அன்ன	-9956
▁அரசி	-9957
▁அரசே	-9958
▁அறம்	-9959
▁அறிய	-9960
▁அழகே	-9961
▁அழகை	-9962
▁ஆற்ற	-9963
▁ஆளான	-9964
▁இதனை	-9965
▁இவர்	-9966
▁உணவக	-9967
▁உண்ண	-9968
▁உதார	-9969
▁உஷார	-9970
▁எட்ட	-9971
▁எமிர	-9972
▁எல்க	-9973
▁ஏழும	-9974
▁ஐஎன்	-9975
▁ஐவர்	-9976
▁ஒகேன	-9977
▁கடித	-9978
▁கணேச	-9979
▁கரடி	-9980
▁கற்ற	-9981
▁கஷோக	-9982
▁கிடு	-9983
▁கிரே	-9984
▁கிழி	-9985
▁குட்	-9986
▁குழி	-9987
▁கோடா	-9988
▁கோபி	-9989
▁கோழி	-9990
▁சக்ச	-9991
▁சமம்	-9992
▁சாகச	-9993
▁சானி	-9994
▁சான்	-9995
▁சிஇஓ	-9996
▁சுசீ	-9997
▁சூசக	-9998
▁சைனா	-9999
▁ஜஸ்ட	-10000
▁ஜிகா	-10001
▁ஜிகே	-10002
▁ஜிக்	-10003
▁ஜிப்	-10004
▁ஜீவா	-10005
▁ஜெயா	-10006
▁டவர்	-10007
▁தப்ப	-10008
▁தரைத	-10009
▁தானா	-10010
▁தூதர	-10011
▁தூர்	-10012
▁தெளி	-10013
▁தேவ்	-10014
▁தொகா	-10015
▁நலக்	-10016
▁நாணய	-10017
▁நாமே	-10018
▁நெட்	-10019
▁நேசி	-10020
▁நைட்	-10021
▁பகத்	-10022
▁பயிர	-10023
▁பரிச	-10024
▁பலம்	-10025
▁பழசு	-10026
▁பாடக	-10027
▁பாடி	-10028
▁பாலா	-10029
▁பினு	-10030
▁பூமி	-10031
▁பெப்	-10032
▁போடோ	-10033
▁போஸ்	-10034
▁ப்ளே	-10035
▁மனசு	-10036
▁மல்க	-10037
▁மாகா	-10038
▁மாடி	-10039
▁மாதா	-10040
▁மானே	-10041
▁மாயா	-10042
▁மால்	-10043
▁மியா	-10044
▁மேக்	-10045
▁மோமோ	-10046
▁ரஞ்ச	-10047
▁ராஜே	-10048
▁ராணி	-10049
▁ராதா	-10050
▁லாக்	-10051
▁லாஸ்	-10052
▁லீவு	-10053
▁வடகா	-10054
▁விதை	-10055
▁விநா	-10056
▁விவி	-10057
▁வீணா	-10058
▁வெயி	-10059
▁ஸீரோ	-10060
▁ஸ்ட்	-10061
▁ஹாரி	-10062
என்என்	-10063
கதீசன்	-10064
க்கல்ல	-10065
க்காடு	-10066
க்காய்	-10067
க்கூறி	-10068
க்கொள்	-10069
க்சிஸ்	-10070
ங்காய்	-10071
ங்கின்	-10072
ங்கூர்	-10073
சந்திர	-10074
சாந்த்	-10075
சுற்று	-10076
ச்சாமி	-10077
ச்சியா	-10078
டுச்சு	-10079
டுவார்	-10080
ட்டார்	-10081
ண்கலம்	-10082
ண்டாசு	-10083
தங்களை	-10084
தியால்	-10085
த்தாடி	-10086
த்துப்	-10087
த்ரவதை	-10088
நடப்பு	-10089
ந்தாது	-10090
ந்த்ரே	-10091
பரப்பு	-10092
பாஸில்	-10093
பிக்கு	-10094
பியில்	-10095
பூரில்	-10096
போதகர்	-10097
போனில்	-10098
ப்பதிய	-10099
ப்பந்த	-10100
ப்பவரே	-10101
ப்பாய்	-10102
ப்பைக்	-10103
ப்ரைஸ்	-10104
மற்றது	-10105
மானவர்	-10106
மார்க்	-10107
முடியா	-10108
முறையை	-10109
முள்ளு	-10110
மையும்	-10111
ம்தானா	-10112
ம்தேவ்	-10113
யார்க்	-10114
யாவில்	-10115
ய்ராலா	-10116
ராகும்	-10117
ரானில்	-10118
ருக்கே	-10119
ர்கோவி	-10120
ர்வேதி	-10121
றித்து	-10122
ற்போம்	-10123
லாவில்	-10124
லெய்ட்	-10125
ளித்து	-10126
ழ்த்து	-10127
வரத்தை	-10128
விடில்	-10129
ஸுதீன்	-10130
ஸ்சில்	-10131
ஸ்டார்	-10132
ானந்த்	-10133
ாரிடம்	-10134
ிகாந்த	-10135
ினரால்	-10136
ிராவத்	-10137
ுகளின்	-10138
ுகிறதா	-10139
ுகொண்ட	-10140
ுக்காக	-10141
ெடுக்க	-10142
ேஷனில்	-10143
ோட்டம்	-10144
▁10000	-10145
▁ஃபெடர	-10146
▁ஃபேன்	-10147
▁ஃப்ளி	-10148
▁அகமதா	-10149
▁அசாம்	-10150
▁அடியை	-10151
▁ஆக்டி	-10152
▁ஆக்ரா	-10153
▁ஆசையை	-10154
▁ஆணவக்	-10155
▁ஆண்ட்	-10156
▁ஆதங்க	-10157
▁ஆதரவை	-10158
▁ஆனந்த	-10159
▁ஆன்மா	-10160
▁ஆப்தே	-10161
▁ஆயுஷ்	-10162
▁ஆயோக்	-10163
▁ஆற்றை	-10164
▁இங்கே	-10165
▁இடைவே	-10166
▁இதயம்	-10167
▁இதுவே	-10168
▁இம்சை	-10169
▁இரோம்	-10170
▁இலையை	-10171
▁உஷார்	-10172
▁எதிரே	-10173
▁என்ஐஏ	-10174
▁எருமை	-10175
▁எர்த்	-10176
▁எல்டி	-10177
▁எழும்	-10178
▁ஏதும்	-10179
▁ஒற்று	-10180
▁ஓட்டி	-10181
▁ஓய்வை	-10182
▁கச்சா	-10183
▁கண்டன	-10184
▁கதறல்	-10185
▁கதறிய	-10186
▁கதிர்	-10187
▁கன்று	-10188
▁கபில்	-10189
▁கருபழ	-10190
▁கர்ணா	-10191
▁கலகம்	-10192
▁கவிதை	-10193
▁கவின்	-10194
▁குவார	-10195
▁கூடவா	-10196
▁கெஞ்ச	-10197
▁கேலரி	-10198
▁சமுதா	-10199
▁சரோஜா	-10200
▁சவாலை	-10201
▁சாலைய	-10202
▁சிக்ஸ	-10203
▁சேதுப	-10204
▁சேஹல்	-10205
▁சொல்வ	-10206
▁ஜாபர்	-10207
▁டவுட்	-10208
▁டவுன்	-10209
▁டாய்ல	-10210
▁டிஜிப	-10211
▁டீச்ச	-10212
▁டெக்ன	-10213
▁டெண்ட	-10214
▁தடயம்	-10215
▁தத்தா	-10216
▁தப்பா	-10217
▁தரவரி	-10218
▁தரிசன	-10219
▁தருமா	-10220
▁தலையீ	-10221
▁தலைவா	-10222
▁தாங்க	-10223
▁தானம்	-10224
▁தாமரை	-10225
▁தாற்க	-10226
▁திலீப	-10227
▁தீபம்	-10228
▁தீராத	-10229
▁துப்ப	-10230
▁தென்ன	-10231
▁தொல்த	-10232
▁நடனமா	-10233
▁நடனம்	-10234
▁நடப்ப	-10235
▁நடுவே	-10236
▁நட்பை	-10237
▁நலமாக	-10238
▁நல்லா	-10239
▁நாசம்	-10240
▁நாடாக	-10241
▁நிர்ப	-10242
▁நிறம்	-10243
▁பக்தி	-10244
▁பங்கா	-10245
▁பங்க்	-10246
▁படையெ	-10247
▁பதற்ற	-10248
▁பதாகை	-10249
▁பந்தய	-10250
▁பறிகொ	-10251
▁பற்றா	-10252
▁பவார்	-10253
▁பாரத்	-10254
▁பாஸ்க	-10255
▁பிஷப்	-10256
▁புண்ப	-10257
▁புயலை	-10258
▁புல்க	-10259
▁பெரும	-10260
▁பேரன்	-10261
▁போக்க	-10262
▁போதிய	-10263
▁மகிழ்	-10264
▁மசாஜ்	-10265
▁மண்ணை	-10266
▁மனிஷா	-10267
▁மனுத்	-10268
▁மயிலா	-10269
▁மறந்த	-10270
▁மிக்க	-10271
▁மிதால	-10272
▁மீட்ப	-10273
▁மீறிய	-10274
▁முதலை	-10275
▁மூட்ட	-10276
▁மேம்ப	-10277
▁மேயாத	-10278
▁யூனிய	-10279
▁யெச்ச	-10280
▁ரகுல்	-10281
▁ரத்னா	-10282
▁ரம்பா	-10283
▁ரவிசா	-10284
▁ராஜன்	-10285
▁ராட்ச	-10286
▁ரீதிய	-10287
▁வக்கீ	-10288
▁வருதே	-10289
▁வறட்ச	-10290
▁விசாக	-10291
▁விதவை	-10292
▁விரோத	-10293
▁வெறிய	-10294
▁வைஃபை	-10295
▁ஹவாலா	-10296
▁ஹாசன்	-10297
களிலும்	-10298
கள்தான்	-10299
க்கட்டை	-10300
க்கத்தை	-10301
க்காரன்	-10302
ங்களேன்	-10303
ச்செயல்	-10304
ஞ்சர்ஸ்	-10305
டியுடன்	-10306
ட்சியர்	-10307
ட்டிக்க	-10308
தலுக்கு	-10309
தாரிகள்	-10310
தியிடம்	-10311
துகிறது	-10312
த்தினர்	-10313
நாய்கள்	-10314
ந்தாட்ட	-10315
ந்துள்ள	-10316
ந்த்ஷர்	-10317
னிவர்சி	-10318
ன்களின்	-10319
பவர்களை	-10320
பார்க்க	-10321
பிரசாத்	-10322
ப்படியே	-10323
ப்போட்ட	-10324
ப்போனது	-10325
ப்போம்ல	-10326
மங்கலம்	-10327
மாயாவதி	-10328
மீட்டர்	-10329
மையானது	-10330
ம்கட்சி	-10331
லியனின்	-10332
லியுடன்	-10333
ழ்கிறது	-10334
விருந்த	-10335
ஸுக்காக	-10336
ஸ்டபிள்	-10337
ாரிட்டி	-10338
ார்த்தன	-10339
ிக்கெட்	-10340
ியிலும்	-10341
ில்தான்	-10342
ுள்ளார்	-10343
ுள்ளேன்	-10344
ூருக்கு	-10345
ெடுத்து	-10346
▁அகவிலை	-10347
▁அகஸ்டா	-10348
▁அக்பர்	-10349
▁அசத்து	-10350
▁அடுக்க	-10351
▁அடைக்க	-10352
▁அடைத்த	-10353
▁அதற்கு	-10354
▁அனந்த்	-10355
▁அபாரம்	-10356
▁அறுவடை	-10357
▁அழைக்க	-10358
▁அஸ்வின	-10359
▁ஆகஸ்ட்	-10360
▁ஆண்கள்	-10361
▁ஆண்டனி	-10362
▁ஆரம்பி	-10363
▁ஆருடம்	-10364
▁ஆறாவது	-10365
▁ஆல்பம்	-10366
▁இதற்கு	-10367
▁இந்தப்	-10368
▁இல்லாம	-10369
▁இழுத்த	-10370
▁உடலில்	-10371
▁உணர்வு	-10372
▁உதவியை	-10373
▁உயிரின	-10374
▁உருவம்	-10375
▁உறவில்	-10376
▁உறைந்த	-10377
▁என்பதே	-10378
▁எரப்பா	-10379
▁எழுவர்	-10380
▁எவ்வித	-10381
▁ஏந்திய	-10382
▁ஏறுமுக	-10383
▁ஒலித்த	-10384
▁கடவுளை	-10385
▁கட்டிட	-10386
▁கணக்கை	-10387
▁கண்கள்	-10388
▁கத்திய	-10389
▁கருத்த	-10390
▁கலாசார	-10391
▁கவுண்ட	-10392
▁கஷ்டம்	-10393
▁காரின்	-10394
▁கிண்டல	-10395
▁கிரைம்	-10396
▁கிளீன்	-10397
▁குடியே	-10398
▁குருவி	-10399
▁குழாய்	-10400
▁கெட்டு	-10401
▁கேபிள்	-10402
▁கோகாய்	-10403
▁கோட்டை	-10404
▁சரத்கு	-10405
▁சரவணன்	-10406
▁சர்வம்	-10407
▁சாலையை	-10408
▁சிகாகோ	-10409
▁சில்க்	-10410
▁சீட்டு	-10411
▁சீருடை	-10412
▁சுமத்த	-10413
▁சுரீர்	-10414
▁சுருளி	-10415
▁செத்து	-10416
▁செல்பி	-10417
▁செல்வா	-10418
▁சேத்ரி	-10419
▁ஜெயில்	-10420
▁ஜேட்லி	-10421
▁டிஎம்க	-10422
▁டிரெய்	-10423
▁டேட்டா	-10424
▁தங்கிய	-10425
▁தடாலடி	-10426
▁தந்தது	-10427
▁தயாரான	-10428
▁தருணம்	-10429
▁தாங்கி	-10430
▁தினத்த	-10431
▁திவ்யா	-10432
▁தீவில்	-10433
▁துப்பு	-10434
▁தேடியே	-10435
▁தேர்வை	-10436
▁தேவஸம்	-10437
▁தேவாலய	-10438
▁தொண்டு	-10439
▁தொழிலை	-10440
▁தோனியே	-10441
▁தோற்று	-10442
▁நகைகளை	-10443
▁நகைகள்	-10444
▁நக்சல்	-10445
▁நடத்தி	-10446
▁நண்பர்	-10447
▁நானும்	-10448
▁நிகிடி	-10449
▁நிரப்ப	-10450
▁நிலானி	-10451
▁நீங்கா	-10452
▁நேவால்	-10453
▁நோயில்	-10454
▁பகவான்	-10455
▁பங்க்க	-10456
▁படுத்த	-10457
▁பட்டாச	-10458
▁பயணியை	-10459
▁பயமுறு	-10460
▁பறந்து	-10461
▁பிஎஃப்	-10462
▁பிரைம்	-10463
▁பிற்பக	-10464
▁பிளாக்	-10465
▁புதுப்	-10466
▁புயலாக	-10467
▁புலம்ப	-10468
▁புஷ்கர	-10469
▁பூபேஷ்	-10470
▁பெஸ்ட்	-10471
▁பேச்சா	-10472
▁பைக்கை	-10473
▁பொதுச்	-10474
▁போர்ட்	-10475
▁போலீசை	-10476
▁மக்களே	-10477
▁மதராஸா	-10478
▁மந்திர	-10479
▁மன்றப்	-10480
▁மறுக்க	-10481
▁மறைத்த	-10482
▁மாதுரி	-10483
▁மாம்பழ	-10484
▁மாயமான	-10485
▁மார்ஷ்	-10486
▁மீம்ஸ்	-10487
▁முகவரி	-10488
▁முடிவே	-10489
▁முதியோ	-10490
▁முரண்ப	-10491
▁முறையை	-10492
▁முழக்க	-10493
▁முழங்க	-10494
▁மூக்கு	-10495
▁மூவர்ண	-10496
▁மெழுகு	-10497
▁மேடையை	-10498
▁மேம்பா	-10499
▁மேலாண்	-10500
▁மொழியை	-10501
▁யானையை	-10502
▁ரசிக்க	-10503
▁ரப்பர்	-10504
▁ராஜநாக	-10505
▁ராவின்	-10506
▁ரூமில்	-10507
▁ரேணுகா	-10508
▁லுங்கி	-10509
▁வடதமிழ	-10510
▁வழியாக	-10511
▁வாசகம்	-10512
▁வாசிம்	-10513
▁வானில்	-10514
▁விரட்ட	-10515
▁விலையை	-10516
▁விளாசி	-10517
▁விழும்	-10518
▁வீச்சா	-10519
▁வெயிட்	-10520
▁வெளிவர	-10521
▁வேகமான	-10522
▁வேணும்	-10523
▁வேளாண்	-10524
▁ஷாகித்	-10525
▁ஷாலினி	-10526
▁ஸ்கிரி	-10527
▁ஸ்பாட்	-10528
▁ஹாதியா	-10529
▁ஹெல்மெ	-10530
க்கடலில்	-10531
க்கட்டாக	-10532
க்காதீர்	-10533
க்கூடாதா	-10534
ங்கிலிஷ்	-10535
சாமியின்	-10536
டித்தான்	-10537
டிப்போம்	-10538
டியிலும்	-10539
ட்சியைக்	-10540
ட்டர்கள்	-10541
ண்டித்து	-10542
ண்ட்டில்	-10543
ப்தியில்	-10544
ப்படலாம்	-10545
ப்படுவது	-10546
ப்புரிமை	-10547
ப்பொருள்	-10548
மானுக்கு	-10549
முடியாது	-10550
முறையின்	-10551
ரியாறில்	-10552
ர்க்களம்	-10553
லியாவில்	-10554
வுக்குள்	-10555
வேறுபாடு	-10556
ஷ்குமாரை	-10557
ஸ்ட்டில்	-10558
ிக்கவேல்	-10559
ிக்கிறது	-10560
ுவதில்லை	-10561
ையாக்கிய	-10562
▁ஃபிளைட்	-10563
▁அடங்கிய	-10564
▁அத்தியா	-10565
▁அனுப்பி	-10566
▁அப்துல்	-10567
▁அப்போதே	-10568
▁அமிதாப்	-10569
▁அமைதியை	-10570
▁அம்மாவை	-10571
▁அரசுகள்	-10572
▁அரசுடன்	-10573
▁அரேபியா	-10574
▁அறநிலைய	-10575
▁அறுந்து	-10576
▁அறையில்	-10577
▁ஆத்தாடி	-10578
▁ஆபத்தாக	-10579
▁ஆப்கானை	-10580
▁ஆலையின்	-10581
▁ஆலோசகர்	-10582
▁இடைநிலை	-10583
▁இண்டீஸை	-10584
▁இனிமேல்	-10585
▁இனியும்	-10586
▁இருக்கே	-10587
▁இருமுறை	-10588
▁உயர்ந்த	-10589
▁உயிரைக்	-10590
▁உயிரோடு	-10591
▁உள்ளனர்	-10592
▁உள்ளூர்	-10593
▁எகிப்து	-10594
▁எங்கும்	-10595
▁எல்கேஜி	-10596
▁எழுந்து	-10597
▁ஐநாவில்	-10598
▁கண்முன்	-10599
▁கதையும்	-10600
▁கனிந்து	-10601
▁கம்பீர்	-10602
▁கம்பெனி	-10603
▁கரும்பு	-10604
▁கரையைக்	-10605
▁கற்கும்	-10606
▁கலக்கிய	-10607
▁கல்ராணி	-10608
▁காசநோய்	-10609
▁காவலில்	-10610
▁கிடங்கு	-10611
▁குடிகார	-10612
▁குடிக்க	-10613
▁குத்திய	-10614
▁கும்பளே	-10615
▁குரங்கு	-10616
▁குறைவான	-10617
▁குலசேகர	-10618
▁குளத்தை	-10619
▁கோரியது	-10620
▁சதவிதம்	-10621
▁சமைத்து	-10622
▁சரிந்து	-10623
▁சரியல்ல	-10624
▁சரியில்	-10625
▁சல்யூட்	-10626
▁சவுகான்	-10627
▁சவுந்தர	-10628
▁சாப்பிட	-10629
▁சாலைகள்	-10630
▁சிக்கன்	-10631
▁சிக்னல்	-10632
▁சிதம்பர	-10633
▁சில்லறை	-10634
▁சிவகாசி	-10635
▁சிவப்பு	-10636
▁சிவராஜ்	-10637
▁சீதாராம	-10638
▁சுமந்து	-10639
▁சூரியன்	-10640
▁சூழ்ச்ச	-10641
▁செயற்கு	-10642
▁செயற்பா	-10643
▁செய்வதை	-10644
▁சொல்வதா	-10645
▁சொல்வது	-10646
▁ஜடேஜாவை	-10647
▁ஜஸ்டின்	-10648
▁ஜெயந்தி	-10649
▁டிரெண்ட	-10650
▁டெய்லர்	-10651
▁டெலிவரி	-10652
▁ட்ரம்பை	-10653
▁தடைகோரி	-10654
▁தன்ஷிகா	-10655
▁தலையில்	-10656
▁தலையீடு	-10657
▁திகழும்	-10658
▁திக்திக	-10659
▁திட்டமா	-10660
▁திணறும்	-10661
▁துடித்த	-10662
▁துரத்தி	-10663
▁தைரியம்	-10664
▁தொகுதிய	-10665
▁தொடர்பா	-10666
▁தொண்டர்	-10667
▁தோற்றது	-10668
▁நடிகராக	-10669
▁நடிப்பு	-10670
▁நனையும்	-10671
▁நாய்களை	-10672
▁நினைத்த	-10673
▁நின்றது	-10674
▁நிமிடம்	-10675
▁நியாயம்	-10676
▁நிர்ணயி	-10677
▁நீங்கிய	-10678
▁நீச்சல்	-10679
▁நீராடிய	-10680
▁நேசிக்க	-10681
▁பணப்பரி	-10682
▁பதட்டம்	-10683
▁பயணமும்	-10684
▁பயணிகளை	-10685
▁பரீட்சை	-10686
▁பருப்பு	-10687
▁பல்கலைக	-10688
▁பாலுறவு	-10689
▁பிசினஸ்	-10690
▁பிரணாப்	-10691
▁பிரதமரா	-10692
▁பிஷப்பை	-10693
▁புயலின்	-10694
▁புரண்டு	-10695
▁பெண்மணி	-10696
▁பொய்யான	-10697
▁மகனுடன்	-10698
▁மகன்கள்	-10699
▁மணிமண்ட	-10700
▁மதுரைக்	-10701
▁மயக்கம்	-10702
▁மலேசியா	-10703
▁மாகாணம்	-10704
▁மானேஜர்	-10705
▁மான்கள்	-10706
▁மாய்த்த	-10707
▁மிகுந்த	-10708
▁மின்னலை	-10709
▁மிரட்டு	-10710
▁முன்னணி	-10711
▁மெதுவாக	-10712
▁மைல்கல்	-10713
▁மோதலில்	-10714
▁யுனெஸ்க	-10715
▁ரஹ்மான்	-10716
▁ராமசாமி	-10717
▁ரிக்டர்	-10718
▁லட்சமாக	-10719
▁லைசன்ஸ்	-10720
▁வங்கியை	-10721
▁வந்ததாக	-10722
▁வன்கொடு	-10723
▁வருவாய்	-10724
▁வருவாரா	-10725
▁வருவேன்	-10726
▁வரைந்து	-10727
▁வழங்காத	-10728
▁வாஷிங்ட	-10729
▁விஜயின்	-10730
▁விஞ்ஞான	-10731
▁விபத்தா	-10732
▁விருந்த	-10733
▁விளைநில	-10734
▁வுண்டர்	-10735
▁வெளியேற	-10736
▁வேலுமணி	-10737
▁வேளாங்க	-10738
▁ஸ்டன்ட்	-10739
▁ஹேக்கர்	-10740
▁ஹைதராபா	-10741
க்கொண்டது	-10742
சேகருக்கு	-10743
ச்சேர்க்க	-10744
ட்டிற்காக	-10745
த்திட்டம்	-10746
நடிகைக்கு	-10747
ப்படுத்தி	-10748
ப்பார்களா	-10749
மில்லாமல்	-10750
முடியாமல்	-10751
வர்களிடம்	-10752
வினருக்கு	-10753
ியாளர்கள்	-10754
ியூட்டும்	-10755
ிர்க்கும்	-10756
ுகின்றனர்	-10757
▁அடுத்தப்	-10758
▁அந்தஸ்து	-10759
▁அப்படியே	-10760
▁அமளியால்	-10761
▁அரசியல்ல	-10762
▁அரசிற்கு	-10763
▁ஆசிரியரை	-10764
▁ஆதரவாளர்	-10765
▁ஆஸியுடன்	-10766
▁இடமில்லை	-10767
▁இணைகிறதா	-10768
▁இரண்டாம்	-10769
▁இருங்கள்	-10770
▁இருந்ததை	-10771
▁இலங்கையை	-10772
▁உணர்ச்சி	-10773
▁உபிமுதல்	-10774
▁உயர்நிலை	-10775
▁உரிமையாள	-10776
▁உலகிலேயே	-10777
▁எஃப்ஐஆர்	-10778
▁எங்கப்பா	-10779
▁எட்டுவழி	-10780
▁எண்ணிக்க	-10781
▁எனக்கூறி	-10782
▁என்டிஆர்	-10783
▁ஏலக்காய்	-10784
▁ஏழைகளின்	-10785
▁ஓபிராவத்	-10786
▁கடுமையான	-10787
▁கடைகளில்	-10788
▁கட்டிடம்	-10789
▁கலாச்சார	-10790
▁கழிவறையை	-10791
▁காட்டுத்	-10792
▁கிடுகிடு	-10793
▁கிடுக்கு	-10794
▁கிளப்பிய	-10795
▁கிவீரமணி	-10796
▁கும்ப்ளே	-10797
▁குரங்கணி	-10798
▁குரோஷியா	-10799
▁குறிஞ்சி	-10800
▁கொன்றார்	-10801
▁கொய்ராலா	-10802
▁கோடீஸ்வர	-10803
▁சடலங்கள்	-10804
▁சதத்தில்	-10805
▁சமயபுரம்	-10806
▁சரணடைந்த	-10807
▁சரித்திர	-10808
▁சாதனைகள்	-10809
▁சாதித்து	-10810
▁சிஎன்என்	-10811
▁சிங்கின்	-10812
▁சிங்கிள்	-10813
▁சித்திரை	-10814
▁சித்ரவதை	-10815
▁சினிமாவை	-10816
▁சிறப்பாக	-10817
▁சிலம்பம்	-10818
▁சீதாராம்	-10819
▁சுமித்ரா	-10820
▁சுயசரிதை	-10821
▁சுற்றில்	-10822
▁செய்வாரா	-10823
▁சேற்றில்	-10824
▁சொன்னபடி	-10825
▁சொன்னேன்	-10826
▁சொன்னோம்	-10827
▁ஜாமீனில்	-10828
▁ஜெகதீசன்	-10829
▁ஜெயிலில்	-10830
▁டெங்குவை	-10831
▁டேட்டிங்	-10832
▁டொனால்டு	-10833
▁தடயங்கள்	-10834
▁தடுப்பணை	-10835
▁தண்டிக்க	-10836
▁தப்பினர்	-10837
▁தலைகீழாக	-10838
▁தவிர்த்த	-10839
▁தாய்க்கு	-10840
▁திநகரில்	-10841
▁திமிங்கல	-10842
▁திருநங்க	-10843
▁திருவிதா	-10844
▁தீவுக்கு	-10845
▁துறைக்கு	-10846
▁தெரியாது	-10847
▁தொகாடியா	-10848
▁தொகுப்பு	-10849
▁தொலைவில்	-10850
▁நடமாடும்	-10851
▁நிகழ்ந்த	-10852
▁நியமித்த	-10853
▁நியாபகம்	-10854
▁நிரபராதி	-10855
▁நீரிழிவு	-10856
▁பகிர்ந்த	-10857
▁பச்சிளம்	-10858
▁படையினர்	-10859
▁பட்டதாரி	-10860
▁பதிவேற்ற	-10861
▁பரப்பும்	-10862
▁பரிசோதனை	-10863
▁பழனியில்	-10864
▁பிந்த்ரே	-10865
▁பிறந்தது	-10866
▁பில்கேட்	-10867
▁புதைத்து	-10868
▁புயல்கள்	-10869
▁புற்றுநோ	-10870
▁புஷ்கரம்	-10871
▁பூஜைக்கு	-10872
▁பெண்ணும்	-10873
▁பெறுவோம்	-10874
▁பேத்தியை	-10875
▁பேனர்கள்	-10876
▁பேரையும்	-10877
▁ப்ரீத்தி	-10878
▁மகிழ்ந்த	-10879
▁மதபோதகர்	-10880
▁மதுபானம்	-10881
▁மறுபிறவி	-10882
▁மல்லுக்க	-10883
▁மாநிலமாக	-10884
▁மாரியப்ப	-10885
▁மாற்றும்	-10886
▁மிஞ்சும்	-10887
▁மின்துறை	-10888
▁மீட்கும்	-10889
▁மீட்போம்	-10890
▁முடங்கிய	-10891
▁முடிந்து	-10892
▁முடியாதா	-10893
▁முடிவும்	-10894
▁முட்டாள்	-10895
▁முண்டாசு	-10896
▁முனையில்	-10897
▁முன்னால்	-10898
▁மும்பையை	-10899
▁முஸ்லீம்	-10900
▁மேத்யூஸ்	-10901
▁யூடியூப்	-10902
▁யெச்சூரி	-10903
▁யோகிக்கு	-10904
▁யோகிபாபு	-10905
▁ரவுடிகளை	-10906
▁ராமஜெயம்	-10907
▁ராம்தேவ்	-10908
▁லாலுவின்	-10909
▁வசுந்தரா	-10910
▁வரிகளில்	-10911
▁வருகிறதா	-10912
▁விடுப்பு	-10913
▁விண்ணப்ப	-10914
▁வினாத்தா	-10915
▁விறுவிறு	-10916
▁விவசாயக்	-10917
▁விவசாயம்	-10918
▁விஷாலின்	-10919
▁வீச்சில்	-10920
▁வெட்டும்	-10921
▁வெற்றிபெ	-10922
▁வெல்லுமா	-10923
▁வெளியேறு	-10924
▁வெளிவந்த	-10925
▁வேதாந்தா	-10926
▁ஷாங்காய்	-10927
▁ஷாப்பிங்	-10928
▁ஸ்டெர்லை	-10929
▁ஸ்பெயின்	-10930
க்கணக்கில்	-10931
க்கும்போது	-10932
போட்டியில்	-10933
ப்பாவுக்கு	-10934
ப்பிடிப்பு	-10935
ப்போகிறேன்	-10936
ர்கோவிலில்	-10937
ற்றுகிறார்	-10938
ல்காரர்கள்	-10939
ளர்களுக்கு	-10940
வையாளர்களை	-10941
ிகளுக்கும்	-10942
ிருமாவளவன்	-10943
▁அகமதாபாத்	-10944
▁அஜீத்தின்	-10945
▁அடிலெய்ட்	-10946
▁அதிகாரியை	-10947
▁அனைத்தும்	-10948
▁அம்மாவின்	-10949
▁அரசிதழில்	-10950
▁அறிக்கையை	-10951
▁அலட்சியம்	-10952
▁அவமதித்து	-10953
▁அவ்ளோதான்	-10954
▁ஆச்சரியம்	-10955
▁ஆடியோவில்	-10956
▁ஆட்சியில்	-10957
▁ஆணையரிடம்	-10958
▁ஆண்டிற்கு	-10959
▁ஆமிர்கான்	-10960
▁ஆற்றுக்கு	-10961
▁இதெல்லாம்	-10962
▁இப்போதும்	-10963
▁இருப்பதாக	-10964
▁இரும்புக்	-10965
▁இருவரிடம்	-10966
▁இழுத்துச்	-10967
▁உயர்ந்தது	-10968
▁எங்களுடன்	-10969
▁எதிரெதிர்	-10970
▁என்கிறார்	-10971
▁எப்போதும்	-10972
▁எமிரேட்ஸ்	-10973
▁எம்எல்ஏவை	-10974
▁ஏர்போர்ட்	-10975
▁ஐஎன்எக்ஸ்	-10976
▁ஐன்ஸ்டீன்	-10977
▁ஒதுக்கும்	-10978
▁ஒதுங்கும்	-10979
▁ஒழிப்பில்	-10980
▁கங்கையில்	-10981
▁கருத்துக்	-10982
▁கறுப்புப்	-10983
▁கலைஞர்கள்	-10984
▁கல்வீச்சு	-10985
▁காதலனுடன்	-10986
▁காயமடைந்த	-10987
▁குற்றமல்ல	-10988
▁குல்பூஷன்	-10989
▁குவிகிறது	-10990
▁குவித்தது	-10991
▁கூறுங்கள்	-10992
▁கொடுப்பதா	-10993
▁கொள்ளலாம்	-10994
▁கொள்ளையன்	-10995
▁சதவிகிதம்	-10996
▁சதுர்வேதி	-10997
▁சந்தித்து	-10998
▁சம்பந்தம்	-10999
▁சர்க்கார்	-11000
▁சர்ப்ரைஸ்	-11001
▁சாலைகளில்	-11002
▁சிறப்புப்	-11003
▁சிலிண்டர்	-11004
▁சீரமைப்பு	-11005
▁சூறையாடிய	-11006
▁செய்ததால்	-11007
▁செல்லாதது	-11008
▁செவிலியர்	-11009
▁சொல்லலாமா	-11010
▁சோதனைக்கு	-11011
▁ஜனார்த்தன	-11012
▁ஜாக்கிரதை	-11013
▁ட்விட்டரை	-11014
▁தங்கினார்	-11015
▁தங்கிலிஷ்	-11016
▁தஞ்சையில்	-11017
▁தடுப்புச்	-11018
▁தடுப்பூசி	-11019
▁தட்டுப்பா	-11020
▁தண்ணீரில்	-11021
▁தனுஷூக்கு	-11022
▁தப்பினார்	-11023
▁தற்காப்பு	-11024
▁தலைவருடன்	-11025
▁தாற்காலிக	-11026
▁திறக்கும்	-11027
▁தெரிகிறதா	-11028
▁தேடுகிறது	-11029
▁தொல்லியல்	-11030
▁நடிகையின்	-11031
▁நவாஸுதீன்	-11032
▁நாடுகளின்	-11033
▁நியமனத்தை	-11034
▁நிரந்தரத்	-11035
▁நிலைகுலைய	-11036
▁நிவாரணமாக	-11037
▁நீங்களும்	-11038
▁நேர்மையான	-11039
▁படிக்கும்	-11040
▁பதவியேற்ப	-11041
▁பதிவுக்கு	-11042
▁பன்றிக்கு	-11043
▁பலியானோர்	-11044
▁பழனிசாமிய	-11045
▁பாகுபலியை	-11046
▁பாக்கியம்	-11047
▁பாரதியார்	-11048
▁பாராட்டிய	-11049
▁பாரிக்கர்	-11050
▁பார்க்காத	-11051
▁பிடிவாதம்	-11052
▁பிரச்னையை	-11053
▁பிரபஞ்சன்	-11054
▁புகழ்ந்து	-11055
▁புயலுக்கு	-11056
▁பெண்களின்	-11057
▁பேரமைப்பு	-11058
▁பைக்குகளை	-11059
▁பொதுமன்னி	-11060
▁போட்டிகள்	-11061
▁போவதில்லை	-11062
▁மக்களுடன்	-11063
▁மாதாந்திர	-11064
▁மாற்றத்தை	-11065
▁மாற்றலாம்	-11066
▁மாற்றியது	-11067
▁மாலத்தீவு	-11068
▁மிசோரமில்	-11069
▁மினிஸ்டர்	-11070
▁மின்வாரிய	-11071
▁மியான்மர்	-11072
▁முடிகிறது	-11073
▁மும்முரம்	-11074
▁மொழிகளில்	-11075
▁யுனிவர்சி	-11076
▁வதந்திகளை	-11077
▁வந்தாலும்	-11078
▁வருகிறாரா	-11079
▁வருந்தும்	-11080
▁வழிச்சாலை	-11081
▁வாகனங்களை	-11082
▁வாக்காளர்	-11083
▁வாங்கியது	-11084
▁விஜயபாஸ்க	-11085
▁விதித்தது	-11086
▁விரும்பாத	-11087
▁வில்லியம்	-11088
▁வைக்கிறது	-11089
▁ஸ்டம்பிங்	-11090
▁ஹார்வர்ட்	-11091
▁ஹோட்டலில்	-11092
இங்கிலாந்து	-11093
ப்படுகின்றன	-11094
ப்பட்டுள்ளன	-11095
விட்டார்கள்	-11096
ியர்களுக்கு	-11097
ியிலிருந்து	-11098
ிருக்கிறார்	-11099
ிருஷ்ணனிடம்	-11100
ொழிலாளர்கள்	-11101
▁அங்கீகாரம்	-11102
▁அச்சுறுத்த	-11103
▁அதிகப்பட்ச	-11104
▁அனைத்துக்க	-11105
▁அப்பாவுடன்	-11106
▁அமர்க்களம்	-11107
▁அமர்ந்திரு	-11108
▁அமல்படுத்த	-11109
▁அமெரிக்கர்	-11110
▁அரிவாளுடன்	-11111
▁ஆக்ஸ்ஃபோர்	-11112
▁ஆணையத்தின்	-11113
▁ஆர்வலர்கள்	-11114
▁ஆளும்கட்சி	-11115
▁இடமில்லையா	-11116
▁இடைத்தரகர்	-11117
▁இடைநீக்கம்	-11118
▁இன்ஜினீயர்	-11119
▁இயக்குநராக	-11120
▁இருக்கலாம்	-11121
▁இறங்கினார்	-11122
▁இறப்புக்கு	-11123
▁இளைஞருக்கு	-11124
▁உச்சக்கட்ட	-11125
▁உற்பத்தியா	-11126
▁ஊக்கத்தொகை	-11127
▁ஊடகங்களில்	-11128
▁எவரெஸ்டில்	-11129
▁எஸ்ஏசந்திர	-11130
▁எஸ்விசேகர்	-11131
▁ஒத்திவைக்க	-11132
▁ஒப்பிடலாமா	-11133
▁ஒருவருக்கு	-11134
▁கட்டப்பட்ட	-11135
▁கட்டுமானம்	-11136
▁கண்ணாடிகள்	-11137
▁கத்தியுடன்	-11138
▁கவலையில்லை	-11139
▁காட்சியில்	-11140
▁காட்டுத்தீ	-11141
▁காணப்படும்	-11142
▁காப்பீட்டு	-11143
▁காலங்களில்	-11144
▁காலாவதியான	-11145
▁காலிஸ்தான்	-11146
▁கிராமங்கள்	-11147
▁குமாருக்கு	-11148
▁குறிக்கோள்	-11149
▁குற்றங்கள்	-11150
▁கைகலப்பில்	-11151
▁கொடுத்தால்	-11152
▁கொண்டுவந்த	-11153
▁சக்திகாந்த	-11154
▁சக்தியுடன்	-11155
▁சசிகலாவின்	-11156
▁சத்தமின்றி	-11157
▁சிங்கங்கள்	-11158
▁சுதந்திரம்	-11159
▁செருப்பால்	-11160
▁செலுத்தும்	-11161
▁சேர்ந்தார்	-11162
▁சைக்கிளில்	-11163
▁சொந்தமானது	-11164
▁ஜாகிர்கான்	-11165
▁ஜொலிக்கும்	-11166
▁டென்மார்க்	-11167
▁தங்கத்தமிழ	-11168
▁தனியாரிடம்	-11169
▁தப்பிப்பது	-11170
▁தம்பதிக்கு	-11171
▁திகழ்கிறது	-11172
▁திட்டங்கள்	-11173
▁தினகரனுடன்	-11174
▁திருட்டில்	-11175
▁தொடர்கிறது	-11176
▁தொழிற்சங்க	-11177
▁தோல்வியில்	-11178
▁நடிகருக்கு	-11179
▁நாகாலாந்து	-11180
▁நிமிடங்கள்	-11181
▁நியமித்தது	-11182
▁நியூயார்க்	-11183
▁நிறைவேற்று	-11184
▁நிற்கிறார்	-11185
▁நிலையங்கள்	-11186
▁நிவின்பாலி	-11187
▁பஞ்சாயத்து	-11188
▁பதப்படுத்த	-11189
▁பயணிகளிடம்	-11190
▁பள்ளிகளின்	-11191
▁பழனிச்சாமி	-11192
▁பாட்டிலில்	-11193
▁பார்த்தால்	-11194
▁பிக்பாஸில்	-11195
▁பிடித்தார்	-11196
▁பிரியர்கள்	-11197
▁புதுவையில்	-11198
▁புலந்த்ஷர்	-11199
▁பூங்காவில்	-11200
▁பெறப்படும்	-11201
▁பொருந்தாது	-11202
▁போட்டியால்	-11203
▁போனவருக்கு	-11204
▁போராடினால்	-11205
▁மசோதாக்கள்	-11206
▁மணமகனுக்கு	-11207
▁மருத்துவப்	-11208
▁மருத்துவம்	-11209
▁மருத்துவரை	-11210
▁மாணவருக்கு	-11211
▁மாணவிகளின்	-11212
▁மின்வெட்டு	-11213
▁முன்னுரிமை	-11214
▁ராமேஸ்வரம்	-11215
▁வங்கிகளின்	-11216
▁வரவேண்டும்	-11217
▁வரவேற்கும்	-11218
▁வளையத்தில்	-11219
▁வழங்கினால்	-11220
▁விக்ரமுடன்	-11221
▁விஜய்சேதுப	-11222
▁விடுதியின்	-11223
▁வியந்துபோன	-11224
▁விருதுநகர்	-11225
▁விளையாடலனா	-11226
▁விஷயத்தில்	-11227
▁வெளிநடப்பு	-11228
க்காவிட்டால்	-11229
ப்பிடிக்கும்	-11230
▁அகவிலைப்படி	-11231
▁அனுப்பினார்	-11232
▁அப்போலோவில்	-11233
▁அரசுகளுக்கு	-11234
▁அவசியமில்லை	-11235
▁அவதிப்படும்	-11236
▁ஆணையத்திடம்	-11237
▁ஆய்வாளர்கள்	-11238
▁இசைக்கலைஞர்	-11239
▁இன்னிங்ஸில்	-11240
▁இயக்குநரின்	-11241
▁இருக்கிறேன்	-11242
▁உணர்வுகளோடு	-11243
▁எம்எல்ஏவால்	-11244
▁கட்சிக்கும்	-11245
▁கரம்பிடிக்க	-11246
▁கருத்துக்கு	-11247
▁கர்ப்பிணியை	-11248
▁கல்லூரிக்கு	-11249
▁காங்கிரஸில்	-11250
▁காதலனுக்காக	-11251
▁கான்ஸ்டபிள்	-11252
▁கிருஷ்ணகிரி	-11253
▁குழந்தையைக்	-11254
▁கெட்டுப்போன	-11255
▁கொடுக்கலாம்	-11256
▁கொள்ளுங்கள்	-11257
▁சக்கரத்தில்	-11258
▁சட்டவிரோதம்	-11259
▁சந்தித்தேன்	-11260
▁சமாளிக்குமா	-11261
▁சர்மாவுக்கு	-11262
▁சிஎஸ்கேவில்	-11263
▁சின்னத்திரை	-11264
▁செயல்படுத்த	-11265
▁செய்தியாளர்	-11266
▁செய்துள்ளது	-11267
▁செல்லப்பட்ட	-11268
▁சொத்துக்களை	-11269
▁சொத்துக்கள்	-11270
▁தயாரிக்கும்	-11271
▁தரவரிசையில்	-11272
▁தலைமுறையின்	-11273
▁தள்ளுமுள்ளு	-11274
▁திட்டமிட்டு	-11275
▁திட்டமில்லை	-11276
▁தியேட்டரில்	-11277
▁திருக்குறள்	-11278
▁திரும்பப்பெ	-11279
▁தீக்குளிக்க	-11280
▁தொடங்கினார்	-11281
▁தொடர்பில்லை	-11282
▁நடராஜனுக்கு	-11283
▁நட்சத்திரம்	-11284
▁நம்புகிறேன்	-11285
▁நாய்களுக்கு	-11286
▁நிமிடத்தில்	-11287
▁பங்கீட்டில்	-11288
▁பங்கேற்கும்	-11289
▁பட்டதாரிகள்	-11290
▁பட்டாசில்லா	-11291
▁பண்டிகையில்	-11292
▁பந்துவீச்சு	-11293
▁பயங்கரவாதம்	-11294
▁பயணத்திற்கு	-11295
▁பரிவர்த்தனை	-11296
▁பார்த்ததும்	-11297
▁புதுச்சேரிய	-11298
▁புதுப்பிக்க	-11299
▁பேசிக்கொள்ள	-11300
▁பேருந்துகளை	-11301
▁பொறுப்புடன்	-11302
▁போராடுங்கள்	-11303
▁போலீசாரிடம்	-11304
▁போலீஸ்காரர்	-11305
▁மண்ணெண்ணெய்	-11306
▁மருமகனுக்கு	-11307
▁மறுக்கிறார்	-11308
▁மறைந்தாலும்	-11309
▁மலைப்பாம்பு	-11310
▁மல்லையாவின்	-11311
▁மின்கோபுரம்	-11312
▁முடியாததால்	-11313
▁முடிவெடுக்க	-11314
▁முதலமைச்சரே	-11315
▁முதல்வருடன்	-11316
▁முறைகேடுகள்	-11317
▁மூடப்பட்டது	-11318
▁ரவிசாஸ்திரி	-11319
▁வடகிழக்குப்	-11320
▁வலுப்படுத்த	-11321
▁வாக்குப்பதி	-11322
▁விமர்சித்து	-11323
▁வில்லியம்ஸ்	-11324
▁விளையாடலாமா	-11325
▁விளையாட்டாக	-11326
▁வீரர்களுடன்	-11327
▁வுண்டர்பார்	-11328
▁வைத்திருந்த	-11329
▁வைரமுத்துவை	-11330
ச்செல்லப்பட்ட	-11331
ப்பாக்கத்தில்	-11332
▁ஆக்கிரமிப்பு	-11333
▁இடைத்தேர்தலை	-11334
▁இந்தியாவுடன்	-11335
▁இப்படித்தான்	-11336
▁இயக்குநருடன்	-11337
▁உடல்நிலையில்	-11338
▁உத்தரவிட்டது	-11339
▁உற்சாகத்தில்	-11340
▁ஏறுமுகத்தில்	-11341
▁கண்டுகொள்ளாத	-11342
▁கண்டுபிடிக்க	-11343
▁கல்லூரிகளில்	-11344
▁காப்பியடித்த	-11345
▁கால்பந்தாட்ட	-11346
▁குழந்தையுடன்	-11347
▁கொலையாளியின்	-11348
▁கொள்ளையடித்த	-11349
▁கோயிலுக்குள்	-11350
▁சசிகலாவிற்கு	-11351
▁சட்டவிரோதமாக	-11352
▁சவுந்தரராஜன்	-11353
▁சிகிச்சையால்	-11354
▁சிகிச்சையில்	-11355
▁சுடுகாட்டில்	-11356
▁செயலாளருக்கு	-11357
▁செய்யும்போது	-11358
▁செலுத்தியவர்	-11359
▁ஜனநாயகத்தின்	-11360
▁ஜல்லிக்கட்டை	-11361
▁ஜெய்ப்பூரில்	-11362
▁டிரெண்டாகும்	-11363
▁ட்ரெண்டாகும்	-11364
▁தகுதிநீக்கம்	-11365
▁தமிழ்செல்வன்	-11366
▁தள்ளிப்போனது	-11367
▁திக்திக்திக்	-11368
▁தீபாவளியன்று	-11369
▁தொடங்கவில்லை	-11370
▁தொடர்ச்சியாக	-11371
▁தொலைக்காட்சி	-11372
▁நடவடிக்கைகளை	-11373
▁நயன்தாராவின்	-11374
▁நாடாளுமன்றக்	-11375
▁நிமிடங்களில்	-11376
▁நிராகரித்தது	-11377
▁நிலுவைத்தொகை	-11378
▁நேசிக்கிறோம்	-11379
▁பங்க்குகளில்	-11380
▁பயன்படுத்திய	-11381
▁பாதுகாக்கும்	-11382
▁பாஸ்போர்ட்டை	-11383
▁புகைப்படத்தை	-11384
▁பேஸ்புக்கில்	-11385
▁போட்டியில்லை	-11386
▁மத்தியக்குழு	-11387
▁மனிதாபிமானம்	-11388
▁மாசுபாட்டால்	-11389
▁மாணவர்களிடம்	-11390
▁முதலிடத்தில்	-11391
▁மேலாண்மையில்	-11392
▁வங்கக்கடலில்	-11393
▁வங்கிகளுக்கு	-11394
▁வந்துவிட்டது	-11395
▁வழக்குப்பதிய	-11396
▁வாழ்க்கையில்	-11397
▁வாழ்த்துக்கு	-11398
▁விஜயேந்திரர்	-11399
▁விடுமுறையில்	-11400
▁விளையாட்டால்	-11401
▁வீட்டுக்குள்	-11402
▁வெளிநாட்டில்	-11403
▁வேண்டுமானால்	-11404
ச்சேர்க்கைக்கு	-11405
▁ஃப்ளிப்கார்ட்	-11406
▁அணையிலிருந்து	-11407
▁அதிருப்தியில்	-11408
▁அனுமதியுங்கள்	-11409
▁அரையிறுதிக்கு	-11410
▁அறநிலையத்துறை	-11411
▁அலட்சியத்தால்	-11412
▁ஆயிரக்கணக்கான	-11413
▁இங்கிலாந்தின்	-11414
▁இந்தியாவிலும்	-11415
▁உத்தராகண்டில்	-11416
▁உருட்டுக்கட்ட	-11417
▁உறவினர்களிடம்	-11418
▁எம்எல்ஏவுக்கு	-11419
▁கடற்பகுதியில்	-11420
▁கண்காட்சிக்கு	-11421
▁கருபழனியப்பன்	-11422
▁கேட்டறிந்தார்	-11423
▁சட்டப்பேரவைத்	-11424
▁சட்டப்பேரவையை	-11425
▁சத்தமில்லாமல்	-11426
▁சிகிச்சைக்காக	-11427
▁செயல்படுகிறதா	-11428
▁செல்போனுக்காக	-11429
▁டிஎம்கிருஷ்ணா	-11430
▁தண்டவாளத்தில்	-11431
▁திட்டத்துக்கு	-11432
▁திரைப்படங்கள்	-11433
▁துன்புறுத்தல்	-11434
▁தொகுதிகளிலும்	-11435
▁தொடங்கப்படும்	-11436
▁நடவடிக்கையால்	-11437
▁நாகர்கோவிலில்	-11438
▁நிபந்தனையுடன்	-11439
▁நிறுத்தப்பட்ட	-11440
▁பத்திரிகையில்	-11441
▁பாகிஸ்தானுடன்	-11442
▁பாதிரியார்கள்	-11443
▁பொன்மாணிக்கவே	-11444
▁போராடியவர்கள்	-11445
▁போராட்டத்தால்	-11446
▁மாவோயிஸ்டுகள்	-11447
▁ராதாகிருஷ்ணன்	-11448
▁வடதமிழகத்தில்	-11449
▁வதந்திகளுக்கு	-11450
▁வன்கொடுமைக்கு	-11451
▁வாக்குறுதிகள்	-11452
▁விக்கெட்டுகளை	-11453
▁விசாகப்பட்டின	-11454
▁விசாரிக்கிறது	-11455
▁விவசாயிகளுடன்	-11456
▁வேண்டியதில்லை	-11457
▁அகிலேஷ்மாயாவதி	-11458
▁எஸ்விசேகருக்கு	-11459
▁கிடுக்குப்பிடி	-11460
▁குடிமக்களுக்கு	-11461
▁குடியிருப்பில்	-11462
▁சன்னிதானத்தில்	-11463
▁சிக்கித்தவித்த	-11464
▁செயல்படுகிறார்	-11465
▁தள்ளிப்போகிறது	-11466
▁திருவிதாங்கூர்	-11467
▁தெலுங்கானாவில்	-11468
▁நட்சத்திரங்கள்	-11469
▁படத்திலிருந்து	-11470
▁பாதிக்கப்படும்	-11471
▁பாதுகாப்புக்கு	-11472
▁பார்வையாளர்களை	-11473
▁புத்தாண்டுக்கு	-11474
▁புறக்கணித்தாரா	-11475
▁பெருமைபடுத்திய	-11476
▁பேருந்துக்குள்	-11477
▁மாடியிலிருந்து	-11478
▁முயற்சிக்கிறது	-11479
▁வாக்களியுங்கள்	-11480
▁அமெரிக்காவிலும்	-11481
▁ஆதரவாளர்களிடையே	-11482
▁இன்ஸ்டாகிராமில்	-11483
▁உத்தரகாண்ட்டில்	-11484
▁உரையாற்றுகிறார்	-11485
▁கடத்தல்காரர்கள்	-11486
▁கட்சியிலிருந்து	-11487
▁கருத்துவேறுபாடு	-11488
▁காஞ்சிபுரத்தில்	-11489
▁காட்டிக்கொடுத்த	-11490
▁குடும்பத்துக்கு	-11491
▁குற்றச்சாட்டில்	-11492
▁தயாரிப்பாளர்கள்	-11493
▁தொல்திருமாவளவன்	-11494
▁நினைக்கிறீர்களா	-11495
▁நிறைவேற்றுங்கள்	-11496
▁பணப்பட்டுவாடாவை	-11497
▁மாவட்டங்களிலும்	-11498
▁ரஜினிகாந்துக்கு	-11499
▁விற்பனையாளர்கள்	-11500
▁விளையாடாதீர்கள்	-11501
▁ஹைதராபாத்துக்கு	-11502
ஃபூ	-11503
இல்	-11504
மீக	-11505
மொழ	-11506
யட்	-11507
வீச	-11508
வென	-11509
ாரே	-11510
▁83	-11511
▁95	-11512
▁98	-11513
▁உக	-11514
▁ஜல	-11515
▁ரஸ	-11516
▁ல்	-11517
2021	-11518
6000	-11519
எதிர	-11520
சால்	-11521
சுறா	-11522
ஜிலி	-11523
டரர்	-11524
டுபொ	-11525
டெல்	-11526
டோனா	-11527
னாரோ	-11528
பற்ற	-11529
பழனி	-11530
பிர்	-11531
பொறு	-11532
ப்னா	-11533
மயமா	-11534
மிகு	-11535
மோஜி	-11536
யாய்	-11537
யாரா	-11538
யினை	-11539
ய்தா	-11540
ரபலி	-11541
றாமை	-11542
ற்பி	-11543
லார்	-11544
லாலே	-11545
ழுக்	-11546
வசதி	-11547
வணன்	-11548
வாசி	-11549
விகா	-11550
வீன்	-11551
வெடி	-11552
வெடு	-11553
ஹாரா	-11554
ஹாலை	-11555
ுறவு	-11556
ோலஸ்	-11557
்கோழ	-11558
்தம்	-11559
▁120	-11560
▁140	-11561
▁168	-11562
▁181	-11563
▁220	-11564
▁223	-11565
▁231	-11566
▁238	-11567
▁292	-11568
▁319	-11569
▁353	-11570
▁384	-11571
▁429	-11572
▁471	-11573
▁அந்	-11574
▁அரவ	-11575
▁இதய	-11576
▁இதோ	-11577
▁இமய	-11578
▁ஏப்	-11579
▁ஐதீ	-11580
▁கறி	-11581
▁சாய	-11582
▁ஜீய	-11583
▁தகர	-11584
▁துள	-11585
▁நசீ	-11586
▁நயவ	-11587
▁பகு	-11588
▁புத	-11589
▁பூச	-11590
▁மலர	-11591
▁மில	-11592
▁மைன	-11593
▁ரிய	-11594
▁விழ	-11595
▁ஷோய	-11596
ஃபின்	-11597
எஸ்டி	-11598
க்கரை	-11599
அனு	-11600
திற	-11601
ிறே	-11602
ூடு	-11603
ஜியோ	-11604
மாதி	-11605
மையே	-11606
ரைம்	-11607
ாம்ப	-11608
▁உளை	-11609
▁எதன	-11610
▁எனை	-11611
▁எறி	-11612
▁கோஷ	-11613
க்ஷன்	-11614
ங்கோல	-11615
சூஃப்	-11616
சூரன்	-11617
சென்ட	-11618
டையது	-11619
ட்புத	-11620
ண்களை	-11621
ண்ணாம	-11622
தற்கே	-11623
தீவிர	-11624
த்தறி	-11625
நாகசை	-11626
ன்னால	-11627
படியே	-11628
பாடிய	-11629
பாரதி	-11630
புயல்	-11631
போதைய	-11632
ப்போல	-11633
மனில்	-11634
மியார	-11635
மென்ன	-11636
மோஷன்	-11637
ம்புத	-11638
ம்போல	-11639
யிடம்	-11640
ரசொலி	-11641
ரனின்	-11642
ராணுவ	-11643
ர்வேத	-11644
றாங்க	-11645
லக்ஸ்	-11646
லயும்	-11647
வாக்க	-11648
வாண்ட	-11649
வான்க	-11650
விஜய்	-11651
விடிய	-11652
வெளிய	-11653
வைரஸ்	-11654
ஷ்மண்	-11655
ாலில்	-11656
ாலையை	-11657
ினின்	-11658
ிருது	-11659
ிர்தி	-11660
ிறாரே	-11661
ுறும்	-11662
ுவச்ச	-11663
ையிங்	-11664
்குலா	-11665
்துளை	-11666
▁1400	-11667
▁2320	-11668
▁3300	-11669
▁ஃபார	-11670
▁அரபு	-11671
▁அரேப	-11672
▁அலிக	-11673
▁ஆபரே	-11674
▁இடைம	-11675
▁உதவு	-11676
▁உபரி	-11677
▁எமன்	-11678
▁எல்ல	-11679
▁எஸ்அ	-11680
▁எஸ்ப	-11681
▁ககன்	-11682
▁கன்ஃ	-11683
▁காபூ	-11684
▁காமா	-11685
▁கியூ	-11686
▁குஷி	-11687
▁கெளர	-11688
▁கேட்	-11689
▁கேல்	-11690
▁கைகொ	-11691
▁கையக	-11692
▁கோர்	-11693
▁சிவன	-11694
▁சுப்	-11695
▁சேவக	-11696
▁ஜின்	-11697
▁ஜெயச	-11698
▁ஞாபக	-11699
58	-11700
ஃன்	-11701
ஆனா	-11702
தப்	-11703
தலா	-11704
ிகு	-11705
ியு	-11706
ோரை	-11707
ணாள்	-11708
ராஸ்	-11709
ருணி	-11710
ளுரை	-11711
ாப்ப	-11712
▁ஐபோ	-11713
▁கதி	-11714
▁நுர	-11715
ந்தலை	-11716
ப்பலக	-11717
வராஜ்	-11718
ூவில்	-11719
▁அனைவ	-11720
▁உடலு	-11721
▁கவித	-11722
▁கிஸ்	-11723
▁சூரச	-11724
▁செபா	-11725
▁டயர்	-11726
▁தராத	-11727
▁தருண	-11728
▁தெரச	-11729
▁தேனி	-11730
▁தொன்	-11731
▁நஷ்ட	-11732
▁நாகே	-11733
▁நாசா	-11734
▁நாடே	-11735
▁நானி	-11736
▁நாயை	-11737
▁நாளே	-11738
▁நூறா	-11739
▁பாலக	-11740
▁புல்	-11741
▁பெயி	-11742
▁போகு	-11743
▁மகாச	-11744
▁மதிய	-11745
▁மதுர	-11746
▁மனசா	-11747
▁மனமு	-11748
▁மீள்	-11749
▁முனி	-11750
▁மைக்	-11751
▁யமஹா	-11752
▁யாரெ	-11753
▁ரகம்	-11754
▁ரமன்	-11755
▁ரிகோ	-11756
▁ரியா	-11757
▁ரொமா	-11758
▁ரோகி	-11759
▁லிப்	-11760
▁லோன்	-11761
▁வஞ்ச	-11762
▁வழிம	-11763
▁வாடி	-11764
▁வித்	-11765
▁விஷா	-11766
▁வேடி	-11767
▁ஷாட்	-11768
▁ஷேக்	-11769
▁ஸ்லீ	-11770
▁ஹால்	-11771
எஃப்சி	-11772
கருடன்	-11773
ங்களது	-11774
சாண்ட்	-11775
சிம்பு	-11776
சியின்	-11777
சியைத்	-11778
சுவாமி	-11779
செய்து	-11780
ச்சலாக	-11781
ச்சிலை	-11782
ஞர்கள்	-11783
டியார்	-11784
டோவின்	-11785
ட்டாளி	-11786
ட்டியா	-11787
ண்ட்டை	-11788
தியும்	-11789
தோறும்	-11790
நகர்ப்	-11791
னல்களை	-11792
னும்னு	-11793
ன்தமிழ	-11794
பட்சம்	-11795
புதீன்	-11796
பூர்ணா	-11797
ப்சிப்	-11798
ப்டாப்	-11799
39	-11800
சமா	-11801
ழ்வ	-11802
்தொ	-11803
▁66	-11804
▁73	-11805
▁தண	-11806
டுது	-11807
பாதி	-11808
யும்	-11809
ர்கு	-11810
்தொட	-11811
▁ஆஹா	-11812
▁செக	-11813
▁ஜோச	-11814
▁தபா	-11815
▁தலி	-11816
க்கென	-11817
ந்த்ர	-11818
மைகள்	-11819
வாளர்	-11820
ஷ்கர்	-11821
▁அணிவ	-11822
▁கேளு	-11823
▁கைமா	-11824
▁சிபி	-11825
▁சிற்	-11826
▁சைலே	-11827
▁நூலக	-11828
▁பாசு	-11829
▁வழிய	-11830
சிட்டி	-11831
த்தூர்	-11832
பார்ம்	-11833
ப்தில்	-11834
ப்பவரா	-11835
ப்புலி	-11836
ப்பைப்	-11837
ப்பொடி	-11838
ப்பொரு	-11839
ப்ரியா	-11840
மசிங்க	-11841
மதத்து	-11842
மெயில்	-11843
மையைக்	-11844
ம்மொழி	-11845
ர்வியூ	-11846
ற்காடு	-11847
லீஸ்வர	-11848
ளக்கம்	-11849
ழையால்	-11850
ழ்த்தர	-11851
வளித்த	-11852
விநியோ	-11853
விலைக்	-11854
வில்ஸ்	-11855
வீசும்	-11856
வுக்கே	-11857
ாருடன்	-11858
ார்ஜுன	-11859
ிகரமாக	-11860
ெண்டாக	-11861
ெழுந்த	-11862
ையுங்க	-11863
▁30000	-11864
▁ஃபிக்	-11865
▁ஃபோர்	-11866
▁அகழ்வ	-11867
▁அக்னி	-11868
▁அசின்	-11869
▁அச்சி	-11870
▁அணுகு	-11871
▁அதையே	-11872
▁அன்றே	-11873
▁அப்ளை	-11874
▁அருள்	-11875
▁அலசல்	-11876
▁அலுவல	-11877
▁அழகிர	-11878
▁ஆகாது	-11879
▁ஆணும்	-11880
▁ஆம்தே	-11881
▁ஆர்ஜே	-11882
▁ஆலோசி	-11883
▁ஆளும்	-11884
▁இமாம்	-11885
▁இருதர	-11886
▁இர்மா	-11887
▁இறக்க	-11888
▁உகந்த	-11889
▁உடற்க	-11890
▁உயரப்	-11891
▁உருவெ	-11892
▁எக்ஸ்	-11893
▁எண்ணை	-11894
▁என்ஜி	-11895
▁எமோஜி	-11896
▁எளிமை	-11897
▁எஸ்டி	-11898
▁ஒயின்	-11899
89	-11900
யே	-11901
டிஇ	-11902
ணனை	-11903
ஹத்	-11904
ிறா	-11905
▁ஏஜ	-11906
சாலா	-11907
ப்பொ	-11908
ஸ்லி	-11909
ஸ்வா	-11910
ோனிஷ	-11911
▁கரி	-11912
குண்ட	-11913
த்தால	-11914
மியர்	-11915
▁அமைய	-11916
▁சிட்	-11917
▁சீனு	-11918
▁செவ்	-11919
▁தூவி	-11920
▁தொய்	-11921
▁மாலி	-11922
▁வான்	-11923
▁ஷங்க	-11924
டிவிட்	-11925
தக்கம்	-11926
துக்கு	-11927
மியின்	-11928
ய்க்கு	-11929
லுக்கா	-11930
ாகிறது	-11931
ாரஷ்யா	-11932
ாலுடன்	-11933
▁அண்டை	-11934
▁இங்கு	-11935
▁உச்சி	-11936
▁ஒருமன	-11937
▁ஓரிரு	-11938
▁ஓவைசி	-11939
▁கண்ணே	-11940
▁கதிரா	-11941
▁கபிர்	-11942
▁கற்பி	-11943
▁கலந்த	-11944
▁கல்கு	-11945
▁கழற்ற	-11946
▁காணாத	-11947
▁காண்க	-11948
▁காலவர	-11949
▁கிருப	-11950
▁குப்த	-11951
▁கைவில	-11952
▁கொஞ்ச	-11953
▁கொலமா	-11954
▁கோபிச	-11955
▁சடலம்	-11956
▁சட்டை	-11957
▁சந்தை	-11958
▁சப்பா	-11959
▁சரியா	-11960
▁சரிவு	-11961
▁சவாரி	-11962
▁சாகப்	-11963
▁சாத்த	-11964
▁சிகரெ	-11965
▁சிதறி	-11966
▁சுத்த	-11967
▁சுயநி	-11968
▁சூனிய	-11969
▁சோனால	-11970
▁சோளம்	-11971
▁ஜவுளி	-11972
▁ஜெய்ய	-11973
▁ஜோதிட	-11974
▁டூயட்	-11975
▁தடார்	-11976
▁தனியா	-11977
▁தமிழை	-11978
▁தர்கா	-11979
▁தலாக்	-11980
▁தள்லே	-11981
▁தாமதி	-11982
▁தெரசா	-11983
▁தோழர்	-11984
▁நம்மை	-11985
▁நரபலி	-11986
▁நவீன்	-11987
▁நாகரி	-11988
▁நாசர்	-11989
▁நிரூப	-11990
▁நிற்ப	-11991
▁நிலவு	-11992
▁நுரைய	-11993
▁நேசம்	-11994
▁பசுவை	-11995
▁பணிப்	-11996
▁பதானி	-11997
▁பன்னா	-11998
▁பருவம	-11999
சிஏ	-12000
ம்ஹ	-12001
4000	-12002
க்ளா	-12003
னையா	-12004
மனம்	-12005
மயம்	-12006
ரீட்	-12007
வியே	-12008
ஸ்ஸி	-12009
▁235	-12010
▁போத	-12011
▁மீற	-12012
ம்ஹார	-12013
வகுடி	-12014
வாகக்	-12015
ஸ்கள்	-12016
ஸ்வரி	-12017
ாரில்	-12018
▁சிஐஏ	-12019
▁தாரா	-12020
▁நகல்	-12021
▁பேக்	-12022
▁மோஹி	-12023
▁ரிமோ	-12024
▁வெனி	-12025
▁ஹிரு	-12026
மடையக்	-12027
▁இதையெ	-12028
▁ஏடிபி	-12029
▁பத்து	-12030
▁பலவீன	-12031
▁பார்ச	-12032
▁பாலன்	-12033
▁பிஎம்	-12034
▁பெத்த	-12035
▁பெறுக	-12036
▁பைஃன்	-12037
▁போகாத	-12038
▁மகாதே	-12039
▁மங்கல	-12040
▁மஞ்சு	-12041
▁மடோனா	-12042
▁மணீஷ்	-12043
▁மண்டல	-12044
▁மண்டை	-12045
▁மனநில	-12046
▁மனிதன	-12047
▁மனுவை	-12048
▁மலைவா	-12049
▁மழையா	-12050
▁மழையை	-12051
▁மாலைய	-12052
▁மிதிவ	-12053
▁முதுக	-12054
▁முள்ள	-12055
▁மெக்ஸ	-12056
▁மெஸ்ஸ	-12057
▁மேஜர்	-12058
▁மேலாக	-12059
▁மேலாட	-12060
▁ரக்ஷா	-12061
▁ரோஜர்	-12062
▁ரோட்ல	-12063
▁ரோமன்	-12064
▁லக்னோ	-12065
▁லங்கே	-12066
▁லம்பா	-12067
▁லாட்ட	-12068
▁லெவன்	-12069
▁வசந்த	-12070
▁வசூலை	-12071
▁வரியை	-12072
▁வறண்ட	-12073
▁வல்லு	-12074
▁வள்ளி	-12075
▁வானில	-12076
▁விதவி	-12077
▁விரதம	-12078
▁விவாத	-12079
▁வீட்ல	-12080
▁வெயில	-12081
▁வெளிவ	-12082
▁வேதிய	-12083
▁வேஷம்	-12084
▁ஷிகர்	-12085
▁ஸ்பைட	-12086
ஃபோசிஸ்	-12087
அனுஷ்கா	-12088
காட்டிய	-12089
க்காளர்	-12090
க்கொன்ற	-12091
ங்குளம்	-12092
சக்கரம்	-12093
சரஸ்வதி	-12094
சூரன்ஸ்	-12095
சேர்ந்த	-12096
ச்சொல்ல	-12097
ச்சோடிய	-12098
ஜாக்கிர	-12099
02	-12100
19	-12101
மிர	-12102
ய்வ	-12103
ரது	-12104
ற்ச	-12105
னந்த	-12106
ப்ளி	-12107
ருது	-12108
வினை	-12109
ஷீத்	-12110
ாகம்	-12111
▁ஆங்	-12112
▁ஆரோ	-12113
▁ஆவ்	-12114
▁பணப	-12115
▁முஷ	-12116
▁ஹில	-12117
டுவதை	-12118
த்துன	-12119
▁இனம்	-12120
▁உடைய	-12121
▁எனத்	-12122
▁ஓய்க	-12123
▁காசா	-12124
▁ரான்	-12125
▁வருஷ	-12126
சேகரன்	-12127
ப்போடு	-12128
ல்லாமா	-12129
▁அல்கா	-12130
▁அவரது	-12131
▁ஆவ்னி	-12132
▁ஆஸியை	-12133
▁சிம்ப	-12134
▁தெய்வ	-12135
▁யாகம்	-12136
▁ஹிலரி	-12137
டியிடம்	-12138
டுவதால்	-12139
ட்டிகள்	-12140
ட்டைகள்	-12141
ணத்தில்	-12142
ண்டியல்	-12143
தியானது	-12144
திறப்பு	-12145
த்தனூர்	-12146
த்தனையா	-12147
த்துறைய	-12148
ன்டரில்	-12149
ன்னதும்	-12150
பாண்டிய	-12151
பிளாஸ்ட	-12152
புரிவதை	-12153
ப்பஞ்சா	-12154
ப்படைத்	-12155
ப்பட்டி	-12156
ப்பந்து	-12157
ப்பேற்க	-12158
மதத்துட	-12159
மயமாதல்	-12160
மானவர்ஆ	-12161
மில்லாத	-12162
மையிலான	-12163
யாயிரம்	-12164
ய்லரும்	-12165
ரவையில்	-12166
ராஜ்யம்	-12167
ரிசோதனை	-12168
ரீதியான	-12169
ரையுடன்	-12170
ரோப்பிய	-12171
லக்குறை	-12172
லியிடம்	-12173
ல்கய்தா	-12174
ல்பட்டு	-12175
வாதிகளை	-12176
விகேஎஸ்	-12177
விட்கள்	-12178
விதிக்க	-12179
வினரின்	-12180
வைத்தது	-12181
ஸ்டியன்	-12182
ாப்பீடு	-12183
ினாதான்	-12184
ிருணாள்	-12185
ிலுக்கு	-12186
ுகளுடன்	-12187
ுகிறோம்	-12188
்காவ்யா	-12189
்குலாப்	-12190
்துளைக்	-12191
▁201617	-12192
▁ஃபேஷன்	-12193
▁அடப்பா	-12194
▁அதிபரை	-12195
▁அபுதாப	-12196
▁அம்மன்	-12197
▁அல்லது	-12198
▁ஆசியப்	-12199
34	-12200
றாக	-12201
ளவு	-12202
ஷனை	-12203
▁ஆஃ	-12204
▁ஆட	-12205
க்கல	-12206
டிவு	-12207
ப்டை	-12208
மாய்	-12209
மியோ	-12210
யால்	-12211
▁விற	-12212
ங்ஃபூ	-12213
ச்சறு	-12214
ப்பிற	-12215
ஷனில்	-12216
ார்கு	-12217
▁1997	-12218
▁ஆடிய	-12219
▁கொழு	-12220
▁சாவா	-12221
▁விசி	-12222
▁விறக	-12223
▁ஷாப்	-12224
த்தானே	-12225
ப்பையா	-12226
ரில்லா	-12227
லானால்	-12228
ளியில்	-12229
ிக்கல்	-12230
▁இதுபோ	-12231
▁உபியை	-12232
▁பேஷன்	-12233
கருக்கு	-12234
ப்பிறகு	-12235
மதிப்பு	-12236
ேற்போம்	-12237
▁ஆச்சர்	-12238
▁ஆதாயம்	-12239
▁ஆந்த்ர	-12240
▁ஆனந்தி	-12241
▁ஆன்தம்	-12242
▁ஆன்மிக	-12243
▁ஆன்மீக	-12244
▁ஆயுதம்	-12245
▁ஆஸ்தான	-12246
▁இடத்தை	-12247
▁இந்தக்	-12248
▁இரவுப்	-12249
▁உணர்வை	-12250
▁உன்னால	-12251
▁உயிர்த	-12252
▁உருகிய	-12253
▁ஊற்றிய	-12254
▁எண்கள்	-12255
▁எதனால்	-12256
▁என்ஜிஓ	-12257
▁எம்சிஏ	-12258
▁எழுச்ச	-12259
▁எஸ்எஸ்	-12260
▁ஏரிக்க	-12261
▁ஏற்றம்	-12262
▁ஐதீகம்	-12263
▁ஒருமாத	-12264
▁ஓரினத்	-12265
▁கடமைனு	-12266
▁கடவுளே	-12267
▁கணிக்க	-12268
▁கண்களை	-12269
▁கண்ணான	-12270
▁கமிஷன்	-12271
▁கலப்பட	-12272
▁கலைஞன்	-12273
▁கலைந்த	-12274
▁கவுதமி	-12275
▁காத்து	-12276
▁கார்கே	-12277
▁காவ்யா	-12278
▁காஸ்ட்	-12279
▁கில்லா	-12280
▁குடிசை	-12281
▁குடிநீ	-12282
▁குடியு	-12283
▁குப்தா	-12284
▁குயின்	-12285
▁குர்தா	-12286
▁கூலித்	-12287
▁கெயில்	-12288
▁கெளதம்	-12289
▁கேதார்	-12290
▁கேபாக்	-12291
▁கேரளப்	-12292
▁கைப்பே	-12293
▁கொஞ்சி	-12294
▁கொண்டே	-12295
▁கொரியா	-12296
▁கொள்மு	-12297
▁கோடிக்	-12298
▁கோடியே	-12299
னஸ்	-12300
ஸான	-12301
ாயா	-12302
ேகா	-12303
▁ஓய	-12304
ராக்	-12305
▁ஏய்	-12306
▁ஓசி	-12307
▁ஷகி	-12308
50000	-12309
அவுட்	-12310
னரின்	-12311
▁ஏஞ்ச	-12312
▁கடைய	-12313
▁கீமோ	-12314
▁க்ளா	-12315
▁தின்	-12316
▁தோசை	-12317
▁பாத்	-12318
▁பாலை	-12319
▁ஸ்லோ	-12320
தர்ஷன்	-12321
யாராய்	-12322
ற்றால்	-12323
ள்ளார்	-12324
வுண்ட்	-12325
▁தாகம்	-12326
▁தைரிய	-12327
▁நடும்	-12328
▁மறுவா	-12329
▁வீனஸ்	-12330
▁ஷகிலா	-12331
ங்காமல்	-12332
ங்குடன்	-12333
ச்சுவரை	-12334
டுக்கான	-12335
ப்புயல்	-12336
வதுதான்	-12337
ுக்குழு	-12338
▁கம்பீர	-12339
▁காட்டா	-12340
▁கோயிலை	-12341
▁க்ரைம்	-12342
▁சகிக்க	-12343
▁சடங்கு	-12344
▁சம்மதி	-12345
▁சரிவதை	-12346
▁சாடும்	-12347
▁சாந்தா	-12348
▁சிட்னி	-12349
▁சிராஜ்	-12350
▁சிறப்ப	-12351
▁சிறிது	-12352
▁சிறுவா	-12353
▁சிறைத்	-12354
▁சீனாவை	-12355
▁சுகேஷ்	-12356
▁சுஜாதா	-12357
▁சுரண்ட	-12358
▁சுவாதி	-12359
▁சூட்டு	-12360
▁சூளுரை	-12361
▁செயலர்	-12362
▁செயல்த	-12363
▁செயின்	-12364
▁சேவையா	-12365
▁சேஸூம்	-12366
▁சைக்கோ	-12367
▁சோங்கா	-12368
▁சோலார்	-12369
▁ஜாமீனை	-12370
▁ஜிகாத்	-12371
▁ஜூனில்	-12372
▁ஜேம்ஸ்	-12373
▁டாக்ஸி	-12374
▁டாஸ்மா	-12375
▁டிரான்	-12376
▁டூடுல்	-12377
▁டெண்டு	-12378
▁ட்ரோன்	-12379
▁தங்கத்	-12380
▁தனியாக	-12381
▁தானும்	-12382
▁திகார்	-12383
▁திட்டி	-12384
▁திரிஷா	-12385
▁திரைப்	-12386
▁திவாரி	-12387
▁தீயாய்	-12388
▁தீயில்	-12389
▁தீர்வை	-12390
▁துடிது	-12391
▁துயரமே	-12392
▁துரோகி	-12393
▁தூதராக	-12394
▁தென்னக	-12395
▁தென்னி	-12396
▁தெரியல	-12397
▁தேம்பி	-12398
▁தைவான்	-12399
களே	-12400
லவு	-12401
ீச்	-12402
▁91	-12403
குமா	-12404
சினி	-12405
னாய்	-12406
மணம்	-12407
▁360	-12408
▁அமு	-12409
▁கதற	-12410
▁டிஐ	-12411
▁பொய	-12412
எல்வி	-12413
சியன்	-12414
ிகையை	-12415
ையூர்	-12416
▁கோச்	-12417
▁செயல	-12418
▁டிம்	-12419
▁துரி	-12420
▁புக்	-12421
▁மீதே	-12422
▁ஹிமா	-12423
த்தடம்	-12424
னாட்சி	-12425
ப்புச்	-12426
றிக்கை	-12427
லாக்கை	-12428
▁ஆகுமா	-12429
▁இந்தா	-12430
▁ஒத்தை	-12431
▁சம்மே	-12432
▁டிஐஜி	-12433
▁பளீச்	-12434
▁புகழு	-12435
▁ரேவதி	-12436
▁வாடிய	-12437
▁ஸ்ரீத	-12438
ச்செலவு	-12439
ட்டாங்க	-12440
த்திறன்	-12441
ிஸ்தான்	-12442
▁ஆக்ரோஷ	-12443
▁எந்தக்	-12444
▁காக்கை	-12445
▁சம்மேள	-12446
▁தொட்டு	-12447
▁நக்சலை	-12448
▁நடைபெற	-12449
▁நழுவிய	-12450
▁நாணயம்	-12451
▁நின்று	-12452
▁நீர்வள	-12453
▁நுழைவு	-12454
▁நெஞ்சு	-12455
▁நேரும்	-12456
▁நைபால்	-12457
▁நோட்டை	-12458
▁நோயால்	-12459
▁பக்கம்	-12460
▁பக்தர்	-12461
▁பஞ்சம்	-12462
▁படுகாய	-12463
▁பணியாள	-12464
▁பரவசம்	-12465
▁பரவலாக	-12466
▁பர்மன்	-12467
▁பறிக்க	-12468
▁பள்ளம்	-12469
▁பாகமாக	-12470
▁பாகவத்	-12471
▁பாக்கி	-12472
▁பாக்கே	-12473
▁பாண்டி	-12474
▁பார்றா	-12475
▁பிஎம்ட	-12476
▁பிடிபி	-12477
▁பிரஷர்	-12478
▁புலியை	-12479
▁புழக்க	-12480
▁புவனேஷ	-12481
▁பெடரர்	-12482
▁பெட்டி	-12483
▁பென்ஸ்	-12484
▁பெய்ன்	-12485
▁பெருவை	-12486
▁பெர்ரி	-12487
▁பெறுமா	-12488
▁பேக்ஸ்	-12489
▁பேரைச்	-12490
▁பொண்ணு	-12491
▁பொதுப்	-12492
▁பொறாமை	-12493
▁பொழிவு	-12494
▁போகுது	-12495
▁போச்சே	-12496
▁போதகர்	-12497
▁போதாது	-12498
▁போதுமா	-12499
வலை	-12500
▁38	-12501
▁வோ	-12502
ர்தி	-12503
லக்ட	-12504
விகி	-12505
▁379	-12506
▁எவை	-12507
▁ஐஸ்	-12508
▁ஜெப	-12509
ஞ்சர்	-12510
லக்ட்	-12511
ுவேல்	-12512
▁ஒருப	-12513
▁கைகு	-12514
▁தோள்	-12515
▁நய்ய	-12516
▁பரிய	-12517
▁பிளை	-12518
▁மவுன	-12519
▁மிரா	-12520
▁மேடை	-12521
▁வாடா	-12522
ங்கள்ல	-12523
சர்ச்ச	-12524
ிற்கான	-12525
▁கவுரி	-12526
▁சிலர்	-12527
▁தலைது	-12528
▁நிதான	-12529
க்கல்வி	-12530
ச்சரில்	-12531
ச்சரிவு	-12532
ட்டரில்	-12533
▁ஆக்கிய	-12534
▁இரவில்	-12535
▁எலக்ட்	-12536
▁ஓராண்ட	-12537
▁கடைகள்	-12538
▁கவரும்	-12539
▁காண்டு	-12540
▁தாண்டி	-12541
▁பந்தன்	-12542
▁பபாண்ட	-12543
▁பாஸ்ம்	-12544
▁போதைப்	-12545
▁போன்சி	-12546
▁போவதாக	-12547
▁மகனைக்	-12548
▁மகாஜன்	-12549
▁மஞ்சள்	-12550
▁மனநிலை	-12551
▁மயங்கி	-12552
▁மறைமுக	-12553
▁மலர்க்	-12554
▁மல்லிக	-12555
▁மாட்ச்	-12556
▁மாஸூம்	-12557
▁மிடில்	-12558
▁மில்கா	-12559
▁மீடியா	-12560
▁முகமத்	-12561
▁மூடும்	-12562
▁மெஷின்	-12563
▁மெஸ்ஸி	-12564
▁மேரிகோ	-12565
▁மேற்கூ	-12566
▁யுடியூ	-12567
▁ராஜராஜ	-12568
▁ராட்சத	-12569
▁ராமாயண	-12570
▁ராவணன்	-12571
▁ரிக்கி	-12572
▁ரிமோட்	-12573
▁ரூபாயை	-12574
▁ரெடியா	-12575
▁ரேக்ளா	-12576
▁ரேபிஸ்	-12577
▁ரைமிங்	-12578
▁லட்சிய	-12579
▁லஷ்கர்	-12580
▁லார்ட்	-12581
▁லைக்ஸ்	-12582
▁வடக்கு	-12583
▁வடேகர்	-12584
▁வட்டார	-12585
▁வண்ணமய	-12586
▁வத்தல்	-12587
▁வரம்பு	-12588
▁வருவது	-12589
▁வலுவாக	-12590
▁வளரும்	-12591
▁வளைத்த	-12592
▁வளையல்	-12593
▁வழங்கி	-12594
▁வாரிசு	-12595
▁வாருணி	-12596
▁விசிட்	-12597
▁விடிவு	-12598
▁விருதா	-12599
70	-12600
யோ	-12601
▁99	-12602
னோம்	-12603
மணிய	-12604
யமாக	-12605
▁161	-12606
▁அமோ	-12607
▁இங்	-12608
▁எதை	-12609
▁மனந	-12610
▁லவ்	-12611
மாகப்	-12612
றுவது	-12613
வளவனை	-12614
வீரன்	-12615
ியைப்	-12616
ிற்சி	-12617
▁உறைப	-12618
▁சீர்	-12619
▁சொரா	-12620
▁நம்ம	-12621
▁பாடு	-12622
க்காவை	-12623
த்தனம்	-12624
த்திரு	-12625
பிசிங்	-12626
விடுமா	-12627
ாரற்று	-12628
ியாவது	-12629
▁அக்கா	-12630
▁அட்மி	-12631
▁அமீர்	-12632
▁ஆளுமை	-12633
▁உள்வா	-12634
▁படையை	-12635
▁பலூன்	-12636
▁போவது	-12637
▁மனிதி	-12638
▁ஹனிமூ	-12639
ட்டியது	-12640
▁அணுகிய	-12641
▁அமோகம்	-12642
▁எனக்கே	-12643
▁கலைக்க	-12644
▁டிட்லி	-12645
▁தங்கப்	-12646
▁திணறிய	-12647
▁படையல்	-12648
▁புதுக்	-12649
▁மனநலம்	-12650
▁மலிவான	-12651
▁வந்ததே	-12652
▁வாடும்	-12653
▁விலக்க	-12654
▁விழிப்	-12655
▁விஷப்ப	-12656
▁வீணாய்	-12657
▁வெங்கட	-12658
▁வெனிசு	-12659
▁வேதிகா	-12660
▁வேலைத்	-12661
▁வேலையா	-12662
▁வைகோவை	-12663
▁ஷோயிக்	-12664
▁ஸ்கூல்	-12665
▁ஸ்கோர்	-12666
▁ஸ்டாப்	-12667
▁ஸ்விகி	-12668
▁ஹர்மன்	-12669
▁ஹெலிகே	-12670
▁ஹேமலதா	-12671
களுக்கான	-12672
க்கட்டளை	-12673
க்காற்று	-12674
க்கியில்	-12675
க்கூத்து	-12676
ங்கடலில்	-12677
சிம்புரா	-12678
சியாவில்	-12679
சுற்றுலா	-12680
சென்டால்	-12681
ச்சட்டம்	-12682
டங்களில்	-12683
டுகிறாரா	-12684
டுபொடியா	-12685
ட்சியில்	-12686
ட்டாயமாக	-12687
ட்டிலும்	-12688
ண்ட்தான்	-12689
தியுறும்	-12690
த்தேம்பி	-12691
நிதிக்கு	-12692
நோக்கும்	-12693
ப்படியாக	-12694
ப்பணத்தை	-12695
ப்பாட்டு	-12696
ப்பெறும்	-12697
மர்த்திய	-12698
மல்ஹாசன்	-12699
59	-12700
ஆக	-12701
பாட	-12702
▁ஊட	-12703
▁ஷப	-12704
னைத்	-12705
▁ஆமை	-12706
ச்சுட	-12707
ல்கரை	-12708
▁ஃபிர	-12709
▁கல்ப	-12710
▁காரா	-12711
▁காவு	-12712
▁டிசை	-12713
▁தாளா	-12714
▁மூடு	-12715
▁ரிலீ	-12716
▁விசை	-12717
▁ஷான்	-12718
▁ஸ்வை	-12719
ச்சேன்	-12720
த்தாலி	-12721
த்திக்	-12722
ப்பிதா	-12723
ரித்து	-12724
வித்து	-12725
▁அதிகா	-12726
▁இவ்ளோ	-12727
▁ஊக்கு	-12728
▁ஊடகம்	-12729
▁ஏங்கி	-12730
▁கயிற்	-12731
▁கிட்ட	-12732
▁சபைக்	-12733
▁தரமணி	-12734
▁தேவார	-12735
▁பல்டி	-12736
துங்கிய	-12737
ூட்டும்	-12738
▁உயரும்	-12739
▁எம்மர்	-12740
▁கருணைய	-12741
▁கல்பனா	-12742
▁தன்மான	-12743
▁தவிக்க	-12744
▁பாலில்	-12745
▁புத்தி	-12746
▁மனிதன்	-12747
▁வாங்கா	-12748
▁வீசும்	-12749
ப்போரில்	-12750
மாகினார்	-12751
மிரட்டல்	-12752
மெல்லாம்	-12753
ரானுக்கு	-12754
ர்கிறேன்	-12755
ர்த்தும்	-12756
ர்ந்தால்	-12757
ர்வியூவ்	-12758
ற்றினார்	-12759
ற்றிலேயே	-12760
லீஸ்வரர்	-12761
லையொட்டி	-12762
ல்களுடன்	-12763
ல்லோவில்	-12764
ழிக்கும்	-12765
ழ்த்துமா	-12766
வான்களான	-12767
விடுவோம்	-12768
விளக்கம்	-12769
விழாவில்	-12770
ஷிப்பில்	-12771
ிகளிலும்	-12772
ிக்கானது	-12773
ிக்கொன்ற	-12774
ினேஷனில்	-12775
ிருக்கிற	-12776
ிருப்பது	-12777
ூர்வகுடி	-12778
ையனுக்கு	-12779
்தான்ஆனா	-12780
▁ஃபாசில்	-12781
▁ஃபெடரரை	-12782
▁அகதிகளை	-12783
▁அகதியான	-12784
▁அகற்றிய	-12785
▁அடுத்தப	-12786
▁அட்டவணை	-12787
▁அதிகமான	-12788
▁அதிசயம்	-12789
▁அதிருது	-12790
▁அநீதியை	-12791
▁அபார்ட்	-12792
▁அபிஷேக்	-12793
▁அமைதிப்	-12794
▁அம்ரீஷ்	-12795
▁அரசுப்ப	-12796
▁அரியவகை	-12797
▁அறிந்து	-12798
▁அறிவாலய	-12799
ரவ	-12800
ிலா	-12801
▁76	-12802
றுமா	-12803
▁174	-12804
▁சோழ	-12805
▁துண	-12806
▁மகர	-12807
ங்காத	-12808
தரும்	-12809
மாவது	-12810
▁அவரு	-12811
▁ஆடுக	-12812
▁உட்க	-12813
▁எனக்	-12814
▁சூழ்	-12815
▁சோடா	-12816
▁சோமா	-12817
▁டூர்	-12818
▁திஷா	-12819
▁நீலு	-12820
▁மயம்	-12821
▁வேணா	-12822
லிஸ்ட்	-12823
வேம்பு	-12824
▁இயற்ப	-12825
▁ஏந்தி	-12826
▁ஓட்டை	-12827
▁சீராக	-12828
▁ரஹீம்	-12829
▁வீடுக	-12830
சம்வேர்	-12831
த்தனமான	-12832
மின்டன்	-12833
ளின்டன்	-12834
▁அந்தப்	-12835
▁இளைஞன்	-12836
▁என்னது	-12837
▁சிலையா	-12838
▁துயரம்	-12839
▁பிராட்	-12840
▁போட்டா	-12841
▁வாஜ்பா	-12842
▁அறிந்தே	-12843
▁அறையின்	-12844
▁அலங்கோல	-12845
▁அலிகான்	-12846
▁அள்ளிக்	-12847
▁அழகியாக	-12848
▁அழிவின்	-12849
▁ஆகிறாரே	-12850
▁ஆச்சரிய	-12851
▁ஆண்டவரை	-12852
▁ஆதரவும்	-12853
▁ஆலையைத்	-12854
▁ஆளுநராக	-12855
▁இடைவெளி	-12856
▁இணைப்பை	-12857
▁இதுவும்	-12858
▁இத்தாலி	-12859
▁இந்தியை	-12860
▁இந்தூர்	-12861
▁இப்போதே	-12862
▁இயக்குன	-12863
▁இயங்கத்	-12864
▁இருட்டு	-12865
▁இறக்கிய	-12866
▁இறுதிக்	-12867
▁இலவசமாக	-12868
▁இலையில்	-12869
▁இல்லையே	-12870
▁இழக்கக்	-12871
▁உண்ணும்	-12872
▁உதாரணம்	-12873
▁உயர்வாக	-12874
▁உயிரும்	-12875
▁உறவினர்	-12876
▁உழைப்பு	-12877
▁ஊராட்சி	-12878
▁எண்ணூர்	-12879
▁எதிரியை	-12880
▁என்ஜிகே	-12881
▁என்னைப்	-12882
▁எமன்கள்	-12883
▁எரிச்சல	-12884
▁எல்லாமே	-12885
▁எளிதில்	-12886
▁ஏமாற்றி	-12887
▁ஏமாற்று	-12888
▁ஏரியில்	-12889
▁ஏர்டெல்	-12890
▁ஏற்றார்	-12891
▁ஏற்றிச்	-12892
▁ஏற்றும்	-12893
▁ஐபிஎல்ஐ	-12894
▁ஒகேனக்க	-12895
▁ஒடிசாவை	-12896
▁ஒத்துழை	-12897
▁ஒருபால்	-12898
▁ஒருவனாக	-12899
▁67	-12900
▁77	-12901
▁78	-12902
மேளா	-12903
வீஸ்	-12904
▁சூர	-12905
▁சோக	-12906
▁பிய	-12907
சிடம்	-12908
வார்க	-12909
ீட்டை	-12910
▁ஊர்ம	-12911
▁எரிம	-12912
▁தடம்	-12913
▁பணப்	-12914
▁பண்ற	-12915
▁மாஸ்	-12916
டியாகி	-12917
டெல்லி	-12918
த்திஷ்	-12919
ர்தானா	-12920
லேண்ட்	-12921
ினரின்	-12922
ியரின்	-12923
▁அம்பு	-12924
▁அரவணை	-12925
▁ஆயத்த	-12926
▁கட்டள	-12927
▁தனியே	-12928
▁நெஞ்ச	-12929
▁பன்ட்	-12930
▁பாபர்	-12931
▁ரசூல்	-12932
▁வரைவு	-12933
▁வளைவு	-12934
▁ஒருவார	-12935
▁குதறிய	-12936
▁குத்தி	-12937
▁தழுவிய	-12938
▁மாணவரை	-12939
▁வெடிவி	-12940
ச்சுட்டா	-12941
ப்போச்சு	-12942
வாரியில்	-12943
▁அரசியலி	-12944
▁அவர்களே	-12945
▁இதுக்கெ	-12946
▁உடையாது	-12947
▁ஒழுங்கு	-12948
▁ஓய்வில்	-12949
▁ஓய்வெடு	-12950
▁கசியும்	-12951
▁கடைக்கு	-12952
▁கடைசிக்	-12953
▁கட்காரி	-12954
▁கட்சித்	-12955
▁கதவுகள்	-12956
▁கத்தியை	-12957
▁கத்திரி	-12958
▁கப்சிப்	-12959
▁கமலுடன்	-12960
▁கமெண்ட்	-12961
▁கரைந்து	-12962
▁கரைப்பு	-12963
▁கற்றுத்	-12964
▁கலாமின்	-12965
▁கல்யாணி	-12966
▁கல்வீசி	-12967
▁கள்ளச்ச	-12968
▁கழித்து	-12969
▁கவனிக்க	-12970
▁கவலைப்ப	-12971
▁கவுதாரி	-12972
▁காக்கவே	-12973
▁காசாளர்	-12974
▁கார்டன்	-12975
▁காலத்தை	-12976
▁கால்கள்	-12977
▁குங்ஃபூ	-12978
▁குத்தமா	-12979
▁குமுறல்	-12980
▁குரோஷிய	-12981
▁குளித்த	-12982
▁குழுமத்	-12983
▁கூந்தலை	-12984
▁கெடுத்த	-12985
▁கேரளாவை	-12986
▁கைகளில்	-12987
▁கைவிடாத	-12988
▁கைவிடுக	-12989
▁கொடூரன்	-12990
▁கொத்தடி	-12991
▁கொலமாஸ்	-12992
▁கோஃபின்	-12993
▁கோயம்பே	-12994
▁கோல்டன்	-12995
▁க்ளாமர்	-12996
▁சக்சேனா	-12997
▁சங்கமம்	-12998
▁சத்யராஜ	-12999
▁106	-13000
▁ஃபீ	-13001
▁எக்	-13002
▁சஹா	-13003
டலாம்	-13004
தானம்	-13005
▁இடது	-13006
▁இடைய	-13007
▁டீல்	-13008
▁புறா	-13009
▁மீனவ	-13010
▁மெடி	-13011
▁மெனு	-13012
மாக்கி	-13013
▁இரக்க	-13014
▁கனஅடி	-13015
▁குமரி	-13016
▁தலையை	-13017
▁பரதம்	-13018
▁மோசம்	-13019
▁விஷப்	-13020
ங்களைப்	-13021
முறைகள்	-13022
ர்ந்தது	-13023
ழுத்தம்	-13024
▁ஆணையத்	-13025
▁கர்ப்ப	-13026
▁சட்டமா	-13027
▁ஜலராஜா	-13028
▁தங்களை	-13029
▁தனபாலை	-13030
▁தனித்த	-13031
▁திரவம்	-13032
▁நாகரிக	-13033
▁புதுவை	-13034
▁லஷ்மண்	-13035
ங்கடித்த	-13036
ச்சாச்சு	-13037
மாற்றும்	-13038
▁அதிகமாக	-13039
▁சம்பளமா	-13040
▁சரிதான்	-13041
▁சாதகமாக	-13042
▁சாதனைப்	-13043
▁சாதிக்க	-13044
▁சாதித்த	-13045
▁சாமானிய	-13046
▁சாராயம்	-13047
▁சாலையாக	-13048
▁சிரிக்க	-13049
▁சிறுத்த	-13050
▁சிலரின்	-13051
▁சீசரின்	-13052
▁சீனிவாச	-13053
▁சுங்கக்	-13054
▁சுட்டது	-13055
▁சுதாகர்	-13056
▁சுயநினை	-13057
▁சூரப்பா	-13058
▁சூழ்ந்த	-13059
▁செக்கச்	-13060
▁செய்யவே	-13061
▁செய்வதா	-13062
▁செல்வது	-13063
▁செல்வதை	-13064
▁சேட்டன்	-13065
▁சேவைகள்	-13066
▁சொன்னதை	-13067
▁சொல்வதே	-13068
▁சோதனையை	-13069
▁ஜமைக்கா	-13070
▁ஜிப்மர்	-13071
▁ஜீயரின்	-13072
▁ஜெயராம்	-13073
▁ஜெயிக்க	-13074
▁ஜோடியாக	-13075
▁டப்பிங்	-13076
▁டிசைனர்	-13077
▁டீக்கடை	-13078
▁டீசரில்	-13079
▁டீலக்ஸ்	-13080
▁டேங்கர்	-13081
▁டைவர்ஸ்	-13082
▁டோக்கிய	-13083
▁தகுதித்	-13084
▁தங்கப்ப	-13085
▁தணிக்கை	-13086
▁தத்தின்	-13087
▁தமிழனாக	-13088
▁தமிழ்த்	-13089
▁தம்பதிய	-13090
▁தம்பியை	-13091
▁தயக்கம்	-13092
▁தலைமைக்	-13093
▁தவறானத்	-13094
▁தாமதமான	-13095
▁தாரங்கா	-13096
▁திராவிட	-13097
▁திரிபதி	-13098
▁திரையிட	-13099
▁திறமையை	-13100
▁துக்கம்	-13101
▁துடிக்க	-13102
▁துண்டாக	-13103
▁துல்கரை	-13104
▁தெரிந்த	-13105
▁தேக்கடி	-13106
▁தேசியத்	-13107
▁தேடுதல்	-13108
▁தேடுவதா	-13109
▁தேர்ச்ச	-13110
▁தேவாரம்	-13111
▁தேவையான	-13112
▁தொடுவது	-13113
▁நடிப்பை	-13114
▁நந்தினி	-13115
▁நந்தீஷ்	-13116
▁நயவஞ்சக	-13117
▁நய்யார்	-13118
▁நலமுடன்	-13119
▁நாட்டிய	-13120
▁நாளன்று	-13121
▁நிகோலஸ்	-13122
▁நிர்பயா	-13123
▁நிறைமாத	-13124
▁நிலையான	-13125
▁நீக்கக்	-13126
▁நெரித்த	-13127
▁நேரத்தை	-13128
▁பச்சைத்	-13129
▁படிப்பு	-13130
▁படுகோன்	-13131
▁பணியின்	-13132
▁பதிவேடு	-13133
▁பந்தளம்	-13134
▁பருத்தி	-13135
▁பரோலில்	-13136
▁பறவைகள்	-13137
▁பாதிக்க	-13138
▁பாதிப்ப	-13139
▁பார்களை	-13140
▁பார்சல்	-13141
▁பாலூட்ட	-13142
▁பின்தொட	-13143
▁பிரதான்	-13144
▁பிரவீன்	-13145
▁பிறந்து	-13146
▁பிறப்பி	-13147
▁புக்கட்	-13148
▁புதைந்த	-13149
▁புயலைப்	-13150
▁புரட்சி	-13151
▁பெண்ணாக	-13152
▁பெறுவது	-13153
▁பேரியம்	-13154
▁பொன்னான	-13155
▁போலியாக	-13156
▁மச்சான்	-13157
▁மடியில்	-13158
▁மதத்தின	-13159
▁மதுவால்	-13160
▁மபியில்	-13161
▁மறுமணம்	-13162
▁மறைத்து	-13163
▁மலைவாழ்	-13164
▁மழலைகள்	-13165
▁மாமனார்	-13166
▁மாளவிகா	-13167
▁மியூசிய	-13168
▁மீன்கள்	-13169
▁முகமும்	-13170
▁முட்புத	-13171
▁முதன்மை	-13172
▁முத்தம்	-13173
▁முத்திர	-13174
▁முந்தைய	-13175
▁முன்பாக	-13176
▁முரசொலி	-13177
▁முரட்டு	-13178
▁முருகதா	-13179
▁மேலாளர்	-13180
▁மைதானம்	-13181
▁மைத்துன	-13182
▁மோதலால்	-13183
▁மோர்கன்	-13184
▁யத்திஷ்	-13185
▁யாருடன்	-13186
▁யூசூஃப்	-13187
▁யூனியன்	-13188
▁யோசிக்க	-13189
▁ரஞ்சிக்	-13190
▁ரயிலின்	-13191
▁ராணுவக்	-13192
▁ராணுவத்	-13193
▁ராமமோகன	-13194
▁ரிவர்ஸ்	-13195
▁ரீதியாக	-13196
▁லக்கானி	-13197
▁லாக்கர்	-13198
▁லெட்டர்	-13199
▁லைவ்வாக	-13200
▁வசதியான	-13201
▁வணங்கிய	-13202
▁வருவோம்	-13203
▁வர்மாவை	-13204
▁வாக்களி	-13205
▁வாங்கின	-13206
▁வாசித்த	-13207
▁வாஜ்பாய	-13208
▁வான்கோழ	-13209
▁வாய்க்க	-13210
▁விக்கிர	-13211
▁விடுக்க	-13212
▁விநோதத்	-13213
▁வியன்னா	-13214
▁விரிசல்	-13215
▁விரோதக்	-13216
▁விரோதம்	-13217
▁விற்கத்	-13218
▁விற்றது	-13219
▁விலகும்	-13220
▁விஸ்வாச	-13221
▁வெட்கம்	-13222
▁வெட்டச்	-13223
▁வேலைகளை	-13224
▁வைகுண்ட	-13225
▁வையுங்க	-13226
▁ஸ்பின்ன	-13227
▁ஸ்வப்னா	-13228
▁ஸ்வீடன்	-13229
▁ஹர்பஜனை	-13230
▁ஹீரோவாக	-13231
களுக்குத்	-13232
க்கட்டணம்	-13233
க்கறிக்கு	-13234
க்கல்லூரி	-13235
க்காகவும்	-13236
ச்சிடுங்க	-13237
ட்சியினர்	-13238
ட்டிக்கக்	-13239
ட்டிக்காக	-13240
ட்டிவிட்ட	-13241
ண்டுகளில்	-13242
த்தனமானது	-13243
த்திரிந்த	-13244
த்தீர்த்த	-13245
த்துக்கான	-13246
த்துலயும்	-13247
ந்தருக்கு	-13248
பாண்டியன்	-13249
பிரிட்டன்	-13250
ப்படிப்பு	-13251
ப்படுகொலை	-13252
ப்பட்டாரா	-13253
ப்பதுதானே	-13254
ப்பவர்கள்	-13255
ப்பார்கள்	-13256
மடைந்தேன்	-13257
முறையாவது	-13258
யத்திற்கு	-13259
ர்கள்தான்	-13260
ர்க்குணம்	-13261
ல்களுக்கு	-13262
ள்ளுங்கள்	-13263
விநியோகம்	-13264
வைரமுத்து	-13265
ாம்பட்டின	-13266
ாராய்ச்சி	-13267
ியாருக்கு	-13268
ிருக்கும்	-13269
ையின்போது	-13270
ோனிஷியாவை	-13271
▁அஃப்ரிடி	-13272
▁அஜாக்கிர	-13273
▁அடப்பாவி	-13274
▁அணிகளும்	-13275
▁அணிவதால்	-13276
▁அணுசக்தி	-13277
▁அதற்குப்	-13278
▁அதிதீவிர	-13279
▁அன்புடன்	-13280
▁அபிஷேகம்	-13281
▁அமலானால்	-13282
▁அமிதாப்ப	-13283
▁அமைதியான	-13284
▁அம்பலமான	-13285
▁அருகருகே	-13286
▁அலைக்கழி	-13287
▁அல்கய்தா	-13288
▁அளவிற்கு	-13289
▁அள்ளுவது	-13290
▁அவமதித்த	-13291
▁அவர்தான்	-13292
▁ஆஃபருடன்	-13293
▁ஆட்சியரை	-13294
▁ஆதாரத்தை	-13295
▁ஆதிக்கம்	-13296
▁ஆப்ரேஷன்	-13297
▁ஆயிரத்தை	-13298
▁ஆயுர்வேத	-13299
▁ஆராய்ச்ச	-13300
▁ஆறுமுகம்	-13301
▁ஆலோசிக்க	-13302
▁ஆவதற்காக	-13303
▁ஆஸ்திரிய	-13304
▁இடையேயான	-13305
▁இணையத்தை	-13306
▁இயற்கையை	-13307
▁இரட்டைக்	-13308
▁இருக்கிற	-13309
▁இறந்தாள்	-13310
▁இல்லாதது	-13311
▁இழக்கும்	-13312
▁உடன்பாடு	-13313
▁உணவகத்தை	-13314
▁உண்டியல்	-13315
▁உயிருடன்	-13316
▁உயிர்கள்	-13317
▁உலகளவில்	-13318
▁ஊர்வலமாக	-13319
▁எடுங்கள்	-13320
▁எண்ணுடன்	-13321
▁எத்தனையா	-13322
▁எனக்குப்	-13323
▁என்கவுன்	-13324
▁என்னய்யா	-13325
▁என்னிடம்	-13326
▁என்னென்ன	-13327
▁எளிமையாக	-13328
▁எஸ்அனிதா	-13329
▁ஏஜெண்டாக	-13330
▁ஏரிகளில்	-13331
▁ஏற்றுமதி	-13332
▁ஏலியனின்	-13333
▁ஏவுகணையை	-13334
▁ஐயாயிரம்	-13335
▁ஐரோப்பிய	-13336
▁ஒப்பிட்ட	-13337
▁ஒருமனதாக	-13338
▁ஒளிப்பதி	-13339
▁ஓடிப்போன	-13340
▁ஓட்டியது	-13341
▁ஓய்கிறது	-13342
▁கஜாபுயல்	-13343
▁கடற்படைய	-13344
▁கண்களில்	-13345
▁கண்டிக்க	-13346
▁கன்றுகள்	-13347
▁கர்ணாவதி	-13348
▁கலப்படம்	-13349
▁கலைத்தது	-13350
▁கல்லீரல்	-13351
▁கழிப்பறை	-13352
▁கவிழ்த்த	-13353
▁கவிழ்ந்த	-13354
▁காங்கிரஸ	-13355
▁காபூலில்	-13356
▁காரணமல்ல	-13357
▁காலையில்	-13358
▁காளியில்	-13359
▁கிடுக்கி	-13360
▁கிடைத்து	-13361
▁கிட்டுமா	-13362
▁கிறிஸ்தவ	-13363
▁கிழிப்பு	-13364
▁கீழ்த்தர	-13365
▁குடிமகனை	-13366
▁குதித்து	-13367
▁குத்துச்	-13368
▁குப்பைக்	-13369
▁குரேஷியா	-13370
▁குறிப்பு	-13371
▁குறுக்கே	-13372
▁குறைபாடு	-13373
▁குழுவில்	-13374
▁கூட்டமாக	-13375
▁கூட்டாளி	-13376
▁கூட்டுப்	-13377
▁கூண்டோடு	-13378
▁கேட்டால்	-13379
▁கேட்டும்	-13380
▁கைகலப்பு	-13381
▁கைப்பற்ற	-13382
▁கொன்றவரை	-13383
▁கொரில்லா	-13384
▁கொலைவெறி	-13385
▁கோடியாம்	-13386
▁சண்டையாக	-13387
▁சந்தோஷம்	-13388
▁சமந்தாவை	-13389
▁சமரசமும்	-13390
▁சமூகத்தை	-13391
▁சம்பத்தை	-13392
▁சரிசெய்த	-13393
▁சரியானதே	-13394
▁சலுகைகள்	-13395
▁சல்மான்க	-13396
▁சாணக்கிய	-13397
▁சாதனைகளை	-13398
▁சாத்தான்	-13399
▁சாப்பாடு	-13400
▁சிட்டியை	-13401
▁சிதறியது	-13402
▁சித்துவை	-13403
▁சிரிண்டா	-13404
▁சிறையால்	-13405
▁சீண்டும்	-13406
▁சீரியஸான	-13407
▁சுசுவாமி	-13408
▁சுடச்சுட	-13409
▁சுட்டனர்	-13410
▁சுட்டுப்	-13411
▁சுருளும்	-13412
▁சென்டாக்	-13413
▁சென்னைப்	-13414
▁செம்மரம்	-13415
▁செம்மொழி	-13416
▁செய்ததாக	-13417
▁செல்வதாக	-13418
▁சேமிப்பு	-13419
▁சேமிப்பை	-13420
▁சைனாமேன்	-13421
▁சொதப்பிய	-13422
▁சொல்வேன்	-13423
▁ஜிக்னேஷ்	-13424
▁ஜெவுக்கு	-13425
▁டார்ஜிலி	-13426
▁டிஜிபியை	-13427
▁டிராபிக்	-13428
▁டூடுளில்	-13429
▁டைட்டில்	-13430
▁டைரக்டர்	-13431
▁ட்ரூஜெட்	-13432
▁தடுக்கவே	-13433
▁தன்னார்வ	-13434
▁தன்மானம்	-13435
▁தபால்கள்	-13436
▁தம்பதியை	-13437
▁தரத்தில்	-13438
▁தரிசிக்க	-13439
▁தற்போதைய	-13440
▁தலைமறைவு	-13441
▁தலையிட்ட	-13442
▁தவறுக்கு	-13443
▁தாங்கும்	-13444
▁தாதாவின்	-13445
▁திக்திக்	-13446
▁திருடியே	-13447
▁திருமணமா	-13448
▁திரைக்கு	-13449
▁திறக்கக்	-13450
▁தில்லாலே	-13451
▁துறையில்	-13452
▁தென்தமிழ	-13453
▁தெரிந்தே	-13454
▁தெருவில்	-13455
▁தேவியின்	-13456
▁தொடங்கின	-13457
▁தொட்டில்	-13458
▁த்ரில்லி	-13459
▁நகைக்கடை	-13460
▁நடக்காது	-13461
▁நடந்தால்	-13462
▁நடாலுடன்	-13463
▁நடைபெற்ற	-13464
▁நாட்டைப்	-13465
▁நாயகிகள்	-13466
▁நாய்க்கு	-13467
▁நிதியைப்	-13468
▁நினைவகம்	-13469
▁நினைவுச்	-13470
▁நிர்ணயம்	-13471
▁நிலத்தடி	-13472
▁நீர்மட்ட	-13473
▁நெருப்பு	-13474
▁நேருவின்	-13475
▁நோயினால்	-13476
▁பசுக்களை	-13477
▁படிக்கத்	-13478
▁பணிந்தது	-13479
▁பணியாற்ற	-13480
▁பண்ணுங்க	-13481
▁பதட்டமாக	-13482
▁பதறவைத்த	-13483
▁பதுங்கிய	-13484
▁பந்தாடிய	-13485
▁பயணிக்கு	-13486
▁பயிர்கள்	-13487
▁பரபரப்பை	-13488
▁பரிசீலனை	-13489
▁பரிசுடன்	-13490
▁பருவநிலை	-13491
▁பாகங்கள்	-13492
▁பாகுபாடா	-13493
▁பாதியில்	-13494
▁பாதைக்கு	-13495
▁பானங்களை	-13496
▁பாரிஸில்	-13497
▁பார்க்கி	-13498
▁பார்ட்டி	-13499
▁பார்வையி	-13500
▁பிக்சிங்	-13501
▁பின்னும்	-13502
▁பின்பற்ற	-13503
▁பியூட்டி	-13504
▁பிரசாதம்	-13505
▁பிரான்ஸை	-13506
▁பிராமணர்	-13507
▁பிரித்து	-13508
▁பிரிவினை	-13509
▁பிரிவில்	-13510
▁புதுமணப்	-13511
▁புரமோஷன்	-13512
▁புரிந்து	-13513
▁புல்கூடு	-13514
▁புள்ளையா	-13515
▁பெட்ரோலை	-13516
▁பெயிட்டி	-13517
▁பேசினேனா	-13518
▁பேசுனாரோ	-13519
▁பொதுமக்க	-13520
▁போகிறாரா	-13521
▁போர்ப்ஸ்	-13522
▁மகராஜின்	-13523
▁மகேந்திர	-13524
▁மதத்தில்	-13525
▁மதிக்காத	-13526
▁மனதுக்கு	-13527
▁மனநிலையை	-13528
▁மனைவிகள்	-13529
▁மன்னித்த	-13530
▁மழலையின்	-13531
▁மாடுபிடி	-13532
▁மாட்டாரா	-13533
▁மாணவரின்	-13534
▁மாணவியாக	-13535
▁மாதங்கள்	-13536
▁மாநாட்டை	-13537
▁மாற்றுப்	-13538
▁மாலையில்	-13539
▁மினரல்ஸ்	-13540
▁மின்வசதி	-13541
▁மிருணாள்	-13542
▁மீடூவில்	-13543
▁மீட்புப்	-13544
▁மீள்வாரா	-13545
▁முகங்கள்	-13546
▁முடிவால்	-13547
▁முதல்வரை	-13548
▁முத்திரை	-13549
▁முன்தான்	-13550
▁முன்னோடி	-13551
▁முற்றுப்	-13552
▁முழக்கம்	-13553
▁முழுபொறு	-13554
▁மூக்கில்	-13555
▁மூன்றாம்	-13556
▁மெரினாவை	-13557
▁மேரிகோம்	-13558
▁மோசமானது	-13559
▁யானையின்	-13560
▁யுனெஸ்கோ	-13561
▁ரசிகர்கள	-13562
▁ரத்தத்தை	-13563
▁ராகுலின்	-13564
▁ராஜாவின்	-13565
▁ராமாயணம்	-13566
▁ராவுக்கு	-13567
▁ரியாமிகா	-13568
▁ரீடிவிட்	-13569
▁ரூபாயும்	-13570
▁ரொமான்ஸ்	-13571
▁லட்சியம்	-13572
▁லைசென்ஸ்	-13573
▁வங்கிகளை	-13574
▁வசைபாடிய	-13575
▁வஞ்சிக்க	-13576
▁வணங்கும்	-13577
▁வந்துள்ள	-13578
▁வன்முறைய	-13579
▁வயதிலும்	-13580
▁வரலாற்றை	-13581
▁வரிசோதனை	-13582
▁வருமானம்	-13583
▁வல்லபாய்	-13584
▁வளர்ந்து	-13585
▁வளைத்தது	-13586
▁வழக்குத்	-13587
▁வாகாவில்	-13588
▁வானிலையை	-13589
▁விட்டால்	-13590
▁விட்டுக்	-13591
▁வியாதியா	-13592
▁விலைக்கே	-13593
▁வீணாகும்	-13594
▁வீதியில்	-13595
▁வெங்கையா	-13596
▁வெட்டிச்	-13597
▁வெற்றிப்	-13598
▁வெற்றிலை	-13599
▁வெளியிடு	-13600
▁வெள்ளிப்	-13601
▁வேடமிட்ட	-13602
▁வேடிக்கை	-13603
▁வேண்டுமெ	-13604
▁வைகோவின்	-13605
▁ஷாக்கிங்	-13606
▁ஸ்டாரின்	-13607
▁ஸ்ட்ரைக்	-13608
▁ஸ்மிர்தி	-13609
▁ஹெட்போன்	-13610
▁ஹெலிகேம்	-13611
க்கொண்டால்	-13612
க்கொள்வேன்	-13613
சென்னையில்	-13614
டுபட்டதால்	-13615
த்துவிட்டு	-13616
நாகசைதன்யா	-13617
ந்துவிடுமா	-13618
ன்களுக்கான	-13619
படத்திற்கு	-13620
பிக்குக்கு	-13621
பிளாஸ்டிக்	-13622
ப்படுகிறதா	-13623
ப்படுவதால்	-13624
ப்பலகையில்	-13625
ப்பிக்கும்	-13626
ப்பெரியார்	-13627
மளிக்கிறது	-13628
மாக்கினார்	-13629
ரீட்சையில்	-13630
ஸ்தம்பித்த	-13631
ஸ்வரனுக்கு	-13632
ேந்திரரின்	-13633
▁ஃபிக்ஸிங்	-13634
▁அடக்கமும்	-13635
▁அடங்கியது	-13636
▁அடித்தார்	-13637
▁அடித்துச்	-13638
▁அடுக்கும்	-13639
▁அனுபவித்த	-13640
▁அன்புக்கு	-13641
▁அமேசானின்	-13642
▁அமேசானில்	-13643
▁அமைக்கும்	-13644
▁அமைச்சராக	-13645
▁அமைப்போம்	-13646
▁அம்மாவில்	-13647
▁ஆக்ராவில்	-13648
▁ஆட்சியைக்	-13649
▁ஆட்டோவில்	-13650
▁ஆண்டர்சன்	-13651
▁ஆதங்கத்தை	-13652
▁ஆயுதப்படை	-13653
▁ஆயுஷ்மான்	-13654
▁ஆர்பிசிங்	-13655
▁ஆல்ரவுண்ட	-13656
▁ஆளுநரிடம்	-13657
▁ஆழ்துளைக்	-13658
▁இடைமறிக்க	-13659
▁இணைந்தனர்	-13660
▁இன்குலாப்	-13661
▁இன்னிங்ஸ்	-13662
▁இருக்காது	-13663
▁இருக்கார்	-13664
▁இருக்கேன்	-13665
▁இருப்பார்	-13666
▁இலவசங்களை	-13667
▁இளைஞர்களை	-13668
▁இழக்கிறது	-13669
▁உடற்கல்வி	-13670
▁உதவியாளர்	-13671
▁உயிரிழப்ப	-13672
▁உருவாகும்	-13673
▁உறவினரின்	-13674
▁உறுதிமொழி	-13675
▁ஊர்மக்கள்	-13676
▁எகிப்தில்	-13677
▁எடுத்தார்	-13678
▁எடுப்பார்	-13679
▁எண்ணினேன்	-13680
▁எண்ணூரில்	-13681
▁எதிர்கட்ச	-13682
▁என்றாலும்	-13683
▁எம்சாண்ட்	-13684
▁எம்மர்சன்	-13685
▁எல்லாரும்	-13686
▁எழுத்துத்	-13687
▁ஏமாற்றும்	-13688
▁ஒடிசாவில்	-13689
▁ஒடிஷாவில்	-13690
▁ஒட்டுக்கே	-13691
▁ஒத்தைக்கு	-13692
▁ஒருங்கிணை	-13693
▁கஅன்பழகன்	-13694
▁கங்கையின்	-13695
▁கட்டினால்	-13696
▁கணக்காளர்	-13697
▁கணக்குகளை	-13698
▁கணக்குடன்	-13699
▁கணவரையும்	-13700
▁கருத்தால்	-13701
▁கர்நாடகம்	-13702
▁கற்றுக்கொ	-13703
▁கலைந்ததாக	-13704
▁காட்சிகளை	-13705
▁காப்பாளர்	-13706
▁காய்ச்சலை	-13707
▁காரணங்கள்	-13708
▁கார்டுடன்	-13709
▁கிடக்கும்	-13710
▁கிளின்டன்	-13711
▁குடிகாரக்	-13712
▁குடும்பச்	-13713
▁குட்டிகளை	-13714
▁குண்டுகள்	-13715
▁குமரியில்	-13716
▁கும்பமேளா	-13717
▁கும்பலால்	-13718
▁குறிப்பிட	-13719
▁குற்றத்தை	-13720
▁குளத்தில்	-13721
▁குழப்பும்	-13722
▁கூட்டத்தை	-13723
▁கூலிப்படை	-13724
▁கேக்குடன்	-13725
▁கேன்சரால்	-13726
▁கேன்சரில்	-13727
▁கேளுங்கள்	-13728
▁கேள்விகள்	-13729
▁கைமாறியது	-13730
▁கையெழுத்த	-13731
▁கைவிலங்கு	-13732
▁கொசுக்கள்	-13733
▁கொடுக்குற	-13734
▁கோலிக்காக	-13735
▁கோலியிடம்	-13736
▁சங்கங்கள்	-13737
▁சடங்குகள்	-13738
▁சண்டையில்	-13739
▁சதிசெய்து	-13740
▁சாதாரணமாக	-13741
▁சாத்தனூர்	-13742
▁சாத்தியம்	-13743
▁சிக்காமல்	-13744
▁சிங்கத்தை	-13745
▁சிங்கம்டா	-13746
▁சிறப்புக்	-13747
▁சிறுமிகளை	-13748
▁சிலருக்கு	-13749
▁சுடப்பட்ட	-13750
▁சுற்றிப்ப	-13751
▁சூதாட்டப்	-13752
▁சூரசம்ஹார	-13753
▁செங்கலால்	-13754
▁செய்யலாமா	-13755
▁செய்யாதது	-13756
▁செருப்படி	-13757
▁செலுத்தத்	-13758
▁செல்லாமல்	-13759
▁செல்வராஜ்	-13760
▁சேவையாற்ற	-13761
▁சைலேந்திர	-13762
▁சொர்க்கம்	-13763
▁சொல்றீங்க	-13764
▁சொல்லுங்க	-13765
▁ஜிகேவாசன்	-13766
▁ஜெயசூர்யா	-13767
▁ஜோதிடரின்	-13768
▁டிக்கெட்ட	-13769
▁டிரெய்லர்	-13770
▁ட்விட்கள்	-13771
▁தகுதியும்	-13772
▁தடுத்தால்	-13773
▁தட்டுவார்	-13774
▁தந்தைக்கு	-13775
▁தந்தையைப்	-13776
▁தமிழ்தான்	-13777
▁தம்பதிகள்	-13778
▁தயாரிப்பு	-13779
▁தரவரிசைப்	-13780
▁தருணங்கள்	-13781
▁தற்கொலைப்	-13782
▁தற்கொலையே	-13783
▁தலைக்குள்	-13784
▁தலைமுடியை	-13785
▁தாக்கத்தை	-13786
▁தாக்கியதா	-13787
▁தாக்கியது	-13788
▁தாஜ்மஹாலை	-13789
▁தாண்டியது	-13790
▁திரில்லர்	-13791
▁திருவனந்த	-13792
▁துறந்தேன்	-13793
▁தூர்வாரிய	-13794
▁தென்மாநில	-13795
▁தெரிந்தது	-13796
▁தேசத்தின்	-13797
▁தேசப்பிதா	-13798
▁தொன்மையான	-13799
▁த்ரில்லாக	-13800
▁நசீருதின்	-13801
▁நடத்துநர்	-13802
▁நடமாட்டம்	-13803
▁நாகேஸ்வர்	-13804
▁நாடுகளில்	-13805
▁நாணயங்களை	-13806
▁நாதஸ்வரம்	-13807
▁நிபாவைரஸ்	-13808
▁நிலவேம்பு	-13809
▁நெடுமாறன்	-13810
▁நெருங்கிய	-13811
▁நேரலையில்	-13812
▁நேர்மையாக	-13813
▁பஞ்சாபில்	-13814
▁படமாகிறது	-13815
▁படைத்தவர்	-13816
▁பணமதிப்பு	-13817
▁பதிலுக்கு	-13818
▁பனிப்போர்	-13819
▁பன்னாட்டு	-13820
▁பரிசளித்த	-13821
▁பரியேறும்	-13822
▁பழமையானது	-13823
▁பாசப்போர்	-13824
▁பாம்புகள்	-13825
▁பாரபட்சம்	-13826
▁பார்லரில்	-13827
▁பிதுங்கிய	-13828
▁பிறக்கும்	-13829
▁புக்கிகள்	-13830
▁புரியாமல்	-13831
▁புறநகர்ப்	-13832
▁புறப்பட்ட	-13833
▁பூஜைக்காக	-13834
▁பூர்வகுடி	-13835
▁பெண்களும்	-13836
▁பெண்ணுடன்	-13837
▁பெய்யலாம்	-13838
▁பெறட்டுமா	-13839
▁பேசவில்லை	-13840
▁பேனருக்கு	-13841
▁பேரிழப்பு	-13842
▁பைகளுக்கு	-13843
▁பொருள்கள்	-13844
▁பொறியாளர்	-13845
▁பொறுப்பாள	-13846
▁போகாததால்	-13847
▁போட்டியாக	-13848
▁போஸ்டரில்	-13849
▁மகத்துவம்	-13850
▁மக்களவைத்	-13851
▁மங்கலதேவி	-13852
▁மணிப்பூர்	-13853
▁மதிப்பவன்	-13854
▁மதிப்பில்	-13855
▁மதிப்பீடு	-13856
▁மனமுடைந்த	-13857
▁மனைவியைக்	-13858
▁மன்னார்கு	-13859
▁மன்னித்து	-13860
▁மறக்காமல்	-13861
▁மறுவாழ்வு	-13862
▁மல்லையாவை	-13863
▁மாறுகிறது	-13864
▁மாற்றுவதை	-13865
▁மிஞ்சியது	-13866
▁மின்கசிவு	-13867
▁மின்சக்தி	-13868
▁மீன்விற்க	-13869
▁முடங்கும்	-13870
▁முதல்கட்ட	-13871
▁முதல்முறை	-13872
▁முன்னோட்ட	-13873
▁முன்வடிவு	-13874
▁முரளிதரன்	-13875
▁முறிந்தது	-13876
▁முறையிட்ட	-13877
▁முழுமையாக	-13878
▁முழுமையான	-13879
▁மெடிக்கல்	-13880
▁மெதுவாகச்	-13881
▁மேம்பாலம்	-13882
▁மைதானத்தை	-13883
▁மோடியிடம்	-13884
▁ரசிகர்களே	-13885
▁ரத்திற்கு	-13886
▁ரயிலுக்கு	-13887
▁ரஷ்யாவில்	-13888
▁ரீதியிலான	-13889
▁ரோஹிங்கிய	-13890
▁வங்கிக்கு	-13891
▁வசதியுடன்	-13892
▁வட்டியால்	-13893
▁வந்துட்டா	-13894
▁வரச்சொல்ல	-13895
▁வரிப்பணம்	-13896
▁வருவதற்கு	-13897
▁வலுக்கும்	-13898
▁வளங்களின்	-13899
▁வழிகாட்டு	-13900
▁வழித்தடம்	-13901
▁வழிபாட்டு	-13902
▁வாங்கணுமா	-13903
▁வாடகைக்கு	-13904
▁விக்ரமின்	-13905
▁விடுதலைச்	-13906
▁விருதுகளை	-13907
▁விருந்தின	-13908
▁விரைகிறது	-13909
▁விறகுக்கு	-13910
▁விற்கலாம்	-13911
▁வீசனும்னு	-13912
▁வீழ்த்தப்	-13913
▁வெற்றிபெற	-13914
▁வெளிமாநில	-13915
▁வெளியுறவு	-13916
▁வெளிவரும்	-13917
▁வேதனையில்	-13918
▁ஷாருக்கான	-13919
▁ஸ்ருதிஹாச	-13920
▁ஸ்லீப்பர்	-13921
▁ஹீரோக்கள்	-13922
க்காதீர்கள்	-13923
ச்சறுக்கில்	-13924
டுத்துங்கள்	-13925
ட்டத்திற்கு	-13926
ப்படுகிறாரா	-13927
ப்படுகிறேன்	-13928
ப்பிடித்ததை	-13929
ப்பொருட்கள்	-13930
ப்போராட்டம்	-13931
மர்த்தியமாக	-13932
மாகிவிட்டது	-13933
மாட்டார்கள்	-13934
மானவர்ஆனால்	-13935
விடாதீர்கள்	-13936
▁ஃபார்மலின்	-13937
▁அடித்ததால்	-13938
▁அதிகாரிகளே	-13939
▁அதிர்ந்தது	-13940
▁அதிர்ஷ்டம்	-13941
▁அனுபவங்கள்	-13942
▁அனுப்பியது	-13943
▁அன்னபூர்ணா	-13944
▁அம்பலமானது	-13945
▁அறக்கட்டளை	-13946
▁அறிவித்தது	-13947
▁அலுவலகத்தை	-13948
▁அவதியுறும்	-13949
▁ஆட்டத்தில்	-13950
▁ஆண்களுக்கு	-13951
▁ஆதாரமற்றது	-13952
▁ஆதிக்கத்தை	-13953
▁ஆனந்திக்கு	-13954
▁ஆய்வுக்காக	-13955
▁ஆர்எஸ்எஸ்ஐ	-13956
▁ஆவேசமடைந்த	-13957
▁இந்தோனேசிய	-13958
▁இன்ஃபோசிஸ்	-13959
▁இன்சூரன்ஸ்	-13960
▁இயக்கினேன்	-13961
▁இருந்ததைப்	-13962
▁இறந்துவிடு	-13963
▁இலங்கைக்கு	-13964
▁இளவரசிக்கு	-13965
▁இழுபறிக்கு	-13966
▁உங்களுக்கு	-13967
▁உச்சவரம்பை	-13968
▁உணர்த்தும்	-13969
▁உணர்ந்தால்	-13970
▁உன்னாலதான்	-13971
▁உயர்வுக்கு	-13972
▁உருவாகிறது	-13973
▁உறுப்பினரை	-13974
▁உறுப்புகள்	-13975
▁உற்சாகமாய்	-13976
▁உள்ளவர்கள்	-13977
▁ஊக்குவிக்க	-13978
▁ஊதியத்தில்	-13979
▁எதிர்த்தது	-13980
▁எஸ்சிஎஸ்டி	-13981
▁ஏராளமானோர்	-13982
▁ஏழைகளுக்கே	-13983
▁ஒதுங்கியது	-13984
▁ஒப்பந்ததார	-13985
▁ஓபிஎஸ்க்கு	-13986
▁கடைக்காரர்	-13987
▁கடைபிடிக்க	-13988
▁கட்சிகளும்	-13989
▁கட்சியுடன்	-13990
▁கட்டத்தில்	-13991
▁கட்டுங்கள்	-13992
▁கணக்கிற்கு	-13993
▁கணவர்களின்	-13994
▁கண்டறியும்	-13995
▁கதாசிரியர்	-13996
▁கன்ஃபார்ம்	-13997
▁கருதுகிறது	-13998
▁கலைஞருக்கு	-13999
▁கவலைப்படாத	-14000
▁காட்டாற்று	-14001
▁காணாமல்போன	-14002
▁காதுக்குள்	-14003
▁காப்பாற்றி	-14004
▁காயத்துடன்	-14005
▁காலவரையற்ற	-14006
▁காவிரிக்கு	-14007
▁கிருபாகரன்	-14008
▁குரங்குகள்	-14009
▁குவிப்பில்	-14010
▁கூடங்குளம்	-14011
▁கூறிவிட்டு	-14012
▁கூறுகிறார்	-14013
▁கெஜ்ரிவாலை	-14014
▁கேசிவீரமணி	-14015
▁கேப்டன்களை	-14016
▁கேரளாஇன்று	-14017
▁கைவிரிப்பு	-14018
▁கொடுக்குமா	-14019
▁கொடுத்ததாக	-14020
▁கொடுத்தோம்	-14021
▁கொம்புவச்ச	-14022
▁கோப்பையில்	-14023
▁சடங்கிற்கு	-14024
▁சம்மதத்துட	-14025
▁சர்ச்சைகள்	-14026
▁சர்ச்சையான	-14027
▁சாதிக்கும்	-14028
▁சாப்ட்வேர்	-14029
▁சாப்பிடும்	-14030
[...]
